{
  "version": "1.0",
  "truncation": null,
  "padding": null,
  "added_tokens": [
    {
      "id": 0,
      "content": "<s>",
      "single_word": false,
      "lstrip": false,
      "rstrip": false,
      "normalized": false,
      "special": true
    },
    {
      "id": 1,
      "content": "<pad>",
      "single_word": false,
      "lstrip": false,
      "rstrip": false,
      "normalized": false,
      "special": true
    },
    {
      "id": 2,
      "content": "</s>",
      "single_word": false,
      "lstrip": false,
      "rstrip": false,
      "normalized": false,
      "special": true
    },
    {
      "id": 3,
      "content": "<unk>",
      "single_word": false,
      "lstrip": false,
      "rstrip": false,
      "normalized": false,
      "special": true
    },
    {
      "id": 4,
      "content": "<mask>",
      "single_word": false,
      "lstrip": false,
      "rstrip": false,
      "normalized": false,
      "special": true
    }
  ],
  "normalizer": null,
  "pre_tokenizer": {
    "type": "ByteLevel",
    "add_prefix_space": false,
    "trim_offsets": true,
    "use_regex": true
  },
  "post_processor": {
    "type": "ByteLevel",
    "add_prefix_space": true,
    "trim_offsets": false,
    "use_regex": true
  },
  "decoder": {
    "type": "ByteLevel",
    "add_prefix_space": true,
    "trim_offsets": true,
    "use_regex": true
  },
  "model": {
    "type": "BPE",
    "dropout": null,
    "unk_token": null,
    "continuing_subword_prefix": null,
    "end_of_word_suffix": null,
    "fuse_unk": false,
    "byte_fallback": false,
    "vocab": {
      "<s>": 0,
      "<pad>": 1,
      "</s>": 2,
      "<unk>": 3,
      "<mask>": 4,
      "!": 5,
      "\"": 6,
      "#": 7,
      "$": 8,
      "%": 9,
      "&": 10,
      "'": 11,
      "(": 12,
      ")": 13,
      "*": 14,
      "+": 15,
      ",": 16,
      "-": 17,
      ".": 18,
      "/": 19,
      "0": 20,
      "1": 21,
      "2": 22,
      "3": 23,
      "4": 24,
      "5": 25,
      "6": 26,
      "7": 27,
      "8": 28,
      "9": 29,
      ":": 30,
      ";": 31,
      "<": 32,
      "=": 33,
      ">": 34,
      "?": 35,
      "@": 36,
      "A": 37,
      "B": 38,
      "C": 39,
      "D": 40,
      "E": 41,
      "F": 42,
      "G": 43,
      "H": 44,
      "I": 45,
      "J": 46,
      "K": 47,
      "L": 48,
      "M": 49,
      "N": 50,
      "O": 51,
      "P": 52,
      "Q": 53,
      "R": 54,
      "S": 55,
      "T": 56,
      "U": 57,
      "V": 58,
      "W": 59,
      "X": 60,
      "Y": 61,
      "Z": 62,
      "[": 63,
      "\\": 64,
      "]": 65,
      "^": 66,
      "_": 67,
      "`": 68,
      "a": 69,
      "b": 70,
      "c": 71,
      "d": 72,
      "e": 73,
      "f": 74,
      "g": 75,
      "h": 76,
      "i": 77,
      "j": 78,
      "k": 79,
      "l": 80,
      "m": 81,
      "n": 82,
      "o": 83,
      "p": 84,
      "q": 85,
      "r": 86,
      "s": 87,
      "t": 88,
      "u": 89,
      "v": 90,
      "w": 91,
      "x": 92,
      "y": 93,
      "z": 94,
      "{": 95,
      "|": 96,
      "}": 97,
      "~": 98,
      "¡": 99,
      "¢": 100,
      "£": 101,
      "¤": 102,
      "¥": 103,
      "¦": 104,
      "§": 105,
      "¨": 106,
      "©": 107,
      "ª": 108,
      "«": 109,
      "¬": 110,
      "®": 111,
      "¯": 112,
      "°": 113,
      "±": 114,
      "²": 115,
      "³": 116,
      "´": 117,
      "µ": 118,
      "¶": 119,
      "·": 120,
      "¸": 121,
      "¹": 122,
      "º": 123,
      "»": 124,
      "¼": 125,
      "½": 126,
      "¾": 127,
      "¿": 128,
      "À": 129,
      "Á": 130,
      "Â": 131,
      "Ã": 132,
      "Ä": 133,
      "Å": 134,
      "Æ": 135,
      "Ç": 136,
      "È": 137,
      "É": 138,
      "Ê": 139,
      "Ë": 140,
      "Ì": 141,
      "Í": 142,
      "Î": 143,
      "Ï": 144,
      "Ð": 145,
      "Ñ": 146,
      "Ò": 147,
      "Ó": 148,
      "Ô": 149,
      "Õ": 150,
      "Ö": 151,
      "×": 152,
      "Ø": 153,
      "Ù": 154,
      "Ú": 155,
      "Û": 156,
      "Ü": 157,
      "Ý": 158,
      "Þ": 159,
      "ß": 160,
      "à": 161,
      "á": 162,
      "â": 163,
      "ã": 164,
      "ä": 165,
      "å": 166,
      "æ": 167,
      "ç": 168,
      "è": 169,
      "é": 170,
      "ê": 171,
      "ë": 172,
      "ì": 173,
      "í": 174,
      "î": 175,
      "ï": 176,
      "ð": 177,
      "ñ": 178,
      "ò": 179,
      "ó": 180,
      "ô": 181,
      "õ": 182,
      "ö": 183,
      "÷": 184,
      "ø": 185,
      "ù": 186,
      "ú": 187,
      "û": 188,
      "ü": 189,
      "ý": 190,
      "þ": 191,
      "ÿ": 192,
      "Ā": 193,
      "ā": 194,
      "Ă": 195,
      "ă": 196,
      "Ą": 197,
      "ą": 198,
      "Ć": 199,
      "ć": 200,
      "Ĉ": 201,
      "ĉ": 202,
      "Ċ": 203,
      "ċ": 204,
      "Č": 205,
      "č": 206,
      "Ď": 207,
      "ď": 208,
      "Đ": 209,
      "đ": 210,
      "Ē": 211,
      "ē": 212,
      "Ĕ": 213,
      "ĕ": 214,
      "Ė": 215,
      "ė": 216,
      "Ę": 217,
      "ę": 218,
      "Ě": 219,
      "ě": 220,
      "Ĝ": 221,
      "ĝ": 222,
      "Ğ": 223,
      "ğ": 224,
      "Ġ": 225,
      "ġ": 226,
      "Ģ": 227,
      "ģ": 228,
      "Ĥ": 229,
      "ĥ": 230,
      "Ħ": 231,
      "ħ": 232,
      "Ĩ": 233,
      "ĩ": 234,
      "Ī": 235,
      "ī": 236,
      "Ĭ": 237,
      "ĭ": 238,
      "Į": 239,
      "į": 240,
      "İ": 241,
      "ı": 242,
      "Ĳ": 243,
      "ĳ": 244,
      "Ĵ": 245,
      "ĵ": 246,
      "Ķ": 247,
      "ķ": 248,
      "ĸ": 249,
      "Ĺ": 250,
      "ĺ": 251,
      "Ļ": 252,
      "ļ": 253,
      "Ľ": 254,
      "ľ": 255,
      "Ŀ": 256,
      "ŀ": 257,
      "Ł": 258,
      "ł": 259,
      "Ń": 260,
      "ħÙ": 261,
      "ÙħÙ": 262,
      "ÙĤ": 263,
      "±Ø": 264,
      "Ø±Ø": 265,
      "Ùĥ": 266,
      "Ø£": 267,
      "Ùħ": 268,
      "ØŃ": 269,
      "ĨØ": 270,
      "¨Ø": 271,
      "ªØ": 272,
      "ĪÙ": 273,
      "ĬÙ": 274,
      "Ø¨Ø": 275,
      "ÙĪÙ": 276,
      "Ø§": 277,
      "ØªØ": 278,
      "ÙĬÙ": 279,
      "ÙĨØ": 280,
      "Ø¬": 281,
      "¹Ù": 282,
      "ĠØ§": 283,
      "ĦØ§": 284,
      "ĠØ£": 285,
      "ĦØ": 286,
      "ģÙ": 287,
      "ØĮ": 288,
      "ĠØĮ": 289,
      "ĪØ§": 290,
      "ÙģÙ": 291,
      "Ø¹Ù": 292,
      "ĦÙħ": 293,
      "ªÙ": 294,
      "ĠÙħ": 295,
      "ĠÙħÙ": 296,
      "±Ù": 297,
      "ÙĦÙħ": 298,
      "Ġ.": 299,
      "ÙĦØ§": 300,
      "ÙĪØ§": 301,
      "Ø±Ù": 302,
      "ÙĪ": 303,
      "ĠÙĪ": 304,
      "ĠÙģÙ": 305,
      "Ùī": 306,
      "¹Ø": 307,
      "ĠØ§Ù": 308,
      "ĠØ§ÙĦØ": 309,
      "ÙĤØ": 310,
      "¨Ù": 311,
      "ĨÙ": 312,
      "Ø±Ø§": 313,
      "ØŃØ": 314,
      "ĠÙģÙĬ": 315,
      "ĠØ¨Ø": 316,
      "ĠØ§ÙĦÙħ": 317,
      "ĠØ¹Ù": 318,
      "Ø®": 319,
      "ĩØ§": 320,
      "ĦÙī": 321,
      "Øµ": 322,
      "ĠÙħÙĨ": 323,
      "ĬØ§": 324,
      "Ø·": 325,
      "Ø¥": 326,
      "ĠÙĪØ§": 327,
      "ÙħØ§": 328,
      "Ø´": 329,
      "ØªÙ": 330,
      "¯Ù": 331,
      "ÙĨ": 332,
      "Ø°": 333,
      "¯Ø": 334,
      "ĦØ£": 335,
      "ĠØ¥": 336,
      "Ø¹Ø": 337,
      "Ø²": 338,
      "Ø¨Ù": 339,
      "³Ù": 340,
      "ĠØªØ": 341,
      "¹Ø§": 342,
      "ĠÙĥ": 343,
      "ģØ": 344,
      "ÙĨØ§": 345,
      "Ø±ÙĬ": 346,
      "ĦÙħÙ": 347,
      "ÙĨÙ": 348,
      "ÙĪØ": 349,
      "ĦÙĥ": 350,
      "ÙĬÙĨ": 351,
      "Ø«": 352,
      "ĠØ§ÙĦØ£": 353,
      "ĠÙĪÙ": 354,
      "ĠÙĪØ§Ù": 355,
      "¯Ø§": 356,
      "³Ø": 357,
      "Ø¡": 358,
      "ĠÙħØ": 359,
      "ÙĤØ§": 360,
      "Ø±Ø©": 361,
      "Ø¦": 362,
      "ĠØ¹ÙĦÙī": 363,
      "Ø¶": 364,
      "ÙĤÙ": 365,
      "¯ÙĬ": 366,
      "³Ø§": 367,
      "ĠØ§ÙĦÙħÙ": 368,
      "ÙĪÙĦ": 369,
      "ĠØ§ÙĦØ§": 370,
      "Ø¨Ø§": 371,
      "ĠØ¨Ø§": 372,
      "Ø¯Ø": 373,
      "ĠØŃ": 374,
      "Ø³Ø": 375,
      "ĠØ¬": 376,
      "ÙģØ": 377,
      "Ø³Ù": 378,
      "ÙĬØ§": 379,
      "ĦØªØ": 380,
      "ĠØ£ÙĨ": 381,
      "ÙĪÙĨ": 382,
      "ĦØ©": 383,
      "ĦØ¬": 384,
      "ĦÙ": 385,
      "ÙĦÙ": 386,
      "ĠÙĦÙ": 387,
      "ĠØ§ÙĦÙ": 388,
      "ĦØŃ": 389,
      "ĩÙħ": 390,
      "ģØ§": 391,
      "Ġ\"": 392,
      "Øº": 393,
      "ĠØ¥Ù": 394,
      "Ø¯Ø§": 395,
      "±Ùĥ": 396,
      "ĩØ°": 397,
      "ÙħÙĬ": 398,
      "ĠØ®": 399,
      "ĠØ´": 400,
      "ĦÙĬÙ": 401,
      "ĠØ¨Ù": 402,
      "ĠÙĪØ§ÙĦØ": 403,
      "Ø¹Ø§": 404,
      "ÙĦÙĥ": 405,
      "ĠØ§ÙĦØªÙ": 406,
      "ĩØ": 407,
      "³ØªØ": 408,
      "Ø±Ø§Ø": 409,
      "ĠØ§ÙĦØ¬": 410,
      "ÙĨÙĬ": 411,
      "ĠØ¥ÙĦÙī": 412,
      "Ø¯ÙĬ": 413,
      "ĠØ§ÙĦØ´": 414,
      "ĠØ§ÙĦØ¥": 415,
      "ĦÙĪ": 416,
      "ÙĦÙĬ": 417,
      "ÙĤØ¯": 418,
      "ÙĩØ°": 419,
      "ĦÙĬ": 420,
      "Ø¬Ù": 421,
      "ĠØ¨Ø§Ù": 422,
      "ĠÙĪØ": 423,
      "ĠØ§ÙĦØŃ": 424,
      "ĠØ§ÙĦÙħØ": 425,
      "ĠØ§ÙĦØªØ": 426,
      "ĠÙĩØ°": 427,
      "Ø±ÙĬØ": 428,
      "ĩÙ": 429,
      "ªÙħ": 430,
      "Ø¬Ø": 431,
      "Ø§ÙĨ": 432,
      "ĠÙĦØ§": 433,
      "Ø¨ÙĬ": 434,
      "ĠÙħØ§": 435,
      "ĠØµ": 436,
      "Ġ:": 437,
      "ĠÙĨØ": 438,
      "Ø¯Ø©": 439,
      "ØŃØ§": 440,
      "ĠØ¹ÙĨ": 441,
      "ĠØ§ÙĦØ¹": 442,
      "Ø³ÙĬ": 443,
      "ÙĤÙĬ": 444,
      "ĠØŃØ": 445,
      "ĨÙĬ": 446,
      "ĠØ±Ø": 447,
      "ÙĪÙĬ": 448,
      "ÙĤØ©": 449,
      "Ø³ØªØ": 450,
      "ÙħÙĦ": 451,
      "ÙĥÙ": 452,
      "¨ÙĬ": 453,
      "ĠØ§ÙĦØ³": 454,
      "ĠØªÙ": 455,
      "ÙħÙĬØ": 456,
      "Ø±ÙĪ": 457,
      "ĠØ§ÙĦØªÙĬ": 458,
      "ĠØ§ÙĦØ®": 459,
      "ĠÙĬÙ": 460,
      "ĨØ§": 461,
      "Ø¨Ø©": 462,
      "ĠØ§ÙĦØ°": 463,
      "ĠØ§ÙĦØ¯": 464,
      "ĦÙĤ": 465,
      "ĠÙħØ¹": 466,
      "ĠØ§ÙĦÙĥ": 467,
      "ĦÙĩ": 468,
      "ĠØ§ÙĦØµ": 469,
      "Ø¹Ø©": 470,
      "ĩÙĬ": 471,
      "ĦÙĨØ": 472,
      "ĠØ·": 473,
      "Ġ1": 474,
      "ĠØ£ÙĪ": 475,
      "ÙħÙĨ": 476,
      "ĠØ¹Ø": 477,
      "ÙĩØ§": 478,
      "ªØŃ": 479,
      "Ġ)": 480,
      "Ø³Ø§": 481,
      "Ø±Ùĥ": 482,
      "ĦØŃØ": 483,
      "ĬÙĨ": 484,
      "ĦØ±Ø": 485,
      "ÙĩØ": 486,
      "ªÙĥ": 487,
      "ĩÙĪ": 488,
      "ÙģÙĬ": 489,
      "ĠÙĦÙĦØ": 490,
      "Ġ(": 491,
      "ØªØ§": 492,
      "ĠÙĪØ£": 493,
      "ĠØ¨Ø¹Ø": 494,
      "ÙĥØ": 495,
      "Ø±ÙĬØ©": 496,
      "ĠØ§ÙĦØ¹Ø§": 497,
      "Ġ2": 498,
      "Ø±Ø§Øª": 499,
      "Ø¹ÙĬ": 500,
      "ĠØ£Ù": 501,
      "ØµØ": 502,
      "ĠØ°": 503,
      "ĠÙĨ": 504,
      "Ø¦Ù": 505,
      "ĠÙĤØ": 506,
      "ªØŃØ": 507,
      "ÙĬÙĦ": 508,
      "ÙģØ§": 509,
      "ĠÙĦÙħ": 510,
      "¯Ø©": 511,
      "Ø¨Ø§Ø": 512,
      "ÙĪØ±": 513,
      "ØŃÙ": 514,
      "ĠØº": 515,
      "Ø«Ù": 516,
      "ÙĤØ§Ù": 517,
      "ÙĨØª": 518,
      "âĢ": 519,
      "ÙĨÙĩ": 520,
      "ÙĬØ§Ø": 521,
      "¬Ø§": 522,
      "ĠâĢ": 523,
      "ÙħØ§Ø": 524,
      "ØµÙ": 525,
      "¨ÙĬÙĨ": 526,
      "ĦØ¨Ø": 527,
      "ĠÙĩØ°Ø§": 528,
      "ÙĦØ§Ø": 529,
      "Ø§Ø¡": 530,
      "ĠØ§ÙĦÙĪ": 531,
      "ĠÙĤ": 532,
      "Ø±Ø¶": 533,
      "ĠØ§ÙĦØ·": 534,
      "ĠØ¹Ø§": 535,
      "ØªÙĩ": 536,
      "ĠØ§ÙĦØ±Ø": 537,
      "ĠØ¨Ø§ÙĦØ": 538,
      "ĠÂ": 539,
      "ÙĦØ§Ù": 540,
      "Ø²Ù": 541,
      "Ø¦Ø": 542,
      "ģÙĬÙ": 543,
      "ØªÙħ": 544,
      "ÙĨÙĬØ": 545,
      "ĠØ§ÙĦØ°Ù": 546,
      "Ø´Ø§": 547,
      "Ø¬Ø§": 548,
      "Ø±Ø¬": 549,
      "ĠØ§ÙĦÙĦÙĩ": 550,
      "ÙħÙĪ": 551,
      "ĠØ§ÙĦØ³Ù": 552,
      "ĠØ§ÙĦØ°ÙĬ": 553,
      "ÙĪØ§Ø": 554,
      "ÙĦÙĬØ": 555,
      "ÙĪÙħ": 556,
      "Ø¶Ø§": 557,
      "Ø²Ø§": 558,
      "Ø¯Ù": 559,
      "ÙĨØ©": 560,
      "ĦØª": 561,
      "ĦÙĨ": 562,
      "Ø¯ÙĬØ": 563,
      "ĠÙĩØ°Ù": 564,
      "Ø³Øª": 565,
      "ĠÙĩØ°Ùĩ": 566,
      "ÙĨÙĬØ©": 567,
      "ÙĦØ©": 568,
      "ĦÙĤØ": 569,
      "Ø±Ø¨": 570,
      "¨ÙĬØ": 571,
      "¯Ùħ": 572,
      "ĠØ§ÙĦÙĨØ": 573,
      "ĠØ£Ø": 574,
      "ÙģØ©": 575,
      "ĠÙħÙĨØ": 576,
      "Ø§Ùħ": 577,
      "Ġ,": 578,
      "ÙħÙĥ": 579,
      "ĠÙĥÙ": 580,
      "ĠÙĪÙĬ": 581,
      "Ø®Ù": 582,
      "¯ÙĬÙ": 583,
      "ĠØ«": 584,
      "ÙĪÙĬØ": 585,
      "ØªÙĬ": 586,
      "ĦØ¨": 587,
      "ĠÙĥØ§": 588,
      "ØªÙĪ": 589,
      "ĠØ§ÙĦØ«": 590,
      "ĠØ§ÙĦØŃØ": 591,
      "ÙĨØ§Ø": 592,
      "ĠØ§ÙĦØª": 593,
      "Ø²ÙĬ": 594,
      "ÙĤØ§ÙĦ": 595,
      "ÙĦÙĬØ©": 596,
      "ĠØ¹ÙĦÙĬÙ": 597,
      "Ø¨Ø±": 598,
      "ĬØ§Ø": 599,
      "Ø°Ø§": 600,
      "Ġ-": 601,
      "ĦØ³": 602,
      "µØ§": 603,
      "ÙĩÙĬ": 604,
      "Ø¨ÙĬÙĨ": 605,
      "ÙħÙĬØ©": 606,
      "ĠØ§ÙĦØ¨Ø": 607,
      "ÙĥØ§": 608,
      "ĠØ§ÙĦÙĤ": 609,
      "ĠØ§ÙĦØ¹Ø": 610,
      "ÙģÙĬÙ": 611,
      "ÙĨØ¯": 612,
      "Ø«Ø": 613,
      "ĠÙĪØªØ": 614,
      "Ø¨ÙĬØ": 615,
      "ÙĥÙĦ": 616,
      "ØŃØ©": 617,
      "ĠØ§ÙĨ": 618,
      "ĠÙĪÙħ": 619,
      "ÙĦØ§ÙĦ": 620,
      "ĠØ§ÙĦÙģ": 621,
      "ĦÙĤØ§": 622,
      "ØŃÙĬ": 623,
      "ÙĨÙĩØ§": 624,
      "³ÙĬ": 625,
      "Ø·Ù": 626,
      "ĠÙĦÙĥ": 627,
      "ÙĪØ¯": 628,
      "ģÙĬ": 629,
      "Ø±Ø§Ø¡": 630,
      "ĪÙħ": 631,
      "ĠÙĥØ§ÙĨ": 632,
      "ĠÙĥÙĦ": 633,
      "ĠØ¨ÙĬÙĨ": 634,
      "Ø·Ø§": 635,
      "¦Ù": 636,
      "ØµØ§": 637,
      "ĠØ£ÙĬ": 638,
      "ĠØ¨Ø¹Ø¯": 639,
      "ĠØ§ÙĦØ¨": 640,
      "ÙĩÙĪ": 641,
      "¨Ø§": 642,
      "·Ø§": 643,
      "µÙ": 644,
      "ĨÙĬØ": 645,
      "¦ÙĬ": 646,
      "ÙĪÙĦÙ": 647,
      "ĠØ¶": 648,
      "ĨÙĩ": 649,
      "ÙĦØ£": 650,
      "Ø±Ùģ": 651,
      "Ø±Ùī": 652,
      "¨Ø£": 653,
      "Ø®Ø": 654,
      "ĠÙģÙĬÙ": 655,
      "ĠØ°ÙĦÙĥ": 656,
      "µØ": 657,
      "ĠØŃÙ": 658,
      "Ø¢": 659,
      "ĠÙģØ": 660,
      "ĠÙħÙĪ": 661,
      "Ø·Ø": 662,
      "ØªÙĩØ§": 663,
      "ÙĨØªØ": 664,
      "¯ÙĬØ": 665,
      "¨ÙĬØ©": 666,
      "ĨÙĬØ©": 667,
      "ØŁ": 668,
      "ĠØŁ": 669,
      "Ġ20": 670,
      "ÙĤØ¹": 671,
      "ØŃÙħ": 672,
      "Ø¹ÙĬØ": 673,
      "·Ø": 674,
      "ĠÙĩÙĪ": 675,
      "ÙĥÙħ": 676,
      "ÙĪÙĦØ©": 677,
      "Ø¨Ø£": 678,
      "Ø¸": 679,
      "ĠØ¨Ø£": 680,
      "ĠÙĤØ¯": 681,
      "Ø¹ÙĪ": 682,
      "ÙĬÙģ": 683,
      "ĠØ§ÙĦÙĤØ": 684,
      "ĠØŃØ§": 685,
      "ĠØ§ÙĦØ¹Ù": 686,
      "³Ø§Ø": 687,
      "ĬÙĥ": 688,
      "Ø³ÙĬØ": 689,
      "ØŃØ¯": 690,
      "ĠØ§ÙĦÙħÙĨØ": 691,
      "ĠØ¢": 692,
      "ĠÙĤØ§": 693,
      "ĠÙĦØ£": 694,
      "ÙĪÙĦØ§": 695,
      "¨ÙĦ": 696,
      "ĨØ©": 697,
      "ÙħØ§Ù": 698,
      "ÙĬØ§Øª": 699,
      "ĠØ§Ø": 700,
      "ØŃÙħØ": 701,
      "ĠÙĪØ§ÙĦÙħ": 702,
      "ÙħØ§Øª": 703,
      "¶Ù": 704,
      "ĦÙģÙ": 705,
      "Ø²Ø": 706,
      "ĠÙĦÙĬ": 707,
      "±ÙĤ": 708,
      "ĠØ®ÙĦØ§ÙĦ": 709,
      "ĠØ§ÙĦÙħØ§": 710,
      "Ø±Øª": 711,
      "Ø«Ø±": 712,
      "ØªØŃØ": 713,
      "ØªÙĥ": 714,
      "Ø±Ùĩ": 715,
      "¹Ùħ": 716,
      "ĠØ³Ù": 717,
      "ÙĥÙĬ": 718,
      "´Ø": 719,
      "ØªØŃ": 720,
      "Ø«ÙĬ": 721,
      "Ø±ÙĩØ§": 722,
      "ÙĤÙĬØ": 723,
      "ĨÙĩØ§": 724,
      "ØŃÙħØ¯": 725,
      "Ø±ØŃ": 726,
      "ĬØ§Øª": 727,
      "Ø¦ÙĬ": 728,
      "ĦÙĬØ": 729,
      "ģØ©": 730,
      "¦ÙĬØ": 731,
      "ĪÙĨ": 732,
      "³Ùħ": 733,
      "ĠÙģÙī": 734,
      "Ø¨Ø§Øª": 735,
      "Ø±ÙĥØ": 736,
      "Ø¯Ùħ": 737,
      "ÙĤÙĦ": 738,
      "ÙĦÙħÙ": 739,
      "ªÙĩ": 740,
      "ÙĩØ±": 741,
      "¦ÙĬØ³": 742,
      "ÙĦØ¨": 743,
      "ÙĦØ§Øª": 744,
      "ÙĬÙĥ": 745,
      "¹ÙħÙĦ": 746,
      "ĠØ¥ÙĨ": 747,
      "ªÙĬ": 748,
      "ÙħÙĥÙĨ": 749,
      "Ø¨Ø¯": 750,
      "ĠØ§ÙĦÙĬÙ": 751,
      "ĦØº": 752,
      "ĦØ¯": 753,
      "ĠØ¨ÙĨ": 754,
      "¶Ø§": 755,
      "ĠØŃÙĬ": 756,
      "ÙĪÙī": 757,
      "ÙĪÙģ": 758,
      "ĠØ§ÙĦÙī": 759,
      "ªÙī": 760,
      "ĠÂ»": 761,
      "ÙĥØ±": 762,
      "ÙĤØª": 763,
      "ĦÙģØ": 764,
      "ĠÙĪØ¥": 765,
      "ĠØ§ÙĦÙĨ": 766,
      "ĠâĢĿ": 767,
      "¹Ø©": 768,
      "ĠØªØŃØ": 769,
      "Ø¶Ù": 770,
      "Ø¹ÙĬØ©": 771,
      "Ø²ÙĬØ": 772,
      "ĠØ£Ùĥ": 773,
      "ªØ£": 774,
      "¨ÙĪ": 775,
      "¸Ø": 776,
      "Ø¯Ø§Ø": 777,
      "ĦÙĨØ§": 778,
      "ĠÙĥÙħØ§": 779,
      "ĠÙħÙĤ": 780,
      "ĠÙĪÙĦØ§": 781,
      "ÙĬÙĬÙĨ": 782,
      "ĦÙĪØ": 783,
      "ĠØ§ÙĦØº": 784,
      "Ø±ÙĪØ": 785,
      "ĩÙĨØ§": 786,
      "ĠØ§Ø³ØªØ": 787,
      "Ø¹Ø§Ø": 788,
      "ÙĪÙĦÙĬ": 789,
      "ĠÙĪÙĥ": 790,
      "Ø´Ù": 791,
      "ĠØ§ÙĦÙħÙĤ": 792,
      "ĠØ§ÙĦØ¹Ø§Ùħ": 793,
      "ĠØ²": 794,
      "ĠØªØŃ": 795,
      "ĠØ³ÙĬ": 796,
      "ĠÙĩÙĬ": 797,
      "ĠÂ«": 798,
      "ĠÙģØ§": 799,
      "ØµÙĦ": 800,
      "ÙĪØ§Øª": 801,
      "ĠÙĬÙĥ": 802,
      "ĠØ®Ø§": 803,
      "ĠØ¹ÙĦÙĬÙĩ": 804,
      "ÙĨÙģØ": 805,
      "ĠØŃÙĬØ«": 806,
      "ÙħØ§ÙĦ": 807,
      "´Ø§": 808,
      "ªÙħØ§": 809,
      "ĠØ§ÙĦØ²": 810,
      "ØŃØ§Ø": 811,
      "ĬÙħ": 812,
      "ĦÙĪØ§": 813,
      "³Ùĥ": 814,
      "ĠØ§ÙĦÙħÙĪ": 815,
      "ÙĪØ±Ø©": 816,
      "ĠØªÙĥ": 817,
      "ĠØºÙ": 818,
      "Ø¶ÙĬ": 819,
      "ĠØ§ÙĦÙģÙ": 820,
      "ĠØ³Ø§": 821,
      "Ø¯ÙĬØ©": 822,
      "Ø¹Ø¯": 823,
      "Ø®Ø±": 824,
      "Ø±ÙĥØ©": 825,
      "ÙĤØ§Ø": 826,
      "¹ÙĨØ¯": 827,
      "ªÙĤ": 828,
      "Ø±Ø¨Ø": 829,
      "Ġ3": 830,
      "ÙģÙĬØ": 831,
      "Ø±Ø¯": 832,
      "·Ù": 833,
      "ĠØ¯Ø§": 834,
      "¨Ùħ": 835,
      "Ø¬Ùĩ": 836,
      "ØµØ±": 837,
      "ĠØºÙĬ": 838,
      "¨ÙĤ": 839,
      "ĠØ§ÙĦÙĤØ§": 840,
      "Ø¶Ø": 841,
      "ĠØªÙħ": 842,
      "Ø³Ø©": 843,
      "ĠØ§ÙĦØ¢": 844,
      "Ø±Ø¨ÙĬØ©": 845,
      "ÙĦØªØ": 846,
      "ĠØ¨Ø´": 847,
      "ØµØ©": 848,
      "ØºÙ": 849,
      "ÙĦØ§Ùħ": 850,
      "¹ØªØ": 851,
      "ĩÙĦ": 852,
      "Ø¨Ùħ": 853,
      "ĠÙħØ³Ø": 854,
      "ÙħÙĩ": 855,
      "ĠØ¨Ùħ": 856,
      "Ø±ÙĬÙĤ": 857,
      "ÙĪØ¹": 858,
      "ªØ±Ø§": 859,
      "¸Ø§": 860,
      "ÙĪÙĬØ©": 861,
      "ĠØŃØªÙī": 862,
      "ĬØ±Ø§": 863,
      "ĠÙĤØ¨ÙĦ": 864,
      "ÙĬÙĩ": 865,
      "Ø«ÙĦ": 866,
      "ÙĬÙĪ": 867,
      "Ø´Ø": 868,
      "ØªØµØ§": 869,
      "ÙħÙĬÙĨ": 870,
      "¯Ø¯": 871,
      "ĠØ§ÙĦØŃØ§": 872,
      "Ø¬ÙĬ": 873,
      "ĠØ§ÙĦØ®Ø§": 874,
      "Ø®ØªÙ": 875,
      "ĦÙĦÙħ": 876,
      "²Ù": 877,
      "³Ø¨Ø": 878,
      "ĠØ§ÙĦØ£Ùħ": 879,
      "ĠØ£Ùħ": 880,
      "ªÙĨØ": 881,
      "ĠÙĦÙĩ": 882,
      "ÙĩÙĨØ§": 883,
      "Ø³ÙĬØ©": 884,
      "Ø®Ø§": 885,
      "ĠÙĪØ³": 886,
      "ĦÙĦØ§": 887,
      "Ø¹ÙĨØ¯": 888,
      "ĬØªØ": 889,
      "ĠâĢľ": 890,
      "ÙĦÙĦÙħ": 891,
      "Ø²Ø©": 892,
      "ĠÙĦÙĦÙħ": 893,
      "Ø¹ÙĦØ§": 894,
      "ĠØ£ÙĨÙĩ": 895,
      "ģØ§Ø": 896,
      "ªÙħØ": 897,
      "ÙĨØ§Ø¡": 898,
      "Ø¦Ø©": 899,
      "¨ØŃ": 900,
      "Ø¹Ø§Øª": 901,
      "¯Ø§Ø": 902,
      "ÙĦÙģ": 903,
      "ÙħÙĬÙ": 904,
      "Ø±Ø§Ø¦": 905,
      "Ġ!": 906,
      "ªÙĩØ§": 907,
      "ĦÙĬØ©": 908,
      "ĠØ§ÙĦØ§Ø": 909,
      "ĬÙħÙĥÙĨ": 910,
      "ĠØ§ÙĦØ£Ø": 911,
      "ÙĬÙħÙĥÙĨ": 912,
      "ĠÙĩÙĨØ§": 913,
      "Ø¨ÙĬØ©": 914,
      "±ÙĬ": 915,
      "ĠØ¹ÙĦÙĬ": 916,
      "ĠØªÙĪ": 917,
      "ĠØ§ÙĦØ³ÙĬØ§": 918,
      "´Ø±": 919,
      "³ÙĨ": 920,
      "ĠØ¹ÙĨØ¯": 921,
      "ÙĦÙī": 922,
      "Ø¯Ø±": 923,
      "ÙĬØªØ": 924,
      "ÙĦÙĩ": 925,
      "¹ÙħÙ": 926,
      "ĠØ§ÙĦØ¥Ø": 927,
      "Ø¹Ø±": 928,
      "¯Ø«": 929,
      "ÙħÙĬØ¹": 930,
      "ĠØ£Ø®": 931,
      "ÙĤÙĬØ©": 932,
      "ĠØ¹Ø§Ùħ": 933,
      "Ø±Ø§Ø±": 934,
      "ÙĦØŃ": 935,
      "·Ø©": 936,
      "ĠÙħÙĥ": 937,
      "ĬØ´": 938,
      "ĠØºÙĬØ": 939,
      "ĦÙģ": 940,
      "Ø±Ø³": 941,
      "ĠØ§ÙĦÙĬÙĪÙħ": 942,
      "ÙĪÙĤ": 943,
      "ĠØºÙĬØ±": 944,
      "Ø°ÙĦÙĥ": 945,
      "¨ØŃØ": 946,
      "¯ÙĪÙĨ": 947,
      "³Ø©": 948,
      "Ø±ÙĬØ§": 949,
      "ĠØ§ÙĦÙģØ": 950,
      "Ø¹Øª": 951,
      "ĠÙĬÙħÙĥÙĨ": 952,
      "Ø¬Ø©": 953,
      "ÙĬÙħ": 954,
      "ĠÙĪØ¬": 955,
      "ÙĤÙĬØ§": 956,
      "ÙĪÙħØ": 957,
      "¯Ùĩ": 958,
      "ĠØ¨Ø¹Ø¶": 959,
      "ĠØ§ÙĦÙħØªØ": 960,
      "ĠØ§ÙĨØ": 961,
      "Ø¹Ø¨": 962,
      "ĠØ§ÙĦØ±Ù": 963,
      "ĠÙĬØªØ": 964,
      "ÙĦÙĬÙ": 965,
      "Ø¹ÙĦ": 966,
      "ªÙĤØ": 967,
      "ĠÙĬÙĪ": 968,
      "ĠÙħØŃÙħØ¯": 969,
      "Ø®ÙĦ": 970,
      "Ġ201": 971,
      "¹Ø§Ø": 972,
      "Ø¬ÙĦ": 973,
      "ĠÙĪØ§ÙĦØ£": 974,
      "ĠØ§ÙĦÙħÙĪØ§": 975,
      "ÙĤØ¯Ùħ": 976,
      "ĬÙĤ": 977,
      "³Ø¨Ø©": 978,
      "ĩØ°Ø§": 979,
      "ÙħØ§ÙĨ": 980,
      "ÙĪÙħØ©": 981,
      "ĠÙĥØ§ÙĨØª": 982,
      "Ø¬Ø¯": 983,
      "ĠÙħØ¤": 984,
      "ĠØ³Ø": 985,
      "ØªÙĤ": 986,
      "¹Ø±Ø¶": 987,
      "ģØ¥": 988,
      "ÙĤØ§Øª": 989,
      "ÙģØ¥": 990,
      "ÙĪØ©": 991,
      "ĠØ§ÙĦØ¨Ù": 992,
      "ÙĪØ£": 993,
      "ĠÙĪÙĩÙĪ": 994,
      "ĠØ¬Ù": 995,
      "ĠØ§ÙĦØ«Ø§": 996,
      "Ø¬ÙĦØ³": 997,
      "Ø«ÙĬØ": 998,
      "ÙĦØ¬": 999,
      "ĠÙĨØ§": 1000,
      "ĠÙĤØ§ÙĦ": 1001,
      "Ø¦ÙĬØ": 1002,
      "Ø±Ø§Ù": 1003,
      "ªÙĨØ§": 1004,
      "Ø¦ÙĬØ©": 1005,
      "Ġ4": 1006,
      "ĠÙģØ¥": 1007,
      "ģØ¹": 1008,
      "Ø¤": 1009,
      "ĦØ¨Ø§": 1010,
      "ĠÙĦØªØ": 1011,
      "ªÙĪÙ": 1012,
      "Ø«Ø§": 1013,
      "ĠØ´Ù": 1014,
      "Ġ5": 1015,
      "Ø·ÙĬ": 1016,
      "ØªØ±": 1017,
      "¹Ø¯": 1018,
      "ØªØ£": 1019,
      "ĠÙĪØ§ÙĦØ§": 1020,
      "ÙħØ§Ùħ": 1021,
      "ĠØ¨ÙĬ": 1022,
      "ĠØ§ÙĦØ¥Ø³": 1023,
      "ÙĪØ¨": 1024,
      "ĠØªÙĤ": 1025,
      "Ø¬Ø¨": 1026,
      "ĠÙĨÙģØ": 1027,
      "ĠØ¬Ø§": 1028,
      "ĠØªØ´": 1029,
      "ĠÙĪÙĦÙĥ": 1030,
      "ĠØ¨Ùĩ": 1031,
      "ÙĪÙĬÙ": 1032,
      "·Ø§Ø": 1033,
      "ÙĤÙģ": 1034,
      "®Ø§": 1035,
      "00": 1036,
      "Ø«ÙĬØ±": 1037,
      "·ÙĤØ©": 1038,
      "ÙĬÙĤ": 1039,
      "ĠÙħØ´": 1040,
      "Ø®ÙĬ": 1041,
      "ØŃÙĬØ": 1042,
      "ĦÙĬØ§": 1043,
      "ĠØ¥Ø": 1044,
      "ÙĦØ¯": 1045,
      "ØªÙĪØ": 1046,
      "ĠÙħÙĪØ§": 1047,
      "ĠØ«Ùħ": 1048,
      "ĠÙĬÙĥÙĪÙĨ": 1049,
      "ĠÙĪØ§ÙĦØªØ": 1050,
      "ĠØ¨ÙĩØ§": 1051,
      "Ø±ÙĤ": 1052,
      "ØªØ¨": 1053,
      "ĠÙĪÙħÙ": 1054,
      "ØªÙĨØ": 1055,
      "ØµÙĬ": 1056,
      "ØªÙĩÙħ": 1057,
      "ÙĥÙĬØ": 1058,
      "ĠØªØ¬": 1059,
      "ÙħØ¬": 1060,
      "¸Ùħ": 1061,
      "ģÙĤ": 1062,
      "ĠØ§ÙĦÙĨØ§": 1063,
      "ØªØ§Ø": 1064,
      "ĠØ£ÙĥØ«Ø±": 1065,
      "ĠÙħÙħ": 1066,
      "ØĽ": 1067,
      "ĠÙģÙĬÙĩØ§": 1068,
      "ĠØĽ": 1069,
      "ØºÙĬ": 1070,
      "ÙĨØ³Ø§": 1071,
      "ĠØ§ÙĦØ³Ø§": 1072,
      "¯ÙĪ": 1073,
      "ĠØ§ÙĦÙĩ": 1074,
      "ĨØ§Ø": 1075,
      "Ø¨ÙĦ": 1076,
      "ÙĦÙĪ": 1077,
      "ĠØªØ£": 1078,
      "ĬØ²": 1079,
      "ÙĬØ´": 1080,
      "Ø·ÙĨ": 1081,
      "²Ø§": 1082,
      "ØŃØªÙ": 1083,
      "ĠØ¥ÙĦØ§": 1084,
      "ĬØ®": 1085,
      "Ø¯ÙĬØ¯": 1086,
      "ĠÙĪØ§ÙĦÙħÙ": 1087,
      "¯Ùī": 1088,
      "Ø¹ÙħÙĦ": 1089,
      "ÙħÙĦØ©": 1090,
      "Ø·Ø©": 1091,
      "ÙĦØª": 1092,
      "Ø·Ø§Ø": 1093,
      "¯ÙĬØ¯": 1094,
      "ĦØ¥": 1095,
      "ÙĤØ·": 1096,
      "ĠÙĬÙĤ": 1097,
      "ĠØ§ÙĦØ¹ÙħÙĦ": 1098,
      "ĠÙħØ¬": 1099,
      "ĠØ§ÙĦÙħØ´": 1100,
      "ÙĥØ¯": 1101,
      "ĠØ±Ø¦ÙĬØ³": 1102,
      "ĠØ§ÙĦÙħØ¤": 1103,
      "ÙģÙĬØ©": 1104,
      "¸Ø±": 1105,
      "¯ÙĬÙĨØ©": 1106,
      "ÙĨØ§Øª": 1107,
      "ÙĨØ¨": 1108,
      "ĠÙĪÙħÙĨ": 1109,
      "ĠØ§ÙĦÙħØµ": 1110,
      "¨Ø±Ø": 1111,
      "ÙĩÙħ": 1112,
      "ĠØ¸": 1113,
      "¨Ùĥ": 1114,
      "¶Ø": 1115,
      "ĠØªØªØ": 1116,
      "ĠÙħØ¹Ù": 1117,
      "ĠÙģÙĬÙĩ": 1118,
      "ÙĦØ¥": 1119,
      "ĠØªÙĨØ": 1120,
      "ªØ±Ø": 1121,
      "ĠØ¥Ø°Ø§": 1122,
      "¹ÙĦÙĬ": 1123,
      "±Ùħ": 1124,
      "³Ø¨Ø¨": 1125,
      "Ø¨Ùĩ": 1126,
      "Ø¹ÙĦÙī": 1127,
      "¸Ø§Ùħ": 1128,
      "¶ÙĦ": 1129,
      "ĠÙĪØ¨Ø": 1130,
      "ĠÙħØªØ": 1131,
      "³Ø·": 1132,
      "ĠØµØ§": 1133,
      "ÙĩØ¯": 1134,
      "ĠØ§ÙĦÙħØŃ": 1135,
      "ĠØ§ÙĦÙĪØ": 1136,
      "ĦÙĨØ§Ø": 1137,
      "³ØªÙ": 1138,
      "ÙĬØ®": 1139,
      "¨ÙĬÙ": 1140,
      "ĠØªØ§": 1141,
      "±ÙĥØ": 1142,
      "ĠÙĪØŃØ": 1143,
      "ĠÙĬÙĨØ": 1144,
      "¯Ùģ": 1145,
      "ÙĦÙĩØ§": 1146,
      "Ġ19": 1147,
      "ĠØ¨Ø¥": 1148,
      "ÙħÙĩØ§": 1149,
      "±ÙĥÙ": 1150,
      "ĠÙĦÙĩØ§": 1151,
      "ĠØ´Ø§": 1152,
      "ĠØ¨Ø§ÙĦÙħ": 1153,
      "¹Ø¨Ø±": 1154,
      "Ø¯Ø§Ø±Ø©": 1155,
      "Ø¦ÙĦ": 1156,
      "Ø±Ø¹": 1157,
      "ĠÙĪÙģÙĬ": 1158,
      "Ø³Ùħ": 1159,
      "³Ø¨": 1160,
      "Ø¹ÙĪØ": 1161,
      "ĠÙħØŃØ§": 1162,
      "Ø¹ÙħÙ": 1163,
      "ĠØ§ÙĦØ¶": 1164,
      "ĦØ¹Ø": 1165,
      "ÙĪÙĦÙĬØ": 1166,
      "Ø¯ÙĬØ¯Ø©": 1167,
      "ĠÙħØ¨Ø§": 1168,
      "Ø¯ÙħØ": 1169,
      "ĠÙĩÙĨØ§Ùĥ": 1170,
      "¶ÙĬ": 1171,
      "ÙĤØªØµØ§": 1172,
      "Ø®Øµ": 1173,
      "ÙħÙĪØ": 1174,
      "Ø£Ø": 1175,
      "ØŃÙĬØ©": 1176,
      "ĠØ§ÙĦØªØ§": 1177,
      "ĠØªØµ": 1178,
      "ĠØ§ÙĦÙĬ": 1179,
      "ªØ§": 1180,
      "ĦØ¹": 1181,
      "ĠÙĪÙĤØ¯": 1182,
      "ĠÙħØ«ÙĦ": 1183,
      "±ÙĨØ§": 1184,
      "ĠØ¨Ø´ÙĥÙĦ": 1185,
      "ĠØ§ÙĦØ¹Ø§ÙĦÙħ": 1186,
      "ĠØ£ÙĬØ¶Ø§": 1187,
      "®Ø": 1188,
      "Ø¬ÙĬØ": 1189,
      "ĠØ¨Ø¯": 1190,
      "Ø¨Ø§Ø¨": 1191,
      "¹Ø¨Ø¯": 1192,
      "ĠÙĦÙħÙ": 1193,
      "ĠØ§ÙĦØŃÙĥ": 1194,
      "³ÙĬØ": 1195,
      "ÙĩÙĦ": 1196,
      "ĠÙĨØŃ": 1197,
      "ĠØ§ÙĦØ¹Ø±Ø¨ÙĬØ©": 1198,
      "Ø¨Ø¹": 1199,
      "ÙĪÙĦØ§Ø": 1200,
      "ĠØ§ÙĦÙĪØ§": 1201,
      "ĠØ¹ÙħÙ": 1202,
      "Ø¨ÙĬØ±": 1203,
      "ĠØ·Ø§": 1204,
      "ĠÙĦØ¥": 1205,
      "ĠÙħÙĤØ§": 1206,
      "ºÙ": 1207,
      "¨ÙħØ§": 1208,
      "Ø¬Ø§Ø": 1209,
      "ĬØªÙħ": 1210,
      "Ø¯ÙħØ©": 1211,
      "ÙĬØªÙħ": 1212,
      "ĠØ§ÙĦØ°ÙĬÙĨ": 1213,
      "Ø¯Øª": 1214,
      "Ø±Ø£": 1215,
      "ĠÙĪÙĦÙĥÙĨ": 1216,
      "¨Ø±Ø§": 1217,
      "ĠÙĬÙĪÙħ": 1218,
      "ĠØ§ÙĦÙĨØ§Ø": 1219,
      "ĠØ§ÙĪ": 1220,
      "ĠØ§ÙĦÙħÙĥ": 1221,
      "Ġ6": 1222,
      "Ø¯Ø§Øª": 1223,
      "Ø±ÙĪØ§": 1224,
      "ÙĦÙħØ§": 1225,
      "ÙĪØ§ÙĨ": 1226,
      "ÙĤÙĩ": 1227,
      "ĠÙĩØ§": 1228,
      "±ÙĬÙĨ": 1229,
      "ĬØŃ": 1230,
      "ĩØ©": 1231,
      "ĦØ³Ø·": 1232,
      "Ø¬ØªÙħØ§": 1233,
      "ĠÙħØ³Ø§": 1234,
      "Ø±Ø¨ÙĬ": 1235,
      "Ø¯ÙĪÙĨ": 1236,
      "ĦØ±Ø§": 1237,
      "ÙĨÙĬØ§": 1238,
      "Ø¨Ø¯Ø§": 1239,
      "®Ø¯Ø§": 1240,
      "Ø¹Ø¨Ø¯": 1241,
      "ĠØ§ÙĦÙħØªØŃØ": 1242,
      "ĠÙħØŃ": 1243,
      "Ø²Ø§Ø±Ø©": 1244,
      "¯ÙĬØ©": 1245,
      "Ø±Ø§ÙĤ": 1246,
      "ĠÙĦÙĦØ£": 1247,
      "ĠØ¯Ø": 1248,
      "±ÙĥØ©": 1249,
      "ÙĬØŃ": 1250,
      "ĠÙĬØªÙħ": 1251,
      "Ø³Ø¨": 1252,
      "ģÙĬØ": 1253,
      "ĠØªØ®": 1254,
      "ĠÙĦÙĪ": 1255,
      "¶Ø§Ø¡": 1256,
      "ÙĬÙĬ": 1257,
      "ÙĪÙĦÙĬØ©": 1258,
      "ÙĨÙĪÙĨ": 1259,
      "µÙĦ": 1260,
      "³Ø§Øª": 1261,
      "ĠØªÙĥÙĪÙĨ": 1262,
      "Ø¨ÙĪ": 1263,
      "ÙĤÙĬÙĤ": 1264,
      "ĠÙħØ¹Ø§": 1265,
      "ÙĨØ§ÙĨ": 1266,
      "ĦØ°": 1267,
      "ĠØªÙĦÙĥ": 1268,
      "ĠØ§ÙĦØ§Ø³ØªØ": 1269,
      "¹ÙħØ§ÙĦ": 1270,
      "ĬØŃØ": 1271,
      "¯ÙĩØ§": 1272,
      "ÙħÙĪÙ": 1273,
      "ĠÙħÙĨØ°": 1274,
      "ĠØ¹Ø¯Ø¯": 1275,
      "ĠØ¹ÙĦÙĬÙĩØ§": 1276,
      "³Ùĩ": 1277,
      "ĠØ§ÙĦØ£Ù": 1278,
      "ĠØ¹Ø¨Ø¯": 1279,
      "ĠØŃÙĪÙĦ": 1280,
      "ÙĬØŃØ": 1281,
      "ĠÙĪÙĨØ": 1282,
      "Ø¶Ø§ÙģØ©": 1283,
      "²Ø": 1284,
      "Ø¨Øª": 1285,
      "¸Ø©": 1286,
      "µØ±": 1287,
      "Ø¹Ø¨Ø±": 1288,
      "¹ÙĬ": 1289,
      "ģØ±": 1290,
      "Ø¦Ùħ": 1291,
      "ÙĤÙĬÙħ": 1292,
      "ªÙĪ": 1293,
      "¨Ùĩ": 1294,
      "ĠÙħÙĨØ§": 1295,
      "ĠØ§ÙĦÙħÙĨØ§": 1296,
      "³ÙĪ": 1297,
      "ĠØ³ÙĬØ§": 1298,
      "ĠÙħØµØ±": 1299,
      "Ø¨Ø·": 1300,
      "ĠØ£Ø³": 1301,
      "ĠØ¬ÙħÙĬØ¹": 1302,
      "ĠØ°Ø§": 1303,
      "ĠØªØ¹Ø§": 1304,
      "ĠÙħÙĨÙĩØ§": 1305,
      "ĠØ¯ÙĪÙĨ": 1306,
      "·ÙĬ": 1307,
      "ĠØªØ·": 1308,
      "ĠØ´ÙĬ": 1309,
      "ĠØ¨Ø£ÙĨ": 1310,
      "ÙĬÙĪÙ": 1311,
      "ĨÙĩÙħ": 1312,
      "ĠÙħØ´Ø§": 1313,
      "ĠÙĬØŃØ": 1314,
      "ĠØ§ÙĦØ·Ø§": 1315,
      "ĦØ§Ø": 1316,
      "ĠØªØ³": 1317,
      "Ø±ÙĥØ§": 1318,
      "ĠÙģØ¥ÙĨ": 1319,
      "ĠÙĦØ¬": 1320,
      "ĠÙħÙħØ§": 1321,
      "Ø±ÙĬØ®": 1322,
      "ĠØ±Ø§": 1323,
      "ĠØªØ¹Ø": 1324,
      "ÙĬÙģØ©": 1325,
      "µØ©": 1326,
      "ĠØ§ÙĦØ³Ø¹ÙĪ": 1327,
      "´Ù": 1328,
      "µÙĬ": 1329,
      "ģÙĤØ·": 1330,
      "±ÙĥÙĬ": 1331,
      "ĠÙĪÙĩÙĬ": 1332,
      "ÙģÙĤØ·": 1333,
      "ĠÙĦÙĬØ": 1334,
      "¯ÙĬÙħ": 1335,
      "ĠÙĦÙĥÙĨ": 1336,
      "ĠÙĤÙ": 1337,
      "ĠØ§ÙĦÙĪØ·": 1338,
      "Ġ%": 1339,
      "ĠØ¯Ù": 1340,
      "¹Ø±Ùģ": 1341,
      "ØªÙĪØ±": 1342,
      "ÙĦÙĦØ§": 1343,
      "ÙģÙĦ": 1344,
      "ĠÙĬØŃ": 1345,
      "¯ÙĨ": 1346,
      "ØªÙĤØ": 1347,
      "¬Ù": 1348,
      "ĠØ§ÙĦØ¨Ø§": 1349,
      "ÙĨÙģ": 1350,
      "ÙĤØ§Ùħ": 1351,
      "ĠÙĪØ°ÙĦÙĥ": 1352,
      "ÙĪÙĦÙī": 1353,
      "¬Ø§Ù": 1354,
      "Ø¨ÙĨ": 1355,
      "Ø±ÙĬØ±": 1356,
      "ĠÙĪØ§ÙĦØ¥": 1357,
      "ĠØ¹ÙħÙĦ": 1358,
      "ĠØ¨ØªØ": 1359,
      "ĠÙģÙĤØ·": 1360,
      "ĠÙĦÙĦØ§": 1361,
      "ØŃØ«": 1362,
      "ĠØ§ÙĦØ£Ø®": 1363,
      "ĠØ§ÙĦÙħØ³ØªØ": 1364,
      "Ø·Ø±": 1365,
      "ĠØ§ÙĦØ±Ø§": 1366,
      "ĠØ§ÙĦÙħØ¹Ù": 1367,
      "Ø±ØªØ": 1368,
      "ĠØ¹Ø¨Ø±": 1369,
      "ĠØ§ÙĦØ´Ø§": 1370,
      "ĠØ£Ø®Ø±Ùī": 1371,
      "ØªÙģØ§": 1372,
      "°Ù": 1373,
      "Ø¨Ùĥ": 1374,
      "Ø¨ØŃØ": 1375,
      "µÙģ": 1376,
      "Ø¯ÙĬÙ": 1377,
      "ÙĪØ¶": 1378,
      "ĠØ§ÙĦØ¯Ø§": 1379,
      "ÙĬØ§Ø©": 1380,
      "ĠØ§ÙĦÙħØ§Ø¶ÙĬ": 1381,
      "ĠØªÙĤØ": 1382,
      "Ø¶Ø¹": 1383,
      "Ġ7": 1384,
      "¨ÙĨØ": 1385,
      "ĠØ§ÙĦØªØŃ": 1386,
      "ĠØ£ØŃØ¯": 1387,
      "Ø±Ø¨Ø§": 1388,
      "ĠØ§ÙĦØ£ÙħØ": 1389,
      "ĠØ§ÙĦÙħØªØŃØ¯Ø©": 1390,
      "ĠØ§ÙĦÙħØ´Ø§": 1391,
      "ªØ±Ø©": 1392,
      "Ø¬Ùħ": 1393,
      "ĠÙĦÙĦÙħÙ": 1394,
      "ĠÙģÙĪ": 1395,
      "ĠØ³ØªØ": 1396,
      "Ø±ÙĪØ¹": 1397,
      "ĠØ¨ÙĦ": 1398,
      "ÙģÙĪ": 1399,
      "Ø±ØªÙ": 1400,
      "ĦØ«": 1401,
      "ĠÙĬØ§": 1402,
      "ĠØ§ÙĦÙħØ³": 1403,
      "ĠÙħØ³": 1404,
      "ĠÙħØŃØ": 1405,
      "ØµÙĬØ": 1406,
      "Ø«Ø©": 1407,
      "ĠØ§ÙĦØ¥Ù": 1408,
      "Ø±Ø¬Ø": 1409,
      "Ø³ÙĨ": 1410,
      "Ø´ÙĬ": 1411,
      "ĠØ§ÙĦØ±Ø¦ÙĬØ³": 1412,
      "·Ø§Ø¹": 1413,
      "ÙĪØ§Ù": 1414,
      "ØªÙĪÙ": 1415,
      "Ø²Ùħ": 1416,
      "ĦÙĪÙ": 1417,
      "Ø²ÙĬØ±": 1418,
      "ĠØ±Ø£": 1419,
      "ºÙħ": 1420,
      "Ø¨Ø§Ù": 1421,
      "ĠØ§ÙĦØ³ÙĬ": 1422,
      "ÙĥÙĬØ©": 1423,
      "ĩØ¯Ùģ": 1424,
      "ĠÙĪØµ": 1425,
      "ĠØ§ÙĦÙĦØ§": 1426,
      "ªÙħØ¹": 1427,
      "ĦÙĩØ§": 1428,
      "Ø±ÙĥØ§Ø": 1429,
      "ĠØ³ÙĨ": 1430,
      "ĠØ§ÙĦØ¬Ø§": 1431,
      "¯Ø±": 1432,
      "®Ø¯Ø§Ùħ": 1433,
      "ĠØ§ÙĦÙħÙĨØªØ": 1434,
      "ĠØŃÙĤ": 1435,
      "Ġ8": 1436,
      "¨ÙĨØ§Ø¡": 1437,
      "Ø¨ØŃ": 1438,
      "¹ØªØ¨Ø": 1439,
      "ĠÙĪÙħØ§": 1440,
      "Ø±ÙģØ©": 1441,
      "ĨÙģÙĬ": 1442,
      "ÙħÙĪØ¹Ø©": 1443,
      "ĠØ£ÙħØ": 1444,
      "ĠØ§ÙĦÙħÙħÙ": 1445,
      "ĠØ§Ùħ": 1446,
      "ģØ±Ø": 1447,
      "ĠØ¨Ùĥ": 1448,
      "ĦØ·": 1449,
      "ĠÙħØ¬ÙĦØ³": 1450,
      "³ÙĬÙĨ": 1451,
      "ĠÙĦÙĬØ³": 1452,
      "Ø±ÙĥØ§Øª": 1453,
      "Ø¨Ø§Ø±": 1454,
      "ĠØ§ÙĦØ£ÙĪÙĦ": 1455,
      "±ÙĥØ²": 1456,
      "ĠØ§ÙĦÙħØ¹Ø§": 1457,
      "ĠØ¢Ø®Ø±": 1458,
      "ÙĪØ§Ø¡": 1459,
      "ģÙĤØ¯": 1460,
      "ĠÙħØ¬Ø§": 1461,
      "ĠÙĪØ§ÙĦØªÙĬ": 1462,
      "ĠÙĪÙĪ": 1463,
      "Ø°Ù": 1464,
      "ÙħÙĪØ§": 1465,
      "ÙĦØ§ÙĤ": 1466,
      "ĠÙĪØŃ": 1467,
      "ØªÙĨØ§": 1468,
      "ĬØ§ÙĨ": 1469,
      "ĠØ£Ø´": 1470,
      "ĠØ¨ÙĪ": 1471,
      "ĠØ¥ÙĦÙĬÙ": 1472,
      "ĠÙħÙĨÙĩ": 1473,
      "Ø¨Ø¹Ø©": 1474,
      "ĦØ§Øª": 1475,
      "ºÙĬ": 1476,
      "ĠÙĥØ¨ÙĬ": 1477,
      "ĠÙħØµ": 1478,
      "Ø³Ø§Ø": 1479,
      "ĠÙħØ¹Ø": 1480,
      "ĬØ¬Ø¨": 1481,
      "ÙĬØ¬Ø¨": 1482,
      "Ø¨ÙħØ§": 1483,
      "Ø¹Ùħ": 1484,
      "Ø¬Ø±Ø§Ø¡": 1485,
      "Ø¨ÙĬÙ": 1486,
      "ØŃØ¯Ø©": 1487,
      "ĠØ¨ÙħØ§": 1488,
      "Ø±Ø¬Ù": 1489,
      "ĩØ°Ù": 1490,
      "¸ÙĬÙħ": 1491,
      "¹Ø§Ù": 1492,
      "ĠØ®Ù": 1493,
      "ģÙĥ": 1494,
      "ĠØ§ÙĦÙĥØ§": 1495,
      "ĠÙĦÙĦØªØ": 1496,
      "ÙĥØ§Ø": 1497,
      "ĠØ§Ø³Øª": 1498,
      "ĠØ§ÙĦÙħØŃØ§": 1499,
      "ÙĩØ§Ø": 1500,
      "ĠÙĦØ¯": 1501,
      "ĠØ§ÙĦØªÙĪ": 1502,
      "ĦÙģØ©": 1503,
      "ĠØ§ÙĦØ¯ÙĪÙĦØ©": 1504,
      "ĠØ§ÙĦØ¯Ø": 1505,
      "ÙĦÙĨ": 1506,
      "ĠØ§ÙĦÙĨØ§Ø³": 1507,
      "ĠØ¹ÙĦØ§": 1508,
      "ĠØŃØ§Ù": 1509,
      "ĩØ¯": 1510,
      "Ø¨ÙĤ": 1511,
      "Ø¬ØªÙħØ¹": 1512,
      "ĦÙĪÙĦØ§": 1513,
      "Ø¨ÙĨØ": 1514,
      "ĠØªØŃØª": 1515,
      "ØªØ±Ø": 1516,
      "ÙĪØ¬": 1517,
      "Ø¹Ùĩ": 1518,
      "ĠØ¨ØŃØ": 1519,
      "ĩØ°Ùĩ": 1520,
      "Ø±Ø¨Ø©": 1521,
      "ÙĪÙĨØ": 1522,
      "¸Ù": 1523,
      "ÙĥØ³": 1524,
      "ÙĤÙĬÙĤØ©": 1525,
      "±ÙĨØ§ÙħØ¬": 1526,
      "¯ÙĬØ«": 1527,
      "Ø¯Ùĩ": 1528,
      "³Ø§Ø¨": 1529,
      "ĠØªØ¯": 1530,
      "Ø±ÙĬÙħ": 1531,
      "ĠØ§ÙĦØ£Ø³": 1532,
      "ØªÙĬØ": 1533,
      "ĠØ§ÙĬ": 1534,
      "ÙĦÙħÙĬ": 1535,
      "ºØ§": 1536,
      "ØŃØ§Ø¯": 1537,
      "ĠØ§Ø³": 1538,
      "ĠØ®Ø·": 1539,
      "ĠØ§ÙĦÙĪÙĤØª": 1540,
      "ÙĥØ©": 1541,
      "ĠØ¨ÙĨØ": 1542,
      "ÙħÙĬÙĦ": 1543,
      "ĠÙĬØ¬Ø¨": 1544,
      "ģØ§Ø¹": 1545,
      "ĠØ§ÙĦØªØ¬Ø§": 1546,
      "ÙĨÙĩÙħ": 1547,
      "ĠØ§Ø®": 1548,
      "ÙĨØ³Ø§ÙĨ": 1549,
      "Ø¬ÙĬØ©": 1550,
      "ĠØ¥Ø³": 1551,
      "ĠØ¨Ø§ÙĦØ¥": 1552,
      "ĬØ±Ø§ÙĨ": 1553,
      "ĠØ§ÙĦØ¹Ø§ÙħØ": 1554,
      "¯Ø±Ø§": 1555,
      "ÙģØ§Ù": 1556,
      "ĠØ§ÙĦØ¹Ø§ÙħØ©": 1557,
      "ĠÙĬØ´": 1558,
      "ÙĬÙĬØ": 1559,
      "ÙĪØ²": 1560,
      "ÙĨØ´": 1561,
      "¯Ø±Ø": 1562,
      "ĬØ¬": 1563,
      "Ø·Ø§Ø±": 1564,
      "ØŃÙĦ": 1565,
      "ÙģØ¶ÙĦ": 1566,
      "ÙħØ§Ø±": 1567,
      "ĦÙĤØ¯": 1568,
      "Ø¹ÙĩØ§": 1569,
      "ÙĪÙĦÙĩ": 1570,
      "ÙĦØ«": 1571,
      "ĠØ¬ÙĨ": 1572,
      "ĠØ£ÙħØ§": 1573,
      "³ÙĨØ©": 1574,
      "ÙĪÙĬØ±": 1575,
      "ĦØŃØ©": 1576,
      "ØºØ§": 1577,
      "ØŃØ§Øª": 1578,
      "ĠØ§ÙĦØ¹ÙĦØ§": 1579,
      "Ø¦Ø±": 1580,
      "Ġ0": 1581,
      "Ø¬Ø±": 1582,
      "ÙĬÙĨÙĬ": 1583,
      "Ø¶Ø§Ù": 1584,
      "ĦÙĥØ": 1585,
      "ģØ±ÙĬ": 1586,
      "ĠÙĦØ£ÙĨ": 1587,
      "ĠØ§ÙĦØŃÙĥÙĪÙħØ©": 1588,
      "ÙĪÙĥ": 1589,
      "ÙĬÙĨÙĬØ©": 1590,
      "Ø³ÙĪ": 1591,
      "ĠÙĦÙĨ": 1592,
      "ÙĪØª": 1593,
      "ÙĨØ¬": 1594,
      "ÙĪØ§Ø±": 1595,
      "¦Ø§": 1596,
      "¹Ø¨Ø¯Ø§": 1597,
      "Ø±Ø§Ø¯": 1598,
      "ĠÙģÙĬÙħØ§": 1599,
      "ĦÙĤÙĬØ§": 1600,
      "ĠØ¨ØŃ": 1601,
      "ÙĪØ¯Ø©": 1602,
      "¹ØªØ¨Ø±": 1603,
      "Ø·ÙĬØ": 1604,
      "Ø²ÙĬØ¯": 1605,
      "ĦØ¯ÙĬÙ": 1606,
      "Ø¹Ø¯Ø©": 1607,
      "ÙĤÙĦÙĬ": 1608,
      "³ÙĬØ©": 1609,
      "ÙĬØ¬": 1610,
      "ĠÙĪÙĦÙħ": 1611,
      "ĠØ¹Ùħ": 1612,
      "ÙĦØ°": 1613,
      "ØŃØª": 1614,
      "ĠØªÙĪÙ": 1615,
      "ĦØºØ": 1616,
      "ĠÙĦØŃ": 1617,
      "¹ÙĬÙĨ": 1618,
      "Ø¨Ø±Ø": 1619,
      "ÙģÙĤØ¯": 1620,
      "ĠÙĩØ": 1621,
      "ÙĦØ§Ø«": 1622,
      "ĠÙĪØ´": 1623,
      "ĠØ¨ÙĬÙ": 1624,
      "ÙģØ§Ø": 1625,
      "ĠØ´Ø": 1626,
      "ĠØ§ÙĦØ´Ø": 1627,
      "Ø²Ø§Ø": 1628,
      "ĠØ§ÙĦØ§ÙĨØªØ": 1629,
      "ÙģÙī": 1630,
      "ĠØ¶Ø": 1631,
      "ØªØ±Ø§": 1632,
      "²Ø¨": 1633,
      "ĠØ§ÙĦÙħØ³Ù": 1634,
      "ĠÙĪØ£ÙĨ": 1635,
      "ÙĦÙħØ": 1636,
      "¯Ø§Ø¯": 1637,
      "Ø¶Ø§Ùģ": 1638,
      "ÙħÙĨØ": 1639,
      "ĠØ§ÙĦÙħÙĤØ§": 1640,
      "ĠØ£ÙĨÙĩØ§": 1641,
      "ØŃØ¨": 1642,
      "ĠØ®Ø§ØµØ©": 1643,
      "ĠØ¨Ø·": 1644,
      "Ġ[": 1645,
      "ĠØ§ÙĦÙħØ³Øª": 1646,
      "Ø¦Ùģ": 1647,
      "ĠØ§ÙĦØ¯Ù": 1648,
      "ĠØ§ÙĦØ§ÙĤØªØµØ§": 1649,
      "ĠÙĪØ¹Ø": 1650,
      "ĠØ§ÙĦØ¢ÙĨ": 1651,
      "±ÙĬØ": 1652,
      "¸ÙħØ": 1653,
      "ĠÙħÙĬ": 1654,
      "ĠØ´Ø±ÙĥØ©": 1655,
      "Ø¹Ø¨Ø¯Ø§": 1656,
      "ĠÙĬØ¬": 1657,
      "ĠØ§ÙĦØµÙ": 1658,
      "ĠØ§ÙĦÙħØ¨Ø§": 1659,
      "ĠØ£Ùĩ": 1660,
      "Ø¯ÙĪ": 1661,
      "ĬØ§Ù": 1662,
      "ĩØ±Ø©": 1663,
      "ĠØ§ÙĨØªØ": 1664,
      "ĠØ¬ÙĬ": 1665,
      "Ġ200": 1666,
      "ĦÙĬÙĪÙĨ": 1667,
      "ĠÙĦØª": 1668,
      "ĠØ¹Ø¨Ø¯Ø§": 1669,
      "Ø£ÙĨ": 1670,
      "ĠØ§ÙĦØªØ¹Ø§": 1671,
      "ÙĬÙĪÙĨ": 1672,
      "ĬØ³ØªØ": 1673,
      "Ġ9": 1674,
      "ĠØ§ÙĦÙħØ³Ø§": 1675,
      "ĦÙĥØ©": 1676,
      "Ø±Ø±": 1677,
      "ĠÙħØ®ØªÙ": 1678,
      "ĠÙĪØ§ÙĦØŃ": 1679,
      "Ø´Ø§Ø": 1680,
      "ÙĬØ³ØªØ": 1681,
      "ĠØ§ÙĦØ£ÙħØ±": 1682,
      "ÙĪØ±ÙĬ": 1683,
      "Ø³ÙĬØ§": 1684,
      "ĦÙħÙĬ": 1685,
      "²ÙĬØ²": 1686,
      "ĠØ¨Ø³Ø¨Ø¨": 1687,
      "ĠØµÙ": 1688,
      "ĬØ¹Ù": 1689,
      "ÙĬØ§Ùħ": 1690,
      "ĠØ¥ÙĬ": 1691,
      "ÙĪØ³": 1692,
      "ĠÙģÙĤØ¯": 1693,
      "Ø±Ø£Ø": 1694,
      "ÙĬØ¹Ù": 1695,
      "ĠØµÙĦÙī": 1696,
      "ĨÙĬØ§": 1697,
      "ĠØ¹ÙĨØ¯ÙħØ§": 1698,
      "¯Øª": 1699,
      "ĠØ¬Ø¯Ø§": 1700,
      "ÙħÙĬØ±": 1701,
      "ÙģØ±": 1702,
      "Ø±ÙĩÙħ": 1703,
      "ĠØ§ÙĦØ³Ø¹ÙĪØ¯ÙĬØ©": 1704,
      "ªÙĤØ¯Ùħ": 1705,
      "ÙĬØ§Ø±": 1706,
      "ÙĦØ§ØŃ": 1707,
      "ĨÙī": 1708,
      "ĦÙĬÙĦ": 1709,
      "ĦØµ": 1710,
      "ÙĬÙĩØ§": 1711,
      "ĠØ§ÙĦÙģÙĦØ³Ø·": 1712,
      "ĠÙħÙĪÙĤØ¹": 1713,
      "ÙĥÙħØ": 1714,
      "Ø±Ø¬ÙĬ": 1715,
      "ĠØ±ÙĪ": 1716,
      "¯Ø§Øª": 1717,
      "Ø±ÙĬØ¨": 1718,
      "ĠÙħØ³Øª": 1719,
      "ĠÙĪÙĨ": 1720,
      "Ø±Ø§Ø¶": 1721,
      "ĦÙĤÙ": 1722,
      "Ø¬ÙĩØ§": 1723,
      "¸ÙħØ©": 1724,
      "ĠÙĦÙħØ§": 1725,
      "ĠØ§ÙĦØ£ÙħØ±ÙĬ": 1726,
      "ÙĥØªÙĪØ±": 1727,
      "ĠÙĪÙĤ": 1728,
      "ĠØ§ÙĦÙħØ³Ø": 1729,
      "ĠÙħÙĨØªØ": 1730,
      "ĠÙĪÙĬÙ": 1731,
      "ÙĦØ¯ÙĬÙ": 1732,
      "Ø¦Ø¯": 1733,
      "ÙģØ¸Ø©": 1734,
      "¯ÙħØ§Øª": 1735,
      "ĦØ³Ù": 1736,
      "ªØŃØ§Ø¯": 1737,
      "ØªØ§Ø¨": 1738,
      "°ÙĬ": 1739,
      "Ġ'": 1740,
      "ĠÙĬØ¹Ù": 1741,
      "ÙĪØ¯Ø§": 1742,
      "´Ø§Ø": 1743,
      "·ÙĬØ": 1744,
      "ĠÙĬØ³ØªØ": 1745,
      "Ø¯ÙĦ": 1746,
      "ÙĥØ«Ø±": 1747,
      "ĠØªØ±Ø": 1748,
      "ĠØ³ÙĪ": 1749,
      "¬Ø§Ø": 1750,
      "¯ÙĪÙĦ": 1751,
      "Ø¬ÙĩØ©": 1752,
      "ĠØ£Ø¹Ø": 1753,
      "ĠØ§ÙĦØ±ÙĬØ§": 1754,
      "ÙģØ¸": 1755,
      "ĠØ¹Ø¯Ùħ": 1756,
      "Ø¶Ø©": 1757,
      "ÙĪÙĩ": 1758,
      "Ø±ÙĬÙĤØ©": 1759,
      "ĠÙĪØ§ÙĦØ¬": 1760,
      "ÙĦØ§Ø¡": 1761,
      "ĠØ£ÙħØ§Ùħ": 1762,
      "ĠÙĦÙĥÙ": 1763,
      "¹ÙħØ§": 1764,
      "ÙĩØ¨": 1765,
      "¹Ø¶": 1766,
      "±ÙĪ": 1767,
      "ĠÙĦØ¯ÙĬÙ": 1768,
      "ÙĥÙħØ©": 1769,
      "Ġ10": 1770,
      "ĠÙĪØ³ÙĦÙħ": 1771,
      "ĠØ§ÙĦÙģØ§": 1772,
      "¨Ø§Ø": 1773,
      "Ø·ÙĤ": 1774,
      "ØªÙģ": 1775,
      "ĠØ§ÙĦØ£ÙĪÙĦÙī": 1776,
      "ÙĦØ§Ø¯": 1777,
      "ĪØ§ØµÙĦ": 1778,
      "ĠØºØ§": 1779,
      "Ø¦Ø¨": 1780,
      "Ø²ÙħØ": 1781,
      "ĠÙĦØ°": 1782,
      "ĠÙĪÙĩØ°Ø§": 1783,
      "ÙĪÙĨÙĬ": 1784,
      "ÙħÙĤ": 1785,
      "Ø§ÙħØ¹Ø©": 1786,
      "ĠØ¯Ø§Ø®ÙĦ": 1787,
      "Ø±Ùħ": 1788,
      "ØŃØ¯Ø§": 1789,
      "ĠØ±Ø³": 1790,
      "ĠØ§ÙĦØ®Ø§ØµØ©": 1791,
      "ĠØ·Ù": 1792,
      "ĠØªØ¹Ù": 1793,
      "ĠØ§ÙĦØ¬Ùħ": 1794,
      "¯ÙĪØ±": 1795,
      "ĠÙħØ³ØªØ": 1796,
      "ĠØ¨Ø§ÙĦØªØ": 1797,
      "ÙĦØ³": 1798,
      "Ø¨ØªØ": 1799,
      "´ÙĬ": 1800,
      "ĦÙĪÙħØ§Øª": 1801,
      "ĠØ§ÙĦÙĥØ«ÙĬØ±": 1802,
      "ÙĪÙĦØ§Ø±": 1803,
      "ģØªØ": 1804,
      "ĠØ§ÙĦØ§Ø¬ØªÙħØ§": 1805,
      "ĦØ§Ù": 1806,
      "ĠÙĪØ±Ø": 1807,
      "ĠÙĪÙĤØ§ÙĦ": 1808,
      "¯ÙĦ": 1809,
      "ĠØ¶Ø¯": 1810,
      "ĠØ§ÙĦØ¯ÙĪÙĦ": 1811,
      "ĠØ§ÙĦÙħÙĦÙĥ": 1812,
      "ĠØ£Øµ": 1813,
      "ÙĨØªØ§": 1814,
      "¯Ø±Ø©": 1815,
      "Ø±Ø§Ø©": 1816,
      "ĦØªÙ": 1817,
      "Ø¹Ùī": 1818,
      "ĠÙħÙħÙ": 1819,
      "¶ÙĬØ": 1820,
      "ĠØ§ÙĦÙħÙĨØ·ÙĤØ©": 1821,
      "ĠÙħØ¯ÙĬÙĨØ©": 1822,
      "ĠØ£Ø¬": 1823,
      "¯ÙĪÙĦØ©": 1824,
      "ÙĪÙĤØ§ÙĦ": 1825,
      "¹ÙĦÙĬÙħ": 1826,
      "¯ÙĬØ±": 1827,
      "ĠØ§ÙĦØ¥Ø¹ÙĦØ§": 1828,
      "ĨÙģ": 1829,
      "Ø³Ø±": 1830,
      "ÙģÙĥ": 1831,
      "ĠÙĨØŃÙĪ": 1832,
      "ĬØ§Ø±": 1833,
      "¯ÙĬÙĨ": 1834,
      "®Ù": 1835,
      "ĠÙĪØºÙĬ": 1836,
      "ĠØ§ÙĦØ¹Ø§ÙĦÙħÙĬ": 1837,
      "Ø²ÙħØ©": 1838,
      "ĬØ¤": 1839,
      "ĠØ¹ÙĨÙĩ": 1840,
      "ĠÙĥØ¨ÙĬØ±": 1841,
      "ĠØ¨Ø§Ø": 1842,
      "ÙĬØ¤": 1843,
      "ÙħÙħ": 1844,
      "ĠØ£Ø¬ÙĦ": 1845,
      "ĠØ§ÙĦØ³ÙĦØ": 1846,
      "ÙĥÙĪÙĨ": 1847,
      "Ø³Ùĥ": 1848,
      "ĠÙĪÙĥØ§ÙĨ": 1849,
      "ĠÙĦØ¨": 1850,
      "Ø³ÙĨØ©": 1851,
      "ĠØ§ÙĦØ§Ø³": 1852,
      "ĠÙĨÙĩØ§": 1853,
      "Ø¹Ø±Ø¶": 1854,
      "ĠÙĪØ²Ø§Ø±Ø©": 1855,
      "±Ùī": 1856,
      "ĠÙħÙĦÙĬÙĪÙĨ": 1857,
      "Ø¯Ø§Ø±": 1858,
      "ĠÙĦÙĩÙħ": 1859,
      "ĠØ³ÙĨØ©": 1860,
      "¯Ø§Ù": 1861,
      "ÙħÙī": 1862,
      "ĠØ§ØªØ": 1863,
      "ĠØŃØ¯": 1864,
      "ØµÙĬØ©": 1865,
      "ĠØŃØ§ÙĦØ©": 1866,
      "ĠØªØ±Ø§": 1867,
      "ÙģØª": 1868,
      "ÙħØ§Ø¹": 1869,
      "ĠâĢĵ": 1870,
      "¹Ø§Ø±": 1871,
      "Ø±Ø£Ø©": 1872,
      "µÙĪÙĦ": 1873,
      "¬Ø": 1874,
      "ĠØ§ÙĦØ£ÙĪ": 1875,
      "ĠÙĬØ¤": 1876,
      "ÙĪØ¡": 1877,
      "ĠØŃÙĬÙĨ": 1878,
      "ĠØ£ÙĪÙĦ": 1879,
      "®Øµ": 1880,
      "ĠØ¨Øµ": 1881,
      "ĠÙĦÙĬÙ": 1882,
      "ģØ£": 1883,
      "ĠÙĥØ¨ÙĬØ±Ø©": 1884,
      "ÙĬÙĬØ±": 1885,
      "ĠØ¨Ø±Ø": 1886,
      "ĠÙĪÙĤØ": 1887,
      "ĠØ§ÙĦØªÙī": 1888,
      "Ø¹ÙĬØ¯": 1889,
      "ĠØ§ÙĦØ¹Ø¯ÙĬØ¯": 1890,
      "ĠØ§ÙĦØ¥Ø³ÙĦØ§": 1891,
      "ĠØ§ÙĦØ±ÙĪ": 1892,
      "ĠØ·Ø±ÙĬÙĤ": 1893,
      "ĠÙĪØ²ÙĬØ±": 1894,
      "ÙĦØ§Ùģ": 1895,
      "³Ø¬": 1896,
      "ĠØ¯ÙĪ": 1897,
      "ģØª": 1898,
      "ĠÙĪØ¨Ø§": 1899,
      "ÙĪÙģÙĬ": 1900,
      "Ø³ØªÙħ": 1901,
      "Ø®ÙĬØ": 1902,
      "Ø±Ø§Ùģ": 1903,
      "Ø°Ø": 1904,
      "Ø¯Ø§Ø¡": 1905,
      "Ø±Ø§ÙĨ": 1906,
      "¯Ø®ÙĦ": 1907,
      "¶Ø¹": 1908,
      "ĠØ§ÙĦØ«Ø§ÙĨÙĬ": 1909,
      "ĠØ²ÙĬØ§": 1910,
      "ĠØ§ÙĦÙħØº": 1911,
      "ĠÙĪØ§ØŃØ¯": 1912,
      "ÙģØ£": 1913,
      "ÙĦÙħØ©": 1914,
      "¸Ø§Ø¦Ùģ": 1915,
      "ĠÙģÙĥ": 1916,
      "Ø±ÙĬØ¯": 1917,
      "Ø´Ø±": 1918,
      "ģØ§Øª": 1919,
      "ĠØ§ÙĦÙĪÙĦØ§": 1920,
      "ĠØ£ÙĨØ": 1921,
      "ģØ¶": 1922,
      "¬ÙĦ": 1923,
      "ĠØ£Ø«": 1924,
      "ĠÙĬØ®": 1925,
      "ÙĦØ¹Ø": 1926,
      "ÙģÙĩ": 1927,
      "ĠÙĩÙĦ": 1928,
      "Ø¦ÙĤ": 1929,
      "Ø¨ÙĩØ§": 1930,
      "ĠÙĦÙĦØ¬": 1931,
      "ÙĪÙĨØ§": 1932,
      "ĠÙħÙĨØ·ÙĤØ©": 1933,
      "ĠØ¸Ù": 1934,
      "Ø±Ø§Ø¦ÙĬÙ": 1935,
      "ØµØ¨ØŃ": 1936,
      "Ø¹Ø§Ø¯Ø©": 1937,
      "ĦÙĤØ©": 1938,
      "Ø³Ø¹Ø§Ø±": 1939,
      "Ø¦ÙħØ": 1940,
      "ĠØ§ÙĦÙħØ¬Ø§": 1941,
      "ĠÙĪÙģ": 1942,
      "ĨØ§Øª": 1943,
      "Ø¦ÙħØ©": 1944,
      "µØ§Ø": 1945,
      "Ø´Ùģ": 1946,
      "ĦÙĤØ§Ø¡": 1947,
      "ĠÙĥÙĨØª": 1948,
      "³Ø§Ø¡": 1949,
      "ĨÙģÙĬØ°": 1950,
      "ĠØ§ÙĦØ¹Ø±Ø¨ÙĬ": 1951,
      "ĠØ§ÙĦØªØµ": 1952,
      "ĠØ¨Ø§ÙĦÙĨØ": 1953,
      "ĠØ¬Ø¯ÙĬØ¯Ø©": 1954,
      "Ø±Ø¬Ø©": 1955,
      "Ø¯Ø¯": 1956,
      "ÙĨØ¹": 1957,
      "ÙĤÙĪÙĦ": 1958,
      "Ø±ØªÙĩ": 1959,
      "ÙĤØ§ÙĦØª": 1960,
      "ĠØ§ÙĦØ¹ÙħÙ": 1961,
      "ĠØ±Ù": 1962,
      "¹Ø§Ø¡": 1963,
      "ĠÙħØµØ§": 1964,
      "ÙĨÙĬÙĨ": 1965,
      "ĩÙħØ§": 1966,
      "ĠØ±ØŃ": 1967,
      "ĠÙĪØ¬ÙĪØ¯": 1968,
      "ĠØ¹ÙħÙĦÙĬØ©": 1969,
      "±ÙĬÙģ": 1970,
      "ĦØ´": 1971,
      "ĠÙĪØ¥ÙĨ": 1972,
      "ØªÙĬØ©": 1973,
      "ĠØ§ÙĦØ§Ù": 1974,
      "²ÙĦ": 1975,
      "ÙĬØ§Ø¡": 1976,
      "ÙĩÙĬØ": 1977,
      "ĠØ§ÙĦØ¯ÙĥØªÙĪØ±": 1978,
      "ĠÙģØ£": 1979,
      "®Ø¨": 1980,
      "ĠÙĥØ«ÙĬ": 1981,
      "ÙĬÙĨØ§": 1982,
      "Ø°ÙĬ": 1983,
      "ĠØ£ØŃÙħØ¯": 1984,
      "ĠÙĪØ§ÙĦÙ": 1985,
      "ĠÙĪÙĤØª": 1986,
      "ĠØ®Ø": 1987,
      "ĠØ§ÙĦÙħÙĩ": 1988,
      "ĠØ§ÙĦÙģÙĪ": 1989,
      "ĠØ¨Ø§ÙĦØ£": 1990,
      "ĠÙĬÙħ": 1991,
      "ĠØ§ÙĨÙĩ": 1992,
      "Ø¯ÙĬØ±": 1993,
      "ĠÙĪØ§ÙĦØ´": 1994,
      "ĠÙħØ¯": 1995,
      "ĠØ§ÙĦÙĤÙĬØ§": 1996,
      "ĠÙħØ±Ø§": 1997,
      "ĠØ£ØŃ": 1998,
      "ÙģØ±Ø": 1999,
      "Ø±ÙĬØ§Øª": 2000,
      "ĠÙĪÙĥØ§": 2001,
      "ĦÙħÙĬÙĨ": 2002,
      "¦Ø": 2003,
      "Ø¶ÙĪØ¹": 2004,
      "¤Ù": 2005,
      "Ø±ØŃÙĦØ©": 2006,
      "ÙĬÙĨØ©": 2007,
      "ÙĪØ·": 2008,
      "ĠØ§ÙĦØ´Ù": 2009,
      "ÙĬÙĨØ": 2010,
      "ĠØ§ÙĦÙĥÙ": 2011,
      "Ø·ÙģØ§Ù": 2012,
      "ĠÙĪØ¶": 2013,
      "Ø³ØªÙĤ": 2014,
      "ĠØ¨Ø¬": 2015,
      "¹ÙĬØ": 2016,
      "ĠØ§ÙĦØµØ§": 2017,
      "ĠØ§ÙĦØ®Ø": 2018,
      "ĠØ¨Ø§ÙĦÙħÙ": 2019,
      "ĠÙĪÙħØ": 2020,
      "ĠØ§ÙĦØ¬Ù": 2021,
      "ĠÙħØ¬ÙħÙĪØ¹Ø©": 2022,
      "ÙĤÙĬÙħØ": 2023,
      "ĠÙĪØ¹ÙĦÙī": 2024,
      "ÙĪÙĨÙĬØ©": 2025,
      "Ø±ÙĬØ¹": 2026,
      "ĠÙģØ±Ø": 2027,
      "ĦØ²": 2028,
      "ĠØ¨Ø§ÙĦØ§": 2029,
      "ÙĬÙĪØ": 2030,
      "¨ÙĦØ§": 2031,
      "ĠØ°Ø§Ø": 2032,
      "ÙħÙĪÙĨ": 2033,
      "³Ø§Ø¦ÙĦ": 2034,
      "ÙĦÙĤ": 2035,
      "¯Ø³": 2036,
      "ÙħÙĨÙĬØ©": 2037,
      "Ø¨ÙĦØº": 2038,
      "ĠÙħØ±Ø©": 2039,
      "Ø·ÙĬØ©": 2040,
      "ÙĪØ§Ø¨": 2041,
      "ĠØ°Ø§Øª": 2042,
      "ØµÙĪÙĦ": 2043,
      "ÙĪØ«": 2044,
      "Ø±Ø§Ø¦ÙĬÙĦ": 2045,
      "ØªØ§Ø¬": 2046,
      "ĠØ§ÙĦÙħØµØ§": 2047,
      "ĠØ£ÙģØ¶ÙĦ": 2048,
      "Ø±Ø´": 2049,
      "ĠØ§ÙĦØ´Ø¹Ø¨": 2050,
      "ĠØ´ÙĬØ¡": 2051,
      "Ø±Ø§Ùħ": 2052,
      "ÙģØ§Øª": 2053,
      "ªÙĬÙĨ": 2054,
      "Ø¯ÙĪÙĦ": 2055,
      "Ġ15": 2056,
      "ĠØ§ÙĦÙĨØ¸Ø§Ùħ": 2057,
      "³ÙĪÙģ": 2058,
      "ĠÙĨÙģØ³Ùĩ": 2059,
      "Ø±Ø¬ÙĬØ": 2060,
      "ģØŃØ©": 2061,
      "ĠØ¯ÙĬÙ": 2062,
      "Ø·ÙģØ§ÙĦ": 2063,
      "ĠÙģÙĦØ§": 2064,
      "ĠØ§ÙĦÙĪØ·ÙĨÙĬ": 2065,
      "ÙĬÙĦØ©": 2066,
      "ĠÙħØ³ØªÙĪÙī": 2067,
      "ĠØ§ÙĦÙħØ¬ØªÙħØ¹": 2068,
      "ĠÙĤØ§Ùħ": 2069,
      "ÙĤÙĤ": 2070,
      "®Ø¯Ùħ": 2071,
      "ÙħÙĬØ§": 2072,
      "Ø¯Ø§Ù": 2073,
      "ĠØ§ÙĦØ¯ÙĪÙĦÙĬ": 2074,
      "Ġ12": 2075,
      "ĠÙĦÙĦØ¥": 2076,
      "Ø±Ø§ØªÙĬ": 2077,
      "ĠØ¨ÙĬØ": 2078,
      "ĠØªØ³ØªØ": 2079,
      "ĠÙĪØªÙ": 2080,
      "¯ÙĪÙĦØ§Ø±": 2081,
      "ÙĦÙĦÙĩ": 2082,
      "ÙħØ§ÙĬ": 2083,
      "ÙĨØ³": 2084,
      "ĠØ§ÙĦØªØ£": 2085,
      "Ø±Ø¬ÙĬØ©": 2086,
      "ªÙĬØ¬Ø©": 2087,
      "ĦØªÙĩ": 2088,
      "ĠØ§Ø¨ÙĨ": 2089,
      "ªØŃØ§": 2090,
      "ÙĤØ¨ÙĦ": 2091,
      "ĠØ§ÙĦØ¥ÙĨØ³Ø§ÙĨ": 2092,
      "¹ÙĨØ§": 2093,
      "ĠØªØº": 2094,
      "ĠØ¨Ø³": 2095,
      "°Ø§": 2096,
      "ĩÙĪØ¯": 2097,
      "ĦÙĬØ³": 2098,
      "ĠØ§ÙĦØ´ÙĬØ®": 2099,
      "±ÙĥÙĬØ": 2100,
      "ÙĩØ§Ø²": 2101,
      "Ø¨Ø±Ø§": 2102,
      "Ø±ÙĨ": 2103,
      "ĦØºØ©": 2104,
      "ÙĤÙĩØ§": 2105,
      "ĠØªØ¨Ø": 2106,
      "ĠØ¥Ø°": 2107,
      "ÙħØ§Ø¡": 2108,
      "ĠÙĨØ¸": 2109,
      "ØµÙħ": 2110,
      "ĠØ§ÙĦØ¬Ø¯ÙĬØ¯Ø©": 2111,
      "ĠØ¥Ø¯Ø§Ø±Ø©": 2112,
      "ĠØ§ÙĦØŃÙ": 2113,
      "ªÙħÙĬ": 2114,
      "ÙĦØ§Ø¨": 2115,
      "ĠØ£Ø¨ÙĪ": 2116,
      "Ø¶ÙĬØ": 2117,
      "ĠØ§ÙĦØ³ÙĦØ§Ùħ": 2118,
      "ĠØ§ÙĦÙħØ®": 2119,
      "ĠØ§ÙĦØ´Ø±ÙĥØ©": 2120,
      "ĠØ§ÙĦÙĦØ¬": 2121,
      "ĠØ§ÙĦØ¹Ø±Ø§ÙĤ": 2122,
      "ĠØªÙĨØ§": 2123,
      "ĠÙħØªÙ": 2124,
      "·ÙĬØ¹": 2125,
      "µÙĬØ": 2126,
      "ĠØŃÙĥ": 2127,
      "ĠØ§ÙĦØ¯ÙĬÙĨ": 2128,
      "ĠØ«Ø§": 2129,
      "ĠØ§ÙĦØŃÙĬØ§Ø©": 2130,
      "ÙħØ§Ø±Ø§Øª": 2131,
      "¯Ø§Ø¡": 2132,
      "ĠØ¬Ø§Ø¡": 2133,
      "ÙĤØ§Ø¡": 2134,
      "ØºØ": 2135,
      "ĠÙħÙĦØ§": 2136,
      "ĠØ§ÙĦØªØ·": 2137,
      "ĠØ´Ø®Øµ": 2138,
      "¯Ø§ÙĪÙĦ": 2139,
      "ĠØ§ÙĦÙĩØ§": 2140,
      "ÙĤØµ": 2141,
      "ĠØ³ÙĨÙĪØ§Øª": 2142,
      "ĠØ§ÙĦÙħÙħÙĦÙĥØ©": 2143,
      "ÙħÙĥØ§": 2144,
      "ØªÙħØ": 2145,
      "Ø¯ÙĪØ±": 2146,
      "Ø¯ÙĪÙĦØ§Ø±": 2147,
      "¯Ø§ÙĬ": 2148,
      "ĠÙĦØ¯Ùī": 2149,
      "ĠØ¯ÙĪÙĦØ§Ø±": 2150,
      "ÙĦØ§Ø«Ø©": 2151,
      "ĠØªØ¹Ø§ÙĦÙī": 2152,
      "¨ÙĩØ§": 2153,
      "ĠØ§ÙĦØ£Ø´": 2154,
      "ĠØ¶ÙħÙĨ": 2155,
      "ĠØ§ÙĦØ¢Ø®Ø±": 2156,
      "ĠÙĪØ§ØŃØ¯Ø©": 2157,
      "ĠØ§ÙĦØ§ØŃØªÙ": 2158,
      "¶Ø§Ø": 2159,
      "ĠØ§ÙĦØªÙĤ": 2160,
      "ĠÙĪØ§ÙĦÙĥ": 2161,
      "ĠØ¹ÙĦÙħ": 2162,
      "ĦÙĨÙģØ": 2163,
      "ĠÙĪØ§Ø": 2164,
      "ÙĦØ±Ø": 2165,
      "¯Ø®": 2166,
      "ÙĤØ¨": 2167,
      "ĠÙĬÙĤÙĪÙĦ": 2168,
      "¶ÙĬØ©": 2169,
      "ÙĦØŃØ": 2170,
      "ÙĤÙĬÙħØ©": 2171,
      "Ø²Ø§Øª": 2172,
      "ÙĦØº": 2173,
      "ÙĦÙĨØ": 2174,
      "³Ø§Ø¨ÙĤ": 2175,
      "¸Ø§Ø": 2176,
      "ØŃÙĨ": 2177,
      "ÙĩØ©": 2178,
      "Ø²Ø±Ø§Ø¡": 2179,
      "ĠØ£Ø¹Ù": 2180,
      "ĦÙĪÙħ": 2181,
      "Ø³ÙĪÙģ": 2182,
      "ªÙĥØ§": 2183,
      "ĠØ§ÙĦØ¨ØŃØ«": 2184,
      "Ø¨ÙĬÙĤ": 2185,
      "Ø¬ÙĩØ²Ø©": 2186,
      "ĠØ§ÙĦØ´Ø±Ø": 2187,
      "Ø´Ø§Ø±": 2188,
      "Ø¹ÙĪØ¯": 2189,
      "Ø¯ÙĪÙĦØ©": 2190,
      "ĠØ±ÙĬØ§": 2191,
      "ĠØ²Ø§": 2192,
      "ģØ¹ÙĦ": 2193,
      "µØ¯": 2194,
      "ÙĦØ´": 2195,
      "ªØ§Ø¦": 2196,
      "¹Ø¨Ø§": 2197,
      "ĩÙħØ": 2198,
      "ĠÙĨØ´": 2199,
      "ĠØ¹Ø±Ø¶": 2200,
      "ĠØ£ÙĦÙģ": 2201,
      "Ø¦Ø§": 2202,
      "Ø±Ø¹Ø©": 2203,
      "ĠØ§ÙĦØ¨ÙĬ": 2204,
      "°Ø": 2205,
      "ÙħÙĪØ±": 2206,
      "ÙħÙĨØ§": 2207,
      "¤ÙĪÙĦ": 2208,
      "ĠÙĪØ§ÙĦØ°ÙĬ": 2209,
      "ĠÙĦÙĦØŃ": 2210,
      "ĠØ´ÙĩØ±": 2211,
      "¦Ø©": 2212,
      "Ø³ØªØ§": 2213,
      "ĦØ¹Ø¨": 2214,
      "ĠÙĪØ§ÙĦØµ": 2215,
      "ĨÙħÙĬØ©": 2216,
      "ģØ±ÙĬÙĤ": 2217,
      "Ø´Ø©": 2218,
      "ĠØ§ÙĦÙħÙĪØ§Ø·ÙĨ": 2219,
      "ĠØ¬Ùħ": 2220,
      "ÙĥÙħØ§": 2221,
      "ĠØ§ÙĦÙĤÙ": 2222,
      "ĠØªØ¬Ø§": 2223,
      "Ġ14": 2224,
      "ĠØ¬Ø¯ÙĬØ¯": 2225,
      "ĠÙĤÙĬØ§": 2226,
      "ĬØ§Ùĩ": 2227,
      "ĦÙĨÙĩØ§": 2228,
      "Ø·Ø§Ù": 2229,
      "Ø²ÙĬØ©": 2230,
      "ÙĦÙĨØ§": 2231,
      "ĠÙĦÙĦØ´": 2232,
      "ĠØ¯Ø§Ø¦": 2233,
      "ĠÙĬÙĪÙ": 2234,
      "ĠÙħÙĥØ§": 2235,
      "ĠØ§ÙĦØ¬ÙĨ": 2236,
      "ĠØ¯ÙĪÙĦØ©": 2237,
      "ĠØ§ÙĦØ§ØªØŃØ§Ø¯": 2238,
      "ªÙħØ±": 2239,
      "ĠØ§ÙĦÙģØ±ÙĬÙĤ": 2240,
      "Ø¸Ù": 2241,
      "ĠØµØŃ": 2242,
      "ĠØ§ÙĦØ³ÙĬØ§Ø³ÙĬØ©": 2243,
      "¨ØŃØ§": 2244,
      "Ø±ÙĪØ±Ø©": 2245,
      "ĠØ§ÙĦØ£Ø±Ø¶": 2246,
      "ĠØ³ÙĪÙģ": 2247,
      "±ÙĬØ¯": 2248,
      "ĠØªØ¹": 2249,
      "Ø®ÙĬØ±Ø©": 2250,
      "Ø¨ÙĬØ§": 2251,
      "Ġ11": 2252,
      "ĠØ§ÙĦÙħØ¹Ø": 2253,
      "³Ùī": 2254,
      "Ø²Ø¡": 2255,
      "Ø°Ùĥ": 2256,
      "¯Ø§ÙĬØ": 2257,
      "¨ÙĨØ§": 2258,
      "ÙĪØ§ÙĦ": 2259,
      "ĠØ§ÙĦØ¬Ø¯ÙĬØ¯": 2260,
      "ĠÙĪØ·": 2261,
      "ÙĦØ§Ø©": 2262,
      "ĠØ§ÙĦÙħØ¬ÙĦØ³": 2263,
      "¬Ø§ÙĦ": 2264,
      "¨ÙĬÙĦ": 2265,
      "ĠØ§ÙĦØ¯ÙĪÙĦÙĬØ©": 2266,
      "ĠØ£ØŃØ": 2267,
      "®Ø§Ø¨Ø§Øª": 2268,
      "ĠØ§ÙĦØ¹ÙĦÙħ": 2269,
      "Ø¬Ø±Ø§Ø¡Ø§": 2270,
      "ĠØ³ÙĬØ": 2271,
      "ĠØ§ÙĦØ§Ùħ": 2272,
      "ĠØ§ÙĦØ®Ø·": 2273,
      "¯Ø§ÙĬØ©": 2274,
      "Ø¨ÙĨØ§Ø¡": 2275,
      "ĠÙĪØ¹Ù": 2276,
      "ĠØ£ÙĥØ¨Ø±": 2277,
      "ØªÙģØ§ÙĤ": 2278,
      "¬Ø§Ùĩ": 2279,
      "ÙĪÙĬØª": 2280,
      "ĠØªÙĪØ§": 2281,
      "ĠØ§ÙĦÙħØ¬": 2282,
      "ØªÙħØ§": 2283,
      "ºØ": 2284,
      "Ø£Øª": 2285,
      "ÙħØ§ÙĬØ": 2286,
      "ĠØ§ÙĦØªØŃØ": 2287,
      "ĠØ§ÙĦØ§ÙĨØ": 2288,
      "ĬØ£": 2289,
      "ÙĬØ£": 2290,
      "ØºØ·": 2291,
      "ĠØ§ÙĦÙĪÙĦØ§ÙĬØ§Øª": 2292,
      "Ø³Ø¨ÙĪØ¹": 2293,
      "«Ø§": 2294,
      "Ø¦Ùĩ": 2295,
      "ĠÙĦÙĥÙĦ": 2296,
      "ĦØ¨Ø©": 2297,
      "Ø±Ø·": 2298,
      "ÙħØ§ÙĬØ©": 2299,
      "ĠØ¹Ø´": 2300,
      "ÙģÙĤ": 2301,
      "ĠÙĪØ®": 2302,
      "ĠØ®ÙĦØ§": 2303,
      "ĠØ§ÙĦÙĪØ·ÙĨÙĬØ©": 2304,
      "ĠØ§ÙĦØ³Ø§Ø¨ÙĤ": 2305,
      "Ø¯Ø±Ø§": 2306,
      "ĩÙħØ©": 2307,
      "±ÙĨØª": 2308,
      "ģÙĬØ©": 2309,
      "ĠØ§ÙĦÙĩÙĬ": 2310,
      "ĠØ£ÙħØ³": 2311,
      "ĠÙĥØ§ÙģØ©": 2312,
      "Ø®Ø°": 2313,
      "ĦÙĩÙħ": 2314,
      "Ø¬Ø±Ø§Ø¡Ø§Ø": 2315,
      "Ø¬Ø±Ø§Ø¡Ø§Øª": 2316,
      "ĠØ¥ÙĦÙĬÙĩ": 2317,
      "ÙĪØµ": 2318,
      "ÙĥØªØ": 2319,
      "ĦÙĪÙĨ": 2320,
      "ĠØ§ÙĦØ£Ø±Ø": 2321,
      "³ÙĦØ§Ùħ": 2322,
      "ĠØ§ÙĦØ®Ø§Øµ": 2323,
      "ĠØ§ÙĦØ£ÙħÙĨ": 2324,
      "ØªÙħØ±": 2325,
      "¹ÙĤ": 2326,
      "¹Ø§Øª": 2327,
      "Ø¬Ø§Øª": 2328,
      "ĠØ§ÙĦÙħØ§ÙĦÙĬØ©": 2329,
      "ĨÙģØ": 2330,
      "ªØ§Ø¦Ø¬": 2331,
      "ÙĪÙĬÙĦ": 2332,
      "ĠØ¹Ø§ÙħØ§": 2333,
      "ĠØ§ÙĦØªØ´": 2334,
      "ĠØ§ÙĦØ¨ÙĦØ§Ø¯": 2335,
      "ªÙĥÙĪÙĨ": 2336,
      "ÙģÙĩØ§": 2337,
      "±ÙĥØ§": 2338,
      "ÙĤØ§ÙħØ": 2339,
      "ĠØ§ÙĦÙĤØ§ÙĨÙĪÙĨ": 2340,
      "ÙħÙĩÙĪ": 2341,
      "ÙĦØ¹": 2342,
      "ÙĪØ±ÙĬØ©": 2343,
      "ĠÙħØ®": 2344,
      "ĠØ§ÙĦØ±Ø³": 2345,
      "ĠØ§Ø®ØªÙ": 2346,
      "ĠØ¹Ø¯Ø©": 2347,
      "ÙĥÙĦØ©": 2348,
      "ĠØ§ÙĦØŃÙĤ": 2349,
      "¹ÙĤØ¯": 2350,
      "ØŃØ±": 2351,
      "ĠÙĬØ£": 2352,
      "ÙĪØªØ": 2353,
      "¹ÙĦÙĤ": 2354,
      "ĠÙĦØŃØ": 2355,
      "ÙĨØ§Ø©": 2356,
      "¹Øª": 2357,
      "ĠØ§ÙĦØ«Ø§ÙĦØ«": 2358,
      "Ø·ÙĦØ§ÙĤ": 2359,
      "ĠØ§ÙĦØ¯Ø§Ø®": 2360,
      "ĠØ¯ÙĪÙĦ": 2361,
      "³Øª": 2362,
      "Ø¬Ø¹": 2363,
      "Ø°ÙĥØ±": 2364,
      "ĠØ¥ÙĨÙĩ": 2365,
      "ĠØ§ÙĦØ¯Ø±Ø§": 2366,
      "±ÙĥÙĬØ©": 2367,
      "ØµØ¯": 2368,
      "ĠØ§ÙĦØ§Ø®": 2369,
      "ÙħÙĦØ§": 2370,
      "ĠÙĨØ¸Ø§Ùħ": 2371,
      "¬Ø§Øª": 2372,
      "ĠØ§ÙĦØºØ§": 2373,
      "ĠØ§ÙĦØ¹Ø³Ùĥ": 2374,
      "«Ø": 2375,
      "Ø³Ø¨Ø": 2376,
      "ĠØ¨ÙĤ": 2377,
      "ĠØ¨Ø±ÙĨØ§ÙħØ¬": 2378,
      "ĠØ§ÙĦØ·Ø¨ÙĬ": 2379,
      "ØŃØ§Ø¨": 2380,
      "ÙĦØªÙ": 2381,
      "³ÙĬØ§": 2382,
      "³Ø§Ùħ": 2383,
      "Ø³Ø³Ø©": 2384,
      "ĠØ¹Ø´Ø±": 2385,
      "¤Ø§": 2386,
      "´Ø§Ø±": 2387,
      "ÙĦÙĤØ¯": 2388,
      "ÙĦÙĥØªØ±": 2389,
      "ĠÙĪØ¶Ø¹": 2390,
      "ĠØ§ÙĦØ³ÙĪØ¯Ø§": 2391,
      "ĠØ§ÙĦÙĨÙĩØ§": 2392,
      "ªÙĤØ§": 2393,
      "ĠØ§ÙĦØ£Ø®Ø±Ùī": 2394,
      "Ø¯ÙĩØ§": 2395,
      "ĠÙħÙĨÙĩÙħ": 2396,
      "ĠØªØ§Ø±ÙĬØ®": 2397,
      "Ø±Øµ": 2398,
      "ĠØ§ÙĦØ±": 2399,
      "ĠÙĪÙĦÙĬØ³": 2400,
      "ĠØ¢Ù": 2401,
      "ØªÙĤØ¯Ùħ": 2402,
      "·Ø§Øª": 2403,
      "ØŃØ¯Ø§Ø«": 2404,
      "Ø³Ø³Ø§Øª": 2405,
      "Ø®ØµÙĬØ©": 2406,
      "Ø¯Ø§Ùģ": 2407,
      "ĠØ£Ø³Ø§": 2408,
      "ĠØ§ÙĦØ±ØŃ": 2409,
      "Ø³Ùģ": 2410,
      "ĠØ§ÙĦÙħØ¯ÙĬÙĨØ©": 2411,
      "ĠÙĦÙĨØ§": 2412,
      "ĠØ§Ø³ØªØ®Ø¯Ø§Ùħ": 2413,
      "±ÙĨØ": 2414,
      "ĦØ¹Ù": 2415,
      "Ø±Ø¢": 2416,
      "ĦÙĪØ¨": 2417,
      "ĠÙĨØ¬": 2418,
      "·Ø¹": 2419,
      "ĠÙĪÙĩ": 2420,
      "ĬØµ": 2421,
      "Ø´Ø±Ø©": 2422,
      "ĠØ§ÙĦØ£ÙĨØ": 2423,
      "ĦÙģÙĬ": 2424,
      "ĠØ§ÙĦØ®Ø§Ø±Ø¬ÙĬØ©": 2425,
      "ºÙĬØ": 2426,
      "Ø¬Øª": 2427,
      "ĠØ¬Ø§ÙĨØ¨": 2428,
      "ģÙĬØ±": 2429,
      "Ġ25": 2430,
      "ĠØ§ÙĦØ·Ù": 2431,
      "ĠØªØ¶": 2432,
      "¤ÙĬ": 2433,
      "Ø¨Ø§ÙĦ": 2434,
      "ĠØªÙħØ§": 2435,
      "ĠÙĨÙĤØ": 2436,
      "ĠØ£ÙĨØ§": 2437,
      "Ø³ØªØ®Ø¯Ø§Ùħ": 2438,
      "¯ÙĨÙĬØ©": 2439,
      "ĠØ§ÙĦÙħØ¯": 2440,
      "ĠÙĨØŃÙĨ": 2441,
      "ÙĪÙĨØ©": 2442,
      "ªÙĦ": 2443,
      "ĠÙĪØ§ÙĦÙĨØ": 2444,
      "Ø¨ÙĦØ©": 2445,
      "¨ÙĥÙĦ": 2446,
      "ĠØ§ÙĦØŃØ¯": 2447,
      "Ø¹Ø±Ùģ": 2448,
      "ÙħÙĬÙħ": 2449,
      "ĠÙĨÙģØ³": 2450,
      "ÙĨØªØ§Ø¬": 2451,
      "ĠÙĪÙĥØ°ÙĦÙĥ": 2452,
      "¹ÙĨØ": 2453,
      "ĠØ³Ø¨Ø": 2454,
      "Ø§ÙħØ": 2455,
      "ĠØ¨ÙĨØ§Ø¡": 2456,
      "ĠÙĦÙĨØ": 2457,
      "ĠÙĦØ´": 2458,
      "ĠÙħØ«": 2459,
      "ĠÙħØ¬Ø§Ù": 2460,
      "ĦØ¨ÙĬØ©": 2461,
      "Ø±ÙĪØ³": 2462,
      "ÙģØ±ÙĬÙĤ": 2463,
      "Ø¬Ø²": 2464,
      "ÙĩÙĬÙħ": 2465,
      "ÙĨØ§Ù": 2466,
      "ØŃÙĬØŃ": 2467,
      "ØªØ¨Ø": 2468,
      "ĠØŃØ³Ø¨": 2469,
      "Ø£Ù": 2470,
      "«ÙħØ§Ø±": 2471,
      "³ÙĪØ§Ø¡": 2472,
      "ÙĪØ¶ØŃ": 2473,
      "ĠÙĥÙĬÙģ": 2474,
      "ĠØ§Ø´": 2475,
      "¶ÙĪ": 2476,
      "Ø±Ø²": 2477,
      "ĠØŃØ§ÙĦ": 2478,
      "ĠØ¨Ø°": 2479,
      "Ø³ÙĪØ§Ø¡": 2480,
      "ĠØ§ÙĦØ¹Ø§ÙĦÙħÙĬØ": 2481,
      "ĠØ§ÙĦØ¬ÙĬØ´": 2482,
      "ĠØªØ±Ùĥ": 2483,
      "ĠÙģØ±ÙĬÙĤ": 2484,
      "ĠÙĦØ°ÙĦÙĥ": 2485,
      "ĠÙĦÙĦØŃØ": 2486,
      "ĠØ§ÙĦØ¹Ø§ÙĦÙħÙĬØ©": 2487,
      "ĠØ§ÙĦØ£ÙĪØ": 2488,
      "ĠÙħØ¯ÙĬØ±": 2489,
      "ĠØŃÙĬØ§": 2490,
      "ĠÙĬÙħÙĥÙĨÙĥ": 2491,
      "ĠØ§ÙĦØ£ØŃ": 2492,
      "ĠØ§ÙĦØ«ÙĤØ§": 2493,
      "ĠØ§ÙĦØ¥Ø³Ø±Ø§Ø¦ÙĬÙ": 2494,
      "ØµÙĬÙĦ": 2495,
      "ĠØ¨Ø§ÙĦØ¥Ø¶Ø§ÙģØ©": 2496,
      "ĠØ§ÙĦØ¹Ø±Ø¨": 2497,
      "±ÙĤØ©": 2498,
      "ØµÙħØ": 2499,
      "ĠÙħØ¬Ø§ÙĦ": 2500,
      "ĠÙĩÙħ": 2501,
      "ĠÙĨÙĩØ§Ù": 2502,
      "ĠÙħØ±ÙĥØ²": 2503,
      "ģØ¶ÙĦ": 2504,
      "¯ÙĨÙĬ": 2505,
      "ÙĦØ¨Ø": 2506,
      "¨ÙĪØ": 2507,
      "ĠØ¯ÙĬ": 2508,
      "ĠØ§ÙĦÙģØªØ±Ø©": 2509,
      "ÙĪÙħÙĬØ©": 2510,
      "ĠØ§ÙĦØ´Ø¨Ø§Ø¨": 2511,
      "ĠØ§Ø¹Ø": 2512,
      "ĠÙĪØª": 2513,
      "ĠÙĨÙĩØ§ÙĬ": 2514,
      "ÙĥÙĨ": 2515,
      "ĠØ§ÙĦÙĦÙĬ": 2516,
      "ĠØ§ÙĦØ´Ø±ÙĥØ§Øª": 2517,
      "ĠØ±Ø³ÙĪÙĦ": 2518,
      "¯ÙĩÙħ": 2519,
      "ĠØ§ÙĦØ«Ø§ÙĨÙĬØ©": 2520,
      "ĪØ¯Ø©": 2521,
      "ĨØ§Ø³Ø¨Ø©": 2522,
      "ĠØ§ÙĦØªØ¬": 2523,
      "Ø«Ø§Ø": 2524,
      "ģÙĪ": 2525,
      "ÙĩØ§Øª": 2526,
      "Ø±Ø§Ø¬": 2527,
      "ĠØ§ÙĦÙĪØ²Ø±Ø§Ø¡": 2528,
      "ĠØ³ÙĪØ§Ø¡": 2529,
      "ĠØ§ÙĦÙħØ±ÙĥØ²": 2530,
      "ĠØ§ÙĦÙĦØ¬ÙĨØ©": 2531,
      "ĠØªÙģ": 2532,
      "ĠØ§ÙĦØ¥ÙĬ": 2533,
      "¬Ø§ØŃ": 2534,
      "ÙĦÙĩÙħ": 2535,
      "ĬØ¹Ø": 2536,
      "¨ÙĪÙĦ": 2537,
      "ĦÙĨÙģ": 2538,
      "ĠØ§Ø±ØªÙ": 2539,
      "ĦÙĬÙĨ": 2540,
      "ĠØ§ÙĦØ³ÙĬØ": 2541,
      "ĠØ£Ø«ÙĨØ§Ø¡": 2542,
      "²ÙĬ": 2543,
      "Ø¨Ø¯Ø£": 2544,
      "ÙĬØ¹Ø": 2545,
      "Ø±Ø±Ø": 2546,
      "er": 2547,
      "Ø®Ø§Øµ": 2548,
      "¸ÙĬ": 2549,
      "ÙĪÙĦØ§Øª": 2550,
      "¨ØŃØ«": 2551,
      "±ÙĬØ·Ø§": 2552,
      "Ø¨ÙĥÙĦ": 2553,
      "ĦÙĤØ§Ù": 2554,
      "ĠØªØŃÙĤÙĬÙĤ": 2555,
      "ĠØ³ÙĪØ±ÙĬØ§": 2556,
      "ĠØ±ÙĪØ§": 2557,
      "¨ÙĬØ¹": 2558,
      "¨ÙĥØ©": 2559,
      "ØµÙħØ©": 2560,
      "ĠÙģÙĩÙĪ": 2561,
      "ĠØ§ÙĦÙħØµØ±ÙĬØ©": 2562,
      "ĠØ§ÙĦØ£ÙħØ±ÙĬÙĥÙĬØ©": 2563,
      "ĦØ®": 2564,
      "Ġ18": 2565,
      "ĠÙĥÙĬÙ": 2566,
      "ĠØ¨ÙĥÙĦ": 2567,
      "ĠÙĬØ¹ÙĨÙĬ": 2568,
      "ĠØ§ÙĦØ³Ø": 2569,
      "ĠÙĥÙħ": 2570,
      "ĠØ¨Ø§ÙĦÙĨØ³Ø¨Ø©": 2571,
      "Ø±ÙĬØ³": 2572,
      "ĠØ§ÙĦØªÙĨØ": 2573,
      "ĠØ±ÙĤ": 2574,
      "Ø¦Ø¹": 2575,
      "ĠÙĤÙħ": 2576,
      "Ø³Ø¯": 2577,
      "¹Ø§ÙĦ": 2578,
      "ĠØ¹ÙĨÙĩØ§": 2579,
      "ĠÙģØªØ±Ø©": 2580,
      "Ø±Ø§Ø¹": 2581,
      "ĠØ§ÙĦØ®Ù": 2582,
      "ĠÙĪØ²": 2583,
      "ØŃØªØ": 2584,
      "ĠÙħØ´Ø±ÙĪØ¹": 2585,
      "Ø¶ØŃ": 2586,
      "ĠØ§ÙĦÙħØŃØ": 2587,
      "ĠÙħÙĥØ§ÙĨ": 2588,
      "ĠØ§ÙĦØ¯ÙĬ": 2589,
      "Ġ30": 2590,
      "²Ø§Ù": 2591,
      "ĠÙĪØ§ÙĦØªÙ": 2592,
      "Ø³ÙĩÙħ": 2593,
      "ĠØµÙģ": 2594,
      "ĠÙĬÙĥÙĨ": 2595,
      "ĠÙħØ®ØªÙĦÙģ": 2596,
      "ĠØ§ÙĨØª": 2597,
      "ĠÙħØ¶": 2598,
      "ĠØ§ÙĦØµØŃ": 2599,
      "ĠØ§ÙĦØ³ÙĨ": 2600,
      "ĠØŃØ¯Ø«": 2601,
      "ĠØŃÙĪØ§": 2602,
      "ØŃÙĩ": 2603,
      "ĠØ¨ÙĬÙĨÙħØ§": 2604,
      "ĠÙĨÙĩØ§ÙĬØ": 2605,
      "¶ÙĪØ±": 2606,
      "ĠÙĨÙĩØ§ÙĬØ©": 2607,
      "ĦØ¯ÙĬ": 2608,
      "¨ÙĤØ§": 2609,
      "ĠØ§ÙĦØ«ÙĦØ§Ø«": 2610,
      "ĠÙĦØªÙ": 2611,
      "ĠA": 2612,
      "Ø¬ÙĪØ¯": 2613,
      "ĠÙĪØªØŃ": 2614,
      "ĠØªÙĤÙĪÙħ": 2615,
      "ĠØ£Ø¨ÙĬ": 2616,
      "ĠØ§ÙĦØ£Ø³Ø§": 2617,
      "ĠÙĬØ¹Ø": 2618,
      "ĦÙħÙĬØ": 2619,
      "ĠÙĨØ³": 2620,
      "ĠÙĦØ¹Ø": 2621,
      "Ġ16": 2622,
      "ĦØ§ÙĦ": 2623,
      "ĠÙĦÙħØ¯Ø©": 2624,
      "ĬØ§ÙĨØ§Øª": 2625,
      "ĠØ®Øµ": 2626,
      "ĠØ§ÙĦØ£Ø®ÙĬØ±Ø©": 2627,
      "ĩØ±": 2628,
      "ĠØ§ÙĦØ£Ùĩ": 2629,
      "ĠÙĬÙĤÙĪÙħ": 2630,
      "ĠØ³Øª": 2631,
      "¤ÙĦØ§Ø¡": 2632,
      "ĠÙħÙĩ": 2633,
      "¨Ø¹": 2634,
      "¸ÙĩØ±": 2635,
      "ĠØ§ÙĦÙħÙĪÙĤØ¹": 2636,
      "ĠØ§ÙĦØ¥Ø³ÙĦØ§ÙħÙĬØ©": 2637,
      "ĠÙħÙĬÙ": 2638,
      "Ø¹ÙĪØ§": 2639,
      "Ø±Ø§Ø¨": 2640,
      "¯ÙĪØ§": 2641,
      "ĩÙĪØ±": 2642,
      "ĠÙĪØªØŃØ": 2643,
      "ĠØ§ÙĦÙħÙħ": 2644,
      "ĠØ§ÙĦÙħØ¹ÙĦÙĪÙħØ§Øª": 2645,
      "±ÙĪÙĨ": 2646,
      "ĠØ§ÙĦØ£Ø¹ÙħØ§ÙĦ": 2647,
      "Ø¨ÙĦØ§": 2648,
      "ĠØ¯ÙĪØ±": 2649,
      "®Ø¯": 2650,
      "ĠØ§ÙĦÙħÙĦØ§": 2651,
      "Ø«ÙĨÙĬÙĨ": 2652,
      "Ø±Ø¶Ø": 2653,
      "ĩØ±Ø¨Ø§": 2654,
      "ĠØªÙĤØ¯Ùħ": 2655,
      "ĠÙĪØ£Ù": 2656,
      "ĠØªØ¤": 2657,
      "¨ÙĪØ§": 2658,
      "¹ÙħØ": 2659,
      "ĠØ§ÙĦØ±Ø¦ÙĬ": 2660,
      "Ø¨Ø§Ø¡": 2661,
      "ĠÙĪØ§ÙĦØ¹Ø": 2662,
      "³Ø§Ø¨ÙĤØ©": 2663,
      "ĦÙħÙĬØ©": 2664,
      "ĠØ§ÙĦÙħØ±Ø£Ø©": 2665,
      "¯Ø§ÙĨ": 2666,
      "ÙĬØ§Ø±Ø§Øª": 2667,
      "ĬØ¶": 2668,
      "ĠÙĦØ³": 2669,
      "ĠØ£Ùģ": 2670,
      "¹Ø§ÙĬ": 2671,
      "ĠS": 2672,
      "Ġ13": 2673,
      "ĠØ¹ÙħØ": 2674,
      "ÙħÙĩÙĪØ±ÙĬØ©": 2675,
      "ĠØ¥Ø³Ø±Ø§Ø¦ÙĬÙĦ": 2676,
      "³Ø§ÙĦØ©": 2677,
      "ĠØ§ÙĦØ£Ø¬": 2678,
      "ĠØ£ÙĬØ§Ùħ": 2679,
      "ÙĬØ§ÙĨ": 2680,
      "ĠÙħÙĤØ§Ø¨ÙĦ": 2681,
      "ĠÙĪÙĬØ": 2682,
      "ĠÙģØ¶": 2683,
      "ĠØ§ÙĦÙħØ³ÙĦÙħÙĬÙĨ": 2684,
      "Ø®Ø©": 2685,
      "¹ÙĦÙħ": 2686,
      "ĠØ§Ø¹ØªØ": 2687,
      "ÙĤØ§Ø·": 2688,
      "ĠØ§ÙĦØ¨ÙĨ": 2689,
      "ĠØ®Ùħ": 2690,
      "ĠØ¹ÙĦÙĬÙĥ": 2691,
      "Ø±Ø§Ø¡Ø": 2692,
      "ĠØ§ÙĦÙħØµØ±ÙĬ": 2693,
      "ÙĤØ§ÙħØ©": 2694,
      "ÙģØ§Ø¡": 2695,
      "ĠØ§ÙĦØŃØ±Ø¨": 2696,
      "³ÙĪÙĤ": 2697,
      "ĠØ§ÙĦÙħÙĬ": 2698,
      "Ø±Ø§Ø¡Ø©": 2699,
      "³ÙĩØ§": 2700,
      "ĠØ§ØŃØ": 2701,
      "ÙĬÙĦØ§": 2702,
      "¯ÙĤ": 2703,
      "ģÙĤØ§ÙĦ": 2704,
      "ĠÙħØ³Ù": 2705,
      "ĠØ±Ùħ": 2706,
      "ĠØ¨Ø§ÙĦÙĥ": 2707,
      "ĠØ¥ÙĦÙĬ": 2708,
      "ÙģÙĤØ§ÙĦ": 2709,
      "ĠØ¨Ø±Ø§": 2710,
      "Ø¹ÙĨØ": 2711,
      "ĠÙĬÙĨØ§": 2712,
      "ĠØŃØ²Ø¨": 2713,
      "ÙĦÙĬÙĦ": 2714,
      "Ø£Ø³": 2715,
      "ÙĨØ§Ø¹Ø©": 2716,
      "ĠØªÙĤØ¯ÙĬÙħ": 2717,
      "ĠØ´Ùĥ": 2718,
      "ĦØªØŃ": 2719,
      "ĠØ§ÙĦÙĪÙ": 2720,
      "Ø®ÙĬØ±": 2721,
      "ÙĤØ±": 2722,
      "³ØªØ§": 2723,
      "ØµØ§Ø": 2724,
      "¯Ø¡": 2725,
      "ĠØ±ØºÙħ": 2726,
      "ĠØ§ÙĦØ®ÙĦÙĬ": 2727,
      "ĠÙĦØ¹": 2728,
      "ĠØŃØ§ÙĦÙĬØ§": 2729,
      "ÙħÙĤØ±Ø§": 2730,
      "Ø´ÙĬØ": 2731,
      "ØºÙĬØ": 2732,
      "ĠØ£ÙĤ": 2733,
      "ĠÙĪØ³Ø·": 2734,
      "ĠØ§ÙĦÙħØ·Ù": 2735,
      "ªÙħÙĥÙĨ": 2736,
      "ĠØ§ÙĦÙĪØ·ÙĨ": 2737,
      "ØºÙĬØ±Ø©": 2738,
      "ÙħÙĪØ¯": 2739,
      "ĠÙĪØ§ÙĦØŃØ": 2740,
      "ÙĪØ£Ø¶Ø§Ùģ": 2741,
      "ĦÙĤØ§ÙĩØ±Ø©": 2742,
      "¨Ø§Ø±": 2743,
      "ĠØŃÙĦ": 2744,
      "ĠØ¬ÙħØ§": 2745,
      "ĠØ§ÙĦØªØ¹Ø": 2746,
      "ĠÙĪØ§ÙĦØ¯": 2747,
      "ÙħÙĨÙĬ": 2748,
      "ĠØ¥Ø¶Ø§ÙģØ©": 2749,
      "ÙĬÙģØ§": 2750,
      "Ø±Ø§Ùĥ": 2751,
      "¶Ø§ÙĬØ§": 2752,
      "Ø¨Ø§ÙĨ": 2753,
      "ĠÙĬÙĪØ¬Ø¯": 2754,
      "ĠÙĦØ£ÙĨÙĩ": 2755,
      "ĬØ¹Ø§": 2756,
      "ĠØ§ÙĦØªØ¯": 2757,
      "ĠÙħØ´Ù": 2758,
      "ØªØµØ§Ù": 2759,
      "Ø¹ÙĦØ§ÙĨ": 2760,
      "ĠØ§ÙĦØ§ÙĨ": 2761,
      "ĠØ§ÙĦØªØ¹ÙĦÙĬÙħ": 2762,
      "ĠØ§ÙĦØ£ÙħÙĬØ": 2763,
      "ĠÙĦÙĩØ°Ø§": 2764,
      "ÙĥØ§Øª": 2765,
      "Ø·Ø±Ø©": 2766,
      "ĠÙĪØ§ÙĨ": 2767,
      "ÙĬØ¹Ø§": 2768,
      "Ø±ÙĪØ¬": 2769,
      "ĠØ§ÙĦØŃÙĥÙħ": 2770,
      "ĠØ§ÙĦØ¹Ùħ": 2771,
      "ĠØ§ÙĦØŃØ¯ÙĬØ«": 2772,
      "Ø±ØªÙĥ": 2773,
      "ĠØ§ÙĦØ³ÙĬØ§Ø³ÙĬ": 2774,
      "ĠØ°Ùĥ": 2775,
      "ºÙĬØ±": 2776,
      "ĠØ§ÙĦØ³ÙĪÙĤ": 2777,
      "ĠØ§ÙĦØ¥Ø³ÙĦØ§Ùħ": 2778,
      "ØªØµØ§ÙĦ": 2779,
      "ĠØ¹ÙĦÙĬÙĩÙħ": 2780,
      "ĠÙĦØ¨ÙĨØ§ÙĨ": 2781,
      "ĠØ§ÙĦØ¥Ø±ÙĩØ§": 2782,
      "³ÙĦÙħ": 2783,
      "ĠÙĦØ¬ÙĨØ©": 2784,
      "Ġ?": 2785,
      "Ø±Ø¢ÙĨ": 2786,
      "Ø¬ØªÙħØ§Ø¹": 2787,
      "Ø¶ÙĬØ©": 2788,
      "ĠÙĪØ¢": 2789,
      "ĠØµØ": 2790,
      "ĠØ¹ÙĨØ": 2791,
      "ĠØ§ÙĦØ´Ø±ÙĤ": 2792,
      "ØµØ§Ø¨Ø©": 2793,
      "¦Ø§Ø³Ø©": 2794,
      "ÙĬØµ": 2795,
      "ĠØ§ØŃØªÙ": 2796,
      "ĠÙĨØªÙĬØ¬Ø©": 2797,
      "ØªÙī": 2798,
      "ĠØ§ÙĦÙĨÙģ": 2799,
      "ĠØ·Ø¨ÙĬ": 2800,
      "ĠØ§ÙĦØ¹Ø±Ø§": 2801,
      "ĠØ£ÙĩÙĦ": 2802,
      "¯Ø±Ø³Ø©": 2803,
      "ÙĦØµ": 2804,
      "Ø³Ø¹": 2805,
      "Ø¦ÙĦØ©": 2806,
      "ĠÙĥÙĬ": 2807,
      "Ø¨Ø³": 2808,
      "ĠØ«ÙĦØ§Ø«Ø©": 2809,
      "ÙĪÙħÙĬ": 2810,
      "Ø¨Ø¹Ø¯": 2811,
      "ĠØ§ÙĦØ°Ùī": 2812,
      "ĠØ¹ÙħØ±": 2813,
      "ĠÙĦÙĬØ³Øª": 2814,
      "Ø¹ÙĨØ§": 2815,
      "ªÙħØ¯": 2816,
      "ÙħÙĩÙħ": 2817,
      "ĠØ§ÙĦÙħØ®Ø§": 2818,
      "ĠÙĦØ±Ø": 2819,
      "ÙĥØ§Ù": 2820,
      "Ø¯Ø§Ø¯": 2821,
      "Ø±ØªÙĩØ§": 2822,
      "ĠØ§ÙĦÙĨØ¨ÙĬ": 2823,
      "ĠØ§ÙĦØ£Ø±Ø¨Ø": 2824,
      "ĠØ§ÙĦØ¨Ø±Ø§": 2825,
      "ĠØ¨ÙĦØ": 2826,
      "ÙĪØŃ": 2827,
      "ÙħØ§Ø¯": 2828,
      "ĠØ³Ùĥ": 2829,
      "ĠÙĥØ«ÙĬØ±Ø§": 2830,
      "ĠØ§ÙĦØ³Ø§Ø¹Ø©": 2831,
      "ĠØ®Ø¯ÙħØ©": 2832,
      "in": 2833,
      "ĠÙģÙĤØ§ÙĦ": 2834,
      "ĠÙĨØ³Ø¨Ø©": 2835,
      "Ø«Ø§Ø±": 2836,
      "¤ÙĬØ": 2837,
      "ĠØ§ÙĦØ´ÙĬ": 2838,
      "ĠØ§ÙĦØ¯Ø§Ø®ÙĦÙĬØ©": 2839,
      "ĠØ¨Ø§ÙĦØ¬": 2840,
      "ĠØ¨Ø§ÙĦØŃ": 2841,
      "ĠÙĪØ§ÙĦØ®": 2842,
      "ĠÙĬØµ": 2843,
      "ĠÙĪØªÙĪ": 2844,
      "ĩÙĨ": 2845,
      "ĠØ§ÙĦÙħØ³ÙĬ": 2846,
      "ØŃØ¯Ùī": 2847,
      "ĠÙĬØ¹Ø§": 2848,
      "ĬØ¹ÙħÙĦ": 2849,
      "ÙĬØ¹ÙħÙĦ": 2850,
      "ÙĬÙĪØ§": 2851,
      "Ø²ÙĬØ±Ø©": 2852,
      "ĠØ§ÙĦØ°Ø§": 2853,
      "ĠÙĤØ¯Ùħ": 2854,
      "«Ùħ": 2855,
      "Ø³Ø§Ø³": 2856,
      "Ø±Ø³Ø§": 2857,
      "ĠØ¨ÙĦØ§": 2858,
      "ĠØ¸ÙĦ": 2859,
      "µØ§Ø±": 2860,
      "¨ÙĤØ": 2861,
      "¹Ø§ÙĬØ": 2862,
      "ĠÙħÙĦ": 2863,
      "ØµÙģ": 2864,
      "Ø³ØªÙħØ±Ø§Ø±": 2865,
      "ĠØ§ÙĦÙĨÙģØ": 2866,
      "°Ø±": 2867,
      "¹Ø§ÙĬØ©": 2868,
      "ªÙħØ§Ùħ": 2869,
      "ĠØ§ÙĦØªÙĥ": 2870,
      "Ø¨Ø§ØŃ": 2871,
      "ĠØ§ÙĦØªÙĪØ§ØµÙĦ": 2872,
      "ÙĬØ¶": 2873,
      "±ÙĦÙħ": 2874,
      "ØªØ±Ùĥ": 2875,
      "·Ø±": 2876,
      "ĠÙĪØ¬Ùĩ": 2877,
      "ĠØ¯Ø§Ø¦ÙħØ§": 2878,
      "ĠØ§ÙĦØ¨ÙĦØ¯": 2879,
      "ĠÙģÙĦØ³Ø·": 2880,
      "ĠÙħØ®Ø§": 2881,
      "ªÙĪÙĬ": 2882,
      "ĠÙĪØ£Ø": 2883,
      "Ø±ØªØ¨Ø": 2884,
      "ĠØ§ÙĦØ·Ø±Ùģ": 2885,
      "ĠØ²ÙĬØ§Ø¯Ø©": 2886,
      "ĠØ§ÙĦØ¬ÙħØ§": 2887,
      "ĠØ§ÙĦÙħØ¹": 2888,
      "³Ø¹Ø©": 2889,
      "ÙħÙĨØ©": 2890,
      "ĦÙĬÙħ": 2891,
      "ĠØ§ÙĦØ¨Ø´": 2892,
      "ĠØ§ÙĦØ³Ùĥ": 2893,
      "ÙħÙĬØ³": 2894,
      "ĠÙĪØ§ÙĦØ±Ø": 2895,
      "ĠÙħØ¹Ùĩ": 2896,
      "Ġ*": 2897,
      "ĠØ§ÙĦÙħØ±Ùĥ": 2898,
      "ĠÙĥØ°ÙĦÙĥ": 2899,
      "ÙĪÙĬÙĨ": 2900,
      "ĠØŃØ³ÙĨ": 2901,
      "ªÙħÙĬØ²": 2902,
      "ĠÙħÙĤØ": 2903,
      "Ġ17": 2904,
      "ĩØ¯Ø©": 2905,
      "ĠØ§ÙĦØ´Ø±": 2906,
      "ĠÙĪÙħÙĨØ": 2907,
      "ĠØªÙĨÙģÙĬØ°": 2908,
      "ØªØŃØ§": 2909,
      "ĠØ±ÙĤÙħ": 2910,
      "ĠÙĬØ¹ÙħÙĦ": 2911,
      "ĠÙĤØ±Ø§Ø±": 2912,
      "Ø°ÙĬØ": 2913,
      "ĠØ¬Ø§ÙħØ¹Ø©": 2914,
      "ĠÙĤØ·Ø§Ø¹": 2915,
      "ĦØªÙĩØ§": 2916,
      "ĠØ£ÙħØ±": 2917,
      "³Ø·Ø©": 2918,
      "ĬØ¹Ø¯": 2919,
      "ĠØ§ÙĦØ§Ø¬ØªÙħØ§Ø¹ÙĬ": 2920,
      "ģØ¹Ù": 2921,
      "ÙĬØ¹Ø¯": 2922,
      "Ø¹ÙĤ": 2923,
      "ÙĦÙĤØ": 2924,
      "¯Ø¯Ø©": 2925,
      "ĠÙĪØ³ÙĬ": 2926,
      "²Ø§Ø": 2927,
      "ĠØ¨Ø¯Ø§ÙĬØ©": 2928,
      "ÙħÙĦÙĥ": 2929,
      "ĠÙħØ³Ø§Ø¡": 2930,
      "ĠØ§ÙĦÙĦØ¨": 2931,
      "ĠÙĪØ§Ø³ØªØ": 2932,
      "¤ÙĬØ©": 2933,
      "ĠØ§ÙĦÙħØ®ØªÙ": 2934,
      "ØªÙĪØ§": 2935,
      "Ø¨Ø¯ÙĪ": 2936,
      "ĤØ§": 2937,
      "ÙĪÙĩØ§": 2938,
      "ĠØªØ¹Ø¯": 2939,
      "Ø¬ÙĦØ©": 2940,
      "Ø¸Ùģ": 2941,
      "ĠØ§ÙĦØ¬Ø²Ø§": 2942,
      "¸Ø§Øª": 2943,
      "ĠÙħØ´ÙĬØ±Ø§": 2944,
      "Ø¦ÙĩØ§": 2945,
      "Ø±Ø§ÙĬ": 2946,
      "ĠØªÙģØ§": 2947,
      "ÙĨØ´Ø§Ø¡": 2948,
      "ÙĨØ§Ø¦ÙĬØ©": 2949,
      "ĠØ¹Ø²": 2950,
      "ĠØ§ÙĦØ§Ø³Øª": 2951,
      "ØªØ¹": 2952,
      "Ø±ÙĪØ±": 2953,
      "ĠØ§ÙĦÙħÙĤØ¨ÙĦ": 2954,
      "ÙĩÙĬØ±": 2955,
      "ĠP": 2956,
      "ĠÙģØªØŃ": 2957,
      "ĠÙĤÙĪØ§Øª": 2958,
      "¯ÙĬØ§Øª": 2959,
      "ÙĦØ®": 2960,
      "ÙĦØªØŃ": 2961,
      "Ø¹ÙĤØ¯": 2962,
      "ÙĪØ±Ø§Øª": 2963,
      "ĠÙĦØ¨Ø": 2964,
      "Ø±Ø¶Ø©": 2965,
      "µØ¨": 2966,
      "ĠÙĩØ¤ÙĦØ§Ø¡": 2967,
      "ÙĥÙĬÙĦ": 2968,
      "ĠØ¥ÙĨØ": 2969,
      "ĠØ§ÙĦØŃØµÙĪÙĦ": 2970,
      "¹Ø§Ø¯": 2971,
      "ĠÙĥÙĪ": 2972,
      "ģØªØ§": 2973,
      "ĠØŃØ±ÙĥØ©": 2974,
      "ĠC": 2975,
      "ÙĤÙī": 2976,
      "Ø±ÙĬØŃ": 2977,
      "ĠØ¨Ø¨Ø": 2978,
      "ĠØ§ÙĦØ¬ÙħÙĬØ¹": 2979,
      "ĠÙĪØ§ÙĦØ¨Ø": 2980,
      "µÙĪØ±": 2981,
      "ĠÙĦÙĤØ¯": 2982,
      "ĠÙĬØ¶": 2983,
      "ĠØ§ÙĦØ§ÙĤØªØµØ§Ø¯ÙĬØ©": 2984,
      "Ø¹Ùģ": 2985,
      "Ø¦Ø²Ø©": 2986,
      "ĠÙĥØªØ§": 2987,
      "ĠØ§ÙĦÙĬÙħÙĨ": 2988,
      "ĦÙĤØ¯Ùħ": 2989,
      "Ø±ÙĬØ¨Ø§": 2990,
      "Ø¹Ø§Ùħ": 2991,
      "ĠÙħÙĦÙĬØ§Ø±": 2992,
      "ĠØ§ÙĦÙģÙĦØ³Ø·ÙĬÙĨÙĬØ©": 2993,
      "ĠØ¨Øº": 2994,
      "Ø¨ÙĬØ¨": 2995,
      "ĠØ§ÙĦØ¥Ø®": 2996,
      "¹ÙĦÙĤØ©": 2997,
      "´ÙĬØ": 2998,
      "ĠØªØ¹ÙħÙĦ": 2999,
      "ĠØªÙĨ": 3000,
      "Ø²Ø§Ù": 3001,
      "ĠÙĪØ®Ø§": 3002,
      "ģØ§Ø¡": 3003,
      "ĠÙħÙĪÙ": 3004,
      "ĠØ§ÙĦÙħÙĪØ§Ø·ÙĨÙĬÙĨ": 3005,
      "Ø±Ø§Ø¨Ø·": 3006,
      "ĠØªÙĨØ¸ÙĬÙħ": 3007,
      "Ø¹ØªÙĤØ¯": 3008,
      "ĠØ¯Ø±Ø§": 3009,
      "ĠÙĦØ§Ù": 3010,
      "ĠØ§Ø³Ø": 3011,
      "ĠÙĨÙĪ": 3012,
      "³Ø¬ÙĬÙĦ": 3013,
      "ĠÙĩÙĬØ¦Ø©": 3014,
      "ĠØ§ÙĦÙĤØ·Ø§Ø¹": 3015,
      "ÙĩØ¯Ø©": 3016,
      "±ÙĬØ§": 3017,
      "ĠØ·Ø": 3018,
      "Ø¹Ø¨Ø§": 3019,
      "Ø¦Ø±Ø©": 3020,
      "ªÙĬØ": 3021,
      "ÙĪØµØ§": 3022,
      "ĠØ§ÙĦÙħÙĨ": 3023,
      "·ÙĦ": 3024,
      "ĠØªØ³Ø": 3025,
      "ĠØ§ÙĦØ¹ÙĤ": 3026,
      "¹ÙĬØ©": 3027,
      "ÙĪÙĨÙĩ": 3028,
      "ÙģØ¶": 3029,
      "ĠØ§ÙĦÙĤØ¯Ùħ": 3030,
      "ĦØ§Ùħ": 3031,
      "ĠØ§Ø³ØªÙ": 3032,
      "ĠØ§ÙĦØªØ¹ÙĦÙĬ": 3033,
      "ĠÙĪØªÙħ": 3034,
      "ĬÙĤØ": 3035,
      "ĠØ§ÙĦÙĩÙĬØ¦Ø©": 3036,
      "¶Ø±": 3037,
      "ĠØ§ÙĦØ¬ÙħØ¹Ø©": 3038,
      "ÙĪØ§Ø¹": 3039,
      "Ø¯Ø§ÙĨ": 3040,
      "ÙĪØ§ÙĤ": 3041,
      "ĠØ§ÙĦØ´Ø¹Ø": 3042,
      "¨ØŃÙĬ": 3043,
      "Ø¨ÙĤØ": 3044,
      "Ø²ÙĨ": 3045,
      "ØªÙĦ": 3046,
      "ĠÙħØ®ØªÙĦÙģØ©": 3047,
      "ĩØ¬": 3048,
      "Ø¬ÙħØ": 3049,
      "ĠÙĨÙĤØ·Ø©": 3050,
      "¯Ø§Ùħ": 3051,
      "ĠÙĪØ¨Ø¹Ø¯": 3052,
      "ĠØ§Ø°Ø§": 3053,
      "ĠØ¨ÙĩØ°Ø§": 3054,
      "¨Ø±Ø©": 3055,
      "ĠÙĦØªØŃ": 3056,
      "Ø±ÙĪØ¨": 3057,
      "·Ø§Ù": 3058,
      "¯Ø±Ø¬Ø©": 3059,
      "ĬØ³Ø": 3060,
      "ĠØµØ§ØŃØ¨": 3061,
      "ĠÙĦÙĦÙĩ": 3062,
      "ĠØ§ÙĦØ³ÙĨØ©": 3063,
      "ĩØª": 3064,
      "ÙĥØ§Ø±": 3065,
      "Ø±ÙĪØ¶": 3066,
      "ĠØ·ÙĪÙĬÙ": 3067,
      "ĠØ§ÙĦÙĬÙĪ": 3068,
      "Ø¯Ø®": 3069,
      "ĠØ§ÙĦØ³ÙĦØ·Ø©": 3070,
      "ĠØ§ÙĦÙģØ±ÙĨØ": 3071,
      "¤Ø§Ù": 3072,
      "ÙĦÙģØ": 3073,
      "Ø¹ÙĪØ©": 3074,
      "ÙĤØ§Ø¦ÙĤ": 3075,
      "ÙĬÙĤØ": 3076,
      "ĠØ¥ÙĦÙĬÙĩØ§": 3077,
      "ÙĬØ³Ø": 3078,
      "ĠØ§ÙĦÙĥØ±ÙĬÙħ": 3079,
      "ĠÙĪØ§ÙĦØ¹": 3080,
      "°ÙĥØ±": 3081,
      "ĠÙĪØºÙĬØ±ÙĩØ§": 3082,
      "ĠØ¹Ø§ÙĦÙĬØ©": 3083,
      "ĠØ£Ø±Ø¨Ø": 3084,
      "ĬØ³Ø§": 3085,
      "ĠØ¨ØªÙ": 3086,
      "ĠØ§ÙĦØ¨Ø±ÙĨØ§ÙħØ¬": 3087,
      "Ø³Ø§Øª": 3088,
      "ĠØ£Øº": 3089,
      "ĠØ§ÙĦÙĩØ¬": 3090,
      "ĠÙĪØ§ÙĦÙĤ": 3091,
      "ĠØ§ÙĦØªØ¹Ø§ÙĪÙĨ": 3092,
      "ÙĪÙĪÙ": 3093,
      "ĠØ®Ø§Ø±Ø¬": 3094,
      "ĠÙĪÙģÙĤØ§": 3095,
      "ĠØ´Ùĩ": 3096,
      "ÙĪÙĬØ§": 3097,
      "ĠØ¨ÙĤØ": 3098,
      "³ÙĦ": 3099,
      "ĠØ¥ÙĬØ±Ø§ÙĨ": 3100,
      "ĠÙĬØ¹Ø¯": 3101,
      "±Ùģ": 3102,
      "ØªØ§Ø¨Ø¹Ø©": 3103,
      "ĠØ¨Ø¯ÙĪÙĨ": 3104,
      "ĠØ§ÙĦØ£Ø·ÙģØ§ÙĦ": 3105,
      "ĠÙĦÙĦÙĥ": 3106,
      "ĠØ§ÙĦØ£ÙĪØ±ÙĪ": 3107,
      "ĠØ¨ÙĨØ³Ø¨Ø©": 3108,
      "Ø¹ØªØ¨Ø±": 3109,
      "²Ùħ": 3110,
      "¤Ø§ÙĦ": 3111,
      "ÙħÙĪØ§Ù": 3112,
      "ĠØ§ÙĦØ³ÙĪØ±ÙĬ": 3113,
      "ĠØ§ÙĦØªØ¬Ø§Ø±ÙĬØ©": 3114,
      "ĠØ§ÙĦØ³ÙĬØ¯": 3115,
      "ĠØ¥Ø®": 3116,
      "ĠØ§ÙĦÙĤØ±Ø¢ÙĨ": 3117,
      "ĠØ§ÙĦÙĪØ¸Ø§Ø¦Ùģ": 3118,
      "ĠØ§ÙĦØ®Ø¯ÙħØ§Øª": 3119,
      "ĠØ§ÙĦÙħØ§Ù": 3120,
      "ĠÙĥØ«ÙĬØ±": 3121,
      "ĠÙĪØ§ÙĦØ³": 3122,
      "Ø¶Ø±": 3123,
      "ĠØ¨Ø£ÙĨÙĩ": 3124,
      "ĠÙĨØ§Ø": 3125,
      "§ÙĦÙĬ": 3126,
      "ĠÙĥØªØ§Ø¨": 3127,
      "ĠØªØ¹Ø±Ø¶": 3128,
      "ĠÙħØ¤Ùĥ": 3129,
      "Ġ202": 3130,
      "ĠØ§ÙĦØ³Ø¹ÙĪØ¯ÙĬ": 3131,
      "ĠÙĤØ±Ø§": 3132,
      "ĠØ§ÙĦØ¯ÙģØ§Ø¹": 3133,
      "Ø°Ø¬": 3134,
      "ĠØ¯Ø¹Ùħ": 3135,
      "ĠØ§ÙĦØ¨Ø·": 3136,
      "Ø³Ùĩ": 3137,
      "ĠØ¬Ø²Ø¡": 3138,
      "ÙĬØ³Ø§": 3139,
      "ĠÙĪØ§ÙĦÙģ": 3140,
      "Ø¬ØªÙħ": 3141,
      "ÙĤØ¹Ø©": 3142,
      "ĠØ§ÙĦÙħØ´Ø±ÙĪØ¹": 3143,
      "ĠØ¨Ø§ÙĦÙĤ": 3144,
      "ĠØ®ÙĬ": 3145,
      "ĠØ§ÙĦØ§Ø¬ØªÙħØ§Ø¹ÙĬØ©": 3146,
      "ĠØ«ÙĦØ§Ø«": 3147,
      "Ø¯Ø±Ø©": 3148,
      "ĠØ±ÙĬØ§Ù": 3149,
      "ĠØ§ÙĦØ¥ÙĦÙĥØªØ±": 3150,
      "ĠÙħØ¨Ø§Ø´Ø±Ø©": 3151,
      "ÙĤÙĬØª": 3152,
      "ĦÙĨØª": 3153,
      "ĠØ±ÙĬØ§ÙĦ": 3154,
      "ĠÙĬÙĤØ": 3155,
      "ĠØ§ÙĦÙĤÙĪØ§Øª": 3156,
      "Ø¦Ø¯Ø©": 3157,
      "ĠØ§ÙĦÙĥØªØ§Ø¨": 3158,
      "ĠÙĪØ¨ÙĬÙĨ": 3159,
      "ĠØ¨Ø°ÙĦÙĥ": 3160,
      "ĠÙħØ·Ù": 3161,
      "ĠÙĨÙĤÙĦ": 3162,
      "ĠÙĪÙħØ¹": 3163,
      "ĠØ§ÙĦØµØŃØ©": 3164,
      "ĠØ§ÙĦÙħÙĨØ§Ø·ÙĤ": 3165,
      "ĠÙĪÙģÙĤ": 3166,
      "¹Ø§ÙĪÙĨ": 3167,
      "ĠØ§ÙĦÙħØ®ØªÙĦÙģØ©": 3168,
      "ÙĨØªØ±ÙĨØª": 3169,
      "ÙĩØ¬": 3170,
      "ĠØ´Ø±Ø": 3171,
      "ĠØ³ÙĬÙĥÙĪÙĨ": 3172,
      "ĠØ§ÙĦØŃØ§ÙĦÙĬ": 3173,
      "ĠØ§ÙĦÙĤØ±Ø§Ø±": 3174,
      "ÙħØ§Ø³": 3175,
      "ĠØ§ÙĦÙħØ²ÙĬØ¯": 3176,
      "ĠÙĤÙĪØ©": 3177,
      "ØªØµ": 3178,
      "¯Ø¹Ùħ": 3179,
      "ĠØ§ÙĦØ¨Ø¹Ø¶": 3180,
      "ºØ§Ù": 3181,
      "ÙĨØ·": 3182,
      "´Ø©": 3183,
      "ĠØ¨Ø§ÙĦÙ": 3184,
      "Ø²Ùĩ": 3185,
      "³ØªÙĪ": 3186,
      "ĠØ¥ÙĨÙĩØ§": 3187,
      "ÙĥØ§Ùħ": 3188,
      "ĠØ§ÙĦÙħÙĬØ§Ùĩ": 3189,
      "ĠØ§ÙĦÙħØªØ¹ÙĦÙĤØ©": 3190,
      "ÙĦÙĬØ¨": 3191,
      "ĠÙĬØ³Ø": 3192,
      "ÙĥÙĬØ¯": 3193,
      "ÙĨÙī": 3194,
      "¨ÙĤØ©": 3195,
      "ØªÙĪÙĤØ¹": 3196,
      "ĠØªØ³Ø§": 3197,
      "ÙħØ§ÙĦÙĬ": 3198,
      "ĠØ§ÙĦØ¨ØŃØ±": 3199,
      "ÙģØ¹": 3200,
      "ĠÙĬØ³Ø§": 3201,
      "Ø±Ø¯Ø©": 3202,
      "Ø²ÙĦ": 3203,
      "ĠØ§ÙĦÙħØ±ØŃÙĦØ©": 3204,
      "ĠØ§ÙĦØ±Ø¬ÙĦ": 3205,
      "³ÙĬØ±": 3206,
      "ĠØ£ÙħØ±ÙĬ": 3207,
      "Ø±Ø§ØªÙĬØ¬ÙĬØ©": 3208,
      "´ÙģÙī": 3209,
      "ĦÙĤØª": 3210,
      "Ø·Ø§ÙĦØ¨": 3211,
      "ĠM": 3212,
      "ĠØŃÙĤÙĪÙĤ": 3213,
      "ĠÙĥÙĦÙħØ©": 3214,
      "´Ø±ÙĬÙĨ": 3215,
      "ĠØ¨Ø®": 3216,
      "ĠØ·ÙĦØ¨": 3217,
      "ĠÙħÙĩØ§": 3218,
      "¹Ø§Ø¯Ø©": 3219,
      "ĠØ£ÙĩÙħ": 3220,
      "ĠØ§ÙĦÙĪØ§ÙĤØ¹": 3221,
      "ĠØ¨Ø´Ø£ÙĨ": 3222,
      "ØŃÙĬØ¯": 3223,
      "ÙĨØ³Ø§ÙĨÙĬØ©": 3224,
      "ĠØ§ÙĦÙħØ¨Ø§Ø±Ø§Ø©": 3225,
      "Ø¨Ø±Ùī": 3226,
      "ĬØ¹ØªØ¨Ø±": 3227,
      "ĠÙĥØ§ÙĨÙĪØ§": 3228,
      "ĠÙĤØ§ÙĨÙĪÙĨ": 3229,
      "ÙĬØ¹ØªØ¨Ø±": 3230,
      "ĦØ³ÙĦ": 3231,
      "ĠØ§ÙĦØ£Øµ": 3232,
      "ĠÙĦÙĦÙĪ": 3233,
      "Ø¦ÙĦØ§": 3234,
      "Ġ100": 3235,
      "ĬØ¹Ø±Ùģ": 3236,
      "ĠØ§ÙĦØ¨ÙĦØ": 3237,
      "ĠØ¨ÙĬØ§ÙĨ": 3238,
      "ĠØ£Ø¯": 3239,
      "ĠÙĨØ´Ø±": 3240,
      "ÙĦØ·": 3241,
      "ĠÙĦÙĤØ": 3242,
      "Ø³ÙĦ": 3243,
      "Ø³Ø³": 3244,
      "Ø¥ÙĨ": 3245,
      "ÙħÙĪÙĬÙ": 3246,
      "ĠØ¢ÙĦ": 3247,
      "Ø«Ø§Ù": 3248,
      "ĠÙĪÙĥØ§ÙĨØª": 3249,
      "ĠØ¯Ø®": 3250,
      "ÙĦØ¯ÙĬ": 3251,
      "ĠØ§ÙĦÙĤØ§ÙĩØ±Ø©": 3252,
      "ĠØŃÙħ": 3253,
      "an": 3254,
      "ÙħÙĪØ§ÙĦ": 3255,
      "«Ø©": 3256,
      "Ø±Ø§Ùĩ": 3257,
      "ĠØ¬ÙĩØ©": 3258,
      "ĠÙĦÙĩØ°Ùĩ": 3259,
      "ĠÙĦÙĥÙħ": 3260,
      "ĠØ§ÙĦÙħØ§Ø¶ÙĬØ": 3261,
      "ĠØ£Ø±Ø¶": 3262,
      "ĠØ§ÙĦÙĤÙĬØ§Ùħ": 3263,
      "ÙĬÙĦÙĬ": 3264,
      "ĠØ¹ÙĬ": 3265,
      "ØªÙĦÙĥ": 3266,
      "Ø±ÙĪØ¨Ø§": 3267,
      "ĠØ¹ÙĤ": 3268,
      "ĠØªÙħØ§ÙħØ§": 3269,
      "ÙĬØ¹Ø±Ùģ": 3270,
      "ĠØ£Ø´ÙĩØ±": 3271,
      "Ø¹Ø¶Ø§Ø¡": 3272,
      "¹Ø§ÙħÙĦ": 3273,
      "ĠØ§ÙĦØªØ®": 3274,
      "ĦÙģÙĬØ": 3275,
      "ĠØ§ÙĦÙĥØ¨ÙĬØ±": 3276,
      "ÙĦÙħØ§Ø": 3277,
      "ĠÙĦÙĦØ±Ø": 3278,
      "ĠØ§ÙĦØ¬Ø§ÙħØ¹Ø©": 3279,
      "ĠØ§ÙĦØªÙģØ§": 3280,
      "ĠØ§ÙĦÙħØ§ÙĦ": 3281,
      "ĠØ§ÙĦØ®ÙħÙĬØ³": 3282,
      "ĠÙĪØ³Ø§Ø¦ÙĦ": 3283,
      "ĠØ§ÙĦØ¹ÙħÙĦÙĬØ©": 3284,
      "ĠÙĪØ¯": 3285,
      "ĠØ§ÙĦÙĪØ²Ø§Ø±Ø©": 3286,
      "ĠØ§ÙĦØ¥Ø¹ÙĦØ§Ùħ": 3287,
      "ĠØ§ÙĦÙħØŃÙĦÙĬØ©": 3288,
      "ÙĨÙĪÙĦ": 3289,
      "ĠØ§ÙĦÙħØ§Ø¶ÙĬØ©": 3290,
      "ĠØ§ÙĦÙħÙĨØ´": 3291,
      "ØªØ§Ø¨Ø¹": 3292,
      "ĠÙģÙĩÙĬ": 3293,
      "Ø¯Ø«": 3294,
      "ĠØ³Ø§Ø": 3295,
      "ĥÙĨ": 3296,
      "ĠØ¨Ø§ÙĦÙģ": 3297,
      "ÙĨÙĨÙĬ": 3298,
      "Ø¶Ø§ÙĨ": 3299,
      "ÙģØ§Ø¸": 3300,
      "on": 3301,
      "ÙĬÙĪÙĬ": 3302,
      "ÙĨÙģØ§": 3303,
      "Ø°ÙĬØ©": 3304,
      "ĠØ¹ÙĤØ¯": 3305,
      "Ø¹ÙĨ": 3306,
      "Ø±Ø§Ø³": 3307,
      "ĠØ¥Ø¹Ø§Ø¯Ø©": 3308,
      "ĠÙĪÙĦÙ": 3309,
      "ĠØ£ÙĩÙħÙĬØ©": 3310,
      "ĠØ§ÙĦØ§ÙĨØªØ®Ø§Ø¨Ø§Øª": 3311,
      "ÙĨØ¨ÙĬØ©": 3312,
      "Ġ24": 3313,
      "ØªØ¨Ø§": 3314,
      "Ø¨ØŃÙĬ": 3315,
      "ĠØ±Ø¦ÙĬ": 3316,
      "ĠØ¬Ø": 3317,
      "Ø³Ø¨Ø¨": 3318,
      "¨ØŃØª": 3319,
      "ĠØ£ÙĥØ¯": 3320,
      "ĠÙħØ±": 3321,
      "ĠØ§ÙĦØ·Ø±ÙĬÙĤ": 3322,
      "ĠØ£Ø·": 3323,
      "ĠÙĨØªØ§Ø¦Ø¬": 3324,
      "ĠØ§ÙĦØ£Ø·": 3325,
      "ªÙĤØ¯": 3326,
      "ĠØ¹ÙħÙĦÙĬØ§Øª": 3327,
      "ĠÙĪÙĥÙĦ": 3328,
      "ĦÙĬÙĦØ©": 3329,
      "Ø±Ø§Ø³Ø§Øª": 3330,
      "ĠØ§Ø¹Øª": 3331,
      "ĨØ³": 3332,
      "ØªØ§Ø±": 3333,
      "ÙĥØ¨Ø±": 3334,
      "¯Ø§Ø±": 3335,
      "«ÙħØ": 3336,
      "ĠÙħÙĪØ": 3337,
      "ĠÙħØŃØ§ÙģØ¸Ø©": 3338,
      "ĠØ¹ÙĨØ§": 3339,
      "ØŃÙĪ": 3340,
      "ĠØ§ÙĦØ±ÙĬØ§Ø¶": 3341,
      "ĠÙĦÙĤ": 3342,
      "ĠØ§ÙĦØ£ÙĪØ³Ø·": 3343,
      "ĠØ§ÙĦÙĥÙĪÙĬØª": 3344,
      "ĠØ¬ÙĪ": 3345,
      "ĠØ¨ØŃÙĬ": 3346,
      "ĠØªÙħØ": 3347,
      "ĠØ¨Ø§ÙĦØ´": 3348,
      "ĠÙĬØ¹Ø±Ùģ": 3349,
      "ĩÙĬØ": 3350,
      "Ø¨ØªÙĩ": 3351,
      "Ø«ÙĦØ©": 3352,
      "ĠØºØ²Ø©": 3353,
      "ĠØ£Ø±Ø": 3354,
      "ĠØ§ÙĦØ¥Ø¯Ø§Ø±Ø©": 3355,
      "ØµØ¨ØŃØª": 3356,
      "Ø±ØŃÙ": 3357,
      "ĠØ§ÙĦØ³ÙĪØ±ÙĬØ©": 3358,
      "ĠÙĪØ§ÙĦØ«": 3359,
      "ĠÙĪØ¨Ø§ÙĦØªØ": 3360,
      "ĠØ³Ùħ": 3361,
      "ĠØ£Ø¹ÙħØ§ÙĦ": 3362,
      "ĠØ§ÙĦØ§ØŃØªÙĦØ§ÙĦ": 3363,
      "Ø±ÙĬØ¹Ø©": 3364,
      "ĠÙĦÙģØ": 3365,
      "ĠØ¹Ø¨Ø§": 3366,
      "ÙĪÙĦØª": 3367,
      "ĠÙĤÙĬÙħØ©": 3368,
      "¨ÙĬÙĪ": 3369,
      "¨ÙĬØª": 3370,
      "ĠÙĪØ§ÙĦÙĪ": 3371,
      "ĠØµÙĪØ±Ø©": 3372,
      "ĠØ¹Ø¨Ø¯Ø§ÙĦÙĦÙĩ": 3373,
      "ĦØ³Ø©": 3374,
      "ĠØ¥Ø·Ø§Ø±": 3375,
      "ĠÙģÙĪÙĤ": 3376,
      "Ø±ÙĥØ²": 3377,
      "Ø´Ø§Ø±Ø©": 3378,
      "ĠÙħØ¨Ø§Ø±Ø§Ø©": 3379,
      "ģØ±Ø§": 3380,
      "ĠØ§ÙĦØ¹Ø³ÙĥØ±ÙĬØ©": 3381,
      "ĠØªØ·Ø¨ÙĬÙĤ": 3382,
      "ÙĦÙħØ§Øª": 3383,
      "ĠØ§ÙĦØ´ÙĩØ±": 3384,
      "ÙĥØ±Ø©": 3385,
      "¦Ø§Ø": 3386,
      "¨Ø±Ø§ÙĩÙĬÙħ": 3387,
      "ÙĪÙĬØ¯": 3388,
      "ĠØ§ÙĦØ±Ø£": 3389,
      "ĠÙĦÙĦÙĨØ": 3390,
      "ĠÙĨØµ": 3391,
      "ÙĤÙĦØª": 3392,
      "ÙĬÙģÙ": 3393,
      "ģØ±Ø¶": 3394,
      "ĠØ³Ø¨ÙĬÙĦ": 3395,
      "ØµÙĦØ§ØŃ": 3396,
      "ĠØ§ÙĦØ«ÙĦØ§Ø«Ø§Ø¡": 3397,
      "ÙĪØ§Ø¬": 3398,
      "ĠÙĪÙĦÙĬ": 3399,
      "Ø±ÙĪØ·": 3400,
      "Ø¯Ø±Ø¬Ø©": 3401,
      "³Ø¹Ø±": 3402,
      "Ġ199": 3403,
      "ØŃÙģ": 3404,
      "¶ÙħÙĨ": 3405,
      "ĠÙĪØªØ´": 3406,
      "ĠÙĥÙĦØ§": 3407,
      "Ø«Ø§ÙĦ": 3408,
      "ĠÙĪÙĦÙĪ": 3409,
      "ĠØ§Ø¬": 3410,
      "¤ÙĪÙĦÙĬØ©": 3411,
      "³Ø§Ø¯": 3412,
      "ĠØ§ÙĦÙĦØ¨ÙĨØ§": 3413,
      "ØŃÙĬÙĨ": 3414,
      "Ø¯ÙĬÙĨØ©": 3415,
      "Ø¹ÙĦØ§Ùħ": 3416,
      "Ø¯Ø³": 3417,
      "Ø¯Ø®ÙĦ": 3418,
      "ĠØºØ§Ù": 3419,
      "ĠØ¯Ø±Ø¬Ø©": 3420,
      "ĠØ§ÙĦØ¹Ø§ØµÙħØ©": 3421,
      "ĠÙĪÙĩÙĨØ§": 3422,
      "ÙĪØ¶Ø§Ø": 3423,
      "ÙģÙĪØ": 3424,
      "ØªØ´": 3425,
      "ĠØ¨ÙĩØ¯Ùģ": 3426,
      "ĠØ¨ÙĩØ°Ùĩ": 3427,
      "¯Ø±Ø§Øª": 3428,
      "ªÙĩØ§Ø¡": 3429,
      "ĠØ§ÙĦØ´Ø±Ø·Ø©": 3430,
      "ĠØ§ÙĦØ·Ø§ÙĤØ©": 3431,
      "ĠÙħØ¬Ø±Ø¯": 3432,
      "ĠÙĪØ¹Ø¯Ùħ": 3433,
      "Ø¹Ø¨ÙĬÙĨ": 3434,
      "ÙĩØ±Ø©": 3435,
      "ĠØŃÙĥÙħ": 3436,
      "ĠØ§ÙĦØµÙĨØ§": 3437,
      "Ø¨Ø§Ø³": 3438,
      "ÙģØªØ": 3439,
      "ĠØ§ÙĦÙģÙĬ": 3440,
      "ĠØ§ÙĦÙħØ´Ø§Ø±ÙĥØ©": 3441,
      "Ø±ÙĥØ³": 3442,
      "±ÙĥØ§Ø": 3443,
      "ÙĬØ§Ø¯Ø©": 3444,
      "Ø¯ÙĬÙĤ": 3445,
      "ĨØªØ": 3446,
      "ĠØ§ÙĦØªØº": 3447,
      "ØºÙĬØ±": 3448,
      "ÙĪÙħÙĨ": 3449,
      "ĠØ£ÙĤÙĦ": 3450,
      "ÙĪÙĨÙĩØ§": 3451,
      "ĠØ§ÙĦÙĨØ¸Ø±": 3452,
      "ÙĪÙĤØ¯": 3453,
      "ĠÙĦØº": 3454,
      "Ø´Ø§Ø±ÙĥØ©": 3455,
      "Ø±Ø§Ø¶ÙĬ": 3456,
      "®Ø§Ø°": 3457,
      "ĠØ§ÙĦØŃØ¯ÙĬ": 3458,
      "ÙĨÙĬØ§Øª": 3459,
      "ĠØ±Ø¯": 3460,
      "ĠØ£Ø³Ø¹Ø§Ø±": 3461,
      "ĠØ§ÙĦØ´Ø®Øµ": 3462,
      "ĠØ±Ø£Ø": 3463,
      "ĠØ§ÙĦØ¹ÙĦØ§ÙĤØ§Øª": 3464,
      "ģØ±ÙĬÙĤÙĬØ§": 3465,
      "ĠØ±Ø£Ù": 3466,
      "ĠØµØ§ÙĦØŃ": 3467,
      "ÙĦØ²": 3468,
      "Ø³ÙĦØ§Ùħ": 3469,
      "Ø¬Ø¦": 3470,
      "Ø®Ùħ": 3471,
      "ĠØ±Ø£ÙĬ": 3472,
      "ĠØ§ÙĦÙĨØ³Ø§Ø¡": 3473,
      "ĠØ¨Ø£Ù": 3474,
      "ØµÙĦØ©": 3475,
      "ĬØ§Ø³": 3476,
      "ĠØ°ÙĥØ±": 3477,
      "Ġ21": 3478,
      "ÙĦØ§Ø¹": 3479,
      "±ÙĨØ©": 3480,
      "ĠØŃÙĬØ§Ø©": 3481,
      "ĠØªØ¹ÙĦÙĬ": 3482,
      "ĠØ§ÙĦÙĪØµÙĪÙĦ": 3483,
      "Ø¬Ø§Ø±": 3484,
      "ĠÙĬÙĪÙħØ§": 3485,
      "ĠØ¬ÙħÙĬ": 3486,
      "ÙĥØ§ÙĨØª": 3487,
      "ĠØ¹Ø¯Ø": 3488,
      "ĠÙĪØ¸Ø§Ø¦Ùģ": 3489,
      "ĠÙĨÙĪØ¹": 3490,
      "ĠØ£Ø¹Ø¶Ø§Ø¡": 3491,
      "ĠÙĬÙĨ": 3492,
      "ÙĤØ§Ø¨Ø©": 3493,
      "ĠØ§ÙĦØŃØ±": 3494,
      "ĠØ³Ø§Ø¹Ø©": 3495,
      "³ÙĩÙħ": 3496,
      "ĠØ§ÙĦØ¯ÙĬÙħÙĤØ±Ø§": 3497,
      "ĠØ§ÙĦÙħØ±Ø¶": 3498,
      "ĠØ§ÙĦÙĨÙħÙĪ": 3499,
      "ĠØªØ²": 3500,
      "Ø¹Ø¯Ø§Ø¯": 3501,
      "ÙĦØ¹Ù": 3502,
      "Ø³ÙĦÙħ": 3503,
      "Ø´Ø§Ø±Ùĥ": 3504,
      "Ø¬ÙĬÙĦ": 3505,
      "ĠØ¬ÙĨÙĪØ¨": 3506,
      "ĠØ§ÙĦÙĦÙĤØ§Ø¡": 3507,
      "ÙĥÙĪ": 3508,
      "ĠØ§ÙĦØµØŃÙĬØ©": 3509,
      "ĠØ§ÙĦØ³Ø¨Øª": 3510,
      "Ø¹Ø´": 3511,
      "ĠØŃÙĥÙĪÙħØ©": 3512,
      "Ø±ÙĬØ¶": 3513,
      "ÙģØ¹Ù": 3514,
      "ØºÙĬÙĦ": 3515,
      "ĠÙĦØ¯ÙĬ": 3516,
      "ĠØ§ÙĦÙħÙģØ§": 3517,
      "ĦÙĪÙĥ": 3518,
      "ĦØ¨Ù": 3519,
      "ÙĬØ§Ù": 3520,
      "Ø®ÙĬØ©": 3521,
      "Ø³ÙĩØ§": 3522,
      "ĨØ§Ø±": 3523,
      "ĠÙĪØ¹": 3524,
      "ÙĤÙĦØ©": 3525,
      "ĠÙĨÙĬ": 3526,
      "ĠÙĪØŃØªÙī": 3527,
      "ĠØŃØ¯ÙĬ": 3528,
      "´Ø§Ø·": 3529,
      "¬Ø¯": 3530,
      "Ø±ØŃØ": 3531,
      "ĠØ§ÙĦØ¨Ø±ÙĦÙħ": 3532,
      "¯ÙĬÙĪ": 3533,
      "ĠØ£ÙĨØª": 3534,
      "Ø®Ø±Ø§": 3535,
      "ĠÙĦØ®": 3536,
      "Ø¨Ø§Ø·": 3537,
      "ÙĨØ¬ÙĦÙĬ": 3538,
      "ĠØ§ÙĦØ®ÙĬ": 3539,
      "ĠØ§ÙĦØ¥ÙĬØ±Ø§": 3540,
      "ĠØ§ÙĦÙħÙĪØ¶ÙĪØ¹": 3541,
      "ÙģÙĬØ±": 3542,
      "ĠÙģØ¥ÙĨÙĩ": 3543,
      "ĠØ§ÙĦÙĤØ¯ÙĬÙħ": 3544,
      "ĠØ§ÙĦØ·ÙģÙĦ": 3545,
      "ĠØ¬ÙĨÙĬÙĩ": 3546,
      "ĠÙħÙĨØ§Ø·ÙĤ": 3547,
      "ĠÙĦØ£Ù": 3548,
      "ĠØ£ØµØ¨ØŃ": 3549,
      "ØŃØµ": 3550,
      "ĦØ¨ÙĬ": 3551,
      "ĠÙĨÙģ": 3552,
      "ĠØ§ÙĦØ£ÙħØ±ÙĬÙĥÙĬ": 3553,
      "ĠØ§ÙĦØµÙĬÙĨ": 3554,
      "ĠØ±ÙħØ¶Ø§ÙĨ": 3555,
      "ĠØ§ÙĦÙģÙĦØ³Ø·ÙĬÙĨÙĬ": 3556,
      "ĠØ§ÙĦÙĦØºØ©": 3557,
      "ØŃØ§ÙĪÙĦ": 3558,
      "Ø³Ø¹Ø±": 3559,
      "Ø¹ÙĦÙĨ": 3560,
      "¯Ø£": 3561,
      "ĠÙĤØ·": 3562,
      "ÙĪØ§ÙĨÙĬÙĨ": 3563,
      "ĠØ±ÙģØ¹": 3564,
      "ÙģØ¹ÙĦ": 3565,
      "ĠØ§ÙĦÙħØ¯Ø§": 3566,
      "ĠØ§ÙĦØ£ÙħÙĪØ±": 3567,
      "ĠØ§ÙĦØ±ÙĪØ§": 3568,
      "ÙģÙĩÙħ": 3569,
      "Ġ50": 3570,
      "¹Ø§Ùħ": 3571,
      "¨Ø±Ø²": 3572,
      "ĠÙģÙĦÙħ": 3573,
      "ĠÙħÙĪØ§ÙĤØ¹": 3574,
      "ÙĨØ¯Ø": 3575,
      "ĠØ§ÙĦØ´Ùħ": 3576,
      "ĠØ¬ÙĪØ§": 3577,
      "Ø£Ø©": 3578,
      "Ø±Ø³Ø©": 3579,
      "ĠÙĪØ§ÙĦØ¹Ù": 3580,
      "ĠØ§ÙĦØµÙģ": 3581,
      "ĠØ§ÙĦØ£Ø³Ø¨ÙĪØ¹": 3582,
      "ĠØ§ÙĦÙĪØ¶Ø¹": 3583,
      "ĠÙħØ¯Ùī": 3584,
      "ØµÙĦØª": 3585,
      "¨ÙĤÙī": 3586,
      "ĠÙħÙģØ§": 3587,
      "ĠÙĬØªØ¹ÙĦÙĤ": 3588,
      "±ÙĪÙĬ": 3589,
      "ĠÙĬØ¹ØªØ¨Ø±": 3590,
      "ÙĪØ¹Ø©": 3591,
      "Ø°ÙĩØ¨": 3592,
      "ĠØªØ·ÙĪÙĬØ±": 3593,
      "ĠÙĪØ«": 3594,
      "¹Ø¨Ø©": 3595,
      "ĠØ¯Ùħ": 3596,
      "ĠØ§ÙĦÙħØ±Ø": 3597,
      "Ø¶Ø§Ø": 3598,
      "ĠØ¨Ø§ÙĦØ±Ø": 3599,
      "ØªØ¬": 3600,
      "ĠÙģØ¹ÙĦ": 3601,
      "Ø¨ØŃØ§": 3602,
      "ĠØ£ÙĦØ§": 3603,
      "ĠÙĬØŃØ¯Ø«": 3604,
      "ĦØ¶": 3605,
      "ĠØªÙĪÙģÙĬØ±": 3606,
      "Ø¸ÙĩØ±": 3607,
      "ĠØµØŃÙĬÙģØ©": 3608,
      "ĠØ±Ø¬ÙĦ": 3609,
      "Ø¨ÙĩØ©": 3610,
      "ĠØ§ÙĦÙĥÙĩØ±Ø¨Ø§": 3611,
      "ĠØ§ÙĦÙħØ§Ø¯Ø©": 3612,
      "ĠÙĪÙģØ": 3613,
      "ĠÙģØ¹Ù": 3614,
      "Ø±Ø§ÙĬØ": 3615,
      "ĠØ¶Ø±ÙĪØ±Ø©": 3616,
      "Ø±ÙĬØ¨Ø©": 3617,
      "ĠØ§ÙĦØ³Ø§Ø¨ÙĤØ©": 3618,
      "ĠØ§ÙĦØ´Ø¹Ø±": 3619,
      "³ÙħØ": 3620,
      "ĠØ§ÙĦÙĨÙģØ·": 3621,
      "ØªÙĤØ§": 3622,
      "ĠÙģÙĦØ³Ø·ÙĬÙĨ": 3623,
      "Ø¬Ø§Ø¯": 3624,
      "Ø´Ø¯": 3625,
      "ĠÙħÙģ": 3626,
      "Ø·Ø§Øª": 3627,
      "Ø¬ÙĪØ¯Ø©": 3628,
      "ĠØ¹Ø¶ÙĪ": 3629,
      "Ø±ÙĨØ©": 3630,
      "ĠÙĥØ«ÙĬØ±Ø©": 3631,
      "ĠØ§ÙĦÙħØ§Ø¡": 3632,
      "Ø³ÙĪÙĤ": 3633,
      "ĠÙĥØ§ÙħÙĦ": 3634,
      "ĦØ·Ø§ÙĨ": 3635,
      "ĠØ³Ø¹Ø±": 3636,
      "³Ø§ÙĨ": 3637,
      "ÙħØ§ÙĦÙĬØ©": 3638,
      "ĠØ§ÙĦØ£ÙħÙħ": 3639,
      "ĠÙĪØ§Ø¶": 3640,
      "ĠØ§ÙĦØŃØ²Ø¨": 3641,
      "ĠØ¥ØŃØ¯Ùī": 3642,
      "ĠØ§ÙĦÙĤØ¯": 3643,
      "ĠØ´Ø¨ÙĥØ©": 3644,
      "ĠØ§ÙĦÙħØªØ¹Ø§": 3645,
      "ĠØªØªÙħ": 3646,
      "ÙħÙĬØ¯": 3647,
      "ĠØ§ÙĦØ·Ø": 3648,
      "ĠØ¬ÙĩØ§Ø²": 3649,
      "ĠÙĬÙĨØ§Ù": 3650,
      "«Ù": 3651,
      "ĠØ§ÙĦÙħÙĨØªØ®Ø¨": 3652,
      "ĠÙĪÙĩÙħ": 3653,
      "ĠÙħØµØ§Ø¯Ø±": 3654,
      "ĠØ§ÙĦØ¥ÙħØ§Ø±Ø§Øª": 3655,
      "³Ø¬ÙĦ": 3656,
      "Ø¨Ø±Ù": 3657,
      "ØªØµØ§ÙĦØ§Øª": 3658,
      "ÙĦÙģØ§": 3659,
      "ĠØ§ÙĦÙħÙĪØ§Ø": 3660,
      "ĠÙĦÙĦØµ": 3661,
      "ĠØ§ÙĦØªØ¯Ø§ÙĪÙĦ": 3662,
      "ĠØ§ÙĦØªØ§Ø±ÙĬØ®": 3663,
      "ĠØ·ÙĪÙĬÙĦØ©": 3664,
      "Ø¹ÙĬØ§": 3665,
      "ĠØ§ÙĦØ¬ÙħÙĩÙĪØ±ÙĬØ©": 3666,
      "ĦÙĤÙĬ": 3667,
      "¹ÙĬØ¯": 3668,
      "ĠØ§ÙĦØ³ÙĪØ¯Ø§ÙĨ": 3669,
      "ĠØ§ÙĦØªÙĪØ§": 3670,
      "Ø¨ÙĩÙħ": 3671,
      "³ÙĬÙ": 3672,
      "ĠØ£ÙĨÙĩÙħ": 3673,
      "Ø±Ø¬Ùħ": 3674,
      "ĠØ§ÙĦØ¯Ùħ": 3675,
      "ĠØ§ÙĦØ²Ø±Ø§": 3676,
      "ĠØ¨ÙĬØª": 3677,
      "Ø³ØªØ§Ø°": 3678,
      "²Ø§Ùħ": 3679,
      "ĠØ§ÙĦÙħÙĪØ§Ø¯": 3680,
      "¹Ø§Ø¨": 3681,
      "ĠØŃÙĤÙĬ": 3682,
      "ĠØ§ÙĦØ¬ÙĩØ§Ø²": 3683,
      "ĠØ¨ØªÙĪ": 3684,
      "Ġ2018": 3685,
      "ĠÙĦÙĦÙģ": 3686,
      "Ø¯ÙĦØ©": 3687,
      "¨ÙĬØ±": 3688,
      "¸ÙĬÙģØ©": 3689,
      "³ÙĪÙī": 3690,
      "ĠØ§Ø¶": 3691,
      "ĬØ§ÙĦ": 3692,
      "ĠØ§ÙĦØ§ÙĨØª": 3693,
      "ªÙĩÙħ": 3694,
      "ĦØ·Ø©": 3695,
      "ĠÙħØ¤ÙĥØ¯Ø§": 3696,
      "ĠÙĨÙģØ³ÙĩØ§": 3697,
      "Ø¹ÙħØ§": 3698,
      "ĠØ®Ø§ÙĦØ¯": 3699,
      "Ø°Ø¨": 3700,
      "ĠØ§ÙĦÙħØ¤ØªÙħØ±": 3701,
      "ĠØ°Ù": 3702,
      "ªÙħÙĨ": 3703,
      "ĠØ§ÙĦØŃÙĤÙĬ": 3704,
      "ĠÙħØ¹Ø¸Ùħ": 3705,
      "ĦØ§Ø¡": 3706,
      "ÙĪÙĦÙħ": 3707,
      "ĠØ¹ÙĬØ": 3708,
      "ĠØ§ÙĦØºØ±Ø¨ÙĬØ©": 3709,
      "ĠÙĤØ§Ø¦ÙħØ©": 3710,
      "Ø³ØªÙ": 3711,
      "or": 3712,
      "Ġ22": 3713,
      "ĠÙħØ±Ø": 3714,
      "ÙĪÙĬØ§Øª": 3715,
      "ĠÙĦÙĦÙĤ": 3716,
      "ar": 3717,
      "ĠØ£Ø¹ÙĦÙī": 3718,
      "Ø±ÙĬÙĥ": 3719,
      "ĠØ§ÙĦØ«ÙĪØ±Ø©": 3720,
      "ÙģØ±ÙĬ": 3721,
      "Ø°Ùĩ": 3722,
      "ĠØ´ÙĥÙĦ": 3723,
      "ĠØ£Ø¹": 3724,
      "ØªÙĨ": 3725,
      "ĠØ¨Ø¯Ø£Øª": 3726,
      "ÙĪÙģÙ": 3727,
      "ĠØ§ÙĦØ¯Ø±Ø§Ø³Ø©": 3728,
      "ÙģÙĦØ©": 3729,
      "ºØ¨": 3730,
      "ĠÙĪØªØ£": 3731,
      "Ø±Ø§Ø±Ø©": 3732,
      "ĠØ§ÙĦÙĤØ±ÙĨ": 3733,
      "ĠØ£Ø¨Ø": 3734,
      "ĠØ¨Ø¹Ù": 3735,
      "ĠØ·Ø±ÙĬÙĤØ©": 3736,
      "ĠØªØŃØ¯Ø«": 3737,
      "ĠØ§ÙĤØªØµØ§": 3738,
      "ĠØ§ÙĦØµÙĦØ§Ø©": 3739,
      "ÙĦÙĤØ§Ø¡": 3740,
      "ÙģØŃØ©": 3741,
      "ĠØ§Ø¬ØªÙħØ§": 3742,
      "Ø·Ø§Ø¡": 3743,
      "¨ÙħÙĪ": 3744,
      "ĬØ·Ù": 3745,
      "ĠÙĪØ§ÙĦÙĤØ": 3746,
      "ĠØ¨Ø§Ø³ØªØ®Ø¯Ø§Ùħ": 3747,
      "ĠØ§ÙĦØ¬Ø§Ùħ": 3748,
      "ĠØ§ÙĦØ²Ù": 3749,
      "ĠØ®Ø§Øµ": 3750,
      "Ø®ÙĪÙĦ": 3751,
      "ĠØ§Øº": 3752,
      "ĠØ³ÙĪÙĤ": 3753,
      "ÙĬØ·Ù": 3754,
      "Ø¨ÙĪØ§": 3755,
      "ĠØ´Ø±ÙĥØ§Øª": 3756,
      "Ø²Ø§ÙĦ": 3757,
      "ÙģÙĬØ§": 3758,
      "ĠÙĪØ¨Ø§ÙĦØªØ§ÙĦÙĬ": 3759,
      "ĠØªÙģØ": 3760,
      "ĠÙĩØ¬": 3761,
      "ÙħÙĦØ§Øª": 3762,
      "ĠØ§ÙĨÙĩØ§": 3763,
      "ĠØ±ÙĪØ³ÙĬØ§": 3764,
      "ĠØ§ÙĦØ§ØªÙģØ§ÙĤ": 3765,
      "¹ÙħØ©": 3766,
      "ĠØ§ÙĦØ±ØºÙħ": 3767,
      "ĠØ¨ØŃØ³Ø¨": 3768,
      "ĠØ§ÙĦÙģÙĬØ": 3769,
      "¬Ùħ": 3770,
      "ĠØŃÙĪØ§ÙĦÙĬ": 3771,
      "ĠØ§ÙĦØ¹ÙĦÙħÙĬØ©": 3772,
      "Ø¨ÙĬÙĪ": 3773,
      "ĠØªØŃØ§": 3774,
      "ĠØ§ÙĦÙħØŃÙĥÙħØ©": 3775,
      "ĠØ§ÙĦÙħÙĦÙĥÙ": 3776,
      "ĠØ¨ÙĨÙģØ": 3777,
      "Ø²ÙĬÙĨ": 3778,
      "ĠØµÙĪ": 3779,
      "ĠÙĤØ§ÙħØ": 3780,
      "ĠØ§ÙĦØ¨Ø§ØŃØ«": 3781,
      "ĠØ§ÙĦÙħÙĦÙĥÙĬ": 3782,
      "ÙĥØª": 3783,
      "ĠØ§ÙĦÙħÙĩØ§": 3784,
      "Ø²Ø§Ø¡": 3785,
      "Ġ2015": 3786,
      "·ÙĦØ¨": 3787,
      "Ø¹ÙĬØ´": 3788,
      "ĠØ±Ø£Ø³": 3789,
      "ĠØ£Ø¨": 3790,
      "Ø±Ø¬Ø§ÙĨ": 3791,
      "ĠØ§ÙĦØ´Ø®ØµÙĬØ©": 3792,
      "ÙĪÙĬØ³": 3793,
      "ĠØªÙĨØ§ÙĪÙĦ": 3794,
      "ĠØ§ÙĦÙĨØ§Ø±": 3795,
      "ØµÙĦØŃØ©": 3796,
      "Ø´ØªØ±Ø§": 3797,
      "³ÙĬÙĤ": 3798,
      "ÙĨÙĪÙĨÙĬØ©": 3799,
      "ĠØ§Øµ": 3800,
      "Ġ_": 3801,
      "ĠØ§ÙĦØ¨Ø±ÙĬØ·Ø§": 3802,
      "ĦÙĬÙĪ": 3803,
      "ÙĨØ¯ÙĪÙĤ": 3804,
      "ĩÙī": 3805,
      "ĠØ§ÙĦØ¥ÙĨØªØ±ÙĨØª": 3806,
      "ĠØ¨Ø²": 3807,
      "ÙĨØ¯ÙĤ": 3808,
      "ĠØ§ÙĦÙħÙģ": 3809,
      "ÙĥØ°Ø§": 3810,
      "Ø³ÙĪÙī": 3811,
      "ĠØ§ÙĦØ§ÙĪÙĦ": 3812,
      "ģÙħØ§": 3813,
      "Ø§ÙĦÙħ": 3814,
      "ĠØ§ÙĦÙĤØ¯Ø³": 3815,
      "ĠØ§ÙĦØŃØ±ÙĥØ©": 3816,
      "ÙģÙħØ§": 3817,
      "ĠÙģØªØ": 3818,
      "ĠÙĤØ§Ø¦ÙĦØ§": 3819,
      "ĬÙħÙĬÙĨ": 3820,
      "ĠØ±Ø§Ø¦": 3821,
      "ĠØ§ÙĦÙģØ±Ø": 3822,
      "ĠØ¨Ø¶": 3823,
      "¹ÙĥØ³": 3824,
      "ĠØ§ÙĦÙħØ¯ÙĨ": 3825,
      "ÙĨØ¯ÙĬ": 3826,
      "ĠØ§ÙĦÙħØ³Ø¤ÙĪÙĦ": 3827,
      "ĠÙĤØ§ÙħØª": 3828,
      "ĠØ§ÙĦÙħØ·": 3829,
      "·ÙĪÙĬØ±": 3830,
      "ĠÙĨØ§Ø¯ÙĬ": 3831,
      "ĠØ§ÙĦÙģÙĬÙ": 3832,
      "ÙħÙĩÙĪØ±": 3833,
      "ĠØ§Ø³ØªÙĤ": 3834,
      "ĠØ§ÙĦÙĤÙħ": 3835,
      "ĠØ§ÙĦÙĨØµ": 3836,
      "ĠØ¹ÙĦÙĬÙĨØ§": 3837,
      "ĠÙģØ±": 3838,
      "ĠØ§ÙĦØ§ÙĤØªØµØ§Ø": 3839,
      "ĠØ§ÙĦØ£Ø±Ø¨Ø¹Ø§Ø¡": 3840,
      "ĠØªØ±ÙĥÙĬØ§": 3841,
      "³ÙĤ": 3842,
      "¸Ø§ÙĩØ±": 3843,
      "ĠØ³ÙĪÙī": 3844,
      "ÙĪØ¨Ø©": 3845,
      "ĠØ§ÙĦØ£ØŃØ¯": 3846,
      "ØªØ§Ù": 3847,
      "Ø¨ÙħÙĪ": 3848,
      "ÙĥØ§ÙĦ": 3849,
      "ĠÙĬØ·Ù": 3850,
      "ÙĥÙĬØ±": 3851,
      "ĠÙĪÙģÙ": 3852,
      "ĠÙħÙĪØ¶": 3853,
      "ĠØ´ÙħØ§ÙĦ": 3854,
      "ĠØ³ÙĬØªÙħ": 3855,
      "ĠØ§ÙĦØ§Ø³ØªØ«ÙħØ§Ø±": 3856,
      "²Ø§ÙĦ": 3857,
      "ĠØŃØ¯ÙĬØ«": 3858,
      "ĠT": 3859,
      "ĠÙĦÙĥÙĬ": 3860,
      "ÙĩØ°Ø§": 3861,
      "ĠØ§Ø±ØªÙģØ§Ø¹": 3862,
      "ÙĬØ§Ø±Ø©": 3863,
      "ĠØ²ÙĪ": 3864,
      "ÙĬØ§Ø¨": 3865,
      "ĠØ¨ÙħÙĪ": 3866,
      "ØªÙĪØ³Ø·": 3867,
      "ĦØ§Ùģ": 3868,
      "ĠØ¨Ø¯Ø£": 3869,
      "ĠØ£Ø³Ù": 3870,
      "ĠØ¹Ø§ÙħØ": 3871,
      "ØºÙĦ": 3872,
      "¶Ø©": 3873,
      "¹ÙĪÙĨ": 3874,
      "®ÙģØ§": 3875,
      "ªØŃØ¯Ø«": 3876,
      "ĠÙĦØµ": 3877,
      "ĬØº": 3878,
      "·Ø§ÙĦ": 3879,
      "ĠØ§ÙĦÙħØºØ±Ø¨": 3880,
      "Ø¯Ø±Ø": 3881,
      "ĠÙģØ±ÙĬ": 3882,
      "ĠØ§ÙĦØªØ±Ø¨ÙĬØ©": 3883,
      "Ø²Øª": 3884,
      "ĠØ´ÙĬØ¦Ø§": 3885,
      "µÙĬØ±": 3886,
      "ĦØºØª": 3887,
      "ĠÙĥØ¨ÙĬØ±Ø§": 3888,
      "ĠØ§ÙĦØªÙģ": 3889,
      "¨ÙħÙ": 3890,
      "Ø¹Ø±ÙĪÙģ": 3891,
      "ĠØ¹Ø³Ùĥ": 3892,
      "ĠÙĤØ¶ÙĬØ©": 3893,
      "ÙĪÙĨØ§Øª": 3894,
      "ĠØ§ÙĬØ¶Ø§": 3895,
      "ĠØªØ³Ù": 3896,
      "ÙĪÙĥØ§ÙĨ": 3897,
      "Ø¨Ø§Ø¯Ø±Ø©": 3898,
      "Ø°ÙĨ": 3899,
      "ĠØ¬Ø¹Ù": 3900,
      "ØŃØ§ÙģØ¸Ø©": 3901,
      "ĩØ¯ÙĬ": 3902,
      "ÙĤÙĦÙĬÙħ": 3903,
      "ĠØ¨ØŃÙĬØ«": 3904,
      "ĦØ¹Ø§Ø¨": 3905,
      "ĠØ¨Ø¬Ø§": 3906,
      "ĠØ¬Ùĩ": 3907,
      "·Ø§ÙĤØ©": 3908,
      "ÙĤÙĪÙħ": 3909,
      "ÙĪØº": 3910,
      "²ÙĬØ": 3911,
      "ĠØ¨Ø§Ø³Ùħ": 3912,
      "ĠØ§ÙĦØ¹Ø«": 3913,
      "ĠÙĦØ§Ø¹Ø¨": 3914,
      "®Ø°": 3915,
      "ÙĤÙĬØ¯": 3916,
      "ĠØ§ÙĥØ«Ø±": 3917,
      "ĠØ§ÙĦØ£ÙħÙĨÙĬØ©": 3918,
      "ĠÙĦÙĦØªÙ": 3919,
      "¨ÙħÙĨØ": 3920,
      "ĠØ®Ø¯ÙħØ§Øª": 3921,
      "ĠÙħØª": 3922,
      "Ø¨ÙĪØ": 3923,
      "ĠØ§ÙĦØŃÙħ": 3924,
      "ĠÙĪÙĬÙħÙĥÙĨ": 3925,
      "ĠØ±Ø¬Ø§ÙĦ": 3926,
      "ĦÙĨÙĬØ§": 3927,
      "ĠØ§ÙĦÙĤØ·": 3928,
      "ģØ²": 3929,
      "ĠØ§ÙĦÙħØµØ±": 3930,
      "ĠÙĦØ¯ÙĬÙĨØ§": 3931,
      "ĠØ§ÙĦØ³ÙĦØ·Ø§Øª": 3932,
      "ĠØ§ÙĦØªØ¹Ø§ÙħÙĦ": 3933,
      "ĠØ§ÙĦØ¨ÙĬØª": 3934,
      "Ø®Ø§Ù": 3935,
      "ĬØ°ÙĥØ±": 3936,
      "ĠÙĪØ§ÙĨØ": 3937,
      "Ø²Ø±": 3938,
      "ĠÙĬØ£ØªÙĬ": 3939,
      "ĠÙĦØ·": 3940,
      "ĠÙĨÙħÙĪ": 3941,
      "ÙĬØ°ÙĥØ±": 3942,
      "Ø±Ø³Ø§Ù": 3943,
      "ÙĬØ²": 3944,
      "ģØ§Ø¯Ø©": 3945,
      "ĠØ¨ÙĦØº": 3946,
      "ĠØ¨Ø«": 3947,
      "ĠÙģØ±ØµØ©": 3948,
      "Ø¨ÙħÙ": 3949,
      "ÙĪØ¬ÙĬØ§": 3950,
      "Ø£ÙħØ§": 3951,
      "¨ÙħÙĤ": 3952,
      "ÙĬÙħÙĬÙĨ": 3953,
      "ÙĬÙģÙĬØ©": 3954,
      "ĠØ§ÙĦÙħØ¬Ø§Ù": 3955,
      "ĠÙĨØ§Ø¦Ø¨": 3956,
      "ĠØ§ÙĦØŃÙĥÙĪÙħÙĬØ©": 3957,
      "ĠB": 3958,
      "Ø¨ÙħÙĨØ": 3959,
      "ØŃÙħØ±": 3960,
      "ĠØ¬ÙĬØ": 3961,
      "ĠØ¨Ø§Ø¨": 3962,
      "ĠÙĪØ§Ø´": 3963,
      "·ÙĦÙĤ": 3964,
      "ĠØ¨ÙħÙĨØ": 3965,
      "Ø¨ÙĬØ±Ø©": 3966,
      "Ø´ÙĦ": 3967,
      "Ù¡": 3968,
      "Ø³Ø¬ÙĦ": 3969,
      "ÙħØ§ÙĨÙĬØ©": 3970,
      "³Ø£": 3971,
      "ĠÙĪØ¥Ø°Ø§": 3972,
      "±ÙĥØ§Øª": 3973,
      "ĠØ§ÙĥØªØ": 3974,
      "ĠØ§ÙĦØ£ÙħÙĬØ±": 3975,
      "ĠÙĦÙĦØ¨Ø": 3976,
      "ØªÙħÙĥÙĨ": 3977,
      "Ø±Ø³Ø§ÙĦ": 3978,
      "ĠÙħØ±ØŃÙĦØ©": 3979,
      "ĠØ±Ø¨ÙħØ§": 3980,
      "000": 3981,
      "Ġ2014": 3982,
      "ĠÙħØ±Ø¶": 3983,
      "Ø±ÙĬØŃØ§Øª": 3984,
      "¸ÙĬÙģ": 3985,
      "ĠØ¯Ø§Ø¹Ø´": 3986,
      "ĩØ±Øª": 3987,
      "ĠÙĤÙĪØ§": 3988,
      "®ÙĬ": 3989,
      "ĠØŃØ³Ø§": 3990,
      "ĠØ§ÙĦØ¨ÙĨÙĥ": 3991,
      "ĠØ¬Ø§ÙĨØ": 3992,
      "ĠØ¨ØŃØ§": 3993,
      "ĠÙģÙħØ§": 3994,
      "·Ø§Ø¡": 3995,
      "ĠØ¨Ø£Ø": 3996,
      "ĬØ¨Ø¯ÙĪ": 3997,
      "ĠÙĦØ²": 3998,
      "ĦÙĬÙĩ": 3999,
      "Ø¨Ø¨": 4000,
      "ĠÙħÙĦÙĥ": 4001,
      "ĠØ¨Ø±Ø§ÙħØ¬": 4002,
      "ÙĬØ¨Ø¯ÙĪ": 4003,
      "ĠØ¨Ø§ÙĦØ¶": 4004,
      "³ØªÙĪØ±": 4005,
      "Ø¨ÙĬØ¹": 4006,
      "ĠØŃÙħÙĦØ©": 4007,
      "Ø·Ùħ": 4008,
      "ĠÙĤÙĪÙĦÙĩ": 4009,
      "Ġ40": 4010,
      "ĠØ§ÙĦØ³ÙĬØ§Ø±Ø§Øª": 4011,
      "ĠØŃØ¬Ùħ": 4012,
      "ĠØ§ÙĦØ®ÙĦØ§": 4013,
      "ĠÙģØ¶ÙĦØ§": 4014,
      "ĬØ±Ø": 4015,
      "ØªÙģØ§ÙĤÙĬØ©": 4016,
      "ĠØ§ÙĦØ¹ÙĦÙĬØ§": 4017,
      "Ø¹ÙĩÙħ": 4018,
      "ĠØ®ØµÙĪØµØ§": 4019,
      "ĠØ±Ø¶ÙĬ": 4020,
      "ÙĤÙĪÙĤ": 4021,
      "ĠØ§ÙĦÙħØ¬Ø§ÙĦ": 4022,
      "ĠØ§ÙĦÙħØ³ØªÙĪÙī": 4023,
      "Ø¨ÙħÙĤ": 4024,
      "ĠØ¨ÙħÙ": 4025,
      "ĠØ§ÙĦØ¨ØŃ": 4026,
      "ÙĦØ¶": 4027,
      "ĠØ§ÙĦØ¬ÙħØ¹ÙĬØ©": 4028,
      "ĩÙĦØ©": 4029,
      "ĠØ·Ø§ÙĦØ¨": 4030,
      "ĠØ¨ÙħÙĤ": 4031,
      "ĠÙĤØ·Ø±": 4032,
      "ØŃØªØ¬Ø§": 4033,
      "ĠØ§ÙĦØ£ÙħØ§": 4034,
      "ĠØªØŃØ¯ÙĬØ¯": 4035,
      "ĠØ¥Ø¬": 4036,
      "³ÙĨØ": 4037,
      "ÙĪÙĪÙĬ": 4038,
      "ĠÙħØ¹ÙĩØ§": 4039,
      "°Ø§Ø": 4040,
      "ĠØ§ÙħØ§": 4041,
      "ģÙħÙĨ": 4042,
      "ĠØ§ÙĦØ®ÙĦÙĬØ¬": 4043,
      "ĬØ¶Ø§": 4044,
      "ÙĩØ§Ø¯Ø©": 4045,
      "ÙģÙħÙĨ": 4046,
      "ĠØ§ÙĦØ¥Ø³ÙĦØ§ÙħÙĬ": 4047,
      "ĠØ³ÙĦÙħ": 4048,
      "ĠØªØªÙ": 4049,
      "ĠÙĦÙĦØ®": 4050,
      "ĠÙħÙĨØ¸ÙħØ©": 4051,
      "ĠØ§ÙĦØ¬ÙĩØ§Øª": 4052,
      "ÙĬØ±Ø": 4053,
      "ĠÙħØŃÙħÙĪØ¯": 4054,
      "ĠØ§ÙĤØª": 4055,
      "¨Ø±Ø§Ø¡": 4056,
      "ĠØ§ÙĦØ§ÙĤØªØµØ§Ø¯": 4057,
      "ĠØ£Ø¨ÙĨØ§Ø¡": 4058,
      "ĠØªØ±ÙĬØ¯": 4059,
      "ĠÙĪØ¯Ø": 4060,
      "ÙħÙĪÙĬÙĦ": 4061,
      "ĦÙĪØ§Ø¡": 4062,
      "ĠØ§ÙĦØ£ÙĬØ§Ùħ": 4063,
      "ĠÙħØ³ÙĬ": 4064,
      "ºØ§ÙĬ": 4065,
      "³Ø¨Ø§": 4066,
      "¸Ø±ÙĪÙģ": 4067,
      "ªÙĨØªØ": 4068,
      "ĠØªØµÙĦ": 4069,
      "ĠÙĪØ¹Ø§": 4070,
      "Ø´ÙĤ": 4071,
      "ĠØ§ÙĦØ§Ø«ÙĨÙĬÙĨ": 4072,
      "ĠØªÙĩ": 4073,
      "ĠØ¨ÙĪØ§": 4074,
      "ĠØ§ÙĦØ¸": 4075,
      "ĠØ§ÙĦØµØŃØ§": 4076,
      "¨ØºÙĬ": 4077,
      "¹ÙĬÙ": 4078,
      "ĠØ§ÙĦØŃØ¯ÙĪØ¯": 4079,
      "ĦØµØ§": 4080,
      "ĠØ¹Ø§ÙĦÙħ": 4081,
      "Ø¨ÙĨØ§": 4082,
      "en": 4083,
      "Ø±ÙģØ§": 4084,
      "Ø³Ø·": 4085,
      "Ø¯ÙĬÙĨ": 4086,
      "ĠÙĪØ¥ÙĨÙħØ§": 4087,
      "ĠÙĪØ¹ÙĨØ¯": 4088,
      "ĠÙĦØ¹Ù": 4089,
      "ĠØ¯Ø±Ø§Ø³Ø©": 4090,
      "Ø±ÙĬÙħØ": 4091,
      "ĠØ§ÙĦØµÙģØŃØ©": 4092,
      "ØŃØ§Ø¡": 4093,
      "al": 4094,
      "ØªÙĨØªØ": 4095,
      "Ø³ÙĬØ±": 4096,
      "Ø¬ÙĩØ§Ø": 4097,
      "ĠØ§ÙĦÙĩØ¯Ùģ": 4098,
      "ĠÙĪØªÙĤØ": 4099,
      "ĠØ§ÙĦØ¹Ø§ÙħÙĦ": 4100,
      "ĠØ§ÙĦØ¥Ø±ÙĩØ§Ø": 4101,
      "ĠØ§ÙĦØ¥Ø±ÙĩØ§Ø¨": 4102,
      "¶Ø§Ø¦ÙĬØ©": 4103,
      "ĠØ§ÙĦÙĨØ§Ø¯ÙĬ": 4104,
      "ĠØ§ÙĦØ¯Ø¹Ùħ": 4105,
      "ĠØ§ÙĦØªØ±Ø§": 4106,
      "ĠØ§ÙĦØ£Ø±Ø¯ÙĨ": 4107,
      "ĩØ§Ø": 4108,
      "ÙģÙĪØ§": 4109,
      "ĬØ¯Ø": 4110,
      "ĠÙĪÙĦØ¯": 4111,
      "ĠÙĦÙĤØ§Ø¡": 4112,
      "ĠÙĥØ£Ø³": 4113,
      "ĠÙĪØ±Ø§Ø¡": 4114,
      "ĠØ§Ø®ØªÙĬØ§Ø±": 4115,
      "ĠØ§ÙĦØ§ÙĤØªØµØ§Ø¯ÙĬ": 4116,
      "ĠÙħØ§Ù": 4117,
      "ĠØ§ÙĦØªÙĨÙģÙĬ": 4118,
      "ĠØ§ÙĦÙħÙĤØ¨ÙĦØ©": 4119,
      "ÙĦØ¬Ø": 4120,
      "¯ÙģØ¹": 4121,
      "¹ÙĤØ¨": 4122,
      "ĠÙĬÙĨØ§ÙĬ": 4123,
      "Ġ|": 4124,
      "³ØªØ§ÙĨ": 4125,
      "ĠÙĬÙĪÙħÙĬØ§": 4126,
      "Ġ2016": 4127,
      "ÙĤØµÙī": 4128,
      "ÙĥÙĬÙħ": 4129,
      "ĠÙĬÙĨØ§ÙĬØ": 4130,
      "ÙĤØªÙĩ": 4131,
      "ĠØ§ÙĦØ¨Ø±Ø§ÙħØ¬": 4132,
      "ĠÙĬÙĨØ§ÙĬØ±": 4133,
      "Ø²ÙĬØ¹": 4134,
      "ĠØ§ÙĦØŃÙĦ": 4135,
      "Ġ23": 4136,
      "ĠØ§ÙħØ": 4137,
      "ĠÙħÙĪØ§Ø¬ÙĩØ©": 4138,
      "ĠÙĪÙĤØ§": 4139,
      "ĠØªØ¨Ù": 4140,
      "Ø±Ø¦": 4141,
      "ĠØ§ÙĦØ£Ø®ÙĬØ±": 4142,
      "Ø±ÙĬÙħØ©": 4143,
      "ĠÙĪØªÙĤ": 4144,
      "ĠØ¯Ø¨ÙĬ": 4145,
      "ĠØ§ÙĦÙĬØ§": 4146,
      "ĠÙĦÙĥÙĨÙĩ": 4147,
      "ĠØ§ÙĦÙĨÙĪØ§Ø¨": 4148,
      "ĠØ£ÙĪÙĦØ§": 4149,
      "ĠØªÙĥÙĨ": 4150,
      "ĠØ¨Ø¹ÙĬ": 4151,
      "ĠØ¹ÙħØ§": 4152,
      "ĠØ§ÙĦØ®Ø¯ÙħØ©": 4153,
      "ĠÙĬØ±Ø": 4154,
      "ĠØ§ÙĦØ£ÙĥØ«Ø±": 4155,
      "ĠÙ¡": 4156,
      "ĠØ¯ÙģØ¹": 4157,
      "³Ø¹Ùī": 4158,
      "ĠØªØŃØªØ§Ø¬": 4159,
      "Ø¨Ø¹Ø§": 4160,
      "ØªØ©": 4161,
      "ÙĨÙĪÙĦÙĪØ¬ÙĬØ§": 4162,
      "ĠÙĤØ§ÙĦØª": 4163,
      "ÙģØ¸Ø§Øª": 4164,
      "ĠÙħÙĩÙħØ©": 4165,
      "ĬØ²Ø©": 4166,
      "ĠØ§ÙĦØ±ÙĤ": 4167,
      "ĠØŃØ³Ø§Ø¨": 4168,
      "Ø¶Ùī": 4169,
      "ĠÙĪØº": 4170,
      "ģÙĤØ©": 4171,
      "ĠØ§ÙĦÙĤØ¶ÙĬØ©": 4172,
      "ĠÙħØ³Ø¤ÙĪÙĦ": 4173,
      "ÙĦØ§ÙħÙĬØ©": 4174,
      "ĠØ§ÙĦÙĨØ³": 4175,
      "¬Ø§ÙĪØ²": 4176,
      "ÙĦÙĬÙģ": 4177,
      "ĠØ§ÙĦØ±Ø¦ÙĬØ³ÙĬØ©": 4178,
      "¦Ø§Øª": 4179,
      "ĠØ§ÙĦØªÙĨÙħÙĬØ©": 4180,
      "ĬØ²ÙĬØ¯": 4181,
      "ĠØªÙĨØªØ": 4182,
      "ĠØ§ÙĦØ«Ø§ÙĨ": 4183,
      "Ø¦ÙĩÙħ": 4184,
      "ÙĨØ¯Ø³": 4185,
      "Ø£ÙĦ": 4186,
      "¹Ùĩ": 4187,
      "ĠØ§ÙĦØ¥ÙħØ§Ùħ": 4188,
      "ĠÙĬÙĩ": 4189,
      "ĠØ§ÙĦÙĤÙĦØ¨": 4190,
      "Ø¨Ø§ÙĨÙĬ": 4191,
      "¯ÙĤÙĬÙĤØ©": 4192,
      "ĠØ§ÙĦØªØ³": 4193,
      "ĠÙĩØ¯Ùģ": 4194,
      "Ø¬ÙĩÙ": 4195,
      "ĠR": 4196,
      "ĠÙħÙĪØ¶ÙĪØ¹": 4197,
      "ĠØ®ÙĬØ": 4198,
      "Ø³Ø¨ÙĪ": 4199,
      "ĠÙĪØ§ÙĦÙģÙ": 4200,
      "Ø³Ø¦": 4201,
      "ØªÙĬØ§": 4202,
      "ĦÙĤÙī": 4203,
      "ĠÙĬØ³ØªØ·ÙĬØ¹": 4204,
      "ĠÙĨØªØ": 4205,
      "ĠØ§ÙĦØ¥Ø¯Ø§": 4206,
      "ĠÙĪØ§ÙĦÙĨ": 4207,
      "ĠØ§ÙĦØ·ÙĦØ§Ø¨": 4208,
      "ĠØ§ÙĦÙħØ¤Ø³Ø³Ø§Øª": 4209,
      "Ø³Ø§Ø¡": 4210,
      "ĠØ§ÙĦØ¥Ø³Ø±Ø§Ø¦ÙĬÙĦÙĬ": 4211,
      "ĠØ±ÙĪØ§Ù": 4212,
      "ĠÙħØ³ØªÙĤØ": 4213,
      "ĠÙĨØµÙģ": 4214,
      "ÙĤØ§ÙģØ©": 4215,
      "Ø·Ø§ÙĨ": 4216,
      "ĠØ¥Ø¨Ø±Ø§ÙĩÙĬÙħ": 4217,
      "ĠÙĪØºÙĬØ": 4218,
      "ÙĦØ¬Ø©": 4219,
      "ĠØ±Ø³Ø§ÙĦØ©": 4220,
      "ĬØµÙĦ": 4221,
      "ĠØ¨ÙĪØ": 4222,
      "ĠÙħØ§Ø": 4223,
      "ĠÙħØ¯Ø§": 4224,
      "ÙĪØ£ÙĥØ¯": 4225,
      "ĠØªÙĤØ§": 4226,
      "ĠÙĨÙ": 4227,
      "ÙĬØµÙĦ": 4228,
      "ÙĦÙĦ": 4229,
      "ĠØ¹ÙĦØ§ÙĤØ©": 4230,
      "ĦÙĦ": 4231,
      "ÙģÙĬØ¯": 4232,
      "ĠØ³Ø¨Ø¨": 4233,
      "ĬØ±ÙĬØ¯": 4234,
      "Ø¦Ø§Ø": 4235,
      "ÙĬØ¯Ø": 4236,
      "ĠÙĪØºÙĬØ±": 4237,
      "ĠØ§ÙĦØ´Ø±ÙĤÙĬØ©": 4238,
      "ĠÙĦÙħÙĨ": 4239,
      "Ø¯ÙĬØ§": 4240,
      "ĠØ§ÙĦØ¯ÙĪØ±ÙĬ": 4241,
      "ĦÙĪØ§ÙĨ": 4242,
      "ÙĦØ§ÙĦØ©": 4243,
      "ĠØ¯Ø®ÙĪÙĦ": 4244,
      "ĠØ¨Ø·Ø±ÙĬÙĤØ©": 4245,
      "ĠÙĪØ§ÙĦÙĦÙĩ": 4246,
      "ĠÙĤÙĦ": 4247,
      "ºØ§ÙĬØ": 4248,
      "ĠØ§ÙĦØªØ§Ø¨Ø¹Ø©": 4249,
      "ģØ§Ù": 4250,
      "ÙĬØ²ÙĬØ¯": 4251,
      "ĠÙĥØ±Ø©": 4252,
      "ĠÙħØŃØ§ÙĪÙĦØ©": 4253,
      "ĠØ®ÙĬØ±": 4254,
      "ÙĥØ§ÙĨ": 4255,
      "Ø¹Ø¯Ø§": 4256,
      "ĠÙĬÙĪØ³Ùģ": 4257,
      "ĠØ¯Ø§Ø±": 4258,
      "ØªØ¬Ø§Ùĩ": 4259,
      "ĠÙĦØ°Ø§": 4260,
      "ĠØ§ÙĦØ§Ø¹ØªØ": 4261,
      "ØªØ§ÙĨ": 4262,
      "Ø±Ø¬Ø¹": 4263,
      "Ø¶Ø§Ø¡": 4264,
      "ĠÙĬØµÙĦ": 4265,
      "ĠG": 4266,
      "ĠØ§ÙĦØ¨ÙĬØ§ÙĨØ§Øª": 4267,
      "ÙĬØ±ÙĬØ¯": 4268,
      "ÙĩØªÙħØ§Ùħ": 4269,
      "ĠÙĦØ¶": 4270,
      "ĠØŃØµ": 4271,
      "ĠØ§ÙĦÙħØŃØ§ÙģØ¸Ø©": 4272,
      "Ø¯ÙĤÙĬÙĤØ©": 4273,
      "ĠÙħØ¯ÙĬ": 4274,
      "ĠØ§ÙĦØ¯ÙĪØ±": 4275,
      "ĠØªØŃÙħÙĦ": 4276,
      "ĠÙĤÙĨØ§Ø©": 4277,
      "ĠØ¯ÙĤÙĬÙĤØ©": 4278,
      "ĠÙĪØªØ¹Ø": 4279,
      "ĠØ§ÙĦØ·Ø¹Ø§Ùħ": 4280,
      "ĠØ¨ÙĬÙĨÙĩ": 4281,
      "ĠÙĪØ¨": 4282,
      "ģØ§Ø©": 4283,
      "Ø¨ÙĬØ¶": 4284,
      "ĠÙĬØ²ÙĬØ¯": 4285,
      "ĠØ§ÙĦØ¯ÙĨÙĬØ§": 4286,
      "ÙĦÙĪØ": 4287,
      "ÙĥØ¨": 4288,
      "ĠÙħØ¤Ø³Ø³Ø©": 4289,
      "ĠØ§ÙĦÙĦØ§Ø²ÙħØ©": 4290,
      "ĠØ§ÙĦØ´Ø±ÙĬÙģ": 4291,
      "ĠÙĬØ±ÙĬØ¯": 4292,
      "ĠÙĪÙĩØ°Ùĩ": 4293,
      "ĠØ§ÙĦØŃØ¨": 4294,
      "®ÙģØ§Ø¶": 4295,
      "ĠÙħÙĥØ": 4296,
      "ÙĤØ§Ø¯": 4297,
      "ĠØ¨Ø¯Ø§": 4298,
      "ĠØ£ÙĪØ±ÙĪØ¨Ø§": 4299,
      "ĠØ§ÙĦØªØ¬Ø§Ø±Ø©": 4300,
      "ÙĤÙĩÙħ": 4301,
      "ĠØ§ÙĦØ§Ø³ØªÙ": 4302,
      "ĠÙĪØ¨Ù": 4303,
      "ĠÙħØ§Ø±Ø³": 4304,
      "ĠÙģÙħÙĨ": 4305,
      "ĠØ§ØŃ": 4306,
      "Ø¹ÙĬÙĨ": 4307,
      "ĠÙĥØªØ¨": 4308,
      "³ÙĥØ±": 4309,
      "ĠØ§ÙĦØ£Ø²": 4310,
      "ÙħÙĥØ§ÙĨÙĬØ©": 4311,
      "Ø¯ÙĨ": 4312,
      "ĠÙħØ´ÙĥÙĦØ©": 4313,
      "ĠÙĦÙħÙĪØ§": 4314,
      "Ø³ÙĨØ": 4315,
      "ĠØŃØ³ÙĬÙĨ": 4316,
      "ĠØ§ÙĦÙĤØ¶Ø§Ø¡": 4317,
      "ĦØ¢": 4318,
      "Ùł": 4319,
      "ĠØªØ¬Ø§Ùĩ": 4320,
      "ÙĪØ´": 4321,
      "ĠÙĪØ£Ø¶Ø§Ùģ": 4322,
      "Ø·Ø¹": 4323,
      "ĠØ§ÙĦØ¬ÙĨÙĪ": 4324,
      "ĠØ§ÙĦØ£Ùģ": 4325,
      "´Ø¯": 4326,
      "ĠÙĬØ¬ÙĪØ²": 4327,
      "es": 4328,
      "ĠØ§ÙĦÙģÙĨÙĬ": 4329,
      "¸Ø§Ø±": 4330,
      "ĠÙĦÙĥØ±Ø©": 4331,
      "ĠÙĬØ¤Ø¯ÙĬ": 4332,
      "Ø°Ø©": 4333,
      "ĠØ®ÙĦØ§ÙĦÙĩØ§": 4334,
      "Ø®Ø±Ø©": 4335,
      "ĠÙħØ¤Ø®Ø±Ø§": 4336,
      "ÙģÙĦØ§Ùħ": 4337,
      "ĠÙĬÙĨØªØ": 4338,
      "ĦØ³ÙĦØ©": 4339,
      "ĠØ§ÙĤ": 4340,
      "ĦÙģØ§Øª": 4341,
      "ĬÙĤØ¯Ùħ": 4342,
      "ĠÙĪØ§ÙĦÙħÙĪØ§": 4343,
      "ĠØ¨ÙĩÙħ": 4344,
      "ÙĬÙĤØ¯Ùħ": 4345,
      "ĠØµØ¨Ø§ØŃ": 4346,
      "ĠØ¢ÙĦØ§Ùģ": 4347,
      "ĠÙĦØ£ÙĨÙĩØ§": 4348,
      "Ø¦Ø²": 4349,
      "¨ÙĪØ±": 4350,
      "ĠØ§ÙĦØ·Ø¨ÙĬØ©": 4351,
      "ĠÙħØ¹ÙĦÙĪÙħØ§Øª": 4352,
      "ÙģÙĬÙģ": 4353,
      "ÙħÙĬØ§Øª": 4354,
      "¹ÙħØ§ÙĨ": 4355,
      "ĠÙĪØ£Ø®": 4356,
      "ĬÙħÙĥ": 4357,
      "ĠØ§Ø³ØªØ«": 4358,
      "ĠØ£ÙĨÙĪØ§Ø¹": 4359,
      "ĠÙĬØ¯Ø": 4360,
      "ĠØ§ÙĦÙĤØ§Ø¯ÙħØ©": 4361,
      "ĠÙĬØ¨Ø¯ÙĪ": 4362,
      "ĠØ³Ø§Ø¹Ø§Øª": 4363,
      "¯ÙĬØ¯Ø©": 4364,
      "ĠØ§ÙĦØ£Ø®Ø¨Ø§Ø±": 4365,
      "ºØ§ÙĬØ©": 4366,
      "ÙĬØº": 4367,
      "ÙĪÙģØ©": 4368,
      "ĠØ§ÙĦÙģÙĪØ±ÙĥØ³": 4369,
      "ĠØ§ÙĦØ¥Ø¬Ø±Ø§Ø¡Ø§Øª": 4370,
      "ĦÙģØ²": 4371,
      "Ø¹ÙĤØ¨": 4372,
      "ÙĬÙħÙĥ": 4373,
      "Ø¯Ø¦": 4374,
      "ĠØ§ÙĦÙħÙĥØ§ÙĨ": 4375,
      "Ø¥Ø°Ø§": 4376,
      "ĬØªØŃØ": 4377,
      "Ø³ØªÙĤØ±Ø§Ø±": 4378,
      "ĠÙĪØµÙĦ": 4379,
      "ĠØ¬ÙĬØ¯Ø§": 4380,
      "ĠÙģØ§Ù": 4381,
      "¨Ø§Ø¯ÙĦ": 4382,
      "ĠØ§ÙĦØ¬Ø§Ø±ÙĬ": 4383,
      "ĠØ´Ø®": 4384,
      "ĠØŃÙħØ§ÙĬØ©": 4385,
      "ĠØªØºÙĬÙĬØ±": 4386,
      "at": 4387,
      "Ø¦ØŃ": 4388,
      "ÙĬØªØŃØ": 4389,
      "ĠØ§ÙĦØµØŃÙĬ": 4390,
      "ĠØµØºÙĬØ±Ø©": 4391,
      "ØµØ§Ù": 4392,
      "Ø³Ø§Ø±Ø©": 4393,
      "ĠØ§ÙĦØ£Ø³Ø§Ø³ÙĬØ©": 4394,
      "³Ø¹ÙĬØ¯": 4395,
      "ĠØªØ¹ØªØ¨Ø±": 4396,
      "ĠØ§ÙĦÙħØ³ØªÙĤØ¨ÙĦ": 4397,
      "ĠÙĪØ§ÙĦØ¢": 4398,
      "ĠØ§ÙĦØ¹ÙĤØ§": 4399,
      "ĠØ£Ø·Ù": 4400,
      "ĠØ§ÙĦÙģÙĨÙĬØ©": 4401,
      "Ø±ÙĬØ®ÙĬØ©": 4402,
      "Ø¦Ø§Øª": 4403,
      "ØªÙĪØ¨Ø±": 4404,
      "ÙĪÙĦØ": 4405,
      "ĠØ§ÙĦØ£Ø´Ø®Ø§Øµ": 4406,
      "Ø³Ø¹ÙĬØ¯": 4407,
      "ĠØ§ÙĦÙħØ´ØªØ": 4408,
      "ÙĤÙĬØ¹": 4409,
      "¬ÙĬ": 4410,
      "²Ø§Ø¨": 4411,
      "ĠØ§ÙĦÙĥØ¨Ø±Ùī": 4412,
      "¹ÙĤØ": 4413,
      "ÙĦØ¹Ø²ÙĬØ²": 4414,
      "ĠØ§ÙĦØ³Ø¬": 4415,
      "ĠÙĪØ§ÙĦØ°": 4416,
      "ÙĤØ§Ùģ": 4417,
      "ĠØ§ÙĦØµÙĪØ±": 4418,
      "ĠØ§ÙĦØ²Ø§": 4419,
      "ĠØµØŃÙĬØŃ": 4420,
      "ĠÙĬÙħÙĥ": 4421,
      "Ø®ØªÙĦÙģ": 4422,
      "ÙĦØµØ§": 4423,
      "ĠÙĦÙħÙĨØ": 4424,
      "ĠØ§ÙĦÙĦØ§Ø¹Ø¨": 4425,
      "ĠÙĪÙĬÙĨØ": 4426,
      "ĠØ¬ÙħÙĬØ¹Ø§": 4427,
      "ĠØ§ÙĦÙħØ¬ÙħÙĪØ¹Ø©": 4428,
      "ØµØ¯Ø§Ø±": 4429,
      "Ø·Ø§Ø¨": 4430,
      "ĠØ¨ÙĬÙĨÙĩÙħ": 4431,
      "ĠØ§ÙĦØµÙĪØ±Ø©": 4432,
      "ĠØ§ÙĦØŃÙĤÙĬÙĤØ©": 4433,
      "ĠØ®ÙħØ": 4434,
      "ÙħÙĬÙĦØ©": 4435,
      "ÙĬØ§ÙĨØ©": 4436,
      "ÙĥØ§Ø¯ÙĬ": 4437,
      "ĠØ³Ø¹ÙĬØ¯": 4438,
      "ÙĬØ§ÙĨØ§": 4439,
      "ØµØ§Øª": 4440,
      "ØŃØ¸": 4441,
      "ĠØ¨Ø±ÙĪ": 4442,
      "ĠØŃØ±Ø¨": 4443,
      "¹Ø¬": 4444,
      "ĠØ§ÙĦØºØ°Ø§": 4445,
      "¹Ø§ÙĦÙĬØ§Øª": 4446,
      "ĠØ´Ø¹Ø": 4447,
      "ÙĦÙģØ©": 4448,
      "ĠÙĪØ®Ø§ØµØ©": 4449,
      "¨ÙĪØ§Ø": 4450,
      "ĠØªØ±Ø§Ùħ": 4451,
      "Ġ}": 4452,
      "ÙĨØ´Ø·Ø©": 4453,
      "ĠØ±ÙģØ¶": 4454,
      "ĠØµÙĪØ±": 4455,
      "µØ¨ØŃ": 4456,
      "ĠÙĤØ§Ø": 4457,
      "ªÙĤÙ": 4458,
      "ØŃÙĬØ·": 4459,
      "ØªØ§ØŃ": 4460,
      "ĠØ§ÙĦÙħÙĪØ": 4461,
      "¨ÙĥØ±": 4462,
      "ĠØ¨Ø¹Ø¯ÙħØ§": 4463,
      "ÙĩÙī": 4464,
      "ĦÙĨÙĩ": 4465,
      "ĠØ§ÙĦØ§ØªØµØ§ÙĦ": 4466,
      "Ø¨ÙĪØ§Ø": 4467,
      "ĦÙĪÙħØ§": 4468,
      "ĠØ±Ùĥ": 4469,
      "ĠØ§ÙĦÙħØ±Ø§": 4470,
      "Ø´Ùĩ": 4471,
      "ĠØ£ÙĤØ": 4472,
      "ĠØ§Ø®Ø±Ùī": 4473,
      "ĠØ§ÙĦØ£Ø²ÙħØ©": 4474,
      "ĠÙĬØªØŃØ": 4475,
      "¶Øª": 4476,
      "ĠÙĬØŃØªØ§Ø¬": 4477,
      "ĠØªÙĬ": 4478,
      "ĠØ§ÙĦØ¢Ø®Ø±ÙĬÙĨ": 4479,
      "ĠØ§ÙĦØ¹Ø²ÙĬØ²": 4480,
      "¨ÙĦØ§Ø": 4481,
      "Ø¬Ø±Ø©": 4482,
      "ĠØ§ÙĦØ·Ø±ÙĤ": 4483,
      "ĠØªØ±Ø§ÙħØ": 4484,
      "ĠØ³ØªÙĥÙĪÙĨ": 4485,
      "ĠØªØ±Ø§ÙħØ¨": 4486,
      "ĠØ§Ø³Ùħ": 4487,
      "ĠÙĪØŃØ¯Ø©": 4488,
      "ĠØ³ÙĦØ§Ùħ": 4489,
      "ĠØ§ÙĦØ£ÙħÙĬØ±ÙĥÙĬØ©": 4490,
      "ÙĩÙħØ": 4491,
      "ĠØ§ÙĦØ¬Ø§ÙĨØ¨": 4492,
      "ĠØ§ÙĦØ¯Ø®ÙĪÙĦ": 4493,
      "ØŃØªØ±Ø§": 4494,
      "ĠØ¥Ø¬Ø±Ø§Ø¡": 4495,
      "ĠÙĦÙĦØºØ§ÙĬØ©": 4496,
      "ĠØµØ§Ø": 4497,
      "¨ÙĦØ§Ø¯": 4498,
      "ĠØ§ÙĦØŃØ§ÙĦØ©": 4499,
      "ĠÙĪØ§ÙĦÙħØ": 4500,
      "ĠÙĥÙĪÙħ": 4501,
      "ĠØ¨ÙĪØ§Ø": 4502,
      "Ø±ÙģØ¹": 4503,
      "Ġ2017": 4504,
      "Ġ26": 4505,
      "ÙĪØ§Ùħ": 4506,
      "ÙĪØ£Ø´Ø§Ø±": 4507,
      "ĠØ¹Ø¨Ø¯Ø§ÙĦØ¹Ø²ÙĬØ²": 4508,
      "ÙħÙĥØ§ÙĨ": 4509,
      "ÙĪÙĦÙĥ": 4510,
      "ĠD": 4511,
      "ĠÙĥÙĬÙģÙĬØ©": 4512,
      "ĠØªØ¹Ø±Ùģ": 4513,
      "ĠÙĤÙħØ": 4514,
      "ĠØªØ¬Ø±Ø¨Ø©": 4515,
      "ªÙĩÙĬ": 4516,
      "Ø¨Ø¶": 4517,
      "³Ø¹Ø¯": 4518,
      "ÙģÙĨ": 4519,
      "ĠÙĬØº": 4520,
      "ĠØ¹Ø´Ø±Ø©": 4521,
      "¯Ø¹": 4522,
      "ĠØ§ÙĦØªØŃØ§": 4523,
      "Ø¤ÙĪÙĨ": 4524,
      "ĠØ§ÙĦÙħØ³ÙĦØŃØ©": 4525,
      "ĠØ§ÙĦÙĨÙĬØ§": 4526,
      "ĠÙģÙĥØ±Ø©": 4527,
      "ĠØ£ØµØŃØ§Ø¨": 4528,
      "³ØªÙĬ": 4529,
      "ĠØ±Øº": 4530,
      "ÙĨØ·ÙĨ": 4531,
      "ĠØ§ÙĦÙħØ¯ÙĬØ±": 4532,
      "ĠÙħÙħÙĨ": 4533,
      "®ÙĦØµ": 4534,
      "ĠØ¨ÙĨØ§": 4535,
      "ĠØ¹ÙĤØ¨": 4536,
      "ĠÙĨØ¸Ø±Ø§": 4537,
      "ĠÙģØ§ÙĨ": 4538,
      "±ÙĥÙĬØ²": 4539,
      "ĠØªÙĤØ±ÙĬØ±": 4540,
      "ĠÙģÙĩØ°Ø§": 4541,
      "ĠØ§ÙĦØ®ÙĬØ§Ø±Ø§Øª": 4542,
      "ĠØ¨Ø§ÙĨ": 4543,
      "ĠÙħØªØ¹Ø": 4544,
      "ĠØ¨Ø¯Ø¡": 4545,
      "Ø£ÙĦØ©": 4546,
      "Ø³Ø¬": 4547,
      "ĠØ§ÙĦØ³ÙĨÙĪØ§Øª": 4548,
      "ĠØ§ÙĦÙħØ¹Ø§Ø±Ø¶Ø©": 4549,
      "ģÙĤØ": 4550,
      "¯Ø§ÙĦØ©": 4551,
      "ĠØ§ÙĦØªÙĨ": 4552,
      "ĠØ§ÙĦÙħØªØ¹Ø§ÙĤØ¯": 4553,
      "ĠØ´Ø±Ø§Ø¡": 4554,
      "Ġ+": 4555,
      "ĠØ§ÙĦØ§Ø³ØªØ«": 4556,
      "ĠÙĪÙĥØ§ÙĦØ©": 4557,
      "ĠØ§ÙĦØ¹ÙħØ": 4558,
      "ĠØªÙĤÙĪÙĦ": 4559,
      "ĠÙĦØ§ØŃ": 4560,
      "¬Ø§Ø²": 4561,
      "ĠØ§ÙĦÙĥØ±Ø©": 4562,
      "Ġ{": 4563,
      "Ø¬ÙĩØ§Øª": 4564,
      "Ø¹Ø¯Ø§Øª": 4565,
      "ØªØ¯": 4566,
      "ĠØ£Ø¯Ø§Ø¡": 4567,
      "ĠØ§ÙĦÙģÙĨØ§ÙĨ": 4568,
      "ÙģÙĬØ§Øª": 4569,
      "ĠÙĬÙĪÙĨ": 4570,
      "ĠØ¨Ø¯ÙĦØ§": 4571,
      "ĠØ§ÙĦÙĤÙĪÙī": 4572,
      "®ØµØµ": 4573,
      "ĠØ§ÙĦÙħÙĨØ²ÙĦ": 4574,
      "ĠH": 4575,
      "ĠØ§ÙĦÙħØ¤ÙħÙĨ": 4576,
      "ĠÙĦÙħØ§Ø°Ø§": 4577,
      "ĠØ§ÙĦÙĥØ¨ÙĬØ±Ø©": 4578,
      "Ø¶ÙĬØ¹": 4579,
      "ÙĪØ£ÙĪØ¶ØŃ": 4580,
      "ĬØ§Ø¯": 4581,
      "ĠÙĥØ§ÙħÙĦØ©": 4582,
      "Ø¦ÙĬØ§": 4583,
      "Ø¬ÙĬÙĩ": 4584,
      "ĠÙĦØ£ÙĬ": 4585,
      "ĠØªØ¬Ø": 4586,
      "ĠØ§ÙĦØ£Ø¯": 4587,
      "ĦÙħÙĪÙĨ": 4588,
      "ĠÙħØ²": 4589,
      "ĠÙĥØ": 4590,
      "«ÙĬ": 4591,
      "ĠÙħØº": 4592,
      "ÙģØ±Ø¶": 4593,
      "Ø±Ø«": 4594,
      "ĠØ¨Ø±": 4595,
      "Ø¦ÙĨ": 4596,
      "ÙĬÙĪÙĬØ": 4597,
      "ĠØ§ÙĦØ§Ø´": 4598,
      "ĠØ§ÙĦØ£ÙħØ©": 4599,
      "Ø¹ÙĬØ§Øª": 4600,
      "Ø¨ÙĦØ§Ø": 4601,
      "ĠØ§ÙĦØ¹ÙĦÙħØ§Ø¡": 4602,
      "ĠØ¥ÙĨØªØ§Ø¬": 4603,
      "ĠØ§ÙĦØ£ÙĪØ±ÙĪØ¨ÙĬ": 4604,
      "ĠØªØ¯Ø§ÙĪÙĦ": 4605,
      "ĠØ§ÙĩØ": 4606,
      "ĠÙĦÙĦØ·": 4607,
      "ĠØ§ÙĦØ¬Ø²Ø§Ø¦Ø±": 4608,
      "ĠØ²ÙĬØ§Ø±Ø©": 4609,
      "ĠØ¨ØµÙĪØ±Ø©": 4610,
      "ĠÙģØ¥Ø°Ø§": 4611,
      "ĠØ¹ÙĪ": 4612,
      "ĠØ¨ÙĦØ§Ø": 4613,
      "ĨÙĪØ§ÙĨ": 4614,
      "ÙĨØ§Ø¹": 4615,
      "ĠÙĪÙĦØ§Ù": 4616,
      "ÙĨØ¯Ø§": 4617,
      "ĠØ£ØµØ¨ØŃØª": 4618,
      "ĠÙĪØªÙĨØ": 4619,
      "ĠÙĬÙĤØ¯Ùħ": 4620,
      "ÙĬÙĪÙĬØ©": 4621,
      "ĠØ±Ø¤ÙĬØ©": 4622,
      "ÙĩØ§Ø¯": 4623,
      "ÙĥÙĩ": 4624,
      "ĠØ§ÙĦØ´Ø¹Ø¨ÙĬØ©": 4625,
      "Ø±Ø¨Ø§Ø": 4626,
      "ĠØ§ÙĦØ´Ø¹ÙĪØ": 4627,
      "Ø«Ùħ": 4628,
      "ĠÙģØ±Ø¶": 4629,
      "ªØŃÙĤ": 4630,
      "ĠÙĥØ£": 4631,
      "Ġ27": 4632,
      "ĠØ§ÙĦÙĪØ²ÙĬØ±": 4633,
      "ĠÙĪÙĪÙ": 4634,
      "ĠØ§ÙĦØŃØ§ÙĦÙĬØ©": 4635,
      "ĠÙĩØ§Ùħ": 4636,
      "ĠÙĦØµØ§": 4637,
      "Ø±Ø±Øª": 4638,
      "ĠÙĪÙħÙĪØ§": 4639,
      "ĠØ§ØŃØ¯": 4640,
      "ĠØ¥Ø·ÙĦØ§ÙĤ": 4641,
      "ĠØ´Ø®ØµÙĬØ©": 4642,
      "ĠØ²ÙĪØ¬": 4643,
      "ĬØªØŃ": 4644,
      "ØºØ©": 4645,
      "ĠØ¨ÙĨÙĬ": 4646,
      "ĦØªØŃØ": 4647,
      "ĠÙħØ¤ØªÙħØ±": 4648,
      "ĦØªÙĥ": 4649,
      "ÙĥØ§ÙĦØ©": 4650,
      "ĠØ§ÙĦØŃÙĪØ§Ø±": 4651,
      "ĠØ£Ø¹ÙħØ§": 4652,
      "ĠÙħÙĥØªØ¨": 4653,
      "ÙĨØ§Ø¦ÙĬ": 4654,
      "ĠØ¬Ø¹ÙĦ": 4655,
      "ĠØ¯Ø±Ø": 4656,
      "ĠØ¨Ø³ÙĬ": 4657,
      "ĠÙĪØ§ÙĦØ£Ø": 4658,
      "ÙĨÙĪØ§Øª": 4659,
      "ĠØ§ÙĦÙĨØ§ØµØ±": 4660,
      "ĠØ·Ø±Ùģ": 4661,
      "ĬØ¹ÙĬØ´": 4662,
      "ÙĪØ¨Ø§Øª": 4663,
      "ÙĪÙģØ§": 4664,
      "¹ÙĪ": 4665,
      "ÙĬØ¹ÙĬØ´": 4666,
      "¹Ø¨Ø": 4667,
      "ĠØ§ÙĦØ¹ÙĦØ§Ø¬": 4668,
      "ĠÙĨØ¸Ø±": 4669,
      "ÙĥÙĪÙħØ©": 4670,
      "¸ÙħØ§Øª": 4671,
      "ĠÙĪÙĨØŃÙĨ": 4672,
      "ĠÙħÙĤØ§Ø±ÙĨØ©": 4673,
      "ĠØ§ÙĦØ«Ø§ÙĦØ«Ø": 4674,
      "ĠØ§ÙĦØ«Ø§ÙĦØ«Ø©": 4675,
      "ĠØ¨Ø±Ù": 4676,
      "ÙĬØªØŃ": 4677,
      "ģÙĩÙĪ": 4678,
      "Ø±Ø§ØŃ": 4679,
      "ĠÙħØ³ÙĦØ³ÙĦ": 4680,
      "ĠØ§ÙĦØ£Ø³Ø¹Ø§Ø±": 4681,
      "ĠØ¨ÙĬÙĨÙĩØ§": 4682,
      "ĠØ³ÙĪØ±ÙĬØ©": 4683,
      "ĠØ¥ÙĨØ´Ø§Ø¡": 4684,
      "ÙħÙĨØ¹": 4685,
      "ĠØ§ÙĦØ£ÙĤÙĦ": 4686,
      "Ġ28": 4687,
      "´Ø±Ø©": 4688,
      "ĠØ£ÙĨÙģØ": 4689,
      "Ø¹Ø§Ø±": 4690,
      "ĠI": 4691,
      "Ø³Ø£": 4692,
      "Ø³ÙĬØ³": 4693,
      "ĠÙĪØªØ¬": 4694,
      "ģØªØªØ§": 4695,
      "ĠØ¹Ø¨Ø§Ø±Ø©": 4696,
      "ĠØ§ÙĦÙĬÙĩ": 4697,
      "ĠØ§Ø«": 4698,
      "ĠÙĬØªØŃ": 4699,
      "ĠØ§ÙĦÙĨÙĪÙĪÙĬ": 4700,
      "ĠÙĦØ¯ÙĬÙĩ": 4701,
      "ĠÙħÙĩÙħØ§": 4702,
      "ĠØ¨ÙĪØ§Ø³Ø·Ø©": 4703,
      "Ø«Ø±Ø©": 4704,
      "ĠØ¥ÙħØ§": 4705,
      "ĠØ§ÙĦØªÙĤØ±ÙĬØ±": 4706,
      "Ø¨Ø±ÙĬÙĦ": 4707,
      "ĠÙħØ´Ø§Ø±ÙĥØ©": 4708,
      "ĠØ§ÙĦÙħØ¤Ø³Ø³Ø©": 4709,
      "ĠÙħØ¯Ø©": 4710,
      "ĠØ³Ø¬": 4711,
      "ĠØ§ÙĦØ¨Ø±ÙĦÙħØ§ÙĨ": 4712,
      "Ø³ØªÙĤØ¨Ø§ÙĦ": 4713,
      "ĠØ§ÙĦÙĪØ³Ø·": 4714,
      "ĠØŃØµÙĦ": 4715,
      "ÙĪØ¶Ø§Øª": 4716,
      "ĠØªØ¹Ø²ÙĬØ²": 4717,
      "ĠÙĪØ¨Ø§Ù": 4718,
      "ĠØ§ÙĦØ¹Ø±Ø§ÙĤÙĬØ©": 4719,
      "ĠØ§ÙĦØ¹ÙħØ±": 4720,
      "Ø³Ø¹Ø¯": 4721,
      "ĠÙĪÙĦØ§ÙĬ": 4722,
      "ģÙĬØ¯": 4723,
      "ĠØ§ÙĦØ¯Ø³ØªÙĪØ±": 4724,
      "Ø±ØªÙĬÙĨ": 4725,
      "Ø¯ÙĩÙħ": 4726,
      "ĠÙĪÙĦØ°": 4727,
      "ĠØ§ÙĦÙħÙĪØ§ÙĤØ¹": 4728,
      "Ø·Ø·": 4729,
      "ĠØ³ÙĨØ": 4730,
      "Ø¬ÙħØ¹": 4731,
      "ĠÙĬØ¹ÙĬØ´": 4732,
      "ĠØ¥ÙĨÙħØ§": 4733,
      "ÙĬÙĬÙħ": 4734,
      "ģÙĬÙĩ": 4735,
      "ÙħÙĦØª": 4736,
      "ÙĪÙĤØ§ÙĦØª": 4737,
      "ĠØ§ÙĦÙĤÙĪÙĦ": 4738,
      "ĠØ£Ø¶": 4739,
      "ĠØ³Ø¬ÙĦ": 4740,
      "ĠØ£ÙħÙĨ": 4741,
      "ĠÙģÙĨ": 4742,
      "Ø²Ø§ÙĦØ©": 4743,
      "ĠØ§ÙĦØ¹ÙĦØ§ÙĤØ©": 4744,
      "ĠØ¨Ø£ÙĬ": 4745,
      "Ġ198": 4746,
      "ĠØ§ÙĦØ³ÙĬØ§Ø³Ø©": 4747,
      "ÙģÙĤØ©": 4748,
      "ØºÙĦØ¨ÙĬØ©": 4749,
      "ĦÙģÙĬØ©": 4750,
      "ĠØ¹Ø§ÙħØ©": 4751,
      "ĠÙħØ·": 4752,
      "ÙĪÙħØ§Øª": 4753,
      "ĠØ§ÙĦÙģÙĦØ³Ø·ÙĬÙĨ": 4754,
      "Ø±Ø§ÙĤØ¨Ø©": 4755,
      "ĠØ§ÙĦØ´Ø§Ø": 4756,
      "ĠØ®ÙħØ³Ø©": 4757,
      "ĠØ§ÙĦÙħØ³ÙĬØŃ": 4758,
      "ĠØ¹ÙĪØ§": 4759,
      "ÙĦÙĤØ§": 4760,
      "ĠØ¹Ø¶": 4761,
      "ĠØ®Ø·Ø©": 4762,
      "Ø¨ÙĬÙĪØªØ±": 4763,
      "ĠØ§ÙĦØºÙ": 4764,
      "ĠÙĪÙĩÙĨØ§Ùĥ": 4765,
      "ĠÙħØ§Ø°Ø§": 4766,
      "ĠÙĤØµ": 4767,
      "ĠØ§ÙĦØ¹ÙĨØ§": 4768,
      "ĠØ³ÙĬØ§Ø³ÙĬØ©": 4769,
      "ÙĪØ¯Ùĩ": 4770,
      "ªÙĪÙĨ": 4771,
      "ĠØ§ÙĦØ£Ø¬ÙĩØ²Ø©": 4772,
      "Ø±Ø¨ÙħØ§": 4773,
      "ĠÙĪØ§ÙĦØ·": 4774,
      "ĠØ¨ÙĬØ¹": 4775,
      "Ù¢": 4776,
      "ĠÙĦØ§ÙĨ": 4777,
      "ĠØ¨Ø§ÙĦØŃØ": 4778,
      "·Ø§Ø¹Ø§Øª": 4779,
      "·Ø§ÙĤ": 4780,
      "ĠØ§ÙĦØ¹Ø±Ø§ÙĤÙĬ": 4781,
      "¹Ø±Ø§Ø¶": 4782,
      "ĠØ§ÙĦØ¯ÙĤÙĬÙĤØ©": 4783,
      "ĠØ§ÙĦØ§Ø¬ØªÙħØ§Ø¹": 4784,
      "ĠØ§ÙĦØ¹ÙĪØ¯Ø©": 4785,
      "ĠØ³Ø¨ÙĤ": 4786,
      "ÙĪÙĬØ¶": 4787,
      "³ÙĨØ§": 4788,
      "Ø±ÙĪØ©": 4789,
      "ÙħÙĦÙĩ": 4790,
      "ĠØ¨Ø·ÙĪÙĦØ©": 4791,
      "Ø®ÙĬØ±Ø§": 4792,
      "ĬØ±Ùī": 4793,
      "Ø´Ø§Ø±Øª": 4794,
      "ĠÙģÙĬÙĦÙħ": 4795,
      "ĠØµÙĦØ§ØŃ": 4796,
      "ĠØ¨ÙĦØºØª": 4797,
      "Ø¬Ø§Ø¨": 4798,
      "ĠÙĬØŃÙħÙĦ": 4799,
      "ÙģØ±Ø§": 4800,
      "ÙĪÙĪ": 4801,
      "Ø¬Ø§Ø¬": 4802,
      "ĠØ§ÙĦØ£ÙĦÙħØ§": 4803,
      "¯ÙħØ§": 4804,
      "Ġ#": 4805,
      "ĠØ§ÙĦØ¥ÙĨØ³Ø§ÙĨÙĬØ©": 4806,
      "ĠØ§ÙĦØ«ÙĤØ§ÙģØ©": 4807,
      "ĠÙħØªÙĨ": 4808,
      "ĠØ§ÙĦÙĨÙģØ³": 4809,
      "ĠÙħØ¹Ø±ÙģØ©": 4810,
      "ĠØ£ÙĬØ": 4811,
      "ĠØ²Ø§Ù": 4812,
      "ĠØ§ÙĦÙħØ´ÙĥÙĦØ©": 4813,
      "ĠØ¬ÙĬØ¯Ø©": 4814,
      "ĠØ·Ø±Ø§": 4815,
      "ĠØ§ÙĦØ¹ÙĪØ§": 4816,
      "ĠØ§ÙĦÙĦØ§Ø¹Ø¨ÙĬÙĨ": 4817,
      "ĠØ§ÙĦÙħÙĪÙ": 4818,
      "ÙĬØ±Ùī": 4819,
      "ĠØ§ÙĦØŃØ§Ù": 4820,
      "ÙħÙĪØ¹": 4821,
      "ĠÙħÙĪÙĤÙģ": 4822,
      "ĠØªØ°": 4823,
      "ĠØ§ÙĦØ±Ø¬Ø§ÙĦ": 4824,
      "ĠØ£Ø³Ø§Ø³": 4825,
      "ĠÙħØ«ÙĦØ§": 4826,
      "ĠØ§ÙĦØ¥Ø³Ø±Ø§Ø¦ÙĬÙĦÙĬØ©": 4827,
      "ĠØ§ÙĦØ¨Ø´Ø±ÙĬØ©": 4828,
      "ĠF": 4829,
      "ĠÙĦÙĦÙĤØ": 4830,
      "ĠØ§ÙĦØ§ÙĬ": 4831,
      "ĠÙĦØ¹Ø¨Ø©": 4832,
      "ĠÙģÙĩÙħ": 4833,
      "ĠØ£ÙĪØ": 4834,
      "ĠÙĪØªÙĪÙ": 4835,
      "ĠØ§ÙĦÙħÙĬÙ": 4836,
      "ĠØ§ÙĦØ®Ø§Ùħ": 4837,
      "ĠØªÙĤØ±ÙĬØ¨Ø§": 4838,
      "ĠÙĪØ§ÙĦØº": 4839,
      "ĠÙĦÙĦØŃØµÙĪÙĦ": 4840,
      "¶ÙĩÙħ": 4841,
      "ÙģØ³Ø©": 4842,
      "Ø±ØŃÙĬ": 4843,
      "ĬØ·": 4844,
      "ÙĬØ±Ø§": 4845,
      "ĠØ§ÙĦÙĨØ§Ø¦Ø¨": 4846,
      "ĠØ§ÙĦØ¹Ø³ÙĥØ±ÙĬ": 4847,
      "ĠØ§ÙĦØ¥Ø®ÙĪØ§ÙĨ": 4848,
      "ĠÙĬÙĨØ¨ØºÙĬ": 4849,
      "ĠØ§ÙĦØ¯ÙĪØ±Ø©": 4850,
      "ĠØ§ÙĦØŃÙĪØ«": 4851,
      "³Ø§Ø±": 4852,
      "ĠØ§ÙĦØ³Ø¨Ø¨": 4853,
      "ĦØªÙĪ": 4854,
      "±ÙĤØ§Ùħ": 4855,
      "Ø³Ø¦ÙĦØ©": 4856,
      "ĠÙĦØªØŃÙĤÙĬÙĤ": 4857,
      "ĠÙĬØ¬Ø¹ÙĦ": 4858,
      "Ø®ØªÙĬØ§Ø±": 4859,
      "ĠØ§ÙĦØ´ÙħØ": 4860,
      "ÙħÙĪÙħ": 4861,
      "ĠÙĦÙĦØ¹Ù": 4862,
      "ÙĬÙĨÙħØ§": 4863,
      "ĠÙĤÙĪÙĬØ©": 4864,
      "ØªØ¨Ø©": 4865,
      "ÙĪØ±Ø": 4866,
      "ÙħØ§ÙĨÙĬ": 4867,
      "ĠØ§ÙĦÙħÙĨØªØ¯Ùī": 4868,
      "ĠÙĪØ³Ø§": 4869,
      "Ø±ÙĬØ¯Ø©": 4870,
      "Ø´ÙģØª": 4871,
      "ÙĩØ§Ø¨": 4872,
      "ªÙħÙĥ": 4873,
      "ĠÙĦØ¯ÙĬÙĥ": 4874,
      "ĠØ§ÙĦØ¹Ø¨Ø§": 4875,
      "ĠØ§ÙĦØ¬ÙĪÙĬØ©": 4876,
      "ĠÙĤØ±Ø§Ø¡Ø©": 4877,
      "ĠØ§ÙĦÙħØ°Ùĥ": 4878,
      "ĠØªØ³Ø¬ÙĬÙĦ": 4879,
      "ĠØ§ÙĦÙĤÙħØ": 4880,
      "ĠØ§ÙĦØ°Ø§ØªÙĬØ©": 4881,
      "ÙĦØ§Ùĥ": 4882,
      "Ø¶Ø§ÙģØª": 4883,
      "ĠØ§ÙĦØ§ÙħØ": 4884,
      "ĠØ¨Ø§Ø³ØªØ": 4885,
      "ĠÙĪØ¬Ø¯": 4886,
      "Ø¹ÙħØ§ÙĨ": 4887,
      "ĠØ§ÙĦØ£ØŃØ": 4888,
      "ĠØ§ÙĦÙħØŃÙĦÙĬ": 4889,
      "ĠØ§ÙĦÙħØ¯Ø±Ø³Ø©": 4890,
      "ØªÙĤØ¯": 4891,
      "Ø°Ø§Ø": 4892,
      "ĩÙĬÙĪÙ": 4893,
      "ĠÙĪØ§ÙĦØ¹Ø§": 4894,
      "ĠØ§ÙĦÙĬØ": 4895,
      "ĠÙħØ¹ÙĬÙĨØ©": 4896,
      "ĠØ¨Ø§ÙĦØ®": 4897,
      "ÙĦØ¨Ø§": 4898,
      "ĠØ§ÙĦÙħØ¯ÙĨÙĬ": 4899,
      "ĠØ§ÙĦÙĥÙħ": 4900,
      "ĠØ§ÙĦØ´Ùĩ": 4901,
      "ĨÙĬØ§Øª": 4902,
      "ĠØŃØ§ÙĦØ§Øª": 4903,
      "¹Ø±ÙģØ©": 4904,
      "ĠØ§ÙĦÙĤÙĪØ©": 4905,
      "¹Ø±Ø¨ÙĬØ©": 4906,
      "ĠØ§ÙĦØ·Ø§Ø¦": 4907,
      "·Ø±ÙĤ": 4908,
      "ĠØ¬ÙĬØ¯": 4909,
      "ĠÙĥÙĦÙĩ": 4910,
      "ĠØ£ÙĥØªÙĪØ¨Ø±": 4911,
      "ĠØ£Ø¹ÙĦÙĨ": 4912,
      "ĬØªÙĪ": 4913,
      "ĠØ¸Ø§": 4914,
      "ĠÙĬÙħØ": 4915,
      "ĠØ§ÙĦØ·Ø±ÙģÙĬÙĨ": 4916,
      "ĠØ§ÙĦØ±ÙĬØ§Ø¶ÙĬØ©": 4917,
      "ĠÙĤØ¯Ø±": 4918,
      "ĠÙĦÙĦÙħÙĪØ§": 4919,
      "¨Ø±Ø§Øª": 4920,
      "ĠÙĦÙĬØ¨ÙĬØ§": 4921,
      "ÙĨØ§Ùĩ": 4922,
      "ÙĬÙĬÙ": 4923,
      "Ø¯ÙĨÙī": 4924,
      "Ø¹ØªÙĩ": 4925,
      "Ø·ÙĨÙĬÙĨ": 4926,
      "ĠØ§ÙĦÙħØŃØª": 4927,
      "ĠØ§ÙĦØ¹ÙĬÙĨ": 4928,
      "ÙĤÙħ": 4929,
      "ªÙĪÙĬØ§Øª": 4930,
      "¯Ø±ÙĬ": 4931,
      "Ø·ÙģÙī": 4932,
      "ĦØ¨Ùĩ": 4933,
      "ĠØ£Ø¬ÙĩØ²Ø©": 4934,
      "ªÙĤÙĦ": 4935,
      "´Ø§Ù": 4936,
      "ĠÙĬÙĪÙĨÙĬÙĪ": 4937,
      "ĠØ¨Ø§Ø¹ØªØ": 4938,
      "ĠØ§ÙĦÙĨÙĪØ¹": 4939,
      "ÙĤØ±Ø©": 4940,
      "ĠÙĥÙĦÙĩØ§": 4941,
      "ĬØ¹ÙĪØ¯": 4942,
      "Ø·Ùĩ": 4943,
      "ĠÙł": 4944,
      "ĠÙ¢": 4945,
      "ĠØŃØ§Ø¬Ø©": 4946,
      "ÙĬØ¹ÙĪØ¯": 4947,
      "ĠØ§ÙĦÙĤÙĬØ§Ø¯Ø©": 4948,
      "Ø°Øª": 4949,
      "Ø¹ÙĬÙħ": 4950,
      "ĠÙĦØ¬ÙħÙĬØ¹": 4951,
      "ĠØ¹Ø§Ø": 4952,
      "ĠE": 4953,
      "ÙĬØªÙĪ": 4954,
      "ĠØ¹Øµ": 4955,
      "ÙħÙĪØ¹Ø§Øª": 4956,
      "¯ÙĬØ§": 4957,
      "Ø´ÙĬØ±": 4958,
      "Ø¹ÙĦÙĨØª": 4959,
      "Ø±Ø¨Ø¹": 4960,
      "ÙĦØªØŃØ": 4961,
      "ĠØ§ÙĦÙħØ²": 4962,
      "ØªØª": 4963,
      "ĠØ§ØªØ®Ø§Ø°": 4964,
      "ĠÙĪÙĦÙĨ": 4965,
      "ĠØªØ¸ÙĩØ±": 4966,
      "Ø±ÙĥÙ": 4967,
      "ĠÙĦØ§Ø³ØªØ": 4968,
      "ĠÙĪØŃØ§": 4969,
      "ÙĥØ¯Øª": 4970,
      "ĠÙħØ³Ø¦": 4971,
      "ĠÙĪØ§ÙĦØ³ÙĬØ§": 4972,
      "ĠÙĥÙĨØ§": 4973,
      "ĠØ§ÙĦÙĤØ¯ÙĬÙħØ": 4974,
      "ĠØ¹ÙĨØ§ØµØ±": 4975,
      "ĠØ§ÙĦÙĤØ¯ÙĬÙħØ©": 4976,
      "Ø´Ùĥ": 4977,
      "ĠØ§ÙĦÙħÙĨØ¸ÙħØ©": 4978,
      "ĠØ§ÙĦÙĤØ§Ø¯Ùħ": 4979,
      "ĠØ§ÙĦÙģØ±ÙĨØ³ÙĬ": 4980,
      "ĠØ§ÙĦÙħØ³Ø¬Ø¯": 4981,
      "ĠØ§ÙĦÙģÙĪØ²": 4982,
      "¯Ø¹ÙĪ": 4983,
      "ĠØ§ÙĦØªØ±ÙĥÙĬ": 4984,
      "Ġ35": 4985,
      "ĠØ¹ÙĬÙĨ": 4986,
      "Ø³ÙĦØŃØ©": 4987,
      "ĠØ§ÙĦØ«ÙĨØ§Ø¦ÙĬØ©": 4988,
      "ĠØ£ÙĨÙĨØ§": 4989,
      "ĠØ§ÙĦÙĨÙĤÙĦ": 4990,
      "ĠØ§ÙĦØªÙħ": 4991,
      "Ø¯Ø¯Ø§": 4992,
      "ØªØ§Ø¨Ø©": 4993,
      "ĠØ§ÙĦØŃØ§ÙĦ": 4994,
      "ĠÙĪØ£ÙĨØ§": 4995,
      "ĠØ¬Ø§Ù": 4996,
      "ĠÙĬØ±Ùī": 4997,
      "ĠØ§ÙĨØ·": 4998,
      "ªÙħØ¨Ø±": 4999,
      "ĠØ£Ø®Ø°": 5000,
      "Ø²Ø¹": 5001,
      "Ø¹ÙĤØ": 5002,
      "ĠØ¬Ø§Ø¦Ø²Ø©": 5003,
      "ĠÙĪØ§ÙĦØ²": 5004,
      "ĠØ£Ø¨Ø±Ø²": 5005,
      "ÙĬØ·": 5006,
      "ĠØªÙħØ«ÙĦ": 5007,
      "ĠÙĦÙĦØ¹ÙħÙĦ": 5008,
      "ĠØ§ÙĦØ¨Ø·ÙĪÙĦØ©": 5009,
      "Ø§ÙĦÙħÙ": 5010,
      "ĠÙĪØªÙĥ": 5011,
      "ĠØ³Ø§Ø¨ÙĤ": 5012,
      "ÙĩÙĬØ©": 5013,
      "ĠØ®ÙĦÙĤ": 5014,
      "ĠØ§ÙĦÙħÙĤØ§ÙĪÙħØ©": 5015,
      "Ġ2011": 5016,
      "ĠØ§ÙĦØ´ÙħØ³": 5017,
      "ĠØ§ÙĨØ§": 5018,
      "ĠØ§ÙĦØ®Ø§Ø±Ø¬": 5019,
      "ĠÙĪØ§ÙĦÙħØ¤": 5020,
      "Ø±ÙĪØª": 5021,
      "Ø¹ÙĦÙħ": 5022,
      "ĠØ£ÙĨÙĥ": 5023,
      "ĠÙĬÙħØ«ÙĦ": 5024,
      "ĠÙĪØ£ÙĨÙĩ": 5025,
      "¶Ø§Ù": 5026,
      "ĠØ³ÙĦÙĬ": 5027,
      "ªÙĥØ§Ø": 5028,
      "ĠØ§ÙĦØ¬ÙĨØ": 5029,
      "ĠL": 5030,
      "ĬØ³Øª": 5031,
      "ÙĤÙĦÙĬÙħÙĬØ©": 5032,
      "·Øª": 5033,
      "ĠØ§ÙĦØ±ØŃÙħÙĨ": 5034,
      "ÙĤØ´Ø©": 5035,
      "ĠØ§ØŃÙħØ¯": 5036,
      "ĠÙĨÙĩ": 5037,
      "Ø´Ø§Ù": 5038,
      "ĠØ§Ùĩ": 5039,
      "Ø¹ØªØ": 5040,
      "ĠÙĤØªÙĦ": 5041,
      "ªÙĬØ¨": 5042,
      "ĠÙĬÙĪØ§": 5043,
      "ĤÙĬÙħÙĬÙĨ": 5044,
      "ÙģÙĤØ": 5045,
      "ĠØ¸ÙĩØ±": 5046,
      "ĠÙģØ±ÙĨØ³Ø§": 5047,
      "ĠØ³Ø¹Ø¯": 5048,
      "ĠÙĤÙĦØ¨": 5049,
      "ĠÙĥÙĪØ±": 5050,
      "ĠØ§ÙĦÙĨØªØ§Ø¦Ø¬": 5051,
      "ªÙħÙĨÙī": 5052,
      "ĠØ£Ø±Ø¨Ø¹Ø©": 5053,
      "ĠØ¨Ø§ÙĦÙģØ¹ÙĦ": 5054,
      "ÙħÙĪÙĬ": 5055,
      "ĠÙĪØ§ÙĦ": 5056,
      "ĠØ§ÙĦÙħÙĪØ¬ÙĪØ¯Ø©": 5057,
      "ĠÙĪØ¹ÙĨ": 5058,
      "ĠØ¹ÙĦÙĬÙĥÙħ": 5059,
      "ĠÙĨÙĪÙģ": 5060,
      "Ġ2012": 5061,
      "ĠÙĬØ¹ÙĪØ¯": 5062,
      "ĠØ³Ø¨ØªÙħØ¨Ø±": 5063,
      "Ø³Ø§Ø¹Ø¯Ø©": 5064,
      "Ø±Ø§Ø¦Ùħ": 5065,
      "ĠØ§ÙĦÙĩØ§ØªÙģ": 5066,
      "ĠØ¬ÙħØ¹ÙĬØ©": 5067,
      "ĠØ§ÙĦÙħØ´Ø§Ø±ÙĬØ¹": 5068,
      "ÙĬÙĨØ§Øª": 5069,
      "ĠÙĪØ§ÙĦØªØ¹ÙĦÙĬÙħ": 5070,
      "ĠØ´Ø±ÙĤ": 5071,
      "ĠÙħØ´Ø±ÙĪ": 5072,
      "ĠØ§ÙĦØªÙĤØ§": 5073,
      "¨Ø·": 5074,
      "ĠØ§ÙĦØ¢Ù": 5075,
      "ĦÙĬÙĬÙĨ": 5076,
      "¨Ø§Ø¡": 5077,
      "ĠØªØ¯Ø±ÙĬ": 5078,
      "ĠØ±Ø¤": 5079,
      "¨ÙĬØ§": 5080,
      "ĠØ§ÙĦØ¯ÙĬÙħÙĤØ±Ø§Ø·ÙĬØ©": 5081,
      "ÙĬØ³Øª": 5082,
      "Ø¨ÙĬÙĤØ§Øª": 5083,
      "ĠØ§ÙĦØ®Øµ": 5084,
      "Ø±Ø§ØŃØ©": 5085,
      "ĠÙĬØªÙĪ": 5086,
      "ØºØ±Ø§": 5087,
      "ĠÙĪØ§ÙĦÙĩ": 5088,
      "ĠØªØ´ÙĥÙĬÙĦ": 5089,
      "ĠØ§ÙĦÙħØ¯Ø§Ø±Ø³": 5090,
      "Ø¯Ø³Ø©": 5091,
      "ĠØ¨Ø£ÙĨÙĩØ§": 5092,
      "Ø®Øª": 5093,
      "ĠØªØ«": 5094,
      "Ø·Ø¦": 5095,
      "Ø¨ÙĨÙī": 5096,
      "ĠÙĪØ³Ù": 5097,
      "ĠØ·ÙĬ": 5098,
      "ĠØ¨ÙĦØ¯": 5099,
      "ĠØªÙĪØ¬Ø¯": 5100,
      "ĠØ¨Ø§ÙĦØµ": 5101,
      "ĠØ§ÙĦÙħØ¨Ø": 5102,
      "ĠØŃÙĤÙĬÙĤØ©": 5103,
      "ĠØ§ÙĦÙĦÙĪØ§Ø¡": 5104,
      "¹Ø¨Ø§Ø³": 5105,
      "ĠØ±Ø¬": 5106,
      "ĠÙĨÙħ": 5107,
      "ĠØ±Ø¨": 5108,
      "ĠØºØ±ÙģØ©": 5109,
      "Ġ197": 5110,
      "ĠØ§ÙĦØŃØ¯ÙĬØ«Ø©": 5111,
      "ºØ©": 5112,
      "ÙĬÙĪÙħ": 5113,
      "ĠÙĪØ§Ø´ÙĨØ·ÙĨ": 5114,
      "ĠØŃØ¯ÙĪØ¯": 5115,
      "ĠØ§ÙĦØ·Ø±ÙĬÙĤØ©": 5116,
      "ØŃØ±ÙĬÙĨ": 5117,
      "ĠØ§Ø¨ØªØ": 5118,
      "ĠÙĪØ§ÙĦØ§Ø³ØªØ": 5119,
      "ĠÙĦØªØŃØ": 5120,
      "°ÙĬØ": 5121,
      "ĠØªØ¬Ùħ": 5122,
      "Ø³ÙĬÙ": 5123,
      "ĠÙĪØªØªØ": 5124,
      "ĠØ§ÙĦØµØºÙĬØ±Ø©": 5125,
      "ĦØ¹Ø¨Ø©": 5126,
      "ÙĦØºØ©": 5127,
      "ÙģØ³": 5128,
      "ĠÙĪÙĪØ§": 5129,
      "ĠØ§ÙĦÙħÙĪØ¸Ùģ": 5130,
      "ØªØ§Øª": 5131,
      "Ø±Ø§Ø±Ø§Øª": 5132,
      "ĠÙĪØ§ÙĦØ«Ø§": 5133,
      "Ø¬Ø¦ÙĬÙĨ": 5134,
      "ĠØ§ÙĦØ£ÙĩÙĦÙĬ": 5135,
      "ĠØ§Ø±ØªØ": 5136,
      "ĠØªØŃØªÙĪÙĬ": 5137,
      "Ø¹Ø¨Ø§Ø³": 5138,
      "ĠØ§ÙĦÙĤØ¶Ø§ÙĬØ§": 5139,
      "ÙĬÙģÙĬ": 5140,
      "ĦÙĬØ´": 5141,
      "ÙĦÙĬØ¯": 5142,
      "ĦØ¨Ø§Øª": 5143,
      "ĠØ§ÙĦØ§Ø±Ø": 5144,
      "ÙĬÙĪØ¨": 5145,
      "ĠÙĪØ§ÙĦØ¹ÙħÙĦ": 5146,
      "ĠØ§ØŃØªÙĬØ§": 5147,
      "ĠØ³ÙĬØ¯": 5148,
      "Ø¹ØªÙħØ§Ø¯": 5149,
      "ĠÙĥÙĦÙĬØ©": 5150,
      "ĠÙĪÙĤÙģ": 5151,
      "ĠØ¹Ø¨Ø§Ø³": 5152,
      "µÙĬØ±Ø©": 5153,
      "ĠØ§ÙĦØ¬Ø³Ùħ": 5154,
      "ĠØ³ÙĬØ§Ø±Ø©": 5155,
      "ÙĥÙĦÙģØ©": 5156,
      "ĠØ¨Ø§ÙĦØ³": 5157,
      "ĠÙĥØ§Ù": 5158,
      "ĠØ§ÙĦØ¹Ø±Ø¶": 5159,
      "ĠÙĬØ³Ø§Ø¹Ø¯": 5160,
      "ĠØ§Ø³ØªØ¹Ø": 5161,
      "ĠÙħÙĦØ§ÙĬÙĬÙĨ": 5162,
      "ÙĤØ´": 5163,
      "ĠØ¥Ø¹ÙĦØ§": 5164,
      "ĠØ§ÙĦØ¹ÙĦÙħÙĬ": 5165,
      "ĠØ§ÙĦØ¨ÙĬØ¦Ø©": 5166,
      "Ġ2013": 5167,
      "Ø¬Ø§Ø¨ÙĬØ©": 5168,
      "ĠØ§ÙĦØ¨ØŃØ±ÙĬÙĨ": 5169,
      "ĠØªØ´Ø§": 5170,
      "Ø¶Ø¨": 5171,
      "ĠÙĤÙĬØ§Ø¯Ø©": 5172,
      "ØªÙħÙĥ": 5173,
      "Ġ60": 5174,
      "ĠØ§ÙĦØ³ÙĬØ§Ø±Ø©": 5175,
      "ĠØ§ÙĦÙħØ·ÙĦÙĪØ¨": 5176,
      "ģÙĩÙĪÙħ": 5177,
      "ĠØ®ÙħØ³": 5178,
      "ĬÙĤØ¹": 5179,
      "ĠÙĤØ³Ùħ": 5180,
      "ĠØ§ÙĦÙħÙĪØ³Ùħ": 5181,
      "ĠØ§ÙĦØ®Ùħ": 5182,
      "ĠÙĨÙĤØ§Ø·": 5183,
      "ĠØªØµØ±ÙĬØŃØ§Øª": 5184,
      "ĬØ¸ÙĩØ±": 5185,
      "ĩÙĬØ©": 5186,
      "ĠØ§Ø³ØªØ®Ø¯Ø§": 5187,
      "ÙħØ¨Ø±": 5188,
      "ĠØµÙĨØ§Ø¹Ø©": 5189,
      "ĠØ§ÙĦÙħØ±ÙĥØ²ÙĬ": 5190,
      "ĠÙĪØ¥Ù": 5191,
      "Ø·Ø³": 5192,
      "ÙĬÙĤØ¹": 5193,
      "ĠØ§ÙĦÙħÙĨØ§Ø³Ø¨Ø©": 5194,
      "Ø±Ø¬ÙħØ": 5195,
      "ĠÙĪØ§ÙĦØ§Ø": 5196,
      "ģØ¬": 5197,
      "ĠØ§ÙĦØ·Ø¨ÙĬØ¹ÙĬØ©": 5198,
      "ØªØ§ØŃØ©": 5199,
      "ĠÙĤÙĬÙħ": 5200,
      "ĠØ§ÙĦÙĤØ§Ø¦ÙħØ©": 5201,
      "ĠØ§ÙĦØ¥ÙĨØ¬ÙĦÙĬ": 5202,
      "ÙĦÙĬÙģØ©": 5203,
      "ģØ¯": 5204,
      "ÙħÙĬÙĬÙĨ": 5205,
      "ÙĬØ¸ÙĩØ±": 5206,
      "ĠÙĬØ³Øª": 5207,
      "ĠÙĦØ¯ÙĬÙĩØ§": 5208,
      "ĬØ¯Ù": 5209,
      "Ø¹ÙĨÙī": 5210,
      "ĬØªÙ": 5211,
      "Ġ;": 5212,
      "ĦÙĪØ±": 5213,
      "ĠØ§ÙĦÙħÙĥØ§": 5214,
      "ÙĨØ²": 5215,
      "ĠØ§ÙĦØ¥ÙĦÙĥØªØ±ÙĪÙĨÙĬ": 5216,
      "Ø±Ø®": 5217,
      "ĠÙħÙĨØ²": 5218,
      "ĠÙħÙĪÙĤ": 5219,
      "ĠØ§Ø³ØªØº": 5220,
      "ØªÙĤÙ": 5221,
      "ĠØ£Ø¯Ùī": 5222,
      "ĠÙħÙĨØªØ®Ø¨": 5223,
      "Ø±Ø´ØŃ": 5224,
      "ØºØ±": 5225,
      "ĠØ§ÙĦØ£Ø¹Ø¶Ø§Ø¡": 5226,
      "¨Ø§Ø·": 5227,
      "ĠÙĤÙĪÙĦ": 5228,
      "ÙĦØªÙĪ": 5229,
      "Ø±Ø±Ø©": 5230,
      "ĬØ¨Ø": 5231,
      "ĠØªØ¯Ø§": 5232,
      "ĠØ§ÙĦØ¸Ø±ÙĪÙģ": 5233,
      "ĠØ§ÙĦØ±Ø§Ø¨Ø¹": 5234,
      "ĠØ§ÙĦØ£Ø³Ø¯": 5235,
      "ĨÙģØ°": 5236,
      "Ø±Ø¨Ø§Øª": 5237,
      "²Ø§ÙĬ": 5238,
      "ĠØ¹Ø¯Ø¯Ø§": 5239,
      "ÙĪØ¯ÙĩØ§": 5240,
      "ĠØ¬ÙħØ§ÙĦ": 5241,
      "Ø³ØªÙĥ": 5242,
      "ĠØ§ÙĦØ£Ø¬ÙĨØ¨ÙĬØ©": 5243,
      "Ġ29": 5244,
      "ĬÙħØ§": 5245,
      "Ø´Øª": 5246,
      "ĠØ§ÙĦØ£Ø³ÙĩÙħ": 5247,
      "ĠØ¨Ø§ÙĦØ·": 5248,
      "ØªØ§ÙĦ": 5249,
      "ĠÙĤÙĬØ§Ùħ": 5250,
      "Ø¨ÙĦØ³": 5251,
      "ĠØ§ÙĦÙħØ³ØªØ«ÙħØ": 5252,
      "ĠØ§ÙĦØ¨ÙĬØ§ÙĨ": 5253,
      "ĠÙĬÙĪÙĦÙĬÙĪ": 5254,
      "ĠØ¬ÙħØ": 5255,
      "ĠØºØ": 5256,
      "ÙĬØªÙ": 5257,
      "ĠØ¨Ø³Ø±Ø¹Ø©": 5258,
      "ĠØ§ÙĦÙģØ³Ø§Ø¯": 5259,
      "Ø§ÙĦØ£": 5260,
      "ĠØ¥Ø¯Ø§": 5261,
      "ĠØ¹Ø§Ø¯Ø©": 5262,
      "ĠØ£ÙĨØŃØ§Ø¡": 5263,
      "le": 5264,
      "ģØµÙĦ": 5265,
      "ĠØ´Ø¹": 5266,
      "ĠÙģØ±Øµ": 5267,
      "Ø·Ùģ": 5268,
      "ĠØ§ÙĦÙģØ±ÙĨØ³ÙĬØ©": 5269,
      "Ø±Ø§ÙħØ": 5270,
      "ĠÙħØ¨Ø": 5271,
      "ØªÙĬØ±": 5272,
      "ĠØ£ÙĩØ¯Ø§Ùģ": 5273,
      "ĠØ¨ØŃØ«": 5274,
      "ĠÙħØµØ¯Ø±": 5275,
      "ĠØ·Ø±ØŃ": 5276,
      "ĠØªÙĤØ¯": 5277,
      "ÙĥØªÙĪ": 5278,
      "ĠØ§ÙĦØ£Ø¹ÙĦÙī": 5279,
      "ĠØ¥Ø´": 5280,
      "¹ÙħØ§Ø±": 5281,
      "ĠØ§ÙĦØ£Ø±Ø§Ø¶ÙĬ": 5282,
      "ĠØ§ÙĦØªØ±ÙĥÙĬØ©": 5283,
      "ĠØ§ÙĦØ¨Ø±ÙĬØ·Ø§ÙĨÙĬØ©": 5284,
      "ĠØ§ÙĦØ¹Ø´": 5285,
      "Ø±ØªÙģØ§Ø¹": 5286,
      "ĠØ§ÙĦÙĥÙĦØ§Ùħ": 5287,
      "ĠØ§ÙĦØ¯ÙĬÙĨÙĬØ©": 5288,
      "ÙĪØ§ØªÙģ": 5289,
      "±ÙĪÙģ": 5290,
      "ØªØ§Ø©": 5291,
      "ĠÙĪØ§ÙĦÙģØ": 5292,
      "ĠØ§ÙĦØ³ÙĬØ§ØŃØ©": 5293,
      "¸Ùĩ": 5294,
      "ĠØ§ÙĦØ£ØŃÙħØ±": 5295,
      "ĠØŃÙĬØ§ØªÙĩ": 5296,
      "Ġ196": 5297,
      "ĠØ´Ø§Ø¡": 5298,
      "Ø±Ø·Ø§ÙĨ": 5299,
      "ĠÙħØ¹ÙĩÙħ": 5300,
      "ģØªØŃ": 5301,
      "ĠØ´Ø£": 5302,
      "ĠØ§ÙĦÙģÙĨ": 5303,
      "ĠØ¶Ø§": 5304,
      "ĠØ¹ÙħØ§ÙĨ": 5305,
      "ĠÙħØ±Ùĥ": 5306,
      "Ø±Ø§ÙĥØ²": 5307,
      "ĠÙħØ±Ø§Øª": 5308,
      "ĠÙģØ¨": 5309,
      "ĠØ§ÙĦØ´Ø±Ø¹ÙĬØ©": 5310,
      "ĠÙĬØ±Ø§": 5311,
      "Ø¨Ø§Ø¯": 5312,
      "ĠØ±ÙĬ": 5313,
      "Ø·ÙĬØ·": 5314,
      "Ø³Ø¹Ùī": 5315,
      "ĠÙĪØ£Ùħ": 5316,
      "Ø±ÙĩØ§Ø": 5317,
      "ĠØ§ÙĦØ§ÙĨØªØ±ÙĨØª": 5318,
      "ĠØªØ¬Ø¯": 5319,
      "ÙģØ¬": 5320,
      "ĠÙĩÙī": 5321,
      "ĠØ¬ÙħØ§Ø¹Ø©": 5322,
      "ĠØ§ÙĦÙģÙĬØ¯ÙĬÙĪ": 5323,
      "ĠØ§ØªÙģØ§ÙĤ": 5324,
      "ĠØ¬Ø§Ø¡Ø": 5325,
      "ĠØ°Ø§ØªÙĩ": 5326,
      "ĠØ§ÙĦØªÙĪÙĨØ": 5327,
      "ĠØ¬Ø§Ø¡Øª": 5328,
      "ÙĪØ¹Ø§": 5329,
      "ĠØ§ÙĦÙĨÙĤØ": 5330,
      "ĠÙĪÙħØ¤": 5331,
      "ĠÙĨÙĪÙģÙħØ¨Ø±": 5332,
      "ĠØµØŃØ©": 5333,
      "ĠÙĬØ¸ÙĩØ±": 5334,
      "ĠØ§ÙĦØ²ÙĬ": 5335,
      "ĠØ§ÙĦÙĦØ¨ÙĨØ§ÙĨÙĬØ©": 5336,
      "ĠÙħØªØ±": 5337,
      "ĠØªØ³ØªØ·ÙĬØ¹": 5338,
      "ĬØ²Ø§ÙĦ": 5339,
      "ĠØ§ÙĦÙĪØŃÙĬØ¯": 5340,
      "ĠÙĪØ§ÙĦØªÙĪ": 5341,
      "ĠØ±Ùģ": 5342,
      "ĠØªØ¹ÙĦÙħ": 5343,
      "ĠÙĦÙĪØ": 5344,
      "ĠØ£ÙĬØ©": 5345,
      "ØªØ³": 5346,
      "ic": 5347,
      "ĦÙĪÙĨØ©": 5348,
      "ĠØ¹Ø§Ø¦": 5349,
      "Ø¶Ø§Øª": 5350,
      "ÙĬØ¨Ø": 5351,
      "ªÙĤØ¹": 5352,
      "ĠØ§ÙĦØ±Ø£Ù": 5353,
      "ĠØ§ÙĦØ±Ø£ÙĬ": 5354,
      "ªÙĩÙī": 5355,
      "ĠØ¹Ø¯ÙĬØ¯Ø©": 5356,
      "ĠÙĬØªÙ": 5357,
      "ĠÙĪÙĨØ§": 5358,
      "ĠÙĪØ§ÙĦØ³Ù": 5359,
      "¹Ø«": 5360,
      "ĠÙĨØ²": 5361,
      "¨ÙĪÙĨ": 5362,
      "ĠØ§ÙĦØ¨ÙĦØ¯ÙĬÙĨ": 5363,
      "ĠÙĪØªØ®": 5364,
      "ģÙĥØ±": 5365,
      "ØºØ§Ø": 5366,
      "ĠØ¨Ø§ÙĦÙĤØ": 5367,
      "ØµÙĦØ§": 5368,
      "ĠÙħØ´Ø§ÙĥÙĦ": 5369,
      "Ø¹Ø§Ø¯": 5370,
      "ĠØ¯ÙĬØ": 5371,
      "ÙĦØ¢": 5372,
      "ĠØ§ÙĦØ¹ÙħÙĦØ§Øª": 5373,
      "ĠØ§ÙĦÙħÙĩÙĨØ¯Ø³": 5374,
      "ĠØªØ£ØªÙĬ": 5375,
      "Ø±ÙĩØ§Ø¨": 5376,
      "ĦÙĬÙĦØ§": 5377,
      "ĠÙħØ§ÙĬÙĪ": 5378,
      "ĠØ§ÙĦÙħØ´Ø§Ø±Ùĥ": 5379,
      "¶Ùī": 5380,
      "ĠØ§ÙĦØªÙĤØ": 5381,
      "¨ÙĪØª": 5382,
      "ĠÙħØ¶Ø§": 5383,
      "ĠØ«Ø§ÙĨÙĬØ©": 5384,
      "ĠØªÙĪÙĨØ³": 5385,
      "ÙĪØ§Ø±Ø¹": 5386,
      "ĠÙĪØªØ¹Ø§": 5387,
      "¨ÙĤÙĬØ©": 5388,
      "ĠØ§ÙĦØŃÙĬ": 5389,
      "ĠØ§ÙĦØ¬ÙĨÙĪØ¨": 5390,
      "ĠØªØ³Ø§Ø¹Ø¯": 5391,
      "ĠØ³Ø·": 5392,
      "ĠÙĪÙħÙĨÙĩØ§": 5393,
      "Ø±Ø¬ÙħØ©": 5394,
      "ĠÙĪÙĤØ§ÙĦØª": 5395,
      "ĠØ§ÙĦØ¹Ø¸ÙĬÙħ": 5396,
      "ĠØŃÙħØ§Ø³": 5397,
      "ĠØ§ÙĦØ°Ùĥ": 5398,
      "ĬØ¨ÙĦØº": 5399,
      "Ø±Ø·Ø©": 5400,
      "ĠØ§ØªØŃØ§Ø¯": 5401,
      "¬Ø§Ø¡": 5402,
      "ĠØ§Ø³ØªÙħØ±Ø§Ø±": 5403,
      "ĠØ§ÙĦÙħÙĤØ": 5404,
      "ĠÙĦÙħØ": 5405,
      "ÙĬØ¨ÙĦØº": 5406,
      "ĠÙĬØ²": 5407,
      "ĠØ§ÙĦØ±ÙĪØ³ÙĬ": 5408,
      "ĠÙĪÙĦÙĥÙĨÙĩ": 5409,
      "ĠØ§ÙĦØ£ÙħÙĪØ§ÙĦ": 5410,
      "ĠØ§ÙĦÙĥÙĪÙĬ": 5411,
      "ÙĨØµ": 5412,
      "ĠÙĦÙĥÙĨÙĩØ§": 5413,
      "Ø±Ø§ÙĬØ±": 5414,
      "ØªÙĤØ¹": 5415,
      "ÙĬØ§ÙĦ": 5416,
      "ÙĩØ°Ù": 5417,
      "ØŃÙĥ": 5418,
      "³Ø±ÙĬ": 5419,
      "ĠÙĪÙģØ§": 5420,
      "ĠÙģÙĤØ": 5421,
      "Ø¨ÙĤÙī": 5422,
      "Ø³Ø§Ø¦Ø±": 5423,
      "ĠÙĪÙħÙĪ": 5424,
      "ĠØ«ÙĪØ±Ø©": 5425,
      "ĠØ§ÙĦØºÙĬ": 5426,
      "ØªÙĩÙĦÙĥ": 5427,
      "ØµÙĬØ±": 5428,
      "ĠÙħØŃÙĥÙħØ©": 5429,
      "Ø¹Ø±Ø¨ÙĬØ©": 5430,
      "ĠÙĪÙĬØªØ": 5431,
      "ĠÙĬØ¨Ø": 5432,
      "ĠØ§Ø±Ø": 5433,
      "ĠØ³ÙĦÙħØ§ÙĨ": 5434,
      "±ÙĬØ·Ø§ÙĨÙĬØ§": 5435,
      "ĠØªØ±": 5436,
      "ÙĤÙĪÙģ": 5437,
      "ĠÙħØ§Ø¯Ø©": 5438,
      "ÙħØ¹Ø©": 5439,
      "ĠØ§ÙĦÙħØ±ØªØ¨Ø": 5440,
      "ĠØ¹Ø±Ø¨ÙĬØ©": 5441,
      "´Ùģ": 5442,
      "ĠØ§ÙĦÙħØ§ÙĦÙĬ": 5443,
      "ĠÙĪÙĤØ¹": 5444,
      "ĠØ§ÙĦÙĤØ¯Ø±Ø©": 5445,
      "Ø±Ø§ÙģÙĤ": 5446,
      "µÙĬØ¯": 5447,
      "ĠÙĩØ§Ø": 5448,
      "ĠØ¸Ø": 5449,
      "ĠØªÙĤÙ": 5450,
      "ĠÙĤØ·Ø¹": 5451,
      "Ø¯Ø¨": 5452,
      "ĠØ§ÙĦØºØ±Ø¨": 5453,
      "ĠÙĦÙĬÙĥ": 5454,
      "ĠØ§ÙĦØªØ³Ø¬ÙĬÙĦ": 5455,
      "ĠØ§ÙĦØ±Ø¦ÙĬØ³ÙĬ": 5456,
      "ÙĤØ±Ø§": 5457,
      "ĠØ¹ÙĬØ¯": 5458,
      "ĠÙģØ¬": 5459,
      "ÙĩØ§ÙĦÙĬ": 5460,
      "ªØ±Ø§Ù": 5461,
      "ĪÙĨØ§": 5462,
      "Ø±Ø§ÙħØ©": 5463,
      "ĠÙħØ±Ø§Ùĥ": 5464,
      "ĠØ§ÙĦØŃØ¬": 5465,
      "ĠØªØ´Ù": 5466,
      "Ø±ÙħØ": 5467,
      "ĠÙĦØ¯ÙĬÙĩÙħ": 5468,
      "±ÙĬØ©": 5469,
      "ĠØ¯ÙĬÙĨØ§Ø±": 5470,
      "ĠØ§ÙĦÙħØ¬ØªÙħ": 5471,
      "ĠØ³ÙĦØ³ÙĦØ©": 5472,
      "ĠØ§ÙĦÙĪØ§ØŃØ¯": 5473,
      "ĠØ³ØªØ©": 5474,
      "Ġ]": 5475,
      "ĠØ§ÙĦØ±Ø¯": 5476,
      "ĠÙĪØ§ÙĦÙħÙĨØ": 5477,
      "ÙĩØ°Ùĩ": 5478,
      "ĠÙħÙĨØ·": 5479,
      "ĠØ£ÙģØ±Ø§Ø¯": 5480,
      "ĠÙħØ¨Ø§Ø±Ùĥ": 5481,
      "ĠØªØ¯Ø®ÙĦ": 5482,
      "it": 5483,
      "ĠÙĪØ§ÙĦÙħØ¹Ø§": 5484,
      "®Ø§Ø": 5485,
      "ĠØ§ÙĦÙĤØ§ÙĨÙĪÙĨÙĬØ©": 5486,
      "ĠØ§ÙĦÙħØµØ§Ø¯Ø±": 5487,
      "ØªØ§Ø²": 5488,
      "ĠØ¹Ø¯": 5489,
      "ĠØ§ÙĦØ¹ÙĦÙĪÙħ": 5490,
      "ÙĬÙĪØª": 5491,
      "³ÙħØ§": 5492,
      "ĠØ§ÙĦÙħØ¯ÙĨÙĬØ©": 5493,
      "ĦØ¨Ø§Ø¨": 5494,
      "ĠØ§ÙĦØ£ÙħÙĬØ±ÙĥÙĬ": 5495,
      "ĠØ¹ÙĤØ": 5496,
      "ØºÙĦØ§ÙĤ": 5497,
      "ÙĤÙĪØ¯": 5498,
      "ĠØ§ÙħØ³": 5499,
      "ĠØ§ÙĦØŃØ§ÙĦØ§Øª": 5500,
      "ÙĦÙħØ§ÙĨÙĬØ§": 5501,
      "ĠØŃØ§ÙĪÙĦ": 5502,
      "ÙĬÙĦÙĩ": 5503,
      "ĠØ¨Ø¹ÙĬØ¯Ø§": 5504,
      "Ø²ÙĨØ©": 5505,
      "ĠØ§ÙħØ§Ùħ": 5506,
      "ĠØ§ÙĦØªØŃÙĤÙĬÙĤ": 5507,
      "ØŃØ¯Ø«": 5508,
      "ĠØ§ÙĦØ°ÙĩØ¨": 5509,
      "ÙĨÙĬØ³Ø©": 5510,
      "ĠØŃØ¯ÙĪØ«": 5511,
      "ĠÙĪØªØ·": 5512,
      "ĠØµØŃÙĬ": 5513,
      "ĠÙĪØ§Ø³Ø¹Ø©": 5514,
      "ĠØ¨ØºØ¯Ø§Ø¯": 5515,
      "¨Ø§Øª": 5516,
      "ĠØ§ÙĦÙħØ´Ø±ÙĪ": 5517,
      "ĠØ§ÙĦØ¹ÙħÙĦÙĬØ§Øª": 5518,
      "ĠØ§Ø¬ØªÙħØ§Ø¹": 5519,
      "ĦØ³ÙĬ": 5520,
      "ĠØ§ÙĦØªØ¹ÙĦÙĬÙħÙĬØ©": 5521,
      "ĠÙĪÙħØ¹Ø§": 5522,
      "²ÙĬØ¯": 5523,
      "ĠØ¨ØªØ§": 5524,
      "ĠÙĪØµÙĦØª": 5525,
      "ĠØ´Ø§Ø±Ùĥ": 5526,
      "ĠÙĬØ¨ÙĦØº": 5527,
      "ĠØªØ£Ø«ÙĬØ±": 5528,
      "ĠØ¬Ø¯ÙĬ": 5529,
      "ÙĪØ±Ø§": 5530,
      "ĠÙĪØ¸ÙĬÙģØ©": 5531,
      "ĦØ³Ø§": 5532,
      "ĠÙħØ¨Ø§Ø´Ø±": 5533,
      "ĠØ§ÙĦÙĪØŃØ¯Ø©": 5534,
      "ĠØ§ÙĦØ¨Ø·Ø§": 5535,
      "ĠØ§ÙĦØ¬Ø²ÙĬØ±Ø©": 5536,
      "ÙĦØ§ÙĨ": 5537,
      "ĠØ§ÙĦØ£Øº": 5538,
      "ĠØ§ÙĦØ¨ÙĨØ§Ø¡": 5539,
      "ĠØ§ÙĦØŃØ±ÙĬØ©": 5540,
      "ÙĪÙĬÙĤ": 5541,
      "ĠØ§ÙĦØ¯Ø±Ø§Ø³Ø§Øª": 5542,
      "ģÙħ": 5543,
      "ĠÙĪØªØµ": 5544,
      "ĠØ§ÙĦØ£Ø³ÙĪØ§ÙĤ": 5545,
      "ĠØ§ÙĦØ·ÙĦØ¨": 5546,
      "ĠÙĪÙĦØ§ÙĬØ": 5547,
      "ĠØ§ÙĦØ¹Ø«ÙĪØ±": 5548,
      "ĠØ¯ÙħØ´ÙĤ": 5549,
      "ĠÙĪØ§Ø¶ØŃØ©": 5550,
      "ĠØ§ÙĦØ³ÙģØ±": 5551,
      "ĠÙĨØ¹Ùħ": 5552,
      "ĠØ§ÙĦØ£Ø¨ÙĬØ¶": 5553,
      "ĠØ¨Ø¹Ø¯ÙĩØ§": 5554,
      "ĠØ§ÙĦØ¹Ø§ÙħÙĦÙĬÙĨ": 5555,
      "ĠØªØªØ¹ÙĦÙĤ": 5556,
      "¹ÙħÙĦÙĬØ©": 5557,
      "ĩÙĬØ¦Ø©": 5558,
      "ĠØ§Ø¯": 5559,
      "¨ÙĬÙĩ": 5560,
      "ĠØ§ÙĦØ±ÙĪØ³ÙĬØ©": 5561,
      "ĠØµØ¹ÙĪ": 5562,
      "¤ÙĪÙĨ": 5563,
      "¯Ø§Ø¹": 5564,
      "ĠØ¥Ø¬Ø±Ø§Ø¡Ø§Øª": 5565,
      "Ø±Ø¨Ø§ØŃ": 5566,
      "ro": 5567,
      "ĠÙĪÙĬØªÙħ": 5568,
      "ĠÙĨÙĬÙĪ": 5569,
      "ĠÙħØ·Ø§Ù": 5570,
      "st": 5571,
      "Ø¬ÙĬÙĨ": 5572,
      "ĠØ¯Ø§Ø¦Ø±Ø©": 5573,
      "¹Ø±Ø¨": 5574,
      "Ø´ÙĬØ©": 5575,
      "±ÙĪØ§": 5576,
      "ĠØ§ÙĦÙĨÙĩØ§Ù": 5577,
      "ĠÙĦØµØ§ÙĦØŃ": 5578,
      "ĠØ¸ÙĩÙĪØ±": 5579,
      "ĠÙħÙĩÙħ": 5580,
      "ĠØ¨Ø§ÙĦÙĪ": 5581,
      "ĠØ§ÙĦÙĨÙĩØ§ÙĬ": 5582,
      "ĠØ¹ÙĩØ¯": 5583,
      "ĠØ§ÙĦÙĨÙĩØ§ÙĬØ": 5584,
      "ĠØ§ÙĦØµØ": 5585,
      "ĠØ§ÙĦØªØŃØ§ÙĦÙģ": 5586,
      "ĠÙĪØ§ÙĦÙħÙĪ": 5587,
      "ĠØ§ÙĦÙĨÙĩØ§ÙĬØ©": 5588,
      "ĠØ´Ø¹Ø¨": 5589,
      "ĠØ¨ÙĬØ§ÙĨØ§Øª": 5590,
      "ĠØ§ÙĦÙħØªÙĪÙĤØ¹": 5591,
      "ĠØªØ¹ÙĪ": 5592,
      "ĠØ³ÙĦÙĬÙħØ§ÙĨ": 5593,
      "·Ø¨": 5594,
      "ĠØ§ÙĦÙģÙĬÙĦÙħ": 5595,
      "ĠÙĦÙĦÙħÙĤÙĬÙħÙĬÙĨ": 5596,
      "ĠØªØ³ØªØ®Ø¯Ùħ": 5597,
      "ĠÙĪÙĦØ§ÙĬØ©": 5598,
      "ÙģÙħ": 5599,
      "ĠØ¨ÙħØ¯ÙĬÙĨØ©": 5600,
      "µÙĦØª": 5601,
      "ĠØ£Ø¹ÙĦÙĨØª": 5602,
      "ĠØ§ÙĦØ®ÙĬØ": 5603,
      "ĠÙģØ±Ø§": 5604,
      "ĠØ¬ÙħØ¹": 5605,
      "ĠØ§ÙĦÙĦØ¹Ø¨Ø©": 5606,
      "ĠØ¯ÙĪØ±ÙĬ": 5607,
      "ĠÙĦØªÙĪ": 5608,
      "ĠÙħØ¯Ø±ÙĬØ¯": 5609,
      "ĠØ¨ØŃÙĤ": 5610,
      "ĠØ§ÙĦØ¬ÙĪØ§": 5611,
      "ĠÙĥÙĪØ±ÙĪÙĨØ§": 5612,
      "¹ÙĩØ§": 5613,
      "ĦÙħÙĩ": 5614,
      "ªØ±Ø§Øª": 5615,
      "ĠØ£Ùī": 5616,
      "ĠØ§ÙĦÙħÙĪØª": 5617,
      "³ØŃ": 5618,
      "ĠØ§ÙĦØ¥ÙĨØ": 5619,
      "ĠÙģØ¨Ø±Ø§ÙĬØ±": 5620,
      "ÙĪÙĥØ§ÙĨØª": 5621,
      "ØªÙĬØŃ": 5622,
      "ĠØ§ÙĦÙģÙĦØ³Ø·ÙĬÙĨÙĬÙĬÙĨ": 5623,
      "ĠØªÙĪÙģØ±": 5624,
      "ÙĦÙģØ§Øª": 5625,
      "ĠØ´Ø§Ø": 5626,
      "ĠØ§ÙĦØŃÙĬÙĪØ§": 5627,
      "¨ÙĨØª": 5628,
      "ĠØ³Ø£": 5629,
      "ĠØ§ÙĦØ£ØŃØ¯Ø§Ø«": 5630,
      "Ø§ÙħØ³": 5631,
      "ĠØµÙĦØ§Ø©": 5632,
      "ÙĤØ§Ø°": 5633,
      "ĠØ§ÙĦØ£Ø³ØªØ§Ø°": 5634,
      "ĠØªÙħÙĥ": 5635,
      "ĠØ§ÙĦØ·Ø¨": 5636,
      "ĠØ³Ø¨ØŃØ§": 5637,
      "ĠØŃØ¨": 5638,
      "ªØ±ØŃ": 5639,
      "ĠØ§ÙĦØªØ±Ø": 5640,
      "ĠØ§ÙĦÙħÙħÙĥÙĨ": 5641,
      "ÙĩÙħØ©": 5642,
      "ĠÙĨØ§ØŃÙĬØ©": 5643,
      "Ø´Ø±ÙĪØ¹": 5644,
      "ÙĪÙĦÙĬÙĨ": 5645,
      "ĬØªÙĨØ§": 5646,
      "ĠØ§ÙĦÙĨÙĩ": 5647,
      "ĠØ§ÙĦØ¬ÙĨÙĪØ¨ÙĬØ©": 5648,
      "Ø¬ØªÙħØ§Ø¹ÙĬØ©": 5649,
      "ĠÙĪØ¹ÙĨØ¯ÙħØ§": 5650,
      "ÙĨÙĬÙģ": 5651,
      "¶Ùħ": 5652,
      "ĠØ§ÙĦØ³ÙĦØ·Ø§ÙĨ": 5653,
      "ĠØ£Ø³Ø¨Ø§Ø¨": 5654,
      "ĠØ£Ø¨Ø¯Ø§": 5655,
      "ĠÙĥØ´Ùģ": 5656,
      "Ø´Ùī": 5657,
      "ĠØ§ÙĦØ¬ÙħÙĩÙĪØ±": 5658,
      "ĠØ¹ÙĦÙħØ§": 5659,
      "ØªØ¨Ø§Ø±": 5660,
      "Ø¹ÙĦÙĩ": 5661,
      "ĠØ³Ø¨ØŃØ§ÙĨÙĩ": 5662,
      "ĠØ§ÙĦÙģØµÙĦ": 5663,
      "ĠØ§ÙĦØ®ÙĬØ±": 5664,
      "ĠØ§ÙĦØªÙĤÙĦÙĬ": 5665,
      "ĦØ²Ùħ": 5666,
      "ĠØ¨Ø¯ÙĪ": 5667,
      "ÙĬØ²Ø§ÙĦ": 5668,
      "ĠØ¯Ø¹Ø§": 5669,
      "ĠÙĬØŃØµÙĦ": 5670,
      "ÙĬÙĦÙĬØ©": 5671,
      "ĠÙħØ§ÙĦÙĬØ©": 5672,
      "ĠØ£ÙħØ±ÙĬÙĥØ§": 5673,
      "ĦÙĬØ§Øª": 5674,
      "ĠØ§ÙĦØŃÙĤÙĪÙĤ": 5675,
      "ÙĦÙĬØ§": 5676,
      "ÙĪØ§Ø©": 5677,
      "ĬÙħÙĦÙĥ": 5678,
      "ĦØ¹Ø©": 5679,
      "ÙĨØªÙĬÙĨ": 5680,
      "Ø¹ØªÙĩØ§": 5681,
      "ģÙĬÙĬÙĨ": 5682,
      "ĠØ§ÙĦØ¬Ø²Ø¡": 5683,
      "ĠÙħÙĨØ§Ø³Ø¨Ø©": 5684,
      "ĠØ¹ÙĦØ§Ø¬": 5685,
      "ĠØ§ÙĦØ±Ø³ÙĪÙĦ": 5686,
      "ĠÙĬØ²Ø§ÙĦ": 5687,
      "ĠØ§ÙĦØ·Ø¨ÙĬØ¹ÙĬ": 5688,
      "ĠØ§ÙĦØ¨Ø¯Ø§ÙĬØ©": 5689,
      "ĠØªØªØŃ": 5690,
      "®Ø¯ÙħØ§Øª": 5691,
      "¯ÙĤØ©": 5692,
      "ÙĤØ¨Ù": 5693,
      "ĬÙĤØ§": 5694,
      "ĠØ§ÙĦØ¥ØµØ§Ø¨Ø©": 5695,
      "ĠÙħØ³Ø¤": 5696,
      "ÙĤØ§Ø¨": 5697,
      "ÙĨØ§Ø¯ÙĤ": 5698,
      "ĠØ¥ÙĤØ§ÙħØ©": 5699,
      "ĠÙĦØ§ØªØ": 5700,
      "ĠØ³ÙĬØ§Ø³Ø©": 5701,
      "ĠØ§ÙĦÙħØ´ØªØ±Ùĥ": 5702,
      "ĠÙĦÙĦØªØŃ": 5703,
      "ĠØ®ÙĦÙģ": 5704,
      "ÙĤØªÙĩØ§": 5705,
      "ĠÙĪØµÙĪÙĦ": 5706,
      "ĠÙħÙĪØ³Ùī": 5707,
      "Ø®Ø§ÙĦ": 5708,
      "ĠØ¨ÙĬÙĨÙĩÙħØ§": 5709,
      "ĠØ§ÙĦØ¹Ø¯": 5710,
      "ĠØ§ÙĦØµÙĩÙĬÙĪÙ": 5711,
      "ĠØ¯Ùģ": 5712,
      "ĠØ§ÙĦÙĨÙĪÙħ": 5713,
      "ĠØ§ÙĦÙĦÙĬÙĦ": 5714,
      "ĠÙħÙĥØ§ÙģØŃØ©": 5715,
      "ĠÙħØŃØ§ÙģØ¸": 5716,
      "ÙĪØ¯ÙĬØ©": 5717,
      "ĠØ§ÙĦØ¶ØºØ·": 5718,
      "ĠØ§ÙĦØªØ·Ø¨ÙĬÙĤ": 5719,
      "ÙħÙĦÙĩØ§": 5720,
      "ØªÙĪØ³Ø·Ø©": 5721,
      "ØµÙĬØ¨": 5722,
      "ĠÙĤØ¶Ø§ÙĬØ§": 5723,
      "ÙĬÙĨÙĩØ§": 5724,
      "ĠØ§ÙĦØºØ°Ø§Ø¦ÙĬØ©": 5725,
      "ĠÙĪØ§ÙĦØ³ÙĦØ§Ùħ": 5726,
      "ĠØ§ÙĦÙĥØªØ¨": 5727,
      "ØªØ¨Ùĩ": 5728,
      "ĠØ¬ÙĨØ": 5729,
      "ĦÙģØ§": 5730,
      "ĠØ¢ÙĬ": 5731,
      "¨ÙĤÙĬØ§": 5732,
      "ģØªØªØ§ØŃ": 5733,
      "¯ÙĤØ§Ø¦ÙĤ": 5734,
      "Ġ31": 5735,
      "ĠØ§ÙĦØªÙĨØ§": 5736,
      "Ø¨ÙĪØª": 5737,
      "ĠÙĦÙħÙĪ": 5738,
      "ĠÙħØ³ÙĦÙħ": 5739,
      "ĠØ·ÙĪØ§ÙĦ": 5740,
      "ĠØ§ÙĦÙħØ«Ø§ÙĦ": 5741,
      "ĠØ§ÙĦØ§ÙĦÙĥØªØ±": 5742,
      "ĠØ¨Ø§ÙĦØ¨Ø": 5743,
      "ĠØ§Ø¬ÙĦ": 5744,
      "Ø±ÙĪØŃ": 5745,
      "Ø¯ÙĤØ§Ø¦ÙĤ": 5746,
      "ĠØ£ØµØ¯": 5747,
      "ÙħÙĪØ²": 5748,
      "ĠØ§ÙĦØŃÙģØ§Ø¸": 5749,
      "ĠØ§ÙĦØ³ÙĬØ·Ø±Ø©": 5750,
      "ÙĤØ³Ø§Ùħ": 5751,
      "ĠÙħÙĦÙģ": 5752,
      "ĠØªØ±Ùī": 5753,
      "ÙĬÙħÙĦÙĥ": 5754,
      "ØµØ§ÙĦ": 5755,
      "ĠØ¬ÙĪØ¯Ø©": 5756,
      "ĠØ¯ÙĦÙĬÙĦ": 5757,
      "ĠØ§ÙĦØ¬Ø²Ø§Ø¦": 5758,
      "Ø²Ø§Ø¯": 5759,
      "ĠØ§ÙĦØ¥ÙĦÙĥØªØ±ÙĪÙĨÙĬØ©": 5760,
      "ĠØ¯ÙĤØ§Ø¦ÙĤ": 5761,
      "ĠØ³ÙĬÙ": 5762,
      "ĠÙħÙĪØ§Ø·ÙĨ": 5763,
      "ØªÙĦØ©": 5764,
      "ĠÙĪÙģØ§Ø©": 5765,
      "ÙĦÙģÙ": 5766,
      "ĠØ§ÙĦØ£Ø¨": 5767,
      "Ø±ÙħØ©": 5768,
      "ĠØ§ÙĦØ¥ÙĬØ±Ø§ÙĨÙĬ": 5769,
      "ĠØ§ÙĦÙĥÙħØ¨ÙĬÙĪØªØ±": 5770,
      "ĠÙħÙĨØŃ": 5771,
      "ĠØªÙħØª": 5772,
      "ĠØ§ÙĦØªØ¹": 5773,
      "¨Ø§Ø¹": 5774,
      "ªÙħÙ": 5775,
      "ĠØ§ÙĦØ§Ø¹Ø": 5776,
      "ĠØªØ³Ø¨Ø¨": 5777,
      "ĠÙĥØ±Ø": 5778,
      "¨ÙĤØ§Ø¡": 5779,
      "Ø¨ÙĤÙĬØ§": 5780,
      "ĠÙħÙħÙĥÙĨ": 5781,
      "ĠÙĦØ£Ø": 5782,
      "ĠØ§ÙĦØ¨Ø±": 5783,
      "ĠÙĦØ§Ø": 5784,
      "ĠØ§ÙĦÙħÙĩÙħØ©": 5785,
      "ĠÙħÙĨÙĬ": 5786,
      "±ÙĪÙĦ": 5787,
      "ĬÙħÙĨ": 5788,
      "¸Ø§Ù": 5789,
      "ĠØ§ÙĦÙħÙĪÙĤÙģ": 5790,
      "Ø´Ø§ÙĩØ¯Ø©": 5791,
      "ĬØµØ¨ØŃ": 5792,
      "ĠÙĬÙħÙĦÙĥ": 5793,
      "ĠÙĪØµÙģ": 5794,
      "ĠØ§ÙĦØŃØ§Ø¬Ø©": 5795,
      "ĠØ³ÙĥØ§ÙĨ": 5796,
      "ĠØºÙĬØ±Ùĩ": 5797,
      "ĠÙħÙĨØ¹": 5798,
      "ÙĬØµØ¨ØŃ": 5799,
      "Ø¨ÙĬØª": 5800,
      "ĠØ£ØŃØ¯Ø«": 5801,
      "Ø¦ÙĬØ§Øª": 5802,
      "ĠÙĪÙĤÙ": 5803,
      "ĠØ¯Ø®ÙĦ": 5804,
      "ĠØ§ÙĦÙĦÙĪ": 5805,
      "ĠÙħØ³Ø¤ÙĪÙĦÙĬØ©": 5806,
      "ĠÙĤØ§Ø¹Ø¯Ø©": 5807,
      "ĠØ£Ø²ÙħØ©": 5808,
      "ÙĨØ¯ÙĬØ©": 5809,
      "ĠØ¨ÙĤÙĬØ§": 5810,
      "ĠØªÙĤØ¹": 5811,
      "ĠØ§ÙĦØ£ÙħÙĬÙĨ": 5812,
      "ØªØ§Ø¨Ø": 5813,
      "ĠØ§ÙĦØ¬ÙĩÙĪØ¯": 5814,
      "ĠÙĤÙĦØª": 5815,
      "ĠØ§ÙĦÙĦÙĩÙħ": 5816,
      "Ø±ÙģØ¶": 5817,
      "ĠØªÙĥØ§": 5818,
      "ĠÙĪØ§ÙĦØ¶": 5819,
      "ĠØªØ²Ø§ÙĦ": 5820,
      "ĠØ§ÙĦØŃØ³ÙĨ": 5821,
      "Ø³ÙĤ": 5822,
      "ĬØ¯ÙĬ": 5823,
      "ÙĤÙĬÙĨ": 5824,
      "¸ÙĪÙħØ©": 5825,
      "ĠÙģÙĪØ§": 5826,
      "ĠÙĬÙĤØ¹": 5827,
      "¨ÙĥØ§": 5828,
      "ĠÙĦÙĤØ§": 5829,
      "Ø±Ø¨Øª": 5830,
      "ĠØ§ÙĦØ²ÙĪØ§Ø¬": 5831,
      "ĠØ§ÙĦØŃÙĤÙĬÙĤÙĬ": 5832,
      "ĠÙĬØµØ¨ØŃ": 5833,
      "ĠØ§ÙĦØ´ÙħØ§ÙĦÙĬØ©": 5834,
      "ÙĬØªÙĨØ§": 5835,
      "ĠØ¨Ø§ÙĦÙĦÙĩ": 5836,
      "ĠØ§ÙĦØµÙĨØ§Ø¹ÙĬØ©": 5837,
      "ĠØ§ÙĨØ®ÙģØ§Ø¶": 5838,
      "Ġ45": 5839,
      "ĠØ¥ÙħÙĥØ§ÙĨÙĬØ©": 5840,
      "ÙĬÙĦØ§Øª": 5841,
      "ĠØ¨Ø¹Ø¯Ùħ": 5842,
      "ÙĤÙĬØ§Øª": 5843,
      "ĠÙĪØ¨Ø¹Ø¶": 5844,
      "ĠÙĪØ§ÙĦÙĤØ§": 5845,
      "ĠØ§ÙĦØµØŃÙĬØŃ": 5846,
      "ĠÙĪÙĦØ°ÙĦÙĥ": 5847,
      "ĠØ·Ø±ÙĤ": 5848,
      "ĠÙħØ¯Ø§Ø±": 5849,
      "ªØ±Ø§Ùģ": 5850,
      "ĠØ§ÙĦÙħÙĤØ±Ø±": 5851,
      "ĠØ§ÙĦÙģÙĥ": 5852,
      "ĠÙħØµØ·ÙģÙī": 5853,
      "ĠÙĨØ¬Ø§ØŃ": 5854,
      "³Ø±": 5855,
      "ĠØ§ÙĦØ£Ø³Ø±Ø©": 5856,
      "ĠÙĪØ¬ÙĦ": 5857,
      "ĠØ¹ÙĨÙĪØ§ÙĨ": 5858,
      "ĠÙħÙĤØ±": 5859,
      "ĠØ·Ø§Ø¦": 5860,
      "ĠØ³Ø§Ø¨ÙĤØ§": 5861,
      "ĠØ§ÙĦØ¥Ø´Ø§Ø±Ø©": 5862,
      "ĠÙħØµØ§ÙĦØŃ": 5863,
      "ĠÙĬØ·": 5864,
      "ĠØ§ÙĦÙĤØ§Ø¦Ø¯": 5865,
      "ĠÙĦÙĬÙĦØ©": 5866,
      "ÙĦÙĬØ³": 5867,
      "Ø¨Ø·Ø©": 5868,
      "ĠØ§Ø³ØªÙħ": 5869,
      "ĠØ¨Ø£Ø³": 5870,
      "³Ø¹": 5871,
      "ÙĤØ§Ø±": 5872,
      "ĠØ¹ÙĪØ¯Ø©": 5873,
      "ĠØ§ÙĦÙĥÙĩØ±Ø¨Ø§Ø¡": 5874,
      "ĠØ§ÙĦØ§ØŃØªÙĬØ§": 5875,
      "ĠØ¨ØŃØ§Ø¬Ø©": 5876,
      "ĠØ§ÙĦØ´Ø§Ø±Ø¹": 5877,
      "±ÙģÙĬ": 5878,
      "ÙĦÙĪÙ": 5879,
      "Ø¯Ø§Ø¹": 5880,
      "ĠØªØ´ÙĬ": 5881,
      "ĠØ§ÙĦÙĥØ§ØªØ¨": 5882,
      "ĠØªÙĤØ¯ÙĬ": 5883,
      "ĠÙħØ§ÙĦÙĥ": 5884,
      "ĠÙĪÙħØŃØ§": 5885,
      "ģØ±Ø¹": 5886,
      "ĠÙģÙħ": 5887,
      "ĠÙĤØµØ©": 5888,
      "ĠØ§ÙĦØ¥Ø¹ÙĦØ§ÙĨ": 5889,
      "ĠÙħØ¶ÙĬÙģØ§": 5890,
      "ĠØªØµØ±ÙĬØŃ": 5891,
      "ĠÙĥÙĦÙħØ§": 5892,
      "Ø¯ÙĪØ§": 5893,
      "ØµØ±Ø©": 5894,
      "Ġ2019": 5895,
      "ĠØ§Ùĥ": 5896,
      "ģØ±Ø©": 5897,
      "ĠÙħØ³Ø§ØŃØ©": 5898,
      "ÙĩÙħØ§": 5899,
      "ĠØ¯Ø§Ø®": 5900,
      "ĠØ³ÙĬÙħØ§": 5901,
      "ÙĪØ¶ØŃØª": 5902,
      "ÙĪÙĬÙĩ": 5903,
      "³ÙĬÙħ": 5904,
      "ĠØ§ÙĦØµØŃÙĬÙģØ©": 5905,
      "Ø§ÙĦØ¬": 5906,
      "ĠØ·Ø±ÙĬ": 5907,
      "ØºØ³": 5908,
      "ĠÙĤØ¨Ù": 5909,
      "ĠØ§ÙĦÙħØ´Ø§ÙĥÙĦ": 5910,
      "ĠØŃÙĤØ§": 5911,
      "Ø±ÙĪØ±ÙĬØ©": 5912,
      "Ġ32": 5913,
      "ªÙģÙĪ": 5914,
      "ĠØ¹Ø³ÙĥØ±ÙĬØ©": 5915,
      "ĦØ¨Øª": 5916,
      "ĠÙĪØ±Ø¨ÙħØ§": 5917,
      "ĠØªØŃØµÙĦ": 5918,
      "ĠØ§ÙĦÙĤØ§Ø¹Ø¯Ø©": 5919,
      "ĠÙĬØ´ÙĥÙĦ": 5920,
      "ģØ¹ÙĬÙĦ": 5921,
      "ĠØ§ÙĦØŃÙĪØ§": 5922,
      "ĠØªØ¹Ø¨Ø±": 5923,
      "´ÙĬØ±": 5924,
      "Ġ2010": 5925,
      "Ø¬ÙĬØ±": 5926,
      "ÙĪØ¯ÙĬ": 5927,
      "ĠØ§ÙĪÙĦ": 5928,
      "ĠØ§ÙĨØªÙĩØ§Ø¡": 5929,
      "ĠØ´Ø±": 5930,
      "ĠØ§ÙĦØ³ÙĥØ§ÙĨ": 5931,
      "ĠØ§ÙĦØ¥ÙĨØªØ§Ø¬": 5932,
      "®ØµØµØ©": 5933,
      "ÙĦÙĬÙħ": 5934,
      "¸Ø§ÙĩØ±Ø©": 5935,
      "ģØ§ÙĦ": 5936,
      "ØªÙĦØ§": 5937,
      "ĠØ§ØŃØªØ±Ø§": 5938,
      "Ø¯Ø§Ø©": 5939,
      "ĠÙĤØ§Ø¦Ø¯": 5940,
      "ÙĪÙĨØ§ÙĦØ¯": 5941,
      "Ø±ÙĪÙĤ": 5942,
      "ĩÙĬÙĦ": 5943,
      "ĠØ§ÙĦØªÙĨØ¸ÙĬÙħ": 5944,
      "ĠØ§ÙĦØªØ§Ø±ÙĬØ®ÙĬØ©": 5945,
      "¯ÙĪØ±Ø©": 5946,
      "ĠØ§ÙĦØ¬ÙĪÙĦØ©": 5947,
      "ĠÙħØ´ÙĬ": 5948,
      "ĠØªØ±Ù": 5949,
      "ĠØ§ÙĦØ§ØªØµØ§ÙĦØ§Øª": 5950,
      "ĠÙģÙĬØ¯ÙĬÙ": 5951,
      "ĠÙĨØ±Ùī": 5952,
      "ĠØ§ÙĨÙģ": 5953,
      "ĠØ¥Ø¹ÙĦØ§ÙĨ": 5954,
      "ĠØ£ÙĪØ§": 5955,
      "ĠØ¥Ø¶Ø§": 5956,
      "ĠÙĬØ°ÙĥØ±": 5957,
      "ĠÙĪØ±Ø¯": 5958,
      "ĠØ«Ø§ÙĦØ«": 5959,
      "ªÙħØ±Ø©": 5960,
      "ĠØ§ÙĦØ¨Ø´Ø±": 5961,
      "ĠØ´ÙĩØ¯": 5962,
      "Ø¯Ø¹": 5963,
      "Ø³Ø¨Ø§": 5964,
      "ĠØ§ÙĦÙħÙĥØªØ¨": 5965,
      "ĠÙĬØªÙĨØ§": 5966,
      "¯Ø¹ÙĪØ©": 5967,
      "ĠØ§ÙĦØ¹Ø¯ÙĦ": 5968,
      "el": 5969,
      "Ġ70": 5970,
      "ĠØ¨Ø¹Ø¶ÙĩÙħ": 5971,
      "ÙĬÙĤØ§": 5972,
      "ÙĬØ¯Ù": 5973,
      "Ġ=": 5974,
      "ĦÙĤÙĩ": 5975,
      "¨ÙĦÙĪÙħØ§": 5976,
      "¯ÙĬÙĦ": 5977,
      "ĠØ§ÙĦØ£ÙĥØ¨Ø±": 5978,
      "ĠÙĦØ§Ø¨Ø¯": 5979,
      "ĠÙħØ¹ÙĨÙī": 5980,
      "ĠØ£ÙģØ": 5981,
      "ĠW": 5982,
      "ĠØ§ÙĦÙħÙħØ§": 5983,
      "ÙģØ§Ùģ": 5984,
      "ĠÙħÙĥØ©": 5985,
      "ĦÙĨÙĬ": 5986,
      "ĠØ§ÙĦØ¬ÙĬ": 5987,
      "ĠÙħØªÙĪØ§": 5988,
      "ĠÙĪØ£ÙĥØ¯": 5989,
      "ĠØ¨Ø±ÙĬ": 5990,
      "ĠØ§ÙĦÙħØ¬Ø§ÙĦØ§Øª": 5991,
      "ĠÙħÙĪØ¹Ø¯": 5992,
      "ĠØ§Ø³ØªÙĩ": 5993,
      "ĠÙħØ¹Ø±Ø¶": 5994,
      "ĠØ¨ØªÙĤØ": 5995,
      "ÙģÙĪØ±": 5996,
      "ĠØ¨Ø§ÙĦØªÙ": 5997,
      "ĠØ¨Ø§ÙĦØªØ¹Ø§ÙĪÙĨ": 5998,
      "ĠÙħØ¯Ø±Ø³Ø©": 5999,
      "Ø±ØŃØ©": 6000,
      "Ġ2022": 6001,
      "ĠØ£Ø³Ø¨ÙĪØ¹": 6002,
      "ĠØ§ÙĦÙĨÙĬØ§Ø¨Ø©": 6003,
      "ĠÙħØ¹Ø¯": 6004,
      "ĠÙħØ£": 6005,
      "ĠØ·Ùĩ": 6006,
      "ÙĪØ¹ÙĬØ©": 6007,
      "Ø«ÙĬÙĦ": 6008,
      "ĠÙĦØªØ´": 6009,
      "Ø·ÙĦØ§Ø¹": 6010,
      "ĠÙĪÙĬØŃ": 6011,
      "ĠØ§ÙĦÙħØªØ·": 6012,
      "ĠÙħÙħØ§Ø±Ø³Ø©": 6013,
      "ĠÙģÙĤ": 6014,
      "Ø¨ÙĨÙĬ": 6015,
      "Ø¨Ø®": 6016,
      "ĠØ§ÙĦÙĨÙĤØ§": 6017,
      "¬Ø§Ø±Ø©": 6018,
      "ØªÙĪÙĬ": 6019,
      "ĠÙģÙĩÙĦ": 6020,
      "ĠØªØŃØ±ÙĬØ±": 6021,
      "Ø¨ÙĦØ§Ø¯": 6022,
      "ĠØªÙħÙĥÙĨ": 6023,
      "ĦØ±Ø§Ø¦": 6024,
      "ÙĦÙħÙĬØ": 6025,
      "ºÙĦ": 6026,
      "ĠÙĦØ§ÙģØªØ§": 6027,
      "ĠØªØ¨Ø¯Ø£": 6028,
      "ĠØªØ´ÙĥÙĦ": 6029,
      "ĠØ§ÙĦÙĨØ¬Ø§ØŃ": 6030,
      "ĠØ§ÙĦØŃØ¶Ø§": 6031,
      "«Ø§Ø": 6032,
      "¬ÙĬØ": 6033,
      "ĠØ§ÙĦÙħÙĨØªØ¬Ø§Øª": 6034,
      "ĠØ§ÙĦØ²ÙħÙĨ": 6035,
      "ĬØ³Ùħ": 6036,
      "Ø¨ØŃØ«": 6037,
      "ĠØ¨ÙĦØ§Ø¯": 6038,
      "Ø¦ØŃØ©": 6039,
      "ªÙĨØ§ÙĪÙĦ": 6040,
      "¨Øª": 6041,
      "ĠÙģØ±ÙĤ": 6042,
      "ĠØ§ÙĦØ¹ÙĩØ¯": 6043,
      "Ø«ÙĬØ©": 6044,
      "ĠØ§ÙĦØ´Ø¹Ø¨ÙĬ": 6045,
      "Ø¯Ùī": 6046,
      "Ø¨ÙĥØ§": 6047,
      "ĠØ§ÙĦØ¥Ø¬": 6048,
      "ĠÙĪØ§Ø¶ØŃ": 6049,
      "ĠØ¬Ø§ÙĨØ¨Ùĩ": 6050,
      "ĠØ§ÙĦØªÙĬØ§Ø±": 6051,
      "ģØŃØ": 6052,
      "ÙĨÙģØ§ÙĤ": 6053,
      "Ø±ÙĥØ§ÙĨ": 6054,
      "®Ø¯ÙħÙĬÙĨ": 6055,
      "ĠØ§ÙĦÙĪØ¬Ùĩ": 6056,
      "¨ÙĩÙħ": 6057,
      "ĠØ§ÙĦØ«ÙĦØ§Ø«Ø©": 6058,
      "°ÙĦ": 6059,
      "ĠØ§ÙĦÙĩÙĦØ§ÙĦ": 6060,
      "ĠØ§ÙĦØ³ÙĬÙĨÙħØ§": 6061,
      "ÙĨØ¨ÙĬ": 6062,
      "ÙĨØ¹Ø©": 6063,
      "ĠÙĬØ¯Ù": 6064,
      "ħØ§": 6065,
      "¯ÙħØ": 6066,
      "ĠØ§ÙĦØ¨Ø§Ø¨": 6067,
      "¯Ø±Ø³": 6068,
      "ĠØ¨ÙĥØ§": 6069,
      "ĠØªÙĪÙĬ": 6070,
      "ÙĬØ³Ùħ": 6071,
      "ĠÙħØªØ¹Ø¯Ø¯Ø©": 6072,
      "ĠØªØ¨ØŃØ«": 6073,
      "Ø¨Ø±ÙĬ": 6074,
      "ĠØ¨ØªØŃ": 6075,
      "ÙĦÙħÙĬØ©": 6076,
      "ĠÙģÙģÙĬ": 6077,
      "ĠØ§ÙĦÙģØ±ÙĤ": 6078,
      "ØµØ¨": 6079,
      "ĠØ§ÙĦØ£Ø¨Ø": 6080,
      "Ø·Ø¹Ø©": 6081,
      "ĠØ§ÙĦØ«ÙĤØ©": 6082,
      "ĦÙĤØ¨": 6083,
      "ĠØ§ÙĦØªÙĨÙģÙĬØ°ÙĬ": 6084,
      "ĠN": 6085,
      "ĠØ§ÙĦØ§ÙĩØªÙħØ§Ùħ": 6086,
      "ĠÙĤÙĪ": 6087,
      "Ø¹ÙĥØ³": 6088,
      "ĠÙħÙĬØ§Ùĩ": 6089,
      "ĠØ§ÙĦØ¹ÙĤÙĦ": 6090,
      "ĠÙħØ´Ø§Ø±ÙĬØ¹": 6091,
      "ĠØ§ÙĦØ±Ø³ÙħÙĬØ©": 6092,
      "Ø±Ø§ØªÙĩ": 6093,
      "Ø²ÙĬÙħ": 6094,
      "ĠØªØµÙħÙĬÙħ": 6095,
      "ÙĪÙĦØ§Ø¯": 6096,
      "ĠØ¨Ø§ÙĦÙħØ§": 6097,
      "Ø¨ØªÙĩØ§": 6098,
      "ĠØ´Ø¨Ø§Ø¨": 6099,
      "ĠØ¨Ø¹ÙĨÙĪØ§ÙĨ": 6100,
      "ÙĨÙĬØ¹": 6101,
      "ĠØ§ÙĦØ£Ø³ÙĨØ§ÙĨ": 6102,
      "ÙĦÙĪØ§": 6103,
      "ĠØ·ÙĪÙĦ": 6104,
      "ĠØªØªÙĪ": 6105,
      "Ø¯Ø§Ùħ": 6106,
      "Ø´Ø§Øª": 6107,
      "ĠØ´Ø±ÙĬ": 6108,
      "ĠØ¨Ø¹Ø¶ÙĩØ§": 6109,
      "ĠØ¨Ø§ÙĦÙĥØ§": 6110,
      "ĠØ§ÙĦØ¥ÙħØ§": 6111,
      "ĠØ§ÙĦØ£Ø·Ø±Ø§Ùģ": 6112,
      "ĠÙĪØ¨Ø¯": 6113,
      "ĠØ§ÙĦÙĩÙĨØ¯": 6114,
      "Ø±ØŃÙħ": 6115,
      "³ÙĪØ§": 6116,
      "ĠÙħØ±ÙĪØ±": 6117,
      "ĠØ§ÙĨØªÙ": 6118,
      "ĠÙħØ¨ÙĦØº": 6119,
      "ĠÙģÙĪØ": 6120,
      "ĠØ§ÙĦØµØ§Ø": 6121,
      "ĠØ§ÙĦØ®Ø¨Ø±": 6122,
      "ÙĦÙĥÙĨ": 6123,
      "ĠÙĪØ§ÙĦØŃØ§": 6124,
      "ĠØ§ÙĦØ±Ø§Ø¨Ø·": 6125,
      "ĠØªÙĦØ§": 6126,
      "ØµØ§Ø¦": 6127,
      "ĠØ³Ø§Ùħ": 6128,
      "ĠÙħØ¹ÙĬÙĨ": 6129,
      "ĠØ§ÙĦÙĦØ¨ÙĨØ§ÙĨÙĬ": 6130,
      "Ø¬Ø¨Ø§Øª": 6131,
      "ĠØ§ÙĦÙĥØ": 6132,
      "ĠÙĬØ³Ùħ": 6133,
      "ĠØ§ÙĦÙħÙĪØ³ÙĬ": 6134,
      "ĠØ§ÙĦØ²ÙĪØ¬": 6135,
      "ĠØ§ÙĦØ³Ø¤Ø§ÙĦ": 6136,
      "ĠÙĪØ¸Ø§": 6137,
      "ĠÙĨØ³ØªØ": 6138,
      "ĠØ£ÙģØ±ÙĬÙĤÙĬØ§": 6139,
      "ĠÙĪÙĩÙĦ": 6140,
      "ĠÙĪÙħÙĤ": 6141,
      "ÙħÙĪØª": 6142,
      "ĠÙħØ±Ø§ÙĥØ²": 6143,
      "ĠØ¬ÙĩÙĪØ¯": 6144,
      "¬Ø§Ø±": 6145,
      "Ø±Ø§Ø³Ø©": 6146,
      "ĦÙĤØ§Ø": 6147,
      "ĠØ§ÙĦØ£ÙĨ": 6148,
      "ĠØ§ÙĦØ¥Ø·ÙĦØ§ÙĤ": 6149,
      "ĠØªØŃÙħÙĬÙĦ": 6150,
      "ĠØ±ØŃÙħÙĩ": 6151,
      "ĩÙĥØ°Ø§": 6152,
      "Ø±Ø§Ø¯Ø©": 6153,
      "Ø¬Ø§Ø¨Ø©": 6154,
      "ĠÙħÙĦØŃ": 6155,
      "ĠØ§ÙĦØ±Ø³ÙħÙĬ": 6156,
      "Ø±ÙģØª": 6157,
      "ĠØµÙģØŃØ©": 6158,
      "ĠØ§ÙĦÙħÙĨØ´ÙĪØ±Ø©": 6159,
      "ĠØ§ÙĦØ¹Ø¯Ø¯": 6160,
      "ĠÙĪÙĦØ": 6161,
      "ĠÙĥØ¨Ø§Ø±": 6162,
      "ĠÙĬØ¬Ø±ÙĬ": 6163,
      "ĠØ§ÙĦØªØ¯Ø±ÙĬØ¨": 6164,
      "ĠÙħØ¤Ø´Ø±": 6165,
      "Ø¦ÙĨØ§": 6166,
      "ĠÙĦØªÙĤØ": 6167,
      "ĠØ§ÙĦØ±Ø§Ø¦": 6168,
      "ÙĬÙĦÙĩØ§": 6169,
      "´Ø§Ùģ": 6170,
      "ĠØ§ÙģØ¶ÙĦ": 6171,
      "ĦØªÙĤÙī": 6172,
      "¶Ùĩ": 6173,
      "ÙĨØ§Ùģ": 6174,
      "ÙĬÙĩÙħ": 6175,
      "ĠØ¨Ø§ÙĬ": 6176,
      "ÙģØŃØ": 6177,
      "ĦÙĤÙĬØ§Ùħ": 6178,
      "Ø¨ÙĤØ§": 6179,
      "ĠØ¹ÙħÙĦÙĩ": 6180,
      "ĠØ§ÙĦØªØ¬Ø§Ø±ÙĬ": 6181,
      "³Ø®": 6182,
      "ĠØ¥Ùħ": 6183,
      "³ÙĩÙĪÙĦØ©": 6184,
      "¨ÙĤÙĬ": 6185,
      "³ÙĦØ§": 6186,
      "ĠØ¨Ø±Ø¦Ø§Ø³Ø©": 6187,
      "¯ÙĬÙĬÙĨ": 6188,
      "ĠÙĬØŃØªÙĪÙĬ": 6189,
      "ĬØ¨Ø¯Ø£": 6190,
      "ĠØ¨Ø·Ø§": 6191,
      "ĠØ³ÙĤ": 6192,
      "ĠØºÙĬØ§Ø¨": 6193,
      "ĠØ§ÙĦØ£ÙĪØ±ÙĪØ¨ÙĬØ©": 6194,
      "ĠÙħØµÙĦØŃØ©": 6195,
      "ÙĬØ¨Ø¯Ø£": 6196,
      "ĠØ§ÙĦØ¶Ø§": 6197,
      "ĠØ§ÙĦÙħØ¹Ø±ÙģØ©": 6198,
      "¯Ø®Ù": 6199,
      "ĠØ§ÙĦØ¯Ø¹ÙĪØ©": 6200,
      "Ø³ÙĦÙĪØ¨": 6201,
      "ÙħÙĪÙĦ": 6202,
      "´ÙĦÙĪÙĨØ©": 6203,
      "Ø±Øº": 6204,
      "ĠØ§ÙĦÙħØ¹ÙĨÙĬØ©": 6205,
      "ĠÙħØ³ØªÙĪÙĬØ§Øª": 6206,
      "ĠØ§ÙĦÙĨÙĩØ§Ø¦ÙĬ": 6207,
      "´Ø¤ÙĪÙĨ": 6208,
      "ĠØ®Ø·Ø±": 6209,
      "ĠØ²ÙħÙĨ": 6210,
      "Ø·ÙĬØ±Ø©": 6211,
      "ĠØ¯ÙĬÙĨ": 6212,
      "ĠØªØ±Ø§Ø¬Ø¹": 6213,
      "Ø£ØªÙĬ": 6214,
      "ĦØ§Ø¬": 6215,
      "ĬØªÙĥ": 6216,
      "ĠØ§ÙĦØ¨Ø±Ø§Ø²": 6217,
      "ĠÙħØ¬ØªÙħØ¹": 6218,
      "ĠØ§ÙĦØ«ÙĤØ§ÙģÙĬØ©": 6219,
      "ĠÙħÙĪØ§Ø": 6220,
      "ĠÙĪØ§ÙĦØªØŃ": 6221,
      "ĠÙĨÙģØ³ÙĬ": 6222,
      "ĠØ§ÙĦØ®Ø§ÙħØ³": 6223,
      "Ø«Ø¨Ø§Øª": 6224,
      "ĦÙĬØ¯": 6225,
      "ÙĨØ¯Ø±ÙĬØ©": 6226,
      "ĠØªÙģØ§ØµÙĬÙĦ": 6227,
      "ģØ±ÙĬÙĤÙĬØ©": 6228,
      "ĠÙĤØ±Ø¨": 6229,
      "ĠÙħÙĪØ³ÙĬ": 6230,
      "ĠØªØ´ÙħÙĦ": 6231,
      "ºÙĬÙĬØ±": 6232,
      "ĠØµÙĨØ": 6233,
      "Ø·Ø¨": 6234,
      "ĩØ¯Ø§": 6235,
      "ĬØ¬Ø¯": 6236,
      "ÙĬÙģÙĩ": 6237,
      "ĠØ§ÙĦØ¯Ø³ØªÙĪ": 6238,
      "ÙĩÙĥØ°Ø§": 6239,
      "®ÙģØ¶": 6240,
      "ĠØ§ÙĦÙħØ´ØªØ±ÙĥØ©": 6241,
      "ØºØ³Ø·Ø³": 6242,
      "ØµÙģØ§Øª": 6243,
      "Ø³ØªØŃ": 6244,
      "®Ø§Ø±Ø¬": 6245,
      "ĠØµÙĪØª": 6246,
      "¸Ø§Ùĩ": 6247,
      "ĠØ´ÙĩØ§Ø¯Ø©": 6248,
      "ÙĥØ§Ø¯ÙĬÙħÙĬØ©": 6249,
      "ĠØ¬ÙĦØ³Ø©": 6250,
      "ĠÙħØ¹ÙĨØ§": 6251,
      "ĩØªÙħ": 6252,
      "ÙħÙĨØª": 6253,
      "ĠØ§ÙĦØŃÙħÙĦØ©": 6254,
      "ĬØŃØ§ÙĪÙĦ": 6255,
      "ĠØ§ÙĦØ·Ø¨ÙĬØ¨": 6256,
      "ĠÙĪØ£ÙħØ§": 6257,
      "Ø´Ø±Ø§Øª": 6258,
      "Ø¬ÙĬØ¹": 6259,
      "ÙĬØŃØ§ÙĪÙĦ": 6260,
      "ĠØ§ÙĦÙħÙĥÙĨÙĬ": 6261,
      "ĠÙĤØ±ÙĬØ©": 6262,
      "Ø¬ÙħÙĪØ¹Ø©": 6263,
      "ĠØ§ÙĦØ§Ø¨ØªØ": 6264,
      "¸ÙĦ": 6265,
      "ĠØ²Ù": 6266,
      "ĠÙħØŃÙĦ": 6267,
      "ĠØ¨ÙĦØ§Ø¯Ùĩ": 6268,
      "ĠØ§ÙĦØŃØ±Ø§Ø±Ø©": 6269,
      "ĠØ¥ÙĬØ¬Ø§Ø¯": 6270,
      "ØŃØ¨Ø©": 6271,
      "ĠÙĪØ®Ø": 6272,
      "³ÙĪØ±": 6273,
      "Ø±ØªÙĬ": 6274,
      "³Ø§Ø·Ø©": 6275,
      "Ø¬Ø¹Ø©": 6276,
      "ØŃØ§ÙĬØ§": 6277,
      "ĠØ§ÙħØ±Ø£Ø©": 6278,
      "ĠÙĪØ§ÙĦØ§ÙĤØªØµØ§": 6279,
      "ĠØªÙĪÙĬØªØ±": 6280,
      "ÙĬØ¬Ø¯": 6281,
      "ĠØ®Ø·ÙĪØ©": 6282,
      "ÙĨØ¬Ø": 6283,
      "ÙĦØ³Ù": 6284,
      "ĠÙħÙĨØ´": 6285,
      "ĠØ§ÙĦØ¯ÙĪ": 6286,
      "ĠÙħØ³ØªØ´ÙģÙī": 6287,
      "ĠØ§ÙĦØ¥Ø³Ùĥ": 6288,
      "¬Ùĩ": 6289,
      "Ø±Ø§ÙĥØ©": 6290,
      "ĠØ¹Ø«": 6291,
      "ĠÙĦØ¢": 6292,
      "ĠÙĪØ§ÙĦÙħØ§": 6293,
      "ĠØ§ÙĦØ¹Ø§ÙĦÙĬ": 6294,
      "ĠØ§ÙĦØªØ§ÙĦÙĬ": 6295,
      "ĠØ§ÙĦÙĦØŃ": 6296,
      "¨Ø©": 6297,
      "¯ÙĬÙĩ": 6298,
      "ĠÙĨØ¬Ø¯": 6299,
      "Ø¨Ø§ÙĨÙĬØ©": 6300,
      "ĠÙĨÙģØ³Ùĥ": 6301,
      "³Ø¹ÙĪ": 6302,
      "Ø¬Ø±Ø¯": 6303,
      "ĠÙħØ¹Ø¯ÙĦ": 6304,
      "ĦÙĬÙģ": 6305,
      "ÙĦÙĪÙĨ": 6306,
      "Ø´ØªØ±Ø§Ùĥ": 6307,
      "ĠØ§ÙĦØ§ÙħØ±": 6308,
      "ÙĪÙĨØº": 6309,
      "ĠØ§ÙĦØ§ÙĨØ³Ø§ÙĨ": 6310,
      "ØªÙħÙ": 6311,
      "ĠÙĦÙĦØ§Ø³ØªØ": 6312,
      "ĠØ§ÙĦÙħØµØ±ÙĬÙĬÙĨ": 6313,
      "ĠÙĬØ¬Ø¯": 6314,
      "ĠØ§ÙĦÙĤÙĪÙħÙĬ": 6315,
      "ģØªØ±Ø¶": 6316,
      "ĠÙĦÙĦØ¹Ø": 6317,
      "±Ùĩ": 6318,
      "ĠØºØ±Ø¨": 6319,
      "ØªØ§Ùħ": 6320,
      "´ÙģÙĬØ§Øª": 6321,
      "ÙĦÙĨÙģØ": 6322,
      "Ø¨ÙĨØª": 6323,
      "ĠÙĪÙĥÙĬÙģ": 6324,
      "¨ÙĬØ¨": 6325,
      "ĠØ´Ø®ØµØ§": 6326,
      "ĠØ§ÙĦØ¬Ø§ÙħØ¹Ø§Øª": 6327,
      "ĠØ§ÙĦØ§Øµ": 6328,
      "ĠØ£ØµÙĦ": 6329,
      "ÙģÙĦØ§": 6330,
      "ÙĪÙĨØ¬": 6331,
      "ĠØ§ÙĦÙħØ²Ø§": 6332,
      "ĠØ°Ùĩ": 6333,
      "ĠØŃØ¬": 6334,
      "ÙĨØªÙĩ": 6335,
      "ĠÙĪØ§Ø®": 6336,
      "ĦØªÙĬ": 6337,
      "ĠØ§ÙĦØµØ±Ø§Ø¹": 6338,
      "ÙĪØ§Ø¹Ø¯": 6339,
      "Ø¹Ø±ÙĪÙģØ©": 6340,
      "Ø¹Ø¨Ø": 6341,
      "ÙĬÙĩØ§Ø": 6342,
      "ĠØ£ÙħÙĬØ": 6343,
      "ĠÙĥØ§Ø": 6344,
      "ĠÙĥÙĪÙĨ": 6345,
      "ĦÙģØª": 6346,
      "ĠØ§Ø¨Ø": 6347,
      "ĠÙħÙĪØ§Ø¯": 6348,
      "ĠØ§ÙĦØ²ÙĪ": 6349,
      "ĠØ§Ø¯Ø§Ø±Ø©": 6350,
      "¹Ø±Ø§": 6351,
      "ĬØ¯Ø®ÙĦ": 6352,
      "ÙĥÙĦØ§Øª": 6353,
      "ĠØ§ÙĦÙħØ§Ø¦Ø©": 6354,
      "ĠÙĬØ¹ÙĦÙħ": 6355,
      "ĠØ±Ø§Ø¦Ø¹Ø©": 6356,
      "Ø±ØªÙģØ¹": 6357,
      "ªÙħÙĦÙĥ": 6358,
      "Ø¨ÙĥØ±": 6359,
      "·ÙĦØ¨Ø§Øª": 6360,
      "ĠØ§ÙĦÙħØ³Ø¤ÙĪÙĦÙĬÙĨ": 6361,
      "ĠÙĬØŃØ§ÙĪÙĦ": 6362,
      "ĠØ§ÙĦÙĨØ¨": 6363,
      "ÙĨØ§ÙĨØ©": 6364,
      "ĠØªØŃØ³ÙĬÙĨ": 6365,
      "ĠÙħØªØ£": 6366,
      "ĠÙģÙĦÙħØ§": 6367,
      "ĠØ·Ø±Ø§Ø¨ÙĦØ³": 6368,
      "«Ø§Øª": 6369,
      "ĠØ§ÙĨØªØ´Ø§Ø±": 6370,
      "ĬØ¹ØªÙĤØ¯": 6371,
      "ĠÙĪØ¬ÙĩØ©": 6372,
      "ĠØ§ÙĦÙĨÙħÙĪØ°Ø¬": 6373,
      "³Ø§Ø³": 6374,
      "Ġ500": 6375,
      "ÙĬØ¯Ø®ÙĦ": 6376,
      "ĠÙĪØ¹Ø¯Ø¯": 6377,
      "ĠØ§Ø³ØªØ±Ø§ØªÙĬØ¬ÙĬØ©": 6378,
      "ÙĬÙħØ": 6379,
      "ÙĬØ¹ØªÙĤØ¯": 6380,
      "ĠØŃÙģÙĦ": 6381,
      "ĠØ§ÙĦØªØ¯Ø±ÙĬ": 6382,
      "Ġ000": 6383,
      "ĠØ¨ÙĨØª": 6384,
      "ĠØ§ÙĦØ·ÙĬ": 6385,
      "ĠØ§ÙĦØ°Ùĩ": 6386,
      "ĠØ§ÙĦÙħØ±": 6387,
      "ģØ®": 6388,
      "ÙĤØ¹Ø§Øª": 6389,
      "ĠØ§ÙĦÙħÙĤØ¯ÙħØ©": 6390,
      "Ø°ÙĥØ±Øª": 6391,
      "ĠØªØ¨ÙĤÙī": 6392,
      "ĠÙĬÙĤØ§": 6393,
      "¯Ø±ÙĪÙĬØ¯": 6394,
      "ĠØ¨ÙĥØ±": 6395,
      "ĠÙħØ´Ø§ÙĩØ¯Ø©": 6396,
      "ĠØ§ÙĦØ±Ø§Ø¨Ø¹Ø©": 6397,
      "ĠØ§ÙĦÙħØµØ¯Ø±": 6398,
      "ĥØ§": 6399,
      "Ø¨Ø²": 6400,
      "ĠØŃØ²": 6401,
      "ĠØªØ¹ÙĪØ": 6402,
      "ÙĩØ§Ø±": 6403,
      "ĠØ¨ÙĨÙĥ": 6404,
      "ĠØ§ÙĦÙĨØµØ±": 6405,
      "ĦÙģØ²ÙĬÙĪÙĨ": 6406,
      "Ø·ÙĬÙĨ": 6407,
      "ĠØªØ¹ÙĪØ¯": 6408,
      "ÙĬØªÙĥ": 6409,
      "ĦÙĤÙĬÙħØ©": 6410,
      "ĠÙĦÙĨÙģØ": 6411,
      "Ø±Ø¶Ù": 6412,
      "ĠØ´Ø±ÙĪØ·": 6413,
      "¨Ø±Ø¬": 6414,
      "Ø·ÙĦØ¨": 6415,
      "ģØ¹ÙĦØ§": 6416,
      "ĠØ§ÙĦÙħÙĩÙħ": 6417,
      "ĠØ§ÙĦØ¯ÙĪÙĦØ§Ø±": 6418,
      "³ÙĤØ·": 6419,
      "ĠØ§ÙĦØ¶ÙĪØ¡": 6420,
      "ĠÙĪØ§ÙĦØª": 6421,
      "ĠØ£Ø²": 6422,
      "Ø±Ø§ØªÙĩØ§": 6423,
      "ĠÙĪØ§ØŃØ¯Ø§": 6424,
      "ĠØ§ÙĦØªÙĤÙĨÙĬØ©": 6425,
      "ĠÙĩØ¯": 6426,
      "ĠØ§ÙĦØ§ÙĨØªØ®Ø§": 6427,
      "ĠØ§ÙĦØ®Ø±ÙĪØ¬": 6428,
      "ĠØ¥ÙĤ": 6429,
      "ØªØµØ±": 6430,
      "ÙħÙĪÙĬØ": 6431,
      "ĠØ£ÙĬÙĨ": 6432,
      "ÙĨØ¯Ø³Ø©": 6433,
      "ÙĪÙĦÙĩÙħ": 6434,
      "ĠØ§ÙĦØ£Ø´ÙĬØ§Ø¡": 6435,
      "ĠØ§ÙĦÙħØ±Ø©": 6436,
      "Ø§ÙĦØŃ": 6437,
      "ĠÙĤØ¯Ø±Ø©": 6438,
      "Ø±Ø¨ÙĬÙĨ": 6439,
      "ĠØªØŃÙĤÙĤ": 6440,
      "ĠØ§ÙĦØ¹ÙĬ": 6441,
      "ĠØ¥ØŃ": 6442,
      "ĠØ§ÙĦÙħÙĨØ§Ø³Ø¨": 6443,
      "ĠØ§ÙĦØªÙĤØ¯Ùħ": 6444,
      "ĠØ§ÙĦÙħÙĪØ§Ø±Ø¯": 6445,
      "ÙģØµÙĦ": 6446,
      "³Ø¹ÙĪØ¯": 6447,
      "ĠÙĦØ§ØŃÙĤØ§": 6448,
      "ĠØ§ÙĦÙģØ±ØµØ©": 6449,
      "Ø³ØªØ±": 6450,
      "¬Ø©": 6451,
      "ĠÙģÙĬØ¯ÙĬÙĪ": 6452,
      "ÙĨØº": 6453,
      "ĠÙħØ²Ø§": 6454,
      "ĠØ¹ÙħØ±ÙĪ": 6455,
      "ĦÙĪØ¨Ø©": 6456,
      "ĠØµÙĨØ¯ÙĪÙĤ": 6457,
      "ĠØªØ±ØºØ¨": 6458,
      "ĠØ§ÙĦØ£ÙģØ¶ÙĦ": 6459,
      "ĦÙĨØ§Ø³": 6460,
      "ĠØ®Ø±Ø¬": 6461,
      "ÙģØ¹ÙĦØ§": 6462,
      "Ø«Ùĩ": 6463,
      "ØªÙĦÙģ": 6464,
      "re": 6465,
      "ĠØ§ÙĦØ´Ø§Ù": 6466,
      "ĠØ¨Ø§Ø¹ØªØ¨Ø§": 6467,
      "ÙĨÙĪ": 6468,
      "Ø³Ø±ÙĬ": 6469,
      "Ø¶Ø·": 6470,
      "ĠØ§ÙĦØªØºÙĬÙĬØ±": 6471,
      "ÙħÙĪÙĬØ©": 6472,
      "ĠÙĪØ³ØªØ": 6473,
      "Ø±Ø§ØªÙĥ": 6474,
      "ĠØ§ÙĦØ³ÙĬØ§ØŃÙĬØ©": 6475,
      "ĠÙħØ¨Ø§Ø±ÙĬØ§Øª": 6476,
      "ĠØ§ÙĦØ¬ÙĨØ©": 6477,
      "ĠØ§ÙĦØ±Ø³Ø§ÙĦØ©": 6478,
      "ĠØ¨ÙĤØ§": 6479,
      "ĠØ¨Ø±ÙĬØ·Ø§ÙĨÙĬØ§": 6480,
      "ĠØ§ÙĦØ§ÙĪÙĦÙī": 6481,
      "ĠØªØ¶Ùħ": 6482,
      "ĬÙĪ": 6483,
      "ĠØªÙħÙ": 6484,
      "ĠØ¶Ø¨Ø·": 6485,
      "ĠÙħÙĨÙĥ": 6486,
      "ĠØ´Ø±Ø·Ø©": 6487,
      "ĠØ§ÙĦØµÙĪ": 6488,
      "ĠÙĥÙħÙĬØ©": 6489,
      "ĠÙĪÙĦØ£": 6490,
      "ĠØ§ÙĦØ¢ÙĬ": 6491,
      "ĠÙĨØ®": 6492,
      "ĠØ§ÙĦÙħØªÙĪØ³Ø·": 6493,
      "ĠÙħØ³Ø£ÙĦØ©": 6494,
      "ĠØ§ÙĦØªØŃØ±ÙĬØ±": 6495,
      "Ø¹Ø¬": 6496,
      "ģØ§Ø±Ø©": 6497,
      "ÙĦØ§ØªØŃØ§Ø¯": 6498,
      "ģÙĤØ§": 6499,
      "ĠØ§ÙĦØ£ØºÙĦØ¨ÙĬØ©": 6500,
      "ĠØ§ÙĦÙĨÙĤØ¯": 6501,
      "ĠØ£ÙħÙĬØ±": 6502,
      "ÙģØ±Ø¹": 6503,
      "ĠØ¹ÙĨÙĩÙħ": 6504,
      "ĠÙģØ¹Ø§": 6505,
      "ĠØ§ÙĦØªÙģÙĥÙĬØ±": 6506,
      "ĠÙĦÙĦÙĤØ§": 6507,
      "Ø³Ø¹ÙĪØ¯": 6508,
      "ĠÙĤÙĦÙĬÙĦØ§": 6509,
      "Ø³Ø§Ø±": 6510,
      "ĠØ§ÙĦØŃØ§ÙĥÙħ": 6511,
      "ĠÙĬØ´Ø¹Ø±": 6512,
      "ĠØ§ÙĦÙĦØ§Ø¬Ø¦ÙĬÙĨ": 6513,
      "³ÙĪÙĨ": 6514,
      "Ø²Ø§ÙĨ": 6515,
      "ĠØ§ÙĦØ¹ÙĤØ¯": 6516,
      "ĠØ¨ÙĤÙĪØ©": 6517,
      "±ÙĤØ§": 6518,
      "ĠØ§ÙĦØ¹ÙħÙĦØ§Ø¡": 6519,
      "¨ÙĤÙĬÙħØ©": 6520,
      "ĠO": 6521,
      "Ø¨ÙĤÙĬÙħØ©": 6522,
      "ĠØ§ÙĦØ¹ÙħØ§ÙĦ": 6523,
      "¦Ùĥ": 6524,
      "ĠØªØ´ÙĬØ": 6525,
      "ĠØ§ÙĦÙĦÙĪÙĨ": 6526,
      "ĠØ§ÙĦØ³Ø§Ø¯Ø³": 6527,
      "ĠØ¢Ø®Ø±ÙĬÙĨ": 6528,
      "ÙħØ§ÙĦÙĥ": 6529,
      "ĠØ¨ÙĤÙĬÙħØ©": 6530,
      "ĠØ§ÙĦÙħØŃØªÙ": 6531,
      "ĦÙĦØ§Ø": 6532,
      "ªÙĬØ©": 6533,
      "¹Ø±Ø¨ÙĬ": 6534,
      "Ø§ÙĦØ³": 6535,
      "Ùª": 6536,
      "ĠÙĪØ¹Ø±Ø¶": 6537,
      "ĠØ¨ÙĤÙĬØ§Ø¯Ø©": 6538,
      "ĠØ§ÙĦÙĬÙĪÙħÙĬØ©": 6539,
      "ĠØ§ÙĦÙħØªÙĪØ§": 6540,
      "ĠÙĪØªØ±Ø": 6541,
      "Ø±Ø¨Ø·": 6542,
      "ĠØ¹Ø§ÙĦÙħÙ": 6543,
      "Ø£ÙĥØ¯": 6544,
      "am": 6545,
      "¨ÙĪØ³": 6546,
      "®ÙģØ": 6547,
      "ĠÙħÙĨØªØµÙģ": 6548,
      "ĠØ±ØŃÙħ": 6549,
      "ĠÙª": 6550,
      "ĠØ§ÙĦÙĩÙĪØ§Ø¡": 6551,
      "ĠÙħØªØ§Ø¨Ø¹Ø©": 6552,
      "ĠÙĪØ£ÙĬØ¶Ø§": 6553,
      "ĠØ§ÙĦØ·ÙĬØ±Ø§ÙĨ": 6554,
      "¯ÙģØ§Ø¹": 6555,
      "ÙĨÙĪØ¨": 6556,
      "ĠÙħØŃØ¯": 6557,
      "Ø³Ø§ÙĨ": 6558,
      "ĠØ³ÙĬØ§Ø±Ø§Øª": 6559,
      "ĠÙĬØ¯Ø®ÙĦ": 6560,
      "«Ø±": 6561,
      "ĠØ¹ÙħÙĦØ§": 6562,
      "ÙĩÙĬØ¯": 6563,
      "¹Ø¯ÙĬÙĦ": 6564,
      "ħÙĦÙĥØ©": 6565,
      "ĠÙĪÙĬØ´": 6566,
      "·Ùģ": 6567,
      "ĠØ³Ø¹ÙĪØ¯": 6568,
      "ĠØµØ¨Ø§": 6569,
      "ĠØ¬Ø¯": 6570,
      "ĠÙĦÙĦÙģÙ": 6571,
      "ĠØ§ÙĦØ£ÙħØ±Ø§Ø¶": 6572,
      "ÙĨØªØ®Ø§Ø¨Ø§Øª": 6573,
      "ĠØ§ÙĨØªØ®Ø§Ø¨Ø§Øª": 6574,
      "ĠØªÙĪÙģÙĬ": 6575,
      "ĠØ§ÙĦÙħØ³ØªØ®Ø¯Ùħ": 6576,
      "ĠÙĨØ·Ø§ÙĤ": 6577,
      "ĠØ§ÙĦØ¹Ø¯Ø§ÙĦØ©": 6578,
      "ĬØ¨ÙĤÙī": 6579,
      "ĠØ§ÙĦÙħØ¯Ø±Ø¨": 6580,
      "Ø«ÙĬØ±Ø©": 6581,
      "50": 6582,
      "ĠØªÙĦÙĤØ§": 6583,
      "Ø±Ø¬Øª": 6584,
      "ĠØ¨ÙĬØ§": 6585,
      "ĬØ¯ÙĦ": 6586,
      "ĠÙģØ±Ø¹": 6587,
      "ĠÙģØŃØ": 6588,
      "ĦÙĤÙĬÙħ": 6589,
      "ĠØ§ÙĦÙħÙĦÙģ": 6590,
      "ĠÙħÙĪØ¸": 6591,
      "¯Ø±ÙĬØ¨": 6592,
      "ĠÙģØµÙĦ": 6593,
      "ĠØ§ÙĦØ¯Ùĩ": 6594,
      "¨ÙĨ": 6595,
      "ĠØ§ÙĦÙĤØ³Ùħ": 6596,
      "ÙģØ§Ø¡Ø": 6597,
      "¹Ø§ÙĨ": 6598,
      "ĠØ§ÙĦØ·Ø§ÙĦØ¨": 6599,
      "ĠØ§ÙĦÙħØ¹Ø±ÙĪÙģ": 6600,
      "ÙģØ§Ø¡Ø©": 6601,
      "ÙħÙĪÙĩ": 6602,
      "ĠÙĪØ±Ø¦ÙĬØ³": 6603,
      "ĠÙĬØ¨Ø¯Ø£": 6604,
      "ĠÙĨØ³Ø®Ø©": 6605,
      "ĠØªØ¨ÙĦØº": 6606,
      "³ÙĬÙĨØ§": 6607,
      "ĠÙģÙĥØ§ÙĨ": 6608,
      "ĦÙĪÙĬ": 6609,
      "ac": 6610,
      "ÙĬØ¨ÙĤÙī": 6611,
      "ĠØ¯ÙĪØ§": 6612,
      "ĠÙĦÙĦØ²": 6613,
      "¨ÙĥØ§Øª": 6614,
      "ĠØ§ÙĦØ¨ÙĦØ¯Ø§ÙĨ": 6615,
      "ĠØ§ÙĦÙĩØ¬ÙĪÙħ": 6616,
      "ÙĦØŃØ©": 6617,
      "ĠØ§ÙĦÙħØ¯Ø±Ø": 6618,
      "Ġ80": 6619,
      "ĠØ§ÙĦØŃØ³ÙĬÙĨ": 6620,
      "Ġd": 6621,
      "ÙĬØ¯ÙĬ": 6622,
      "ĠØ§ÙĦÙħÙĦÙĥÙĬØ": 6623,
      "ØºØ§Ù": 6624,
      "ĠØ§ÙĦØ¹Øµ": 6625,
      "ĠØ¬Ø±Ùī": 6626,
      "ĠØ¨ØŃØ¶ÙĪØ±": 6627,
      "ĦÙĥÙ": 6628,
      "ĠØ§ÙĦÙħÙĦÙĥÙĬØ©": 6629,
      "³ÙħÙī": 6630,
      "ĠØ³ÙĬØ§Ø³ÙĬ": 6631,
      "ĠØ§ÙĦÙħØ¤ÙħÙĨÙĬÙĨ": 6632,
      "ĠØ¬Ø±Ø§Ø¡": 6633,
      "¯ÙģØ§": 6634,
      "ĠØ§ÙĦØ£ÙĤ": 6635,
      "ĠÙĪØ£ØŃ": 6636,
      "ÙħÙĬÙĩ": 6637,
      "ĠØ§ÙĦØ£Ø¹Ø": 6638,
      "ĠØ§ÙĦØ±Ø¦Ø§": 6639,
      "Ø®Ø±ÙĬÙĨ": 6640,
      "ĠÙħÙģØªÙĪ": 6641,
      "ĠØ£ÙĨÙģØ³ÙĩÙħ": 6642,
      "Ø®ÙħØ": 6643,
      "ĠÙĪÙĦÙĥÙĨÙĩØ§": 6644,
      "ĠØ§ÙĦØ³ÙĪØ±": 6645,
      "³Ø±Ø¹Ø©": 6646,
      "¹ÙĪÙī": 6647,
      "¹ÙħÙĬ": 6648,
      "ĠØ§ÙĦØ³Ø¨Ø§": 6649,
      "ĠØ§ÙĦÙħØ³ØªØ´ÙģÙī": 6650,
      "ĠØ§ÙĦÙĪØ§ÙĤØ¹Ø©": 6651,
      "ĠØ£ØªØ": 6652,
      "Ø±ÙĬØª": 6653,
      "Ø°Ø§Ø¡": 6654,
      "¸Ø¨ÙĬ": 6655,
      "ĠÙĪØ³ÙĪÙģ": 6656,
      "¨Ø±Øª": 6657,
      "ĠØ§ÙĦØ¨ØŃØ±ÙĬØ©": 6658,
      "´ÙĬØ¯": 6659,
      "ĠÙħØ¬Ø§ÙĦØ§Øª": 6660,
      "ĠØ¥Ø³ØªØ": 6661,
      "ĠÙĦÙĦÙĨ": 6662,
      "ĠØ£ÙĦÙħØ§ÙĨÙĬØ§": 6663,
      "ĠÙħÙĪØ¸Ùģ": 6664,
      "ĠÙĪØ§ØªØ": 6665,
      "ĠØ§ÙĦØ«ÙĤØ§ÙģÙĬ": 6666,
      "ĠØ§ÙĦØºØ§Ø²": 6667,
      "ĠØµÙĨØ§": 6668,
      "ĠØ¬ÙĬØ´": 6669,
      "ÙĪÙħØ§": 6670,
      "ĠØ¨Ø§Ø±ÙĬØ³": 6671,
      "²Ø©": 6672,
      "ĠØ§ÙĦÙħØªØŃØ¯Ø«": 6673,
      "ĠØ¨Ø§ÙĦÙħØ¦Ø©": 6674,
      "ÙĨÙĥ": 6675,
      "ØªÙħÙĬØ²": 6676,
      "ĠÙħØ±ØªØ¨Ø": 6677,
      "ĠØªØ²ÙĬØ¯": 6678,
      "ĠÙĤÙĦÙĬÙĦØ©": 6679,
      "ĠÙģØ¹ÙĦØ§": 6680,
      "Ø§ÙĦØªØ": 6681,
      "ĠÙħØ´ØªØ": 6682,
      "ĬØ«": 6683,
      "ĠØ§ÙĦØ¹ÙħÙĪ": 6684,
      "ĠÙĪØ§ÙĦØªØ£": 6685,
      "Ø¢Ø": 6686,
      "ØªÙħÙĦÙĥ": 6687,
      "ÙĨØ¯Ø©": 6688,
      "ĠØ¨Ø§ÙĤÙĬ": 6689,
      "ÙĪØ§Ø±ÙĬØ®": 6690,
      "Ø¨Ø§ÙħØ§": 6691,
      "ĠÙĬØ¹ØªÙĤØ¯": 6692,
      "ĠØ§ÙĦÙħØ®ØªØ": 6693,
      "Ġs": 6694,
      "²Ø²": 6695,
      "ĠÙħØ¬Ùĩ": 6696,
      "ĦØ¹Ø§Ùħ": 6697,
      "ĠØ£Ø±Ø¨Ø¹": 6698,
      "ĠØ§ÙĦØ£Ø·Ø¨Ø§Ø¡": 6699,
      "ĠÙĪØ§ÙĦÙħØ³Ø§": 6700,
      "ØŃØ¨Ùĩ": 6701,
      "·ÙĤ": 6702,
      "ĠØ§ÙĦØ¥ÙĬØ·Ø§": 6703,
      "ĠØ¨Ø§ÙĦÙħÙĨØ": 6704,
      "³ØŃØ¨": 6705,
      "ĠØ§ÙĦØ·ÙĦØ¨Ø©": 6706,
      "ĠØ§ÙĦÙĬÙĩÙĪØ¯": 6707,
      "Ø¬Ø§ÙĨØ¨": 6708,
      "ĠØªØ®Øµ": 6709,
      "ĠØªØ¬ÙħØ": 6710,
      "ĠØ§ÙĦØ¥ÙĬÙħØ§ÙĨ": 6711,
      "ĬÙĤØ§ÙĦ": 6712,
      "Ø¯Ø¯Ø©": 6713,
      "Ġ2020": 6714,
      "·ÙĪØ±": 6715,
      "ĠÙħÙĪØ¶ØŃØ§": 6716,
      "Ø²ÙĬØª": 6717,
      "Ø·ÙĦØ§": 6718,
      "ØŃØªÙĩ": 6719,
      "Ø¯ÙĪØ±Ø©": 6720,
      "ĠØ®ÙĬØ§Ø±Ø§Øª": 6721,
      "ĠØ§ÙĦØ¹ØµØ±": 6722,
      "ĠØ§ÙĦØ§Ø¬": 6723,
      "ĠØ§ÙĦÙĦØŃØ": 6724,
      "ĠÙĬØ®Ø±Ø¬": 6725,
      "ĠÙħØ³ØªÙ": 6726,
      "30": 6727,
      "µÙģØŃ": 6728,
      "ĠØ§ÙĦØ¹Ø¶": 6729,
      "ĠØ±ÙĪØ§ÙĬ": 6730,
      "ĠÙħÙĦØ¹Ø¨": 6731,
      "ĠØ§ÙĦÙĥÙĬ": 6732,
      "ĠÙħØŃØ·Ø©": 6733,
      "ĦÙĪØ³": 6734,
      "Ø¯Ø¹ÙĪØ©": 6735,
      "Ø¬ÙĬØ§": 6736,
      "Ø®ÙĬÙħ": 6737,
      "ĠØ¨ØªÙĪÙĤÙĬØª": 6738,
      "ĠØªØ´ØºÙĬÙĦ": 6739,
      "ĬÙĤØ¯": 6740,
      "ĠÙĨØªÙ": 6741,
      "ÙĥØ±Ø§": 6742,
      "³Ø¯": 6743,
      "ĠØ£ØŃÙĬØ§ÙĨØ§": 6744,
      "ĠØ¨Ø³ÙĩÙĪÙĦØ©": 6745,
      "ĠØ§ÙĦØ±Ø£Ø": 6746,
      "Ġ2008": 6747,
      "ĠØ§ÙĦØ¯Ø§Ø®ÙĦÙĬ": 6748,
      "ĠÙĪØ¸Ø§ÙĬÙģ": 6749,
      "ÙĬÙĤØ§ÙĦ": 6750,
      "ĠØ¨ÙģØ¶ÙĦ": 6751,
      "ĠØ¹Ø¨Ø": 6752,
      "ĠØ¯ÙĪØ±Ø§": 6753,
      "ĠØ£ØŃØ¯Ø§Ø«": 6754,
      "ĠÙĦÙĦØ³ÙĬØ§": 6755,
      "Ø§ÙĨÙĬØ©": 6756,
      "³ÙħØ¨Ø±": 6757,
      "¹ÙħÙĪ": 6758,
      "ĠØ§ÙĦØ¬ÙĦØ³Ø©": 6759,
      "Ø¹ÙĦÙĬ": 6760,
      "ĦØ¹Ø§": 6761,
      "ØµÙĩ": 6762,
      "Ø¹Ø·Ø§Ø¡": 6763,
      "±ÙħØ": 6764,
      "ĠØ¢Ø": 6765,
      "ĠÙĨÙĪØ±": 6766,
      "ÙĬÙĤØ¯": 6767,
      "ĠÙĬØ¨ÙĤÙī": 6768,
      "®ØµÙĪØµ": 6769,
      "Ø¨Ø¯Ø§Ø¹": 6770,
      "ĠØ§ÙĦØŃØ³Ø§": 6771,
      "ĠØ§ÙĦØ±Ø£Ø³": 6772,
      "ĠÙĪÙħØ³Ø§": 6773,
      "ÙĪÙĦØ¦Ùĥ": 6774,
      "ĠÙħØ·Ø§Ø±": 6775,
      "°Ø©": 6776,
      "ĠØ§ÙĦØ¨ÙĨÙĪÙĥ": 6777,
      "Ø±ØŃÙĬØ": 6778,
      "ĠÙĬÙĤØ¯": 6779,
      "ĠØŃØ¶": 6780,
      "ÙĦØªÙĥ": 6781,
      "ĠÙĥÙĦØ§Ùħ": 6782,
      "ĠÙģÙĪØ±": 6783,
      "ĠØ§ÙĦÙĤÙĪØ§ÙĨÙĬÙĨ": 6784,
      "ÙĦØ¨Ù": 6785,
      "ĠØ§ÙĦÙħØ±ÙĬØ¶": 6786,
      "ĠØªØ§Ø¨Ø¹": 6787,
      "ĠÙĪØ®Øµ": 6788,
      "ĠØ¨Ø±Ø´ÙĦÙĪÙĨØ©": 6789,
      "¶ØŃ": 6790,
      "Ø±Ø²ÙĤ": 6791,
      "³ÙĥØ§": 6792,
      "²Ø§ÙĬØ": 6793,
      "ĠØ§ÙĦÙħØºØ±Ø¨ÙĬØ©": 6794,
      "ĠÙħØ¬Ø§ÙĨØ§": 6795,
      "ĠÙĨÙĤÙ": 6796,
      "ĠØ´ÙĩØ¯Øª": 6797,
      "ĠØ§Ø³ØªØ®": 6798,
      "ÙĬØ«": 6799,
      "Ø¸ÙĬÙģ": 6800,
      "Ġ36": 6801,
      "ĠÙĪØµØ§": 6802,
      "ĠØ°ÙĪ": 6803,
      "ĠØ§Ø¨ÙĪ": 6804,
      "ĠØ§ÙĦØ´Ø§Ø¨": 6805,
      "ĠV": 6806,
      "ĠÙĨØ¸Ø§": 6807,
      "ĠØªØ¨Ø§": 6808,
      "ĠØ´Ø¨Ùĩ": 6809,
      "ĠØ¨Ø¹ÙĬØ¯": 6810,
      "ĠØŃØ±": 6811,
      "Ø±Ø¬ØŃ": 6812,
      "ĠØ¶Ø¹Ùģ": 6813,
      "ĠØ§ØŃØªØ¬Ø§": 6814,
      "²Ø§ÙĬØ¯": 6815,
      "ģØ´ÙĦ": 6816,
      "ĠØ²ÙĬ": 6817,
      "Ø³Ø¨ÙĪÙĥ": 6818,
      "ĠØ§ÙĦØŃÙħÙĦ": 6819,
      "ØªÙĤÙĦ": 6820,
      "ĠÙħØ¤Ø³Ø³Ø§Øª": 6821,
      "ĠØ§ÙĦØ¥Ø¯Ø§Ø±ÙĬØ©": 6822,
      "ĠÙĤØ±ÙĬØ¨Ø§": 6823,
      "ĠÙĩÙĥØ°Ø§": 6824,
      "Ø³Ø¹Ø©": 6825,
      "ĠØ¯ÙĬØ³ÙħØ¨Ø±": 6826,
      "¶Ø§Ø¹": 6827,
      "ĠØ´ÙĪ": 6828,
      "Ø±ÙĪØ±ÙĬ": 6829,
      "ªØŃÙ": 6830,
      "ĠØ§ÙĦØ§ÙħØ±ÙĬ": 6831,
      "ĠØ§ÙĦÙĥØ±Ø": 6832,
      "ĠØ³Ø¤Ø§ÙĦ": 6833,
      "ÙħÙħÙ": 6834,
      "ĠØ§ÙĦØ´Ø¤ÙĪÙĨ": 6835,
      "ÙĦØ¹Ø§Ùħ": 6836,
      "ĠÙĦÙĦÙħÙĪ": 6837,
      "ĠÙĬØªÙĥ": 6838,
      "ĨÙģØ³": 6839,
      "Ġ2009": 6840,
      "ĠÙĪØ¥ÙĦÙī": 6841,
      "²Ø§Ø¹": 6842,
      "ĠØ§ÙĦØªØ´Ø±ÙĬ": 6843,
      "ĠÙĦÙħÙĪØ§Ø¬ÙĩØ©": 6844,
      "ĠÙĦØ¨Ø¹Ø¶": 6845,
      "ĠØªØŃØ¯ÙĬ": 6846,
      "ĠØªÙĤÙĦ": 6847,
      "ĠØ§ÙĦÙħØ¶Ø§": 6848,
      "ĠØ§ÙĦØ§Ø®Ø¨Ø§Ø±": 6849,
      "ĠÙĬØªØŃØ¯Ø«": 6850,
      "Ø¹Ø±Ø¨ÙĬ": 6851,
      "ĠØ£ÙħÙĬÙĨ": 6852,
      "ÙĤÙĦØ§Ø¨": 6853,
      "Ø®ÙħØ©": 6854,
      "ĠÙħØ¯ÙĨ": 6855,
      "ĦØ±": 6856,
      "ÙĦÙĦØ§Ø": 6857,
      "ÙħÙĬØ±Ø§": 6858,
      "ĠÙĦØºØ©": 6859,
      "ĠØ¨ÙħÙĨØ·ÙĤØ©": 6860,
      "ĠØªØ¬Ø§ÙĪØ²": 6861,
      "ĠÙĪØ§ÙĤØ¹": 6862,
      "ou": 6863,
      "ĠÙĦØªÙĨØ": 6864,
      "ĠØ§ÙĦØ²ÙĬØ": 6865,
      "ÙĨØ³Ø§ÙĨÙĬ": 6866,
      "ĠØ§ÙĦØ³ÙĬØ³ÙĬ": 6867,
      "ĠÙĪÙħÙĨØ§": 6868,
      "ĠØ§ÙĦØŃØ±ÙħÙĬÙĨ": 6869,
      "ĠØ¹Ø±Ùģ": 6870,
      "ĠÙģØ¹Ø§ÙĦÙĬØ§Øª": 6871,
      "ĠØ£ØºØ³Ø·Ø³": 6872,
      "ĠØ§ÙĦØ§Ø³Ø±Ø§Ø¦ÙĬÙ": 6873,
      "ĠØ¨Øª": 6874,
      "ĠÙĤØªÙ": 6875,
      "Ø³ØªÙĤØ¨ÙĦ": 6876,
      "ĠØ¹Ø±Ø¨ÙĬ": 6877,
      "ĠÙĤØ§Ø¯Ø±": 6878,
      "ĠØ³ØªØ§": 6879,
      "ĠØ§ÙĦÙĨØ³Ø®Ø©": 6880,
      "ĠØ§ÙĦÙģÙĦØ§": 6881,
      "ÙĤÙĬØ¨": 6882,
      "ĠØ¯Ø¹ÙĪØ©": 6883,
      "ĠÙĬØ¤ÙĥØ¯": 6884,
      "ĠØ£Ø±Ø§Ø¯": 6885,
      "ĠØªÙħÙĦÙĥ": 6886,
      "ĠØ§ÙĦØ±Ø¨": 6887,
      "ÙĤÙĦÙĬØ©": 6888,
      "ĠÙĥØªØ§Ø¨Ø©": 6889,
      "ĠÙĦÙĦØ§Ø": 6890,
      "³Ø±Ø§": 6891,
      "ĠÙĦÙĨØ¯ÙĨ": 6892,
      "ĠØ§ÙĦÙħØ³Ø¤ÙĪÙĦÙĬØ©": 6893,
      "ĠØ§ÙĦØ§Ø³ØªÙģØ§Ø¯Ø©": 6894,
      "ĠØ¨Ø§ÙĦØº": 6895,
      "ĠÙĦÙĦÙħØ³ØªØ": 6896,
      "ĠØŃÙģØ¸": 6897,
      "ĩØ¨": 6898,
      "³ÙĪØ¡": 6899,
      "ĠØµØ¯ÙĬ": 6900,
      "ĠØ§ÙĦØªØ±ÙĥÙĬØ²": 6901,
      "ĠØ£Ø¨Ø±ÙĬÙĦ": 6902,
      "ĠÙĪØ³Ø": 6903,
      "ĠØ§ÙĦØ³ÙĬØ§ÙĤ": 6904,
      "Ø¹ÙħÙĪ": 6905,
      "ĠÙĪØ¹ÙĦØ§": 6906,
      "¨ÙĪØ¸Ø¨ÙĬ": 6907,
      "ĠÙĦÙĦØ£Ø": 6908,
      "ÙģØ®": 6909,
      "ĠØºÙĬØ±ÙĩØ§": 6910,
      "Ø³ÙĬÙĨØ§": 6911,
      "ĠØ³ÙĦÙĬÙħ": 6912,
      "ĠØ§ÙĦÙħØºØ±Ø¨ÙĬ": 6913,
      "et": 6914,
      "ĠØ§ÙĦØ®Ø§ÙħØ³Ø©": 6915,
      "Ø³ÙĬÙĨ": 6916,
      "ĠÙħØ³Ø§Ø¹Ø¯": 6917,
      "ĠØ§ÙĦÙĪØ±": 6918,
      "ĠØ¯ÙĪØ±Ø©": 6919,
      "ĠØ§ÙĦÙģÙĨØ¯ÙĤ": 6920,
      "Ø¬Ø³": 6921,
      "ÙĩÙĬÙĦ": 6922,
      "ĠØ¬Ø²Ø¡Ø§": 6923,
      "ĠØ§ÙĦÙĨØ¬Ùħ": 6924,
      "ĠÙħÙĨØµÙĪØ±": 6925,
      "ĠØ£Ø´Ø®Ø§Øµ": 6926,
      "ĠØªØ´ÙĬØ±": 6927,
      "ĠØ±ÙĪØŃ": 6928,
      "®ÙĬØ": 6929,
      "ĠÙĪÙĦÙħØ§": 6930,
      "ĠÙħÙĨÙĩÙħØ§": 6931,
      "±ÙĥØª": 6932,
      "ĠØ§ÙĦØªØ±Ø¨": 6933,
      "ÙĨÙĪÙĨÙĬ": 6934,
      "Ø³ØªØ§ÙĨ": 6935,
      "ĠØ®Ø·Ø£": 6936,
      "¨ÙĬÙĨØ§": 6937,
      "ĠØ¹Ø¸ÙĬÙħ": 6938,
      "³ÙĪØ±Ø©": 6939,
      "Ø¯Ø¹ÙĪ": 6940,
      "ĠØ³Ø¨Ø§": 6941,
      "ĠÙĦØ³ÙĨØ©": 6942,
      "ĠÙĪÙĥÙĬÙĦ": 6943,
      "ĠØªØ§Ùħ": 6944,
      "ĠÙĬÙĤØ§ÙĦ": 6945,
      "ÙĬÙħØ§": 6946,
      "ĠØ§ÙĦØ¹Ø§ÙħÙĦØ©": 6947,
      "Ø±Ø³Ø§Øª": 6948,
      "ĠØ§ÙĦÙħÙĨØªØ¬": 6949,
      "³ØªÙĩØ¯Ùģ": 6950,
      "ÙģØ²": 6951,
      "ªÙĤØ¯ÙħØ": 6952,
      "ĠØ§ÙĦØºÙĬØ": 6953,
      "Ø¯Ø®Ù": 6954,
      "ĠØ§ÙĦØ¢ÙĬØ": 6955,
      "ĠÙĨØ§Ù": 6956,
      "ĠØ§ÙĦØ¨Øµ": 6957,
      "Ø·Ø§ÙĦØ¨Ø©": 6958,
      "ĠØ¨ÙĬØ±ÙĪØª": 6959,
      "ĠØªÙĪØ²ÙĬØ¹": 6960,
      "ĠÙĦØ¹Ø§Ùħ": 6961,
      "ĠØ§ÙĦÙĤØ¨Ø¶": 6962,
      "Ø¹ÙĦÙĪÙħØ§Øª": 6963,
      "µÙĬØ¨": 6964,
      "ĠÙĪØ¬Ø¯Øª": 6965,
      "ØµØ§Ø¨Ø§Øª": 6966,
      "ĠØ¯Ø±Ø¬Ø§Øª": 6967,
      "ĠØ§ÙĦØ¹ÙĬØ": 6968,
      "ĠÙĨØ¬Ùħ": 6969,
      "ĠØ§ÙĦÙĨØ§Ø´": 6970,
      "ĠØ¹Ø´Ø±Ø§Øª": 6971,
      "ĠØºØ¯Ø§": 6972,
      "ÙĦÙĥÙ": 6973,
      "ĠÙĬØ«": 6974,
      "ĠÙĥÙĦÙħ": 6975,
      "ĠØ¬ÙĨØ§": 6976,
      "ĠØªØ¹ØªÙħØ¯": 6977,
      "ĠØ§ÙĦØªØ§ÙĦÙĬØ©": 6978,
      "ĠØ³ÙĬÙĨØ§": 6979,
      "ĠØ§ÙĦØ£Ø±Ø¯ÙĨÙĬØ©": 6980,
      "ĠØ²ÙĪØ¬ÙĩØ§": 6981,
      "ĠÙħØ³Ø§Ø¹Ø¯Ø©": 6982,
      "ĠØ¨Ø§ÙĦØ°ÙĥØ±": 6983,
      "Ø±ÙĨÙĬ": 6984,
      "ĠØ¸Ø±ÙĪÙģ": 6985,
      "³ÙħÙĬ": 6986,
      "ĠØ§ÙĦÙħØ±ÙĥØ²ÙĬØ©": 6987,
      "ÙĪØªØ§Ø¨Ø¹": 6988,
      "Ġt": 6989,
      "ĠØªØ¤Ø¯ÙĬ": 6990,
      "Ø¨Ø±ÙĨØ§": 6991,
      "ĦØ¯Ø¹Ùħ": 6992,
      "ØŃÙģÙĬÙĬÙĨ": 6993,
      "ĠØ§ÙĦØ·Ø§Ø¦Ø±Ø©": 6994,
      "ĠØ§ÙĦÙħØ®Ø§Ø·Ø±": 6995,
      "ĠØ§ÙĦÙĥÙĦÙĬØ©": 6996,
      "ĠØªØŃÙĪÙĦ": 6997,
      "ĠÙħØªÙī": 6998,
      "ĠØ¹ÙĦÙħØ§Ø¡": 6999,
      "ĠÙĦÙĦØ¯": 7000,
      "ĠØ£ØŃÙĥØ§Ùħ": 7001,
      "ĠØ§ÙĦÙħÙĪØ¸ÙģÙĬÙĨ": 7002,
      "ĩØ¯ÙĬØ¯": 7003,
      "ĠØ§ÙĦÙħØµØ±Ùī": 7004,
      "ĠÙĪÙĬØ¬Ø¨": 7005,
      "ĠØ¶ØºØ·": 7006,
      "Ø³ÙĪØ¡": 7007,
      "ĠØ¥Ø¯": 7008,
      "³ØªÙĩ": 7009,
      "ĠÙĨØ´Ø§Ø·": 7010,
      "Ø¬Ø§Ù": 7011,
      "ot": 7012,
      "ĠÙĪØ§ÙĦÙħÙĨØ§": 7013,
      "Ø·ÙĬØ±": 7014,
      "ĠØ¶Ø¹": 7015,
      "ĠØªÙĪØ§Ø¬Ùĩ": 7016,
      "Ø®Ø¨Ø§Ø±": 7017,
      "ĠØªØ¬Ø¹ÙĦ": 7018,
      "ĠØŃØªÙĬ": 7019,
      "Ø±ÙĬÙĥØ§": 7020,
      "ĠØªØ³Ø¹Ùī": 7021,
      "Ġ90": 7022,
      "ÙĪØ¨ÙĬÙĨ": 7023,
      "ĠØ§ÙĦÙħÙĨØ§ÙģØ³Ø©": 7024,
      "ĠØ°ÙĬ": 7025,
      "Ø±Ø¬ÙĪ": 7026,
      "Ø´Ø§Ø±Ø§Øª": 7027,
      "Ġ194": 7028,
      "ģØ±Ø§Ø¯": 7029,
      "ĠØ£Ø«Ø±": 7030,
      "ÙģÙĦØ§Øª": 7031,
      "ÙĦØ¯Ø¹Ùħ": 7032,
      "ĠØ§ÙĦÙĬØ¯": 7033,
      "ĠØ§ÙĦÙģÙĥØ±": 7034,
      "ĠØ§ÙĦØ¯Ø§Ø®ÙĦ": 7035,
      "ĠØ³ÙĨÙĪÙĬØ§": 7036,
      "ĠØ§ÙĦØŃÙħØ": 7037,
      "ĠØ§ÙĦØ£ØŃÙĬØ§ÙĨ": 7038,
      "°Ùģ": 7039,
      "ĩÙħÙĬØ©": 7040,
      "ØªØ±ÙĬ": 7041,
      "ĠÙĬØªØ·ÙĦØ¨": 7042,
      "Ø±Ø§Ø¹Ø©": 7043,
      "ĠØ§ÙĦØ£Ø³Ø¨Ø§Ø¨": 7044,
      "ĠØ¥Ø¹Ø¯Ø§Ø¯": 7045,
      "ĠØ§ÙĦÙħØ¦Ø©": 7046,
      "ĠØªØºÙĬØ±": 7047,
      "ĠØ§ÙĦØ¥ÙĬØ±Ø§ÙĨÙĬØ©": 7048,
      "ĠØ±Ø£Ùī": 7049,
      "ĠØ¨Ø¹ÙħÙĦ": 7050,
      "ªÙĪÙī": 7051,
      "ĠØ§ÙĦØ¨Ø±ÙĬØ¯": 7052,
      "Ø¢Øª": 7053,
      "Ø¨ÙĬØ¹Ø§Øª": 7054,
      "ºÙĬØ±Ø§Øª": 7055,
      "ĠØ§ÙĦØ´ÙĬØ¡": 7056,
      "ĠØªØµØ¨ØŃ": 7057,
      "Ø¬ÙĬØ§Øª": 7058,
      "ĠØ§ÙĦØ§ÙĦØªØ": 7059,
      "¬Ø§Ø¨Ø©": 7060,
      "ĠØ§ÙĦÙģÙĤ": 7061,
      "ĠØ§ÙĨØ´": 7062,
      "ĩØ§Ø¨": 7063,
      "Ø¹ØªÙĤÙĦ": 7064,
      "ĠØ¹ÙĦ": 7065,
      "ĠØ§ÙĦÙħØ¹Ø±Ø¶": 7066,
      "Ø®ØµØµØ©": 7067,
      "´Ø±Ø§Øª": 7068,
      "ÙĬÙĬØ¯": 7069,
      "ĠØ·Ø¨ÙĬØ¹Ø©": 7070,
      "ÙĬØ§Ø³": 7071,
      "·ÙĦØ¹": 7072,
      "ĠØ§ÙĦÙĤØµ": 7073,
      "Ø²ÙĪ": 7074,
      "Ø±ÙģØ": 7075,
      "Ø¨Ø±Ø¬": 7076,
      "ĠÙĪØ¬Ù": 7077,
      "ĠØ§ØªÙģØ§ÙĤÙĬØ©": 7078,
      "ĠØªØ´Ø±ÙĬÙĨ": 7079,
      "ÙĤØ§ÙĦØ©": 7080,
      "ĠØ¥ØŃØ": 7081,
      "ĠØ§ÙĦØªØ§Ø¨Ø¹": 7082,
      "ĠØ§ÙĦÙĤÙĬÙħØ©": 7083,
      "ĠØ§ÙĦØ£ÙĪØ¶Ø§Ø¹": 7084,
      "ĠØªØªØ¶ÙħÙĨ": 7085,
      "ĠØ§ÙĦØ¨Ø±ÙĪ": 7086,
      "ģÙĨØ¯ÙĤ": 7087,
      "ĠÙģØ®": 7088,
      "ĠØ¹Ø§Ø¯": 7089,
      "Ø¨Ø§Ø±ÙĬØ©": 7090,
      "ĠØ§ÙĦÙħÙģØ§ÙĪØ¶Ø§Øª": 7091,
      "ĠØ§ÙĦØ¹ÙĤÙĪØ¨Ø§Øª": 7092,
      "ªÙĥÙħ": 7093,
      "ĠØµØ¯": 7094,
      "ĠÙĦØ¯Ø¹Ùħ": 7095,
      "ÙĬÙĩØ§Øª": 7096,
      "ĠØ§ÙĦØ±Ùĥ": 7097,
      "ĠØ§ÙĦØ¨ÙĬØ¹": 7098,
      "ĠØ§ÙĦØ§ÙĨØªÙĤØ§": 7099,
      "ĠØ§ÙĦØ®ÙĬØ§Ø±": 7100,
      "ĠØ§ÙĦÙĨØªÙĬØ¬Ø©": 7101,
      "Ø¬ÙĩÙĩ": 7102,
      "ĠÙĪÙħØŃÙħØ¯": 7103,
      "ĠØ§ÙĦØ§Ø³ÙĦØ§ÙħÙĬØ©": 7104,
      "ĠØ¶ÙĪØ¡": 7105,
      "ģØ§Ø¯": 7106,
      "ĠÙĨØ´Ø§": 7107,
      "Ø±Ø§Ø¦Ø¨": 7108,
      "ĠØ§ÙĦØ«Ø§ÙĨÙĪÙĬØ©": 7109,
      "ĠØ§ÙĦÙĤØ±Ø§Ø±Ø§Øª": 7110,
      "Ø±Ø¶Ùī": 7111,
      "ĠØ§ÙĦØ±ÙĬØ§Ø¶Ø©": 7112,
      "ĠØªØ¬ÙħØ¹": 7113,
      "ÙĬÙĨÙĩ": 7114,
      "ĠÙĦÙĦØªÙĪ": 7115,
      "³ÙĬØ·": 7116,
      "Ø±ÙĬØ±ÙĬ": 7117,
      "ĠÙĬØ¹Ø§ÙĨÙĬ": 7118,
      "ĠØ§ÙĦØ³Ø§Ø¨Ø¹": 7119,
      "ĠØµØ±Ùģ": 7120,
      "ĠØ§Ø³Ø±Ø§Ø¦ÙĬÙĦ": 7121,
      "ĠØ³ÙĪØ¡": 7122,
      "ĠØµÙĬ": 7123,
      "ĠØ§ÙĦØ¥Ø¹ÙĦØ§ÙħÙĬ": 7124,
      "Ø¯Ø«Ø©": 7125,
      "ĠÙģÙĩØ¯": 7126,
      "ĠØ§ÙĦÙĩØ§Ùħ": 7127,
      "ĠÙħØªÙĨÙĪØ¹Ø©": 7128,
      "ĠÙħØ¹Ø§ÙĦØ¬Ø©": 7129,
      "±ÙĬØ§Ø¶": 7130,
      "ĠØ§ÙĦÙħØ³ØªÙĪ": 7131,
      "ĠØ§ÙĦÙĬÙħÙĨÙĬØ©": 7132,
      "ĠÙĪØ§ÙĦØ¨Ø§": 7133,
      "ÙģÙĬÙģØ©": 7134,
      "ĠØ±ØŃÙĦØ©": 7135,
      "ÙĬÙħÙĨ": 7136,
      "ad": 7137,
      "ĦÙĬØ´ÙĬØ§Øª": 7138,
      "Ø³ÙĦØ§": 7139,
      "ĠÙĦØŃØ¸Ø©": 7140,
      "ĠØ¨ÙħØŃØ§ÙģØ¸Ø©": 7141,
      "ĠÙĪØ§ÙĦØªÙī": 7142,
      "ĠØ§ÙĦØ³ÙĦØ§ØŃ": 7143,
      "ĠØªØ¹Ø¯ÙĬÙĦ": 7144,
      "ĠØ¨ÙĨÙģØ³": 7145,
      "Ġ195": 7146,
      "ĠÙĦÙħØ¹Ø§": 7147,
      "Ø²Ø§ÙĨÙĬØ©": 7148,
      "ĠØ±ÙģØ": 7149,
      "ĠØ§ÙĦØ§ÙĨÙģ": 7150,
      "ĠØ§ÙĦÙħØ£": 7151,
      "Ø¨ÙĤÙĬØ©": 7152,
      "Ø±Ø¬Ùī": 7153,
      "ĠØŃÙĤÙĬÙĤÙĬØ©": 7154,
      "ĠØ§ÙĦØ§ÙĪ": 7155,
      "ĠØ®ÙĦÙĬÙģØ©": 7156,
      "ģØ§Ø±ÙĤ": 7157,
      "ĠØ§ÙĦØ´Ø¹ÙĪØ¨": 7158,
      "ĠØŃØ±ÙĬØ©": 7159,
      "ĠÙĨØ¹Ù": 7160,
      "Ø³Ø¹ÙĪ": 7161,
      "Ø³Ø±Ø¹Ø©": 7162,
      "ĠÙĨÙĪØ§": 7163,
      "ĠÙĬØ·ÙĦØ¨": 7164,
      "ĠØ§ÙĦÙĦØ¹Ø¨": 7165,
      "ĠØ§ÙĦØªÙģØ§ØµÙĬÙĦ": 7166,
      "ĠØ¹ÙħÙĪ": 7167,
      "ĠØŃØ¶ÙĪØ±": 7168,
      "ÙĬØ¯ÙĦ": 7169,
      "ØªÙĩÙħØ§": 7170,
      "ĦÙĪÙĦØ§ÙĬØ§Øª": 7171,
      "ĠØ°ÙĩØ¨": 7172,
      "ģØ´": 7173,
      "ĠØ¬Ø§Ùĩ": 7174,
      "ĦÙĬÙĪÙħ": 7175,
      "ĠØ³Ùĩ": 7176,
      "ªÙĤØ¯ÙħØ©": 7177,
      "ĠØ§ÙĦØ£ÙĩØ¯Ø§Ùģ": 7178,
      "ĠÙĦØ¹Ø¯Ùħ": 7179,
      "ĠØ§ÙĦÙħØ³ØªØ´Ø§Ø±": 7180,
      "ĠØ£Ø´Ø§Ø±": 7181,
      "µØ§Øª": 7182,
      "ĠÙĦØ³Ù": 7183,
      "ĠØ¨ÙĤÙĬØ©": 7184,
      "ĠÙĦØªØ¹Ø": 7185,
      "ĠØŃÙĦÙĪÙĦ": 7186,
      "ĠØ³Ø¹ÙĪ": 7187,
      "ÙĤØ§ÙħØª": 7188,
      "ÙĤÙĬÙĤØ§Øª": 7189,
      "ØµÙĬØµ": 7190,
      "ĠØ§ÙĦØ¬ÙĪØ¯Ø©": 7191,
      "Ġm": 7192,
      "ĠØ§ÙĦÙĨØ¸": 7193,
      "ØªÙģÙĤ": 7194,
      "ĠØ¨ØªØµ": 7195,
      "ĠØ§ÙĦÙħØ¹ØªØ": 7196,
      "¬Ø§Ø²Ø§Øª": 7197,
      "ĠÙĪÙĬÙĤÙĪÙĦ": 7198,
      "ØŃØ§Ø¯ÙĬ": 7199,
      "ÙĬÙĪÙĬÙĪ": 7200,
      "ĠÙĤÙĦÙĬÙĦ": 7201,
      "ĠØªØŃÙĪÙĬÙĦ": 7202,
      "ĨØ§Ø³": 7203,
      "ĠØ§ÙĦØ³ÙĪÙĬØ³": 7204,
      "ĠÙħØ´Ø§Ø±Ùĥ": 7205,
      "¯Ø±ÙĩÙħ": 7206,
      "ĠØ¨Ø§ÙĦØ¹Ø": 7207,
      "ĠØªÙĩØ¯Ùģ": 7208,
      "ĠÙħØªÙĪ": 7209,
      "ĠÙĨØ§ØµØ±": 7210,
      "ĠÙĦÙĦØªØ£": 7211,
      "³Ø£ÙĦ": 7212,
      "ĠØ³Ø±Ø¹Ø©": 7213,
      "ĠØ§ÙĦÙħÙĦÙģØ§Øª": 7214,
      "¨ØŃØ³Ø¨": 7215,
      "ĠØ§ÙĦØ±ÙĪØŃ": 7216,
      "ĠØ´Ø§Ù": 7217,
      "ĠØ§ÙĦÙĦØº": 7218,
      "ĠØ¥Ø¬ÙħØ§ÙĦÙĬ": 7219,
      "ĠØ§Ø¶Ø·": 7220,
      "ĠØ§ÙĦÙħØ³ÙĦÙħ": 7221,
      "´ÙĥÙĦ": 7222,
      "ĠØ§ÙĦØ£Ø¯Ø§Ø¡": 7223,
      "ĠÙĦÙĬÙĥÙĪÙĨ": 7224,
      "ĠØ§ÙĦØ¹ÙĨØ§ØµØ±": 7225,
      "ĦØ³Ø§ÙĨ": 7226,
      "ĠØ¢Ø³ÙĬØ§": 7227,
      "Ø¬Ø±ÙĬÙĨ": 7228,
      "Ø«Ø§Ø¨Ø©": 7229,
      "ĠØ±ÙĪØ§Ùĩ": 7230,
      "ĠØ·ÙĪÙĬÙĦ": 7231,
      "ĠØ¨ØªØ§Ø±ÙĬØ®": 7232,
      "ĠØ§ÙĦÙħØŃØ§ÙģØ¸Ø§Øª": 7233,
      "ĠÙĬØ¯ÙĦ": 7234,
      "ĠÙĪØ§ÙĦØ®Ø§": 7235,
      "³Ø±Ø©": 7236,
      "ĠØ§ÙĦØ³Ø¹Ø±": 7237,
      "ĠÙħÙĦÙĬØ§": 7238,
      "ØŃØ§Ø±": 7239,
      "is": 7240,
      "ĠØ§ÙĦÙĪØŃÙĬ": 7241,
      "ĠØ§ÙĦØŃÙĤØ§Ø¦ÙĤ": 7242,
      "ĠÙĪØ¨Ø¹Ø": 7243,
      "ĠØ§ÙĦÙĬÙħÙĨÙĬ": 7244,
      "Ø¯ÙĬØ±ÙĬØ©": 7245,
      "ĠÙĪØ³ÙĬÙĦØ©": 7246,
      "ĠØ§ÙĦØ¥Ø´": 7247,
      "ĠØ§ÙĦØ³ÙħØ§": 7248,
      "ĠØ§ÙĦÙħØ·ÙĦÙĪØ¨Ø©": 7249,
      "ÙħÙĨÙĩØ§": 7250,
      "ĠØ³ÙĦØ§ÙħØ": 7251,
      "ĠØ§ÙĦØ³ÙģÙĬØ±": 7252,
      "ÙħØŃ": 7253,
      "ĠØ£ÙĪÙĦÙī": 7254,
      "ĠØ¨ÙĥØ«ÙĬØ±": 7255,
      "ĠØ§ÙĦØ°ÙĥÙĬØ©": 7256,
      "ĠØ³ÙĦØ§ÙħØ©": 7257,
      "ĠÙĪÙĬÙĪ": 7258,
      "ĠØ§ÙĦØ§ÙĤØª": 7259,
      "Ø³ÙĬØ¹": 7260,
      "Ø«Ø§Ø«": 7261,
      "¶ÙĬÙģ": 7262,
      "Ø±Ø¨Ùĩ": 7263,
      "ĠØ§ÙĦØ£ØŃØ²Ø§Ø¨": 7264,
      "ÙĤÙĦØ§": 7265,
      "ĠØ§ÙĦÙĨØ´Ø§Ø·": 7266,
      "ºØ¨Ø©": 7267,
      "ÙĬÙĪØ³": 7268,
      "ĠØ¥ÙĤÙĦÙĬÙħ": 7269,
      "ØªØµØ§Øµ": 7270,
      "ĠØ§ÙĦÙħØ¨Ø§Ø¯Ø±Ø©": 7271,
      "ĠØ§ÙĦØ´Ø¯ÙĬØ¯": 7272,
      "ion": 7273,
      "ĠØ´Ø¯ÙĬØ¯": 7274,
      "ÙĬØ§Ø¯": 7275,
      "ĠØ¨Ø§ÙĦÙĥØ§ÙħÙĦ": 7276,
      "ĠØ§ÙĦØ¢ÙĬØ©": 7277,
      "ĠØ§ÙĦÙħØ¶": 7278,
      "ĠÙĬØ£Ø®Ø°": 7279,
      "ØŃØªØ±Ø§Ùħ": 7280,
      "ĠØ§ÙĬØ§": 7281,
      "ģÙĨØ": 7282,
      "ĠØ§ÙĦØ¬ÙĦØ¯": 7283,
      "ĠØ§Ø¨": 7284,
      "ĠØŃØµÙĦØª": 7285,
      "ĠÙĪØ£Ø´": 7286,
      "Ø±ØªÙĩÙħ": 7287,
      "ĩØ§Øª": 7288,
      "ĠÙĨØ¨Ø": 7289,
      "ĬØ¨ØŃØ«": 7290,
      "ĠÙĪÙĬØ¬": 7291,
      "¹ÙĤÙĦ": 7292,
      "ĠØ§ÙĦØ¹ÙĨÙģ": 7293,
      "ĠØ¬ÙĦØ": 7294,
      "ed": 7295,
      "ĠØ§ÙĦØ±ÙĬØ§Ø¶ÙĬ": 7296,
      "ĠÙĪØ±": 7297,
      "ÙĬÙĪÙĬÙĪØ±Ùĥ": 7298,
      "ĠØªØ¹ÙĬØ´": 7299,
      "ĠÙĬØ®Øµ": 7300,
      "ÙĬØ¨ØŃØ«": 7301,
      "ĠØ´Ø£ÙĨ": 7302,
      "ĠÙĦÙĦØ³Ù": 7303,
      "ĠÙĬÙģØ": 7304,
      "ĠØ±Ø¦Ø§Ø³Ø©": 7305,
      "³ÙĩÙĬÙĦ": 7306,
      "ĠØ§ÙĦÙĩØ": 7307,
      "ĠØ§ÙĦÙĪØ²ÙĨ": 7308,
      "ĠØ®ÙĬØ§Ø±": 7309,
      "ÙĬÙī": 7310,
      "ĠØªØµØ§": 7311,
      "Ġ33": 7312,
      "ĠÙĪØŃØ¯Ùĩ": 7313,
      "ĠØ¹Ø§Ø¯ÙĦ": 7314,
      "Ø«Ø§Ø±Ø©": 7315,
      "ĠØ§ÙĦØ¨ØªØ": 7316,
      "Ø±Ø¬Ø§": 7317,
      "ªÙĨØ³ÙĬÙĤ": 7318,
      "Ø³ÙĪØ±Ø©": 7319,
      "Ù£": 7320,
      "Ø¯Ø±ÙĩÙħ": 7321,
      "ĠØºØ¶": 7322,
      "ÙĪÙĬÙħ": 7323,
      "ĠØ§ÙĦØ¥Ø±ÙĩØ§Ø¨ÙĬØ©": 7324,
      "ĠØ§ÙĦÙħØ´Ø§Ø±ÙĥÙĬÙĨ": 7325,
      "ĠØ§ÙĦØªÙĨÙģÙĬØ°": 7326,
      "ģØ±ØŃ": 7327,
      "ĠØ§ÙĦÙĨØ¬": 7328,
      "ĠØ³ÙĤÙĪØ·": 7329,
      "ØŃØ¯Ø§Øª": 7330,
      "ĠØ®ÙĦØ§ÙĦÙĩ": 7331,
      "ĠØ£Ø±Ø¯": 7332,
      "ĠÙħÙģÙĩÙĪÙħ": 7333,
      "ĠØ§ÙĦÙħØ®Ø": 7334,
      "ĠØ§ÙĦØ´ÙħØ§ÙĦ": 7335,
      "ĠÙĬØ³ØªØ®Ø¯Ùħ": 7336,
      "³Ø±Ø§Ø¦ÙĬÙĦ": 7337,
      "ĠØ§ÙĦØ¯ÙĥØªÙĪ": 7338,
      "ĬØ®Ù": 7339,
      "ĠØ§ÙĦØ¨Ø§ØŃØ«ÙĬÙĨ": 7340,
      "³Ø¨Ø§Ø¨": 7341,
      "ĠØ§ØŃØª": 7342,
      "Ø§ÙĦÙ": 7343,
      "ĠØ§ÙĦØ£Ø³Ø§Ø³ÙĬ": 7344,
      "ĨØ§Ø¡": 7345,
      "ĠØ§ÙĦØµØ¨Ø§ØŃ": 7346,
      "ĠØ´Ùħ": 7347,
      "ĠØ¬Ø¯Ø©": 7348,
      "ĠØ§ÙĦØ®Ø·Ø§Ø¨": 7349,
      "ĠØ§ÙĦØŃÙĤÙĬÙĤÙĬØ©": 7350,
      "Ġ34": 7351,
      "ĠÙĦÙĦØ¶": 7352,
      "ĠØ¯Ø±ÙĩÙħ": 7353,
      "ĠØ°ÙĪÙĬ": 7354,
      "ĠÙĤØ¯ÙħØ": 7355,
      "ĠÙĦÙĦÙħÙĨØ": 7356,
      "¯ÙĦØ©": 7357,
      "ĠØ§ÙĦØ¨Ø±ÙĬ": 7358,
      "ªÙĥØ§Ø±": 7359,
      "ĠÙĦØŃÙĤÙĪÙĤ": 7360,
      "ĠØ£Ø¨Ø§": 7361,
      "³Ø±Ø": 7362,
      "Ø³ÙħØ§": 7363,
      "Ø·ÙĦØŃ": 7364,
      "³ÙĬÙĦ": 7365,
      "ĬØ±ÙĬØ": 7366,
      "Ø¹ÙĦÙĩØ§": 7367,
      "ØŃÙĨØ©": 7368,
      "ĠÙĦØªØ£": 7369,
      "ĠØ§ÙĦØ³Ø§ØŃØ©": 7370,
      "ĠØªÙĪØ": 7371,
      "ĠØ¨ÙħÙĪØ¬Ø¨": 7372,
      "ĠÙĤØ¯ÙħØª": 7373,
      "ĠØªØ·ÙĪØ±": 7374,
      "ĠÙĪØ§Ø¬": 7375,
      "ĠØ§ÙĦØ²Ø±Ø§Ø¹ÙĬØ©": 7376,
      "ĠÙĪØ¯ÙĪÙĨ": 7377,
      "¨ØŃØ§Ø«": 7378,
      "ĬØ´Ø§Ø±Ùĥ": 7379,
      "ØªÙĬØ§Øª": 7380,
      "ĠØ§ÙĦÙħØªÙĩÙħ": 7381,
      "ĠØ²ÙĪØ¬ØªÙĩ": 7382,
      "ĠØªØ¬Ø§Ø±Ø©": 7383,
      "ĠØ§ÙĦÙħØ®ØªØµØ©": 7384,
      "Ø¨ØªØ©": 7385,
      "Ø±ÙĥÙĬ": 7386,
      "ĩÙĩ": 7387,
      "ĠØ§ÙĦÙħÙĪØ§ÙģÙĤ": 7388,
      "ÙĬØ´Ø§Ø±Ùĥ": 7389,
      "·Ø§ÙĦØ¨": 7390,
      "ÙĦÙĬÙĩ": 7391,
      "ĠØ§ÙĦÙħØ¯Ùī": 7392,
      "¬Ø±": 7393,
      "ªÙĪÙģ": 7394,
      "ĠØ£ÙĬØ§": 7395,
      "ĠØ¸Ø§ÙĩØ±Ø©": 7396,
      "ĠØ§ÙĦÙħØ±Ø¶Ùī": 7397,
      "ĠØ§ÙĦÙģØ±Ø¯": 7398,
      "ĠØ§ÙĦØ²Ø±Ø§Ø¹Ø©": 7399,
      "Ø¬Ø§Ø¨ÙĬ": 7400,
      "·Ùī": 7401,
      "Ø³ÙĥÙĪ": 7402,
      "ÙĬØ®Ù": 7403,
      "ĠØ±Ø¹Ø§ÙĬØ©": 7404,
      "ĠØ§ÙĦØ¬ÙĩØ©": 7405,
      "ĠØ«ÙĤØ§ÙģØ©": 7406,
      "µØŃ": 7407,
      "ĠØºØ§ÙĦØ¨Ø§": 7408,
      "ĠØ§ÙĦØ¨Ø´Ø±Ø©": 7409,
      "ĠØ¥ØµØ¯Ø§Ø±": 7410,
      "ĠØªÙĨØ¸ÙĬÙģ": 7411,
      "Ø¬ÙħØ©": 7412,
      "ĠÙĬÙĩØ¯Ùģ": 7413,
      "ĠØ§Ø³ØªØ¨Ø": 7414,
      "ÙĥØ§ÙĬ": 7415,
      "ĠÙĪØ¬Ø§Ø¡": 7416,
      "¬ØŃ": 7417,
      "ĠÙĦØ¨Ù": 7418,
      "²ÙĨ": 7419,
      "ÙĪØŃØ": 7420,
      "ØºÙĪØ·": 7421,
      "ĠÙĦØªØ¬": 7422,
      "ÙĤÙĦÙĬÙħÙĬ": 7423,
      "ĠØ¬ÙħÙĬÙĦ": 7424,
      "ÙĪØ§ÙħØ": 7425,
      "ĠØ³Ø±": 7426,
      "Ø²ÙĬÙħØ": 7427,
      "ĠØ§ÙĦÙĪØ²Ø§": 7428,
      "ĠØ¨ÙħØ«Ø§Ø¨Ø©": 7429,
      "´Ø§Ø¯": 7430,
      "ĠØ£ÙĨÙĨÙĬ": 7431,
      "ĠØ§Ø²": 7432,
      "ĠØ¥ØµØ§Ø¨Ø©": 7433,
      "ÙĦØªÙĩ": 7434,
      "Ø±Ø¬Ùĩ": 7435,
      "ØµØ¯ÙĤØ§Ø¡": 7436,
      "ĠØ´Ø¦": 7437,
      "ĦÙĪØ¯": 7438,
      "ĠÙĦÙĦØ¨ÙĬØ¹": 7439,
      "ĠØ§ÙĦØ§Ø³ØªØ±Ø§ØªÙĬØ¬ÙĬØ©": 7440,
      "ĠÙĨÙĬÙĪØ²": 7441,
      "ĠØ£ÙĥØ¯Øª": 7442,
      "ĠØ£Ø¬ÙħÙĦ": 7443,
      "ĠÙĨÙĤØµ": 7444,
      "ÙħÙĬØ²": 7445,
      "¨ÙĪÙ": 7446,
      "ĠØ§ÙĦÙĨÙĩØ§Ø¦ÙĬØ©": 7447,
      "¯Ø¹ÙĬ": 7448,
      "ĠÙħØ¯Ø±Ø¨": 7449,
      "ĠØªÙĪÙĤÙģ": 7450,
      "ÙĨØªÙĩØ§": 7451,
      "ĠØ£Ø¹ÙĦÙħ": 7452,
      "ĠØºØ§ÙĬ": 7453,
      "ĠÙĬÙħÙĨ": 7454,
      "ÙĬØ±ÙĬØ": 7455,
      "ĠÙĪØ§ÙĦØªÙĨÙħÙĬØ©": 7456,
      "ĠÙĪØ£Ø´Ø§Ø±": 7457,
      "ĠÙģÙĬØ": 7458,
      "³ÙħØ©": 7459,
      "ĠÙĬØ¨ØŃØ«": 7460,
      "¶ÙħØ§Ùħ": 7461,
      "¹Ø±ÙĬ": 7462,
      "·Ø¨ÙĤ": 7463,
      "ĠØ£ÙĨÙĬ": 7464,
      "ÙĤØ§ÙģÙĬØ©": 7465,
      "ĠØ§ÙĦØ¬Ø": 7466,
      "ĠØ§ÙĦØ´Ø£ÙĨ": 7467,
      "ĠØ§ÙĨÙĤØ": 7468,
      "·Ø¨ÙĬÙĤ": 7469,
      "Ø¬ÙĩÙĩØ§": 7470,
      "ĠØ³ÙĦØ·Ø§ÙĨ": 7471,
      "ĠØ§ÙĦØ§Ø³ØªÙĤØ±Ø§Ø±": 7472,
      "ÙĪØ§Ùģ": 7473,
      "ĩÙĨØ§Ùĥ": 7474,
      "10": 7475,
      "ĠÙĦÙģØªØ±Ø©": 7476,
      "ĠØ³Ø±ÙĬ": 7477,
      "ĠÙħØ¦Ø§Øª": 7478,
      "Ø¹ÙĦÙĬØ©": 7479,
      "ĠØ£Ø³Ø±Ø¹": 7480,
      "Ø¬ÙĦØª": 7481,
      "ĠÙĪÙģÙī": 7482,
      "ªÙħÙĦ": 7483,
      "ĠÙĬØ±ÙĬØ": 7484,
      "ĠØ§ÙĦÙģÙĪØ§": 7485,
      "ØªØ¨ÙĩØ§": 7486,
      "ĠØ¹ÙĦØ§ÙĤØ§Øª": 7487,
      "ªÙĪÙģØ±": 7488,
      "ĠØªØŃÙ": 7489,
      "ĠÙħØ³ØªÙĤØ¨ÙĦ": 7490,
      "ĠØ§ÙĦÙħØ³Ø¦": 7491,
      "ĠÙĪØ§Ø³Øª": 7492,
      "ĬØ³Ù": 7493,
      "ĠØ§ÙĦØµØ§ÙĦØŃ": 7494,
      "ĠÙħØ§ÙĦÙĬ": 7495,
      "ĠÙĤØ§Ø¯Ø±Ø©": 7496,
      "ĠØ§ÙĦØ£Ø³ÙĦØŃØ©": 7497,
      "ģØŃ": 7498,
      "ĠØ§ÙĦØºØ±ÙģØ©": 7499,
      "ĦØ·Ø§Øª": 7500,
      "Ø·ÙĦ": 7501,
      "ĠØ§ÙĦØ·ÙĪØ§": 7502,
      "Ġ48": 7503,
      "ĠÙĦÙĦÙħØ": 7504,
      "ĠØ§ÙĦØ§ØªØ¬Ø§Ùĩ": 7505,
      "ĠØ¨Ø§ÙĦÙĤØ±Ø¨": 7506,
      "ĠÙĦØ£ÙĪÙĦ": 7507,
      "ÙħÙĬÙĬØ²": 7508,
      "±ÙĥÙĬØ¨": 7509,
      "ĠØ¨ØªÙĤØ¯ÙĬÙħ": 7510,
      "ĠØ§ÙĦØ¨ÙĦØ¯ÙĬØ©": 7511,
      "ĠØ§ÙĦØ£ÙĦØ¹Ø§Ø¨": 7512,
      "ĠØ§ÙĦØªØ¬Ø§Ø": 7513,
      "oo": 7514,
      "ĠØ¯Ùĩ": 7515,
      "ĠØ¹Ø§ÙħÙĦ": 7516,
      "ĠØ§ÙĦÙħØ¨Ø§Ø´Ø±": 7517,
      "ĠØ¹ÙĤÙĪØ¯": 7518,
      "ĠØ§ÙĦÙĤØ·Ø§Ø¹Ø§Øª": 7519,
      "ÙĤØ§ÙĬ": 7520,
      "ĠØªØ¨ÙĬÙĨ": 7521,
      "¬ÙĬØ¨": 7522,
      "ĠØ§ÙĦØªÙĤÙĦÙĬØ¯ÙĬØ©": 7523,
      "ĠØ§ÙĦØªØ¹Ø¨ÙĬØ±": 7524,
      "ĠÙĪØ³ÙĬØ§": 7525,
      "Ø·ÙĬØ¨": 7526,
      "¹Ø±ÙĪØ¶": 7527,
      "ĠØ§ÙĦØªØ¬Ø§Ø±": 7528,
      "ģØ¹Ø©": 7529,
      "ĠÙĤÙĪØ§Ø¹Ø¯": 7530,
      "ÙħØ§Ø¹Ø©": 7531,
      "¯ÙĪØ§Øª": 7532,
      "ĠÙĤØ±Ø§Ø±Ø§Øª": 7533,
      "ĠÙĪØªØ±Ùĥ": 7534,
      "Ġ00": 7535,
      "ĠØ§ÙĦÙĨÙĬ": 7536,
      "ĠØ¨Ø£Ùħ": 7537,
      "ĠØ§ÙĦØ®Ø·ÙĪØ©": 7538,
      "ĠØ§Ø¹ØªØ¨Ø§": 7539,
      "ĬØŃØ§": 7540,
      "ĠÙĦÙĦÙħØ¤": 7541,
      "ĠÙĦØªÙĤØ¯ÙĬÙħ": 7542,
      "ĠÙĩØ§ØªÙģ": 7543,
      "ĠØ§ÙĦØ´Ø±ÙĬÙģÙĬÙĨ": 7544,
      "ĠÙĤØ§ÙĦÙĪØ§": 7545,
      "ĠØµÙĦØ§": 7546,
      "ĬÙħÙĨØ¹": 7547,
      "ģØªØ§Ø¡": 7548,
      "ĠØ§ÙĦÙĥØ´Ùģ": 7549,
      "ĦØ§Ø¯": 7550,
      "ĠØªÙĨÙħÙĬØ©": 7551,
      "ĠØ¬Ø¯ÙĬØ¯Ø§": 7552,
      "ÙĪØ¨Ø§": 7553,
      "¯ÙĪØ©": 7554,
      "ĠØ§ÙĦØµØŃÙģ": 7555,
      "¯Ø¹Ùī": 7556,
      "Ø®Ø±Ø¬": 7557,
      "Ø±Ø¶Ø§": 7558,
      "ÙĩØ¯Ùĩ": 7559,
      "ĠØ§ÙĦØµÙĬÙĨÙĬØ©": 7560,
      "ĠÙĪØ±Ø§": 7561,
      "ĠÙĦØ¶ÙħØ§ÙĨ": 7562,
      "ĠØ§Ø¶Ø§ÙģØ©": 7563,
      "ĠÙħØŃØ¯Ø¯Ø©": 7564,
      "ÙĬÙĪÙģ": 7565,
      "·ÙĬØ©": 7566,
      "·Ùĩ": 7567,
      "ĠÙħØ³Ø¦ÙĪÙĦ": 7568,
      "ÙĬØŃØ§": 7569,
      "20": 7570,
      "ĠØ§ÙĦØªØ¬Ø±Ø¨Ø©": 7571,
      "ĠØ®ÙĦØ§Ùģ": 7572,
      "Ø²ÙĬÙħØ©": 7573,
      "Ø¹Ø¨ÙĬ": 7574,
      "Ø£Ø¹ÙĦÙĨØª": 7575,
      "ĠØ¹Ø«ÙħØ§ÙĨ": 7576,
      "ĠÙĤØ§Ø¯Ø©": 7577,
      "ĠÙħØ¬ØªÙħ": 7578,
      "ĠÙĨØ¬Ø§": 7579,
      "µØª": 7580,
      "ĠØ¹ÙĦØ§Ùħ": 7581,
      "ĠØ§ÙĩØªÙħØ§": 7582,
      "ĠØ®Ø±ÙĪØ¬": 7583,
      "ĠØµØºÙĬØ±": 7584,
      "¯ÙĪÙĦØ§": 7585,
      "¨ÙĬÙĦØ©": 7586,
      "ĠØµÙģÙĪÙģ": 7587,
      "ĠØ§ÙĦØ¹ÙħØ§": 7588,
      "ĦØªØ²Ùħ": 7589,
      "ÙĬÙħÙĨØ¹": 7590,
      "ÙĪØ¶Ø§Ø¹": 7591,
      "®Ø§Ø¨": 7592,
      "³ÙĥÙĪ": 7593,
      "ĠØ§ÙĦÙĨÙħ": 7594,
      "ĠØ¸ÙĩØ±Øª": 7595,
      "ĠÙħØ¬ÙĦØ©": 7596,
      "Ø®ØªØ±Ø§": 7597,
      "ĠÙĦØ´Ø±ÙĥØ©": 7598,
      "ĠØ§ÙĦØŃØ§Ø¯Ø«": 7599,
      "ĠØ§ÙĦØ£ÙĦÙħØ§ÙĨÙĬØ©": 7600,
      "ĠØ§ÙĦØ²ÙĬØ§Ø±Ø©": 7601,
      "ĠØ®Ø§Ø¯Ùħ": 7602,
      "ĠÙħØ§ÙĬ": 7603,
      "Ø³ÙĬÙħØ§": 7604,
      "ĠØ£Ø¨ÙĪØ¸Ø¨ÙĬ": 7605,
      "ĠÙĪÙĬÙĥÙĪÙĨ": 7606,
      "³ÙħØ¹": 7607,
      "Ø·Ø§ÙĦÙĬØ§": 7608,
      "·Ø§Ø±": 7609,
      "ĠÙħØ§Ø¡": 7610,
      "ĠÙĬØ®Ù": 7611,
      "Ø±ÙĬØªØ§": 7612,
      "ĠØ´Ø§Ø±Ø¹": 7613,
      "ĠÙħÙĬÙĦØ§": 7614,
      "ĠØ§ÙĦØŃØµ": 7615,
      "ĠÙħØ°Ùĥ": 7616,
      "ĠØ§ÙĦÙħÙĩØ±Ø¬Ø§ÙĨ": 7617,
      "ĠØ¨Ø§ÙĦØªØ£": 7618,
      "ĠØµØ¯ÙĬÙĤ": 7619,
      "Ø·Ùī": 7620,
      "ØµØ§Ø¦Øµ": 7621,
      "ĠØ´Ø±ØŃ": 7622,
      "ÙĥØ§Ø©": 7623,
      "Ø³ÙĤØ·": 7624,
      "ÙĬØ³Ù": 7625,
      "ĠØ§ÙħØªØ": 7626,
      "ĠØ¯Ø®Ù": 7627,
      "ÙĦÙħÙĬÙĨ": 7628,
      "ĠÙĤÙħØ©": 7629,
      "ĠØ¨Ø±Ø¬": 7630,
      "ĠØ§ÙĦØ³ÙĬØ¯Ø©": 7631,
      "ĠØ±Ø§Ø´Ø¯": 7632,
      "ĠØ§ÙĦØ£ÙģÙĥØ§Ø±": 7633,
      "ĠØ§ÙĦØµØŃØ§ÙģØ©": 7634,
      "ØŃØ§Ùħ": 7635,
      "ÙĪØ¹Ø§Øª": 7636,
      "ĠÙĨØ¸ÙĬ": 7637,
      "ÙĦØ³Ø§": 7638,
      "ĠØ§ÙĦØ³ÙĥØ±": 7639,
      "Ø¯ÙĪÙĦØ§": 7640,
      "¯Ø§ÙħØ": 7641,
      "ĠØ¬Ø²": 7642,
      "ĠØ§ÙĦØŃØ¶ÙĪØ±": 7643,
      "Ø®ÙĬØµ": 7644,
      "ÙĪØºØ§ÙĨ": 7645,
      "ĠØ³Ø·ØŃ": 7646,
      "ĠØ§ÙĦØ´ÙĪØ·": 7647,
      "ĠØµØ¨Ø§ØŃØ§": 7648,
      "ĠØ§ÙĦØ¥Ùħ": 7649,
      "ĠØ§ÙĦØ§ÙĨØªØ®Ø§Ø¨ÙĬØ©": 7650,
      "ØªØ±Ùģ": 7651,
      "ĠØ§ÙĦÙĨÙģØ³ÙĬØ©": 7652,
      "ĠØ°ÙĥØ±Øª": 7653,
      "ĠØ¯ÙĪÙĦØ§": 7654,
      "ĠØ§ÙĦØ¨ÙĬØ¶Ø§Ø¡": 7655,
      "ĠÙħØ³ÙĬØ±Ø©": 7656,
      "ĠØ§ÙĦØ§Ø®ØªÙ": 7657,
      "ĠØ§ÙĦØ´ÙĥÙĦ": 7658,
      "ĠÙĬØŃØ§": 7659,
      "ĠØ¨Ø§Øª": 7660,
      "ØŃÙĦÙĪÙĦ": 7661,
      "ØŃÙĩÙħ": 7662,
      "ÙĪØ±ÙĬØ§": 7663,
      "ĠØ£ÙĪØ¶ØŃ": 7664,
      "ĠÙĤØ±Ø±": 7665,
      "³Ø§Ø·": 7666,
      "ĠØ§ÙĦØ¹Ø§ÙĦÙĬØ©": 7667,
      "ĠØ§ÙĦØ¹Ø¯ÙĪ": 7668,
      "ĬÙĤÙĦ": 7669,
      "Ø³ØªÙĤÙĦØ§ÙĦ": 7670,
      "¯Ø§ÙħØ©": 7671,
      "ĠÙĬØ¯ÙĬ": 7672,
      "ĠØ§Ø³ØªÙĥ": 7673,
      "ĠÙĥØ§ÙĨÙĪÙĨ": 7674,
      "ĠØ§ÙĦÙĤÙĨØ§Ø©": 7675,
      "as": 7676,
      "ĠÙĦÙħÙĨØ§": 7677,
      "ĠØ§ÙĦØ®Ø¶": 7678,
      "ĠÙħÙĩØ±Ø¬Ø§ÙĨ": 7679,
      "ĠÙĪÙĥØ£": 7680,
      "ÙĨØ§ÙĬ": 7681,
      "Ø¦Øª": 7682,
      "ĠØ±Ø§Ø¦Ø¹": 7683,
      "ĠØ§ÙĦØ£ÙĤØµÙī": 7684,
      "ĠØ¹Ø§Ø´": 7685,
      "ĠØ§ÙĦÙĤÙĬÙħ": 7686,
      "ĠÙĤÙĪÙī": 7687,
      "Ġp": 7688,
      "ĠØ§ÙĦÙħØ³ØªØ«ÙħØ±ÙĬÙĨ": 7689,
      "Ġ2006": 7690,
      "ĠØ³ÙĦØ·Ø©": 7691,
      "ĠÙĬØ´Ø§Ø±Ùĥ": 7692,
      "ĠØ§ÙĦØ§ØŃØ": 7693,
      "Ø³Ø¹Ø§": 7694,
      "ĠØ§Ø³ØªÙĬ": 7695,
      "¯ÙĬÙĦØ§Øª": 7696,
      "ĠØ´ÙĬØ®": 7697,
      "ĠØªØ¨Ø¯ÙĪ": 7698,
      "ĠØ§ÙĦØ±ÙĬ": 7699,
      "ĠÙĬÙĪÙģØ±": 7700,
      "ĠÙģØ²": 7701,
      "ĠØ§ÙĦØŃÙĦÙĤØ©": 7702,
      "ĠÙĤØ±Ø±Øª": 7703,
      "ĠÙģØ¦Ø©": 7704,
      "ĬÙĤÙģ": 7705,
      "Ø¯Ø±Ø³": 7706,
      "ĠÙĬÙĪØ±ÙĪ": 7707,
      "³ØªÙģØ§Ø¯Ø©": 7708,
      "ĠØ§ÙĦØªØŃÙĥÙħ": 7709,
      "ĠÙĪÙĤØ¹Øª": 7710,
      "ĠØ§ÙĦÙħÙĦØŃ": 7711,
      "ĠÙĪØ§ÙĦÙħØªØ": 7712,
      "ĠØ§ÙĦÙĨÙĬÙĦ": 7713,
      "ģØŃØµ": 7714,
      "ĠØ¥Ø«Ø±": 7715,
      "ĠÙħÙĨØ²ÙĦ": 7716,
      "ÙĬÙĤÙģ": 7717,
      "ĠØ§ÙĦÙħØ¨Ø§Ø±Ùĥ": 7718,
      "ÙĪÙĦÙĬØ¯": 7719,
      "ĠØ§ÙĦØ¹Ø§Ø¦": 7720,
      "ÙģØ´ÙĦ": 7721,
      "ĠÙĤØ¯ÙĬÙħ": 7722,
      "ĠØ§ÙĦØ§ØªØŃØ§": 7723,
      "Ø·Ø¹ÙħØ©": 7724,
      "ĠØ§ÙĦÙħÙĪØ¶": 7725,
      "ĠØ®ÙĦÙģÙĬØ©": 7726,
      "ĠØ§ÙĦØµÙĩÙĬÙĪÙĨÙĬ": 7727,
      "¨Ø§Ù": 7728,
      "ĠÙĪØ£ÙĪØ¶ØŃ": 7729,
      "ĠØ§ÙĦØŃÙĪØ«Ù": 7730,
      "ĠØ§ÙĦØ²ÙħØ§ÙĦÙĥ": 7731,
      "ĠÙĪØ§ÙĦÙħÙĤ": 7732,
      "ĠØ§ÙĦØŃÙĪØ«ÙĬ": 7733,
      "Ø·ÙĨØ©": 7734,
      "ĠÙĬØŃÙĤÙĤ": 7735,
      "ĠØ§ÙĦÙĤØ±Ø§Ø¡Ø©": 7736,
      "ĠØ¨Ø³ÙĬØ·Ø©": 7737,
      "Ø³ÙħÙī": 7738,
      "Ø¹Ø§Ù": 7739,
      "ĠØ¬ÙħÙĩÙĪØ±ÙĬØ©": 7740,
      "ĦÙĬÙĥ": 7741,
      "ØµÙĦØ§Øª": 7742,
      "²Ø¹": 7743,
      "·Ùħ": 7744,
      "ĠÙĦÙĦÙħØ±Ø©": 7745,
      "ÙģÙĨØ¯ÙĤ": 7746,
      "ĠØ§ÙĦØ³Ø¬ÙĨ": 7747,
      "ĬØ³Ø¹Ùī": 7748,
      "ÙħØ§Ø±ÙĬØ©": 7749,
      "ĠØ·Ø§Ù": 7750,
      "ĠØ§Ø®Ø±": 7751,
      "ĠØ§ÙĦØŃØ§Ø": 7752,
      "ĠØ§ÙĦØ§ÙĨØªÙĩØ§Ø¡": 7753,
      "ÙĬØ³Ø¹Ùī": 7754,
      "ĠØ§ÙĦØ®Ø¨Ø±Ø§Ø¡": 7755,
      "ĠØ¨Ø¬Ø§ÙĨØ¨": 7756,
      "ĠÙĦÙĦØ¬ÙħÙĬØ¹": 7757,
      "ĠØ§ÙĦØ¯ÙĪØ§": 7758,
      "Ø±ÙģØ§Øª": 7759,
      "ÙĬØ§ØªÙĩ": 7760,
      "³ÙĪØ¨": 7761,
      "Ø¦Ùĥ": 7762,
      "ĠØ®Ø·Ø§": 7763,
      "ĠØ§ÙĦÙĨØ´Ø±": 7764,
      "ĠÙģÙĩ": 7765,
      "ģØ±Ø¯": 7766,
      "ÙĤØ§ÙĬØ": 7767,
      "Ø±ÙĬØŃØ©": 7768,
      "ĠÙĦÙĦÙħÙĨØªØ": 7769,
      "ĠÙĪØ«Ø§": 7770,
      "ÙĪØ¹ÙĦÙī": 7771,
      "ĠÙħØ±Ø§ØŃÙĦ": 7772,
      "®ÙĬØ±": 7773,
      "¨ÙĬØ¯": 7774,
      "ĠØµÙĨØ¹": 7775,
      "ĠØ§ÙĦÙĥØ§ÙħÙĦ": 7776,
      "ĦÙĨÙ": 7777,
      "ĠÙĪØ¯Ø§": 7778,
      "ĠÙĪÙĩÙĥØ°Ø§": 7779,
      "ĠØ§ÙĦÙħÙĤØ§Ù": 7780,
      "ĠÙ£": 7781,
      "ĠØ²ÙĬØª": 7782,
      "ÙĪØ§Ø¯": 7783,
      "ĠØ§ÙĦØ³ÙĦØ¹": 7784,
      "ĠÙħÙĨØ§ÙģØ": 7785,
      "ĠÙĪÙħØªØ": 7786,
      "ĠÙĬÙĤÙģ": 7787,
      "ÙĦØ§ÙĬ": 7788,
      "ĠØ§ÙĦÙĥØ§ÙħÙĦØ©": 7789,
      "ing": 7790,
      "ĠØ§ÙĦØ¹Ø§Ø¦ÙĦØ©": 7791,
      "ĠØ§ÙĦØªÙĨÙģÙĬØ°ÙĬØ©": 7792,
      "ĠØ§ÙĦØŃÙħØ§ÙĬØ©": 7793,
      "ĠØ¨ÙĬØ¯": 7794,
      "ĠØ£ØºÙĨÙĬØ©": 7795,
      "Ġ300": 7796,
      "ĠÙħØ§Ùĥ": 7797,
      "ĠÙĤØ¨ÙĪÙĦ": 7798,
      "Ø¨ÙĪÙĦ": 7799,
      "ĠØ§ÙĦØ§ØªÙģØ§ÙĤÙĬØ©": 7800,
      "ĠØ§ÙĦÙħØ³Ø§Ø¹Ø¯Ø©": 7801,
      "ĠØ§ÙĦØ¥Ø¹ÙĦØ§ÙħÙĬØ©": 7802,
      "ĠØ§ÙĦØ°ÙĩØ§Ø¨": 7803,
      "ĠØ§ÙĦØ±ÙĪØ§Ù": 7804,
      "ÙĥÙĦØª": 7805,
      "ĠØ§ÙĦØ§Ø³ØªØ«ÙħØ§Ø±Ø§Øª": 7806,
      "ĠØ¹Ø¬": 7807,
      "ĠØ£Ø³ØªØ": 7808,
      "ĠØ£ØºÙĦØ¨": 7809,
      "ĠÙĪØ¢ÙĦÙĩ": 7810,
      "ĠÙħØªÙĪØ³Ø·": 7811,
      "µØ§Øµ": 7812,
      "ĠÙĬØ³Ù": 7813,
      "ĠØŃÙħÙĦ": 7814,
      "ĠÙĪØ§ÙĦØ£Ù": 7815,
      "ĠØ±ÙĪØ§ÙĬØ": 7816,
      "ĠÙĬÙģØ¹ÙĦ": 7817,
      "ĠØ§ÙĦØªØ¯Ø®ÙĦ": 7818,
      "ĠØŃÙĬÙĨÙħØ§": 7819,
      "ĠÙĬØ¶Ùħ": 7820,
      "¯Ø§Ø¯Ø§": 7821,
      "ĬØªÙĪÙ": 7822,
      "ĠØ§ÙĦØ±Ø¹Ø§ÙĬØ©": 7823,
      "he": 7824,
      "ĠØ§ÙĦØ±ÙĪØ§ÙĬ": 7825,
      "ĠØ³ØªÙ": 7826,
      "Ø¹Ø§ÙĨ": 7827,
      "ĠÙĪØ¥Ø": 7828,
      "ĠÙĤÙĪÙĬ": 7829,
      "ĠÙĪØ²Ø§": 7830,
      "ØµØŃ": 7831,
      "Ġ37": 7832,
      "ĠØ§ÙĦÙħÙĤØ§Ø¨ÙĦ": 7833,
      "ØµØŃØ§Ø¨": 7834,
      "ĠÙħØ¹Ø±ÙĥØ©": 7835,
      "ĦÙĥÙĬ": 7836,
      "ĠÙħØ¯ÙĬØ±ÙĬØ©": 7837,
      "ĠØ¨ÙħÙĨØ§Ø³Ø¨Ø©": 7838,
      "ÙĤØ¶": 7839,
      "ĠÙģØ´ÙĦ": 7840,
      "ĠØ·ÙĩØ±Ø§ÙĨ": 7841,
      "ØŃÙĬØ«": 7842,
      "ĠØ§ÙĦÙħÙĤØ¯Ùħ": 7843,
      "ĠØ§ÙĦØ¶ÙģØ©": 7844,
      "ĠØªÙĤÙĨÙĬØ©": 7845,
      "Ù¥": 7846,
      "ĠÙĦÙĦØ¯ÙĪÙĦØ©": 7847,
      "ĠØ¹ÙĨØ¯Ùĩ": 7848,
      "ĠØ§ÙĦØ¯Ø±Ø¬Ø©": 7849,
      "ĠØ§ÙĦÙģÙĪØ": 7850,
      "ĠØªØ±ÙĥÙĬ": 7851,
      "ĠÙĪØ£ÙĨØ": 7852,
      "ªÙħÙĬØ²Ø©": 7853,
      "¨ÙĪÙĦØ§": 7854,
      "ĠØ§ÙĦÙģÙĨØ§ÙĨØ©": 7855,
      "ĠØ§ÙĦØµÙĬ": 7856,
      "ĠØ§ÙĦØ§ÙħÙĨ": 7857,
      "ĠØ§ÙĦØ£ÙħØ§ÙĥÙĨ": 7858,
      "°Ø§Ø±": 7859,
      "Ø§ÙĦØ§": 7860,
      "ĠØ«Ø§ÙĨÙĬ": 7861,
      "ÙĬØªÙĪÙ": 7862,
      "ĠØ¥Ø¬Ø§": 7863,
      "ÙĬÙĤÙĦ": 7864,
      "ÙģØ§Ø±": 7865,
      "Ø·Ø¹Ùħ": 7866,
      "Ġ2007": 7867,
      "ĠØ§ÙĦÙħØªÙħ": 7868,
      "ĠØ§ÙĦØ¬ÙħØ§Ø¹Ø©": 7869,
      "Ø´Ø§Ùģ": 7870,
      "ÙĥØ´Ùģ": 7871,
      "ĠØ§ÙĦØ±ÙĪØ§ÙĬØ": 7872,
      "ĠØ§ÙĦØŃÙħØ¯": 7873,
      "ĠÙģÙĬØµÙĦ": 7874,
      "ĠÙĬÙĤÙĦ": 7875,
      "ĠÙħØ¬Ø¯Ø¯Ø§": 7876,
      "Ø´Ùħ": 7877,
      "ĠØ§ÙĦØ´Ø¨ÙĥØ©": 7878,
      "ĠØ§ÙĦØ¬ÙħØ§ÙĩÙĬØ±": 7879,
      "ĠÙģØ¥ÙĨÙĩØ§": 7880,
      "ĠÙĪØªÙĤØ¯ÙĬÙħ": 7881,
      "ĠØ§ÙĦØ´Ø±ÙĬØ¹Ø©": 7882,
      "ĠØ¨ÙĪØª": 7883,
      "®ÙĬØµ": 7884,
      "ĠØ§ÙĦØ£Ùĥ": 7885,
      "ĠÙĪÙĩÙī": 7886,
      "ĠØ¨Ø´Ø±": 7887,
      "ĠØ§ÙĦÙĩØ¬Ø±Ø©": 7888,
      "ĠØ§ÙĦØºÙĬØ±": 7889,
      "ģØ±ÙĬÙĤÙĬ": 7890,
      "ĠÙħØ¹ÙĬ": 7891,
      "ĠØ§ÙģØªØªØ§ØŃ": 7892,
      "Ø±Ø§ÙĦ": 7893,
      "ĠÙģØ§Ø": 7894,
      "ĠÙĪØ®Ù": 7895,
      "ĦØ·Ø§": 7896,
      "Ø¶Ùħ": 7897,
      "ĠÙĪØ¹ÙħÙĦ": 7898,
      "ĪØ²": 7899,
      "ĠØ§ÙĦØ¬Ø§Ù": 7900,
      "ĠØªÙħØ±": 7901,
      "ĠØ±ÙĪØ§ÙĬØ©": 7902,
      "ĠÙĦÙĦØ¹Ø§": 7903,
      "ĠÙĬØ¹ØªÙħØ¯": 7904,
      "ĠÙħÙĪØ¬ÙĪØ¯Ø©": 7905,
      "ĠØ£ÙħØ§ÙĥÙĨ": 7906,
      "¯ÙĪÙĦÙĬØ©": 7907,
      "ĠÙĪØ§ÙĤ": 7908,
      "ĠØ§ÙĦØºØ±Ø¨ÙĬ": 7909,
      "ĠÙĪØ§ÙĦÙĬ": 7910,
      "Ø§ÙħØ¹": 7911,
      "id": 7912,
      "ÙģÙĬØ¶": 7913,
      "ĠÙĬØªØ¹Ø±Ø¶": 7914,
      "Ø¯ÙĪÙĦÙĬØ©": 7915,
      "ĠØ§ÙĦØ´Ø§Ø¹Ø±": 7916,
      "ĠÙĬÙħØªÙĦÙĥ": 7917,
      "ĠØ¨Ø¶Ø±ÙĪØ±Ø©": 7918,
      "±ÙĩØ§": 7919,
      "ĠØ§ÙĬØ±Ø§ÙĨ": 7920,
      "Ø±Ø§ÙĨÙĬ": 7921,
      "ĠØ¯ÙĪÙĦÙĬØ©": 7922,
      "ĠØ§ÙĦØŃØ³": 7923,
      "Ø³ØªÙĪÙī": 7924,
      "Ø²Ø§Ø±": 7925,
      "Ø±Ø§Ø¨Ø§Øª": 7926,
      "ĠÙĦØŃÙ": 7927,
      "ĠØ§ÙĦØ¬ÙĪ": 7928,
      "ĠÙĪÙĥØ°Ø§": 7929,
      "ĠÙĦØŃÙħØ§ÙĬØ©": 7930,
      "ĠÙĪÙĩØ§": 7931,
      "ĠØ§ÙĦØ³ÙħÙĪ": 7932,
      "¸Ø§ÙĩØ±Ø§Øª": 7933,
      "ĦØ¨ÙĩØ§": 7934,
      "³ÙħØŃ": 7935,
      "ĠØ®ÙĦÙĬ": 7936,
      "Ø³Ø±Ø": 7937,
      "³Ø¹ÙĬ": 7938,
      "Ø¨ÙĨÙĩ": 7939,
      "ĠÙħØ¨Ø§Ø¯Ø±Ø©": 7940,
      "ĠØ§ÙĦØ£Ø³ÙĪØ¯": 7941,
      "ĠØ§ÙĦØ±Ø¦Ø§Ø³Ø©": 7942,
      "ĠØ§ÙĦØªØŃØ¯ÙĬØ§Øª": 7943,
      "ĠÙĬÙħÙĨØ¹": 7944,
      "ĠØªØ¹Ø§ÙĨÙĬ": 7945,
      "ĠÙĪØ§ÙĨØªØ": 7946,
      "ĠØ§ÙĦÙĥØªØ§Ø¨Ø©": 7947,
      "ĠÙĪÙĪØ¶Ø¹": 7948,
      "ĠÙĪØ§ÙĦØªØ´": 7949,
      "Ø¹ÙħÙĬ": 7950,
      "ĠÙĪØ§ÙĦØ§Ø¬ØªÙħØ§Ø¹ÙĬØ©": 7951,
      "ĠÙĪØ¬Ø§": 7952,
      "Ġc": 7953,
      "Ø¹ÙĪØ±": 7954,
      "ĠØªÙģØ³ÙĬØ±": 7955,
      "ĠØ£Ø¨Ø·Ø§ÙĦ": 7956,
      "Ø³ØªÙħØ±": 7957,
      "ĠØ¥Ø´Ø§Ø±Ø©": 7958,
      "¹ÙĤØ§": 7959,
      "¯Ø±Ùĥ": 7960,
      "ĠØ¹ØµØ±": 7961,
      "ĠØ§ÙĦØ£ØŃÙĪØ§ÙĦ": 7962,
      "ĠØ§ÙĦØ£Ø³Ø§Ø³": 7963,
      "ĠØ§ÙĦÙĬÙĪÙĨØ§": 7964,
      "¶ÙĬØ±": 7965,
      "ĠØ¨Ø¨Ø¹Ø¶": 7966,
      "ĠØªÙĤØ§Ø±ÙĬØ±": 7967,
      "¹ÙĪØ": 7968,
      "ĠØ¬ÙħÙĬÙĦØ©": 7969,
      "ĦÙĬÙĩØ§": 7970,
      "ØµØ§Ø¦ÙĦ": 7971,
      "ĬØ³ØªÙ": 7972,
      "ĩØ±ÙĬ": 7973,
      "ÙĪÙĦÙĥÙĨ": 7974,
      "ĠÙĪÙĦÙĩØ°Ø§": 7975,
      "´Ø§Ø±Ø©": 7976,
      "ĠØ§ÙĦØµÙĨØ§Ø¹Ø©": 7977,
      "ĠØ§ÙĦØ³ÙħØ§Ø¡": 7978,
      "ĠÙĨÙĤØ§": 7979,
      "ĠØ§ÙĦÙĨØ¸Ø§": 7980,
      "ĠÙĪÙĬØ³ØªØ": 7981,
      "ĠÙĬØ¤Ø«Ø±": 7982,
      "ĠØ¹Ø¨Ø¯Ø§ÙĦØ±Ø": 7983,
      "ĠÙĤØµÙĬØ±Ø©": 7984,
      "Ġ55": 7985,
      "ĠÙģÙĬÙĩÙħ": 7986,
      "ĠØ¨ÙħØ¹ÙĨÙī": 7987,
      "ĠØ§ÙĦÙĥÙĪ": 7988,
      "Ø·ÙĦÙĤ": 7989,
      "Ø³ÙĦÙħÙĬÙĨ": 7990,
      "¯Ø§Ø¦ÙĬØ©": 7991,
      "ĠÙĪØºÙĬØ±Ùĩ": 7992,
      "ÙĬØ³ØªÙ": 7993,
      "ĠØ§ÙĦÙħØ¬ØªÙħØ¹Ø§Øª": 7994,
      "ĠØŃÙĤÙĤ": 7995,
      "Ø¯Ø¦Ø©": 7996,
      "ĠØ§ÙĦØŃØ¯Ø«": 7997,
      "¸Ùī": 7998,
      "ÙĦÙĬÙĨ": 7999,
      "ØŃØªÙĩØ§": 8000,
      "ĠØ¹ÙħØ±Ùĩ": 8001,
      "ĠÙĪØ²Ø±Ø§Ø¡": 8002,
      "ĠØ§ÙĦØŃÙģÙĦ": 8003,
      "ĦÙĤØ§Øª": 8004,
      "ĠØ³ÙĬØ§ÙĤ": 8005,
      "ĠØ§ÙĦØ±ÙĪØ§ÙĬØ©": 8006,
      "ĠØ²Ø§ÙĦØª": 8007,
      "ĠÙĥØ±ÙĬÙħ": 8008,
      "ĠØ§ÙĦØªØŃÙĥÙĬÙħ": 8009,
      "ĠØ¬Ø°": 8010,
      "ĠØ§ÙĦÙĪÙģØ¯": 8011,
      "ĠÙħØ·ÙĦØ¹": 8012,
      "ĦØªÙĩÙħ": 8013,
      "ĠØ³ÙĪØ±Ø©": 8014,
      "Ø¯Ø«Ø§Øª": 8015,
      "ĬØªØ£": 8016,
      "ĠØ§ÙĦØªØ´ØºÙĬÙĦ": 8017,
      "ĠØ§ÙĦÙģØ¹ÙĦ": 8018,
      "ĪØ§ÙĨ": 8019,
      "ĠØ§ÙĦØ¨Ø±ÙĬØ·Ø§ÙĨÙĬ": 8020,
      "ĠÙģÙĨØ¯ÙĤ": 8021,
      "ĠÙĬØªÙħØªØ¹": 8022,
      "ĠØ§ÙĦØ±ÙĤÙħ": 8023,
      "Ø®ØµÙĬ": 8024,
      "ÙĨØ§Ø³": 8025,
      "ĠÙĦØªØµ": 8026,
      "ĠØ³Ø¨Ø¹Ø©": 8027,
      "ÙĬÙĪØ±": 8028,
      "ĠØ§ÙĦØªØ£ÙħÙĬÙĨ": 8029,
      "ĬØ´ÙĬØ±": 8030,
      "ĦØªÙĤÙĬ": 8031,
      "ĠØ¨Ø·Ø§ÙĤØ©": 8032,
      "ĠØ¹ÙħÙĬ": 8033,
      "Ø±ÙĬØ®ÙĬ": 8034,
      "ÙĬØªØ£": 8035,
      "ĠØ¥Ø±ÙĩØ§": 8036,
      "ĠÙĦÙĦØ«": 8037,
      "Ġ38": 8038,
      "ÙĤØ¨Ø©": 8039,
      "Ø±Ø¨ÙĪÙĨ": 8040,
      "ĠØ§ÙĦØ³ÙĬØ±": 8041,
      "ĠØ§ÙĦÙħÙĤØ§ÙĦ": 8042,
      "ĠØ§ÙĦÙħØ¹ÙĦÙħ": 8043,
      "ĠØ£ÙĤÙĪÙĦ": 8044,
      "ĠÙĦØŃØ§": 8045,
      "ĠØ§ØŃØªØ": 8046,
      "ÙĬØ´ÙĬØ±": 8047,
      "ĠØ§ÙĦØµÙĬÙģ": 8048,
      "ĠÙĪØªØ¹Ø§ÙĦÙī": 8049,
      "ĠØµØŃÙģÙĬ": 8050,
      "ĠÙĬØ³Ø¹Ùī": 8051,
      "Ø¹Ø±ÙĪØ¶": 8052,
      "ÙĪØ£Ø¶Ø§ÙģØª": 8053,
      "ĠØ£ÙĤØ±Ø¨": 8054,
      "ĠØ§ÙĦØ¬ÙĨØ³ÙĬØ©": 8055,
      "ĠØ§ÙĦÙħØ³ØªÙĩÙĦÙĥ": 8056,
      "ĠÙĪØ§Ùħ": 8057,
      "ØªØ§Ø¯": 8058,
      "ĠØ§ÙĨØªÙĤØ§": 8059,
      "ĠØ¹Ø·": 8060,
      "ĠØ§ÙĦØ¢Ø": 8061,
      "ĠØ§ÙĤØªØµØ§Ø¯ÙĬØ©": 8062,
      "ĠØ§ÙĦÙĤØ§Ø¶ÙĬ": 8063,
      "¶Ø§ÙħÙĨ": 8064,
      "ĠØ§ÙĦÙħØ³ØªØ®Ø¯ÙħÙĬÙĨ": 8065,
      "ĠØ£ÙĬÙĩØ§": 8066,
      "ĠØ§Ø¹ÙĦØ§ÙĨ": 8067,
      "ĠØ§ÙĥØ¨Ø±": 8068,
      "ĠÙĨÙĬÙĪÙĬÙĪØ±Ùĥ": 8069,
      "ĠÙĪØªØ¨Ø": 8070,
      "ĠØªØ®Ø±Ø¬": 8071,
      "Ø³ÙĥØ§": 8072,
      "ĠÙĪØ·ÙĨÙĬØ©": 8073,
      "ĠØ¨ÙĦØ¯Ø©": 8074,
      "Ø±ÙĪØ¯": 8075,
      "ĠØ£Ø¯Ø": 8076,
      "ĠØŃÙĤÙĪ": 8077,
      "Ø§ÙħØ©": 8078,
      "ĠÙĦØ¥Ù": 8079,
      "ÙĥÙī": 8080,
      "ĠÙĪØ§Ø³Ø¹": 8081,
      "ģÙĩ": 8082,
      "ĠØªØªØ±Ø§": 8083,
      "ĠØ§ÙĦØ£ÙģØ±Ø§Ø¯": 8084,
      "ĠØ³Ø±Ø": 8085,
      "ĠÙĪØ§ÙĦØªÙĥ": 8086,
      "ĠØ§ÙĦØªÙĩ": 8087,
      "ĠØ§ØªØ¬Ø§Ùĩ": 8088,
      "Ø±ÙģÙĬÙĨ": 8089,
      "ĠØ§ÙĦØ´ÙĬÙĪ": 8090,
      "ĠØ§ÙĦØ§ÙħÙĬØ": 8091,
      "ĠØ§ÙĦØ´Ø¹ÙĪØ±": 8092,
      "ĠØªØ¤ÙĥØ¯": 8093,
      "ĠØ§ÙĦØ¢Ø«Ø§Ø±": 8094,
      "ĠØ³Ø§ÙĦÙħ": 8095,
      "·ÙĪÙĦØ©": 8096,
      "ĠÙĪØ¨ÙħØ§": 8097,
      "ĠØ§ÙĦØµÙĪØª": 8098,
      "ĠÙĥÙĨ": 8099,
      "ĠÙģÙĬØ±ÙĪØ³": 8100,
      "¨ÙĨØ§Øª": 8101,
      "ĠØ±Ø¦ÙĬØ³Ø§": 8102,
      "ĠÙħØ±Ø²ÙĤ": 8103,
      "ĠÙĨÙĩØ§Ø¦ÙĬ": 8104,
      "ØªÙģÙĪ": 8105,
      "ĠØ§ÙĦØªØŃØªÙĬØ©": 8106,
      "ĠØ§ÙĦÙħØ±ÙĪØ±": 8107,
      "Ø¶ÙĦ": 8108,
      "ĠØ§ÙĦØ¨Ø§ÙĦØº": 8109,
      "il": 8110,
      "Ø·Ø§Ø¹Ùħ": 8111,
      "ĠÙĬØ³ØªÙ": 8112,
      "ĠØ§ØªØµØ§ÙĦ": 8113,
      "Ø±ØªØ§": 8114,
      "Ø¨Ø§Ø¯Ø±Ø§Øª": 8115,
      "ĠØ£ÙĪØ¨Ø§ÙħØ§": 8116,
      "ĠØ§ÙĦÙħØµØ§Ø": 8117,
      "ĠØ§ÙĦØ£Ø¯ÙĪÙĬØ©": 8118,
      "ĠØ§ÙĦØ¥Ùģ": 8119,
      "ØºØ§ÙĨÙĬ": 8120,
      "Ø¨ÙĬØ¹Ø©": 8121,
      "ĠØªØ¹ÙĬÙĬÙĨ": 8122,
      "ĠÙĬØ¯ÙģØ¹": 8123,
      "°Ø§Ùĥ": 8124,
      "ĠØ¶ÙħØ§ÙĨ": 8125,
      "ÙĤØ³": 8126,
      "ĠÙħÙĨØµØ¨": 8127,
      "¯ÙĩÙħØ§": 8128,
      "ĠØ§ÙĦÙĥÙĦÙħØ©": 8129,
      "ĦØªÙĥÙĪÙĨ": 8130,
      "ĠÙĪØ§ÙĦØªÙĤ": 8131,
      "ĠØ§ÙĦÙĤØ§Ø¦Ùħ": 8132,
      "ĠÙĦÙĦÙĪØµÙĪÙĦ": 8133,
      "ĠØ°Ø§Ùĥ": 8134,
      "ĠØ¨ØªØŃØ": 8135,
      "ĠØ§ÙĦØªÙĥÙĨÙĪÙĦÙĪØ¬ÙĬØ§": 8136,
      "ÙħØ¹ÙĬØ©": 8137,
      "ªØ±Ø²": 8138,
      "ĠØ¨Ø§ÙĦØ¹ÙħÙĦ": 8139,
      "³Ø§ØªÙĬÙĨ": 8140,
      "ĠÙĪØ§ÙĦØªØµ": 8141,
      "ÙĦØ§ÙħÙĬ": 8142,
      "ÙĦØªÙĥÙĪÙĨ": 8143,
      "ĠØ¹ÙĦÙħÙ": 8144,
      "ĠØ¬Ø±Ø§": 8145,
      "ØŃØ¸Ø©": 8146,
      "Ø¨Ø§ÙĬ": 8147,
      "ÙĩØ§Ø¯Ø§Øª": 8148,
      "ĠÙĬØ±ØºØ¨": 8149,
      "ĠÙĦÙĦÙħØ´Ø§Ø±ÙĥØ©": 8150,
      "ĠÙĪØ£ÙĥØ«Ø±": 8151,
      "ĬØªÙħÙĥÙĨ": 8152,
      "ĠØªØ®ØªÙĦÙģ": 8153,
      "ĠÙĪØ§ÙĦÙħØ´": 8154,
      "ØºØ±Ø¨": 8155,
      "ĠØ·Ø¨ÙĬØ¹ÙĬ": 8156,
      "Ø±ÙĥØª": 8157,
      "ÙĤØ§ÙĬØ©": 8158,
      "ĠØ§ÙĦØ£ØµÙĦ": 8159,
      "ØŃØ§Ø¯ÙĬØ«": 8160,
      "ĠØ§ÙĦØªÙĨØ¸ÙĬ": 8161,
      "ĠØ£ÙħÙĨÙĬØ©": 8162,
      "ĨØª": 8163,
      "ÙĬØªÙħÙĥÙĨ": 8164,
      "ĠØ¨Ø§ÙĦÙħØ§Ø¦Ø©": 8165,
      "ĠÙĨÙħÙĪØ°Ø¬": 8166,
      "Ø¨Ø§Ø¦ÙĦ": 8167,
      "ĠÙĪØªØ·ÙĪÙĬØ±": 8168,
      "ĠØ²Ø§ÙĦ": 8169,
      "ĠØ¨Ø¥ÙħÙĥØ§": 8170,
      "ĠØ´Ø§ÙĩØ¯": 8171,
      "ĠØ§ÙĦØ¨Ùĥ": 8172,
      "ĠÙĦØªÙĥÙĪÙĨ": 8173,
      "ĠØ£ØµØ§": 8174,
      "ĠØ®Ø¨Ø±Ø§Ø¡": 8175,
      "ĠØ¹Ø§ÙĦÙħÙĬØ©": 8176,
      "ĠØ§ÙĦÙħØ«": 8177,
      "ĠØ§ÙĦØ´Ø§Ùħ": 8178,
      "ĠØ§ÙĦÙĥÙĪØ§": 8179,
      "Ø±Ø¨Ø¹Ø©": 8180,
      "ĠØµØ¹ÙĪØ¨Ø©": 8181,
      "ĠÙ¥": 8182,
      "ØªÙĬØ´": 8183,
      "ĠÙĤØ·Ø¹Ø©": 8184,
      "ĠØ§ÙĦØ±Ø¨Ø¹": 8185,
      "ĠØ§ÙĦÙģÙĥØ±Ø©": 8186,
      "ĬØ¹ØªØ": 8187,
      "ĠØ§ÙĦÙħØ´ÙĩØ¯": 8188,
      "ĠÙĬÙĨØ¸Ø±": 8189,
      "ĠØ·ÙĦØ§Ø¨": 8190,
      "ĠÙĬØªÙħÙĥÙĨ": 8191,
      "ĠÙĬØªØ£": 8192,
      "ĠÙĪØ§ÙĦØ¨Ù": 8193,
      "ĠÙĪØ±ØºÙħ": 8194,
      "ĠØ§ÙĦÙĦØ°": 8195,
      "Ø¹Ø±Ø¨": 8196,
      "ĠØºØ§ÙĬØ": 8197,
      "ĠØ¨Ø®ØµÙĪØµ": 8198,
      "ØºØ§ÙĦ": 8199,
      "Ø«ÙĬÙĤ": 8200,
      "ĠØ§ÙĦØŃÙĥÙĪÙħÙĬ": 8201,
      "ĠÙĪØ®ØµÙĪØµØ§": 8202,
      "ĠU": 8203,
      "ĠØ§ÙĦØ³ÙĪØ±ÙĬÙĬÙĨ": 8204,
      "ĠØ£Ø°": 8205,
      "ØªÙĩÙħÙĬÙĨ": 8206,
      "ĠØ³ÙĬØ±": 8207,
      "ØŃÙĥØ§Ùħ": 8208,
      "ĠÙĥØªØ§Ø¨Ùĩ": 8209,
      "ĠÙĦÙĪÙ": 8210,
      "Ø¶Ø±Ø©": 8211,
      "ĠØ§ÙĦØ¥ÙĤÙĦÙĬÙħÙĬØ©": 8212,
      "ĨÙĬØ§ÙĩÙĪ": 8213,
      "ĠØ§ÙĦØ¯Ø³ØªÙĪØ±ÙĬØ©": 8214,
      "¨ÙĦÙĪÙħØ§Ø³ÙĬØ©": 8215,
      "ĠØ¹Ø±ÙĪØ¶": 8216,
      "ØªØ²": 8217,
      "ĠØ§ÙĦØŃØ±ÙĬØ±ÙĬ": 8218,
      "ĠÙĬÙĦÙĬ": 8219,
      "ĠÙĦØªØ®": 8220,
      "Ø¨Ø±Ùĩ": 8221,
      "ĠØ§ÙĦÙģØ±Ø§": 8222,
      "Ø²ÙĬØ§": 8223,
      "ÙĬØ¹ØªØ": 8224,
      "Ø³ÙĪØ§": 8225,
      "ĠØ¹Ø§Ø¦ÙĦØ©": 8226,
      "ĠØªØ¤Ø«Ø±": 8227,
      "ĠØ§ÙĦÙħÙĪØ¬ÙĪØ¯": 8228,
      "ĠØ§ÙĦØµØºÙĬØ±": 8229,
      "ĠÙĩÙħØ§": 8230,
      "Ø¨ÙĪØ³": 8231,
      "ÙĨÙĩØ§Ø¡": 8232,
      "ĠØŃÙħØ": 8233,
      "ĠÙħÙĨØµØ©": 8234,
      "ĠØ§ÙĦØ§ÙĦØªØ²Ø§Ùħ": 8235,
      "ĠØªØ¬Ø±ÙĬ": 8236,
      "ĠØ§Ø³ØªØ±Ø§ØªÙĬ": 8237,
      "ÙĨØ§Ø¯": 8238,
      "ĠØ§ÙĦØ¥ØµÙĦØ§ØŃ": 8239,
      "ĠØ´Ø¹Ø±": 8240,
      "ĠÙħØ«Ø§": 8241,
      "ĠØ§ÙĦØ±Ø¤ÙĬØ©": 8242,
      "ĠÙħÙĨÙģ": 8243,
      "ĠÙħÙħÙĬ": 8244,
      "ĠØ§ÙĦØµÙĨØ¯ÙĪÙĤ": 8245,
      "Ø±ÙĬØ§ÙĨ": 8246,
      "ĠØªØ±ØªØ": 8247,
      "ĠØ³ÙħØ§": 8248,
      "ĦØ¹ÙħÙĦ": 8249,
      "Ø·ÙħØ": 8250,
      "ĠØ§ÙĦÙĩÙĪØ§ØªÙģ": 8251,
      "ÙĤØ¹Ø§": 8252,
      "ĠÙĥÙĦÙħØ§Øª": 8253,
      "ĠÙĪØ§ÙĦÙĪØ": 8254,
      "Ø¹ÙĪÙħ": 8255,
      "ol": 8256,
      "¸ÙĩÙĪØ±": 8257,
      "ĠØ§ÙĦÙĪØ¹ÙĬ": 8258,
      "±ÙģØ¹": 8259,
      "Ø³ØŃ": 8260,
      "ĠØ§ÙĦÙħÙĨØµ": 8261,
      "ĠØ§ÙĦØ®Ø·Ø©": 8262,
      "¦ÙĨØ§Ùģ": 8263,
      "ĠÙĪØ²ÙĬØ§Ø¯Ø©": 8264,
      "³ÙĬÙģ": 8265,
      "ØªØ§ÙħÙĬÙĨ": 8266,
      "ĠØ£ØŃØ¨": 8267,
      "¨ÙĦØ§Øº": 8268,
      "ĠØ§ÙĦØ¹ÙħÙĪÙħÙĬØ©": 8269,
      "ĠØ§ÙĦÙĥÙĨÙĬØ³Ø©": 8270,
      "ĠØ·ÙĬØ": 8271,
      "ĠØ±Ø¬Ø": 8272,
      "ĠØ³Ø§Ø¨ÙĤØ©": 8273,
      "ĠÙĪØ´Ø§": 8274,
      "Ø®ÙĦØ§": 8275,
      "ĠØ§ÙĦØ£Ø«": 8276,
      "ĠØ§ÙĦØªØ¨Ø": 8277,
      "ĠØµØŃÙĬØ©": 8278,
      "ĠØ¥Ø¶Ø§ÙģÙĬØ©": 8279,
      "ĠØ¨ÙĪÙĥ": 8280,
      "ĩØ¯Ù": 8281,
      "ĠØ£Ø³Ø±Ø©": 8282,
      "ªÙħØ¯Ø©": 8283,
      "ĠØ§ÙĦÙĤÙħØ©": 8284,
      "Ġ2000": 8285,
      "ØµÙĦØŃ": 8286,
      "ØªØ±Ùħ": 8287,
      "ĠØ§ÙĦØ£ÙĨØ´Ø·Ø©": 8288,
      "ÙħØ§Ø°Ø¬": 8289,
      "ĠÙħÙĪØ³ÙĥÙĪ": 8290,
      "¯Ø§ÙĦ": 8291,
      "ĠÙħØ§Øª": 8292,
      "¹ÙĪØ¯": 8293,
      "ÙĩÙĬØ±Ø©": 8294,
      "ĠÙĬØªÙĪÙ": 8295,
      "ĠÙħÙĪØ¬ÙĪØ¯": 8296,
      "ĬØ¹Ø±Ø¶": 8297,
      "ĠÙĨÙĤÙĪÙĦ": 8298,
      "³ÙĬÙĨØ": 8299,
      "ĠØºØ§ÙĬØ©": 8300,
      "ĠØ§ÙĦØµØ§Ø¯Ø±": 8301,
      "ØºØ§Ø±": 8302,
      "ÙģÙĪØ°": 8303,
      "ĠØ³ÙĬÙĨØ§Ø¡": 8304,
      "ÙĪØ±Ùĩ": 8305,
      "ÙĬØ¹Ø±Ø¶": 8306,
      "ĠØ¥ÙĦØº": 8307,
      "ĠØ£ÙĨØ´": 8308,
      "ĠÙĩØ§Øª": 8309,
      "ĠØªØ¯Ø±ÙĬØ¨": 8310,
      "ØªØ¨Øª": 8311,
      "Ø³ØªÙĪ": 8312,
      "ÙĨØ§ÙĬØ": 8313,
      "ĠØªØŃØ¯ÙĬØ«": 8314,
      "Ġ75": 8315,
      "ĠØ£Ø®Ø¨Ø§Ø±": 8316,
      "ĠØ§ÙĦÙĥÙĦÙħØ§Øª": 8317,
      "ĠØªØ£Ø«ÙĬ": 8318,
      "¨Ùī": 8319,
      "ĠØªØ´Ø¹Ø±": 8320,
      "ĠØ§ÙĦÙĥÙĩØ±Ø¨Ø§Ø¦ÙĬØ©": 8321,
      "³ÙħÙĪ": 8322,
      "ĠØ®Ø§Ø±Ø¬ÙĬØ©": 8323,
      "ģÙĬÙĨØ©": 8324,
      "ĠØ¹ÙĬØ³Ùī": 8325,
      "Ø¬ØªÙħØ§Ø¹ÙĬ": 8326,
      "ĠÙĪØ§ÙĦØ°ÙĬÙĨ": 8327,
      "ĠØ§ÙĦØ¬Ø±ÙĬÙħØ©": 8328,
      "ĠÙĪÙħÙĥ": 8329,
      "ĠØ§ÙĦØ£ÙĦÙħØ§ÙĨÙĬ": 8330,
      "ĠÙħØ³ØªÙĪ": 8331,
      "ĠØ§ÙĦÙħÙĩÙĨÙĬØ©": 8332,
      "ÙĨØ³ØŃØ§Ø¨": 8333,
      "ĠØ§ÙĦØŃÙĬÙĪØ§ÙĨØ§Øª": 8334,
      "ØŃØ§ÙĤ": 8335,
      "ĠØ£ÙĦÙģØ§": 8336,
      "ĠØŃØ¯Ø«ÙĨØ§": 8337,
      "ĠØ´Ø¹Ø§Ø±": 8338,
      "ĠØ£Ø¨ÙĨØ§": 8339,
      "ĠØ§ÙĦÙħÙĨØ¸ÙħØ§Øª": 8340,
      "ĠÙĪØ§ÙĦÙĨØ§": 8341,
      "ĠØªØ´ÙĩØ¯": 8342,
      "ĠØ§ÙĦÙħØªØ¹Ø§ÙĤØ¯ÙĬÙĨ": 8343,
      "ĠØ§ÙĦÙĤØ¶Ø§Ø¦ÙĬØ©": 8344,
      "ĠØ§ÙĦØ§Ø¹ØªÙħØ§Ø¯": 8345,
      "ĠÙĤØ±ÙĬØ¨": 8346,
      "ĠØ§ÙĦÙħØ³Ø§Ø¹Ø¯Ø§Øª": 8347,
      "Ø£Ø¹ÙĦÙĨ": 8348,
      "ĠØ§ÙĦÙĪÙĥØ§ÙĦØ©": 8349,
      "Ø±ÙĥÙħ": 8350,
      "ĠØ§ÙĦØªØ®ÙĦØµ": 8351,
      "ĠÙħØ´ÙĬØ±Ø©": 8352,
      "ĠØºØ±Ùģ": 8353,
      "Ø¦Ùī": 8354,
      "ĠØ§ÙĦÙģÙĪØ±": 8355,
      "Ø³ØªØ±Ø§ØªÙĬØ¬ÙĬØ©": 8356,
      "ÙĩÙĬØ²": 8357,
      "²ÙĬÙĦ": 8358,
      "ĠØªÙĪØ¬ÙĬÙĩ": 8359,
      "ĠØ«ÙĤØ©": 8360,
      "ĠÙħØ³ØªÙħØ±Ø©": 8361,
      "ĠØ§ÙĦÙħØµØ§ÙĦØŃ": 8362,
      "ÙħØ§Ø¹ÙĬÙĦ": 8363,
      "ĠØ§ÙĦØµØ¹Ø¨": 8364,
      "ĦØªØ§": 8365,
      "ĠØ§ÙĦØ¨Ø®Ø§": 8366,
      "ĠÙħØªÙĥØ§": 8367,
      "ØŃØ§Ø³Ø¨Ø©": 8368,
      "ĠÙĦÙħØ¬ÙĦØ³": 8369,
      "ĨØº": 8370,
      "ĠÙĬØ´ÙĬØ±": 8371,
      "ÙĪØ±Ùī": 8372,
      "ĠØ¹Ø§ØµÙħØ©": 8373,
      "ĠÙĪØªØ§": 8374,
      "11": 8375,
      "ĠØ§ÙĦÙĨØ¨Ø§": 8376,
      "ĠØ®ÙĬØ§": 8377,
      "Ø³Ø¹ÙĬ": 8378,
      "±ÙĪÙĬØ¬": 8379,
      "ĠØ§ÙĦÙħÙĦØ§Ø¨Ø³": 8380,
      "ĠÙĨÙĬØ§": 8381,
      "ĠØªÙĪØ¬Ùĩ": 8382,
      "ĠØ§ÙĦÙħØŃØ§ÙģØ¸": 8383,
      "ĠØ§ÙĨØ¯": 8384,
      "ĦØ¹Øª": 8385,
      "ĬØ¯ÙĬÙ": 8386,
      "ĠØ´Ø¨Ø§": 8387,
      "ĠÙĨØ´Ø±ÙĩØ§": 8388,
      "ĠØ§ÙĦØ¯ÙģØ¹": 8389,
      "Ø¹ÙĪÙĨ": 8390,
      "ĠØ§ÙĦØ´ÙĩÙĬØ¯": 8391,
      "ĠØ§ÙĦØ£ÙĪÙĤØ§Øª": 8392,
      "ĠØ¢Ø«Ø§Ø±": 8393,
      "ĩØ´Ø§": 8394,
      "ĠØ§ÙĦÙģØ±Øµ": 8395,
      "ĠØ§ÙĦØªÙĥØ§": 8396,
      "ØªÙĬÙĨ": 8397,
      "ÙĩØ´Ø§": 8398,
      "ĠØ§ÙĦØ¯ÙĬÙħÙĤØ±Ø§Ø·ÙĬ": 8399,
      "±ÙģØ¶": 8400,
      "ĠØ£ØºÙ": 8401,
      "ĠØ¨Ø§ÙĦØ§Ø¶Ø§ÙģØ©": 8402,
      "ĠÙħØ±Ø§Ø¬Ø¹Ø©": 8403,
      "ĠØ§Ø³ÙħÙĩ": 8404,
      "Ø¨ÙĤÙĬ": 8405,
      "ĠÙĬØªØ¬Ø§ÙĪØ²": 8406,
      "¹Ø¨": 8407,
      "ĠÙĪØ§Ø¯ÙĬ": 8408,
      "ĠÙĥØ¨Ø±Ùī": 8409,
      "ĠØ§ÙĦØªÙħÙĪÙĬÙĦ": 8410,
      "ĠØ°Ø§ØªÙĩØ§": 8411,
      "ĩÙĪØ§": 8412,
      "ĠØ£ÙħÙĪØ±": 8413,
      "ĠØ¬Ø¨ÙĦ": 8414,
      "ÙĪÙĩÙħ": 8415,
      "ĠÙĪØ§ÙĦØ£Ùħ": 8416,
      "ÙĬÙĪØ§ÙĨ": 8417,
      "ØµÙģØ©": 8418,
      "ØªÙģØ§ÙĤÙĬØ§Øª": 8419,
      "ØªØ§Ø¡": 8420,
      "ĠÙħÙĨØªØ¯Ùī": 8421,
      "ĠÙĥÙĨØ": 8422,
      "ĠØ§ÙĦØ³Ø·": 8423,
      "Ø³Ø±Ø§": 8424,
      "ĠØªÙĪÙĤÙĬØ¹": 8425,
      "ĠØ²Ø§Ø¯": 8426,
      "ªÙĥÙ": 8427,
      "ĠØ¨ÙĪÙĦ": 8428,
      "ĬØ³ÙħÙī": 8429,
      "ÙĨØ³ØªØ§ÙĨ": 8430,
      "ĠÙĦÙĪØ§": 8431,
      "ÙĬØ³ÙħÙī": 8432,
      "ĠØ§ÙĦÙħØŃØªÙĦØ©": 8433,
      "ĠØ§ÙĦØ§Ø±Ø¯ÙĨ": 8434,
      "ĬØ±Ø¬Ùī": 8435,
      "ĠØ¨Ø¥Ø¹Ø§Ø¯Ø©": 8436,
      "ÙĬØ±Ø¬Ùī": 8437,
      "ĦÙģØ²ÙĬÙĪÙ": 8438,
      "ĠØ§ÙĦØ´Ø§Ø´Ø©": 8439,
      "ĠÙĤÙĬÙĦ": 8440,
      "ĬØ¶Ø¹": 8441,
      "ĠØ§Ø³ØªØºÙĦØ§ÙĦ": 8442,
      "±ÙĥÙĩ": 8443,
      "¯Ø¯Øª": 8444,
      "ĠØ§ÙĦØ³ÙĪØ¯Ø§Ø¡": 8445,
      "ĠÙĬÙĥÙģÙĬ": 8446,
      "Ø´ÙĨ": 8447,
      "ĠK": 8448,
      "Ø±Ø§ØªÙĩÙħ": 8449,
      "ĠØ®Ø·Ø·": 8450,
      "ĠÙĪØªÙĪÙģÙĬØ±": 8451,
      "ĠØ§ÙĦÙĤÙĬØ§ÙħØ": 8452,
      "ĠØ§ÙĦÙĤÙĬØ§ÙħØ©": 8453,
      "ĠØµÙģÙĤØ©": 8454,
      "ÙĬØ¶Ø¹": 8455,
      "¤ÙĥØ¯": 8456,
      "Ø¦Ø·": 8457,
      "Ø·Ø§Ø±Ø§Øª": 8458,
      "ĠÙħØ²ÙĬØ¯": 8459,
      "¯ØŃ": 8460,
      "ĠØ§Ø¹ÙĦØ§": 8461,
      "ÙĤÙĬØ¯Ø©": 8462,
      "ĠØ§ÙĦØ¹ÙĬØ¯": 8463,
      "Ø«ÙĦØ«": 8464,
      "ĠØ§ÙĦÙĬØ§Ø¨Ø§ÙĨ": 8465,
      "ĠØ·Ø§Ø¦Ø±Ø©": 8466,
      "¨Ø±Ø§ÙħØ¬": 8467,
      "Ø³ØŃØ¨": 8468,
      "ĠØ¨Ø§ÙĦØ¹Ø§": 8469,
      "ĠØ§ÙĦØ¹ÙĤÙĪØ¯": 8470,
      "ĠØ§ÙĦØŃØ¬Ø±": 8471,
      "ĠØ¥ÙĨÙĬ": 8472,
      "ÙģÙģ": 8473,
      "ĠÙħÙĤØ¯Ùħ": 8474,
      "Ù¤": 8475,
      "ĠÙĨÙĪØ¹ÙĬØ©": 8476,
[...]
