{
  "version": "1.0",
  "truncation": null,
  "padding": null,
  "added_tokens": [
    {
      "id": 0,
      "content": "<s>",
      "single_word": false,
      "lstrip": false,
      "rstrip": false,
      "normalized": false,
      "special": true
    },
    {
      "id": 1,
      "content": "<pad>",
      "single_word": false,
      "lstrip": false,
      "rstrip": false,
      "normalized": false,
      "special": true
    },
    {
      "id": 2,
      "content": "</s>",
      "single_word": false,
      "lstrip": false,
      "rstrip": false,
      "normalized": false,
      "special": true
    },
    {
      "id": 3,
      "content": "<unk>",
      "single_word": false,
      "lstrip": false,
      "rstrip": false,
      "normalized": false,
      "special": true
    },
    {
      "id": 4,
      "content": "<mask>",
      "single_word": false,
      "lstrip": false,
      "rstrip": false,
      "normalized": false,
      "special": true
    },
    {
      "id": 5,
      "content": "<eop>",
      "single_word": false,
      "lstrip": false,
      "rstrip": false,
      "normalized": false,
      "special": true
    },
    {
      "id": 6,
      "content": "<question>",
      "single_word": false,
      "lstrip": false,
      "rstrip": false,
      "normalized": false,
      "special": true
    },
    {
      "id": 7,
      "content": "<istruction>",
      "single_word": false,
      "lstrip": false,
      "rstrip": false,
      "normalized": false,
      "special": true
    },
    {
      "id": 8,
      "content": "<answer>",
      "single_word": false,
      "lstrip": false,
      "rstrip": false,
      "normalized": false,
      "special": true
    },
    {
      "id": 9,
      "content": "<سؤال>",
      "single_word": false,
      "lstrip": false,
      "rstrip": false,
      "normalized": false,
      "special": true
    },
    {
      "id": 10,
      "content": "<جواب>",
      "single_word": false,
      "lstrip": false,
      "rstrip": false,
      "normalized": false,
      "special": true
    }
  ],
  "normalizer": null,
  "pre_tokenizer": {
    "type": "ByteLevel",
    "add_prefix_space": false,
    "trim_offsets": true,
    "use_regex": true
  },
  "post_processor": {
    "type": "ByteLevel",
    "add_prefix_space": true,
    "trim_offsets": false,
    "use_regex": true
  },
  "decoder": {
    "type": "ByteLevel",
    "add_prefix_space": true,
    "trim_offsets": true,
    "use_regex": true
  },
  "model": {
    "type": "BPE",
    "dropout": null,
    "unk_token": null,
    "continuing_subword_prefix": null,
    "end_of_word_suffix": null,
    "fuse_unk": false,
    "byte_fallback": false,
    "ignore_merges": false,
    "vocab": {
      "<s>": 0,
      "<pad>": 1,
      "</s>": 2,
      "<unk>": 3,
      "<mask>": 4,
      "<eop>": 5,
      "<question>": 6,
      "<istruction>": 7,
      "<answer>": 8,
      "<سؤال>": 9,
      "<جواب>": 10,
      "!": 11,
      "\"": 12,
      "#": 13,
      "$": 14,
      "%": 15,
      "&": 16,
      "'": 17,
      "(": 18,
      ")": 19,
      "*": 20,
      "+": 21,
      ",": 22,
      "-": 23,
      ".": 24,
      "/": 25,
      "0": 26,
      "1": 27,
      "2": 28,
      "3": 29,
      "4": 30,
      "5": 31,
      "6": 32,
      "7": 33,
      "8": 34,
      "9": 35,
      ":": 36,
      ";": 37,
      "<": 38,
      "=": 39,
      ">": 40,
      "?": 41,
      "@": 42,
      "A": 43,
      "B": 44,
      "C": 45,
      "D": 46,
      "E": 47,
      "F": 48,
      "G": 49,
      "H": 50,
      "I": 51,
      "J": 52,
      "K": 53,
      "L": 54,
      "M": 55,
      "N": 56,
      "O": 57,
      "P": 58,
      "Q": 59,
      "R": 60,
      "S": 61,
      "T": 62,
      "U": 63,
      "V": 64,
      "W": 65,
      "X": 66,
      "Y": 67,
      "Z": 68,
      "[": 69,
      "\\": 70,
      "]": 71,
      "^": 72,
      "_": 73,
      "`": 74,
      "a": 75,
      "b": 76,
      "c": 77,
      "d": 78,
      "e": 79,
      "f": 80,
      "g": 81,
      "h": 82,
      "i": 83,
      "j": 84,
      "k": 85,
      "l": 86,
      "m": 87,
      "n": 88,
      "o": 89,
      "p": 90,
      "q": 91,
      "r": 92,
      "s": 93,
      "t": 94,
      "u": 95,
      "v": 96,
      "w": 97,
      "x": 98,
      "y": 99,
      "z": 100,
      "{": 101,
      "|": 102,
      "}": 103,
      "~": 104,
      "¡": 105,
      "¢": 106,
      "£": 107,
      "¤": 108,
      "¥": 109,
      "¦": 110,
      "§": 111,
      "¨": 112,
      "©": 113,
      "ª": 114,
      "«": 115,
      "¬": 116,
      "®": 117,
      "¯": 118,
      "°": 119,
      "±": 120,
      "²": 121,
      "³": 122,
      "´": 123,
      "µ": 124,
      "¶": 125,
      "·": 126,
      "¸": 127,
      "¹": 128,
      "º": 129,
      "»": 130,
      "¼": 131,
      "½": 132,
      "¾": 133,
      "¿": 134,
      "À": 135,
      "Á": 136,
      "Â": 137,
      "Ã": 138,
      "Ä": 139,
      "Å": 140,
      "Æ": 141,
      "Ç": 142,
      "È": 143,
      "É": 144,
      "Ê": 145,
      "Ë": 146,
      "Ì": 147,
      "Í": 148,
      "Î": 149,
      "Ï": 150,
      "Ð": 151,
      "Ñ": 152,
      "Ò": 153,
      "Ó": 154,
      "Ô": 155,
      "Õ": 156,
      "Ö": 157,
      "×": 158,
      "Ø": 159,
      "Ù": 160,
      "Ú": 161,
      "Û": 162,
      "Ü": 163,
      "Ý": 164,
      "Þ": 165,
      "ß": 166,
      "à": 167,
      "á": 168,
      "â": 169,
      "ã": 170,
      "ä": 171,
      "å": 172,
      "æ": 173,
      "ç": 174,
      "è": 175,
      "é": 176,
      "ê": 177,
      "ë": 178,
      "ì": 179,
      "í": 180,
      "î": 181,
      "ï": 182,
      "ð": 183,
      "ñ": 184,
      "ò": 185,
      "ó": 186,
      "ô": 187,
      "õ": 188,
      "ö": 189,
      "÷": 190,
      "ø": 191,
      "ù": 192,
      "ú": 193,
      "û": 194,
      "ü": 195,
      "ý": 196,
      "þ": 197,
      "ÿ": 198,
      "Ā": 199,
      "ā": 200,
      "Ă": 201,
      "ă": 202,
      "Ą": 203,
      "ą": 204,
      "Ć": 205,
      "ć": 206,
      "Ĉ": 207,
      "ĉ": 208,
      "Ċ": 209,
      "ċ": 210,
      "Č": 211,
      "č": 212,
      "Ď": 213,
      "ď": 214,
      "Đ": 215,
      "đ": 216,
      "Ē": 217,
      "ē": 218,
      "Ĕ": 219,
      "ĕ": 220,
      "Ė": 221,
      "ė": 222,
      "Ę": 223,
      "ę": 224,
      "Ě": 225,
      "ě": 226,
      "Ĝ": 227,
      "ĝ": 228,
      "Ğ": 229,
      "ğ": 230,
      "Ġ": 231,
      "ġ": 232,
      "Ģ": 233,
      "ģ": 234,
      "Ĥ": 235,
      "ĥ": 236,
      "Ħ": 237,
      "ħ": 238,
      "Ĩ": 239,
      "ĩ": 240,
      "Ī": 241,
      "ī": 242,
      "Ĭ": 243,
      "ĭ": 244,
      "Į": 245,
      "į": 246,
      "İ": 247,
      "ı": 248,
      "Ĳ": 249,
      "ĳ": 250,
      "Ĵ": 251,
      "ĵ": 252,
      "Ķ": 253,
      "ķ": 254,
      "ĸ": 255,
      "Ĺ": 256,
      "ĺ": 257,
      "Ļ": 258,
      "ļ": 259,
      "Ľ": 260,
      "ľ": 261,
      "Ŀ": 262,
      "ŀ": 263,
      "Ł": 264,
      "ł": 265,
      "Ń": 266,
      "¯Ù": 267,
      "Ø¯Ù": 268,
      "ĨÙ": 269,
      "Øµ": 270,
      "ÙĨÙ": 271,
      "Ø·": 272,
      "Ø©": 273,
      "Ø´": 274,
      "£Ù": 275,
      "Ø£Ù": 276,
      "Ø®": 277,
      "³Ù": 278,
      "Ø³Ù": 279,
      "ĩØ": 280,
      "ØĮ": 281,
      "ĬØ©": 282,
      "ĥØ": 283,
      "Ùī": 284,
      "ÙĩØ": 285,
      "ŃØ": 286,
      "ØŃØ": 287,
      "¯Ø": 288,
      "ĥÙ": 289,
      "Ø¯": 290,
      "ŃÙ": 291,
      "ØŃÙ": 292,
      "Ø¥": 293,
      "ÙĥØ": 294,
      "Ø¯Ø": 295,
      "ÙĥÙ": 296,
      "ģØ": 297,
      "ÙĬØ©": 298,
      "ÙĬ": 299,
      "ģÙĬ": 300,
      "ÙģÙĬ": 301,
      "ĠÙģÙĬ": 302,
      "ĠÙ": 303,
      "ĠÙĦ": 304,
      "ĠÙĬ": 305,
      "ĠØ£Ù": 306,
      "Ø²": 307,
      "ÙĨ": 308,
      "ÙĨØ": 309,
      "ħÙĨ": 310,
      "ĪØ": 311,
      "ÙĪØ": 312,
      "ĠÙĪØ": 313,
      "ĦÙī": 314,
      "ÙĦÙī": 315,
      "ĠÙħÙĨ": 316,
      "Ø´Ø": 317,
      "¬Ø": 318,
      "ĦÙĬ": 319,
      "ĠÙĪØ§": 320,
      "Ø¶": 321,
      "±ÙĬ": 322,
      "ĠÙĦÙ": 323,
      "ÙĦÙĬ": 324,
      "ÙĨØ§": 325,
      "ĠØ¥": 326,
      "ÙģØ": 327,
      "Ø¬Ø": 328,
      "ÙĩØ§": 329,
      "Ø«": 330,
      "ĩÙ": 331,
      "ĠÙĪØ§Ù": 332,
      "¨ÙĬ": 333,
      "Ø°": 334,
      "Ø·Ø": 335,
      "ĠÙĪØ§ÙĦ": 336,
      "±Ø©": 337,
      "Ø¯ÙĬ": 338,
      "Ø¦": 339,
      "Ø®Ø": 340,
      "£Ø": 341,
      "¬Ù": 342,
      "§ÙĨ": 343,
      "Ø¡": 344,
      "Øº": 345,
      "Ø£Ø": 346,
      "¹ÙĦÙī": 347,
      "Ø¯Ø§": 348,
      "Ø¹ÙĦÙī": 349,
      "ÙĪØ§": 350,
      "ĠØ¹ÙĦÙī": 351,
      "ØµØ": 352,
      "ĠÙĤ": 353,
      "Ùģ": 354,
      "ħÙĬ": 355,
      "ĪÙĨ": 356,
      "Ø¬Ù": 357,
      "Ø³ÙĬ": 358,
      "ÙĨÙĬ": 359,
      "ĠÙĦÙĦ": 360,
      "Ø¨ÙĬ": 361,
      "§Ø¡": 362,
      "ªÙĬ": 363,
      "ĦØ©": 364,
      "Ø³": 365,
      "Ø³Ø": 366,
      "Ø³Øª": 367,
      "Ø±Ø©": 368,
      "ĠÙĥØ": 369,
      "ĠÙĦØ": 370,
      "Ø±ÙĬ": 371,
      "ÙĦ": 372,
      "ĪÙĦ": 373,
      "ħÙĦ": 374,
      "ĪÙĬ": 375,
      "Ùĭ": 376,
      "ĠÙģ": 377,
      "§Ø¦": 378,
      "ÙĩÙ": 379,
      "ÙĦØ©": 380,
      "ĠØ£ÙĨ": 381,
      "Ø§ÙĨ": 382,
      "Ø±": 383,
      "Ø±Ø": 384,
      "Ø±Ø§": 385,
      "§Ø±": 386,
      "Ùİ": 387,
      "ħØ©": 388,
      "Ø§Ø±": 389,
      "ÙĨØª": 390,
      "ÙĪÙĦ": 391,
      "ØŃØ§": 392,
      "ĠÙĥÙ": 393,
      "ØªÙĬ": 394,
      "ÙħÙĦ": 395,
      "Ø´Ø±": 396,
      "¹ÙĦ": 397,
      "ĠØ£Ø": 398,
      "ħØ": 399,
      "ÙħØ": 400,
      "ĠÙħØ": 401,
      "ÙħØ§": 402,
      "ħØ§": 403,
      "ÙĦÙħØ": 404,
      "§ÙĦÙħØ": 405,
      "Ø§ÙĦÙħØ": 406,
      "ĠÙĨ": 407,
      "Ø¯Ø©": 408,
      "ĠØ§ÙĦÙħØ": 409,
      "ÙĪØ±": 410,
      "ÙĦØ£Ù": 411,
      "§ÙĦØ£Ù": 412,
      "Ø§ÙĦØ£Ù": 413,
      "ĠÙħØ¹": 414,
      "ÙĬØ±": 415,
      "¹ÙĨ": 416,
      "..": 417,
      "Ø¬Ø§": 418,
      "ÙĦØ¥": 419,
      "§ÙĦØ¥": 420,
      "Ø§ÙĦØ¥": 421,
      "Ùĳ": 422,
      "ĠØ§ÙĦØ£Ù": 423,
      "ÙĩØ°": 424,
      "Ø¹ÙĨ": 425,
      "Ø³Ø§": 426,
      "ĠÙĬØ": 427,
      "ÙħÙĬ": 428,
      "ĠØŃÙ": 429,
      "ĠØ¹ÙĨ": 430,
      "¹Ø©": 431,
      "ĠØ±": 432,
      "ĠØĮ": 433,
      "¨Ø±": 434,
      "ĠØ¥ÙĦÙī": 435,
      "¨ÙĦ": 436,
      "ĠØ§ÙĦØ¥": 437,
      "ÙĬÙĨ": 438,
      "ÙħØ©": 439,
      "Ø§Ø¡": 440,
      "ħØ±": 441,
      "Ùĩ": 442,
      "ÙĪÙĨ": 443,
      "ÙĦÙĦ": 444,
      "Ø³ÙĦ": 445,
      "ĠØ®": 446,
      "ĤÙĬ": 447,
      "Ø®Ø§": 448,
      "Ġ2": 449,
      "Ø¯Ø±": 450,
      "ĠÙģØ": 451,
      "Ø§Ø¦": 452,
      "¨Ø©": 453,
      "Ø¨ÙĦ": 454,
      "ĤØ©": 455,
      "§ÙĦÙĦ": 456,
      "ĠÙħØ§": 457,
      "Ø§ÙĦÙĦ": 458,
      "ÙģØ§": 459,
      "ĠØŃØ": 460,
      "ĠÙĩØ°": 461,
      "Ø±Ø§Ø": 462,
      "ĠÙĬÙ": 463,
      "§Ø³Øª": 464,
      "ÙĦÙģ": 465,
      "¹Ø±": 466,
      "ØµØ§": 467,
      "Ø·Ø§": 468,
      "ÙĤØ©": 469,
      "ÙĦØ±": 470,
      "Ø§Ø³Øª": 471,
      "ÙĥØ§": 472,
      "ĠØ§ÙĦÙĦ": 473,
      "ªØ±": 474,
      "§ÙĦØ±": 475,
      "Ø§ÙĦØ±": 476,
      "Ø¢": 477,
      "ĠÙĦØ§": 478,
      "Ø¶Ø": 479,
      "Ġ1": 480,
      "ÙĦØµ": 481,
      "ÙĩÙħ": 482,
      "ĠØµ": 483,
      "Ø¹ÙĦ": 484,
      "ÙĦØ°": 485,
      "¹ÙĦÙĬ": 486,
      "§ÙĦØ°": 487,
      "Ùı": 488,
      "Ø§ÙĦØ°": 489,
      "ÙĪÙĬ": 490,
      "ÙĦØªÙĬ": 491,
      "§ÙĦØµ": 492,
      "Ø§ÙĦØµ": 493,
      "ĠØ§ÙĦØ±": 494,
      "ĠÙĪØ§ÙĦØ": 495,
      "Ø¹ÙĦÙĬ": 496,
      "§ÙĦØªÙĬ": 497,
      "Ø§ÙĦØªÙĬ": 498,
      "ĠØ§ÙĦØ°": 499,
      "Øª": 500,
      "ĠØª": 501,
      "§Øª": 502,
      "Ø§Øª": 503,
      "ÙĦØª": 504,
      "§ÙĦØª": 505,
      "Ø§ÙĦØª": 506,
      "ĠØ§ÙĦØª": 507,
      "ĠØªØ": 508,
      "ĠØªÙ": 509,
      "¹ÙĬ": 510,
      "ĠØ§ÙĦØªÙĬ": 511,
      "ÙħÙĨ": 512,
      "ÙĨÙĩ": 513,
      "ÙĨÙĬØ©": 514,
      "ĠÙĪØª": 515,
      "Ġ\"": 516,
      "Ø±Ø¨": 517,
      "ĩØ§": 518,
      "ĠÙĨÙ": 519,
      "Ġ(": 520,
      "§Ø±Ø©": 521,
      "Ø²ÙĬ": 522,
      "ĠØ§ÙĦØµ": 523,
      "ĠØ¨ÙĬ": 524,
      "§ÙĦÙĬ": 525,
      "ÙĦØ£Ø": 526,
      "ĠØ³Ù": 527,
      "§ÙĦØ£Ø": 528,
      "Ø§ÙĦØ£Ø": 529,
      "Ø®Ø±": 530,
      "Ø¸": 531,
      "ÙĥÙĦ": 532,
      "ĠØ£ÙĪ": 533,
      "ØªØ": 534,
      "âĢ": 535,
      "ÙĥÙĨ": 536,
      "Ø±Ø§Øª": 537,
      "ÙģØ©": 538,
      "ĤÙ": 539,
      "Ø´Ø§": 540,
      "ÙĥÙĬ": 541,
      "ÙĦØ¯Ù": 542,
      "¹Ø¯": 543,
      "ĠØ§ÙĦØ£Ø": 544,
      "ÙĦØŃÙ": 545,
      "Ø§ÙĦÙĬ": 546,
      "ĠØ´": 547,
      "§ÙĦØ¯Ù": 548,
      "Ø§ÙĦØ¯Ù": 549,
      "¹ÙħÙĦ": 550,
      "ĠØ¯Ù": 551,
      "ÙĲ": 552,
      "Ø§Ø±Ø©": 553,
      "ÙĤÙĬ": 554,
      "§ÙĦØŃÙ": 555,
      "Ø§ÙĦØŃÙ": 556,
      "§ÙĦÙģ": 557,
      "Ø¨Ø©": 558,
      "ĠÙĩ": 559,
      "¬ÙĬ": 560,
      "Ø§ÙĦÙģ": 561,
      "ĠÙĪÙĦ": 562,
      "ÙĪ": 563,
      "ÙĪÙ": 564,
      "ÙĪÙĤ": 565,
      "ÙĦØŃØ": 566,
      "ĠØº": 567,
      "§ÙĦØŃØ": 568,
      "ÙĦÙĥØ": 569,
      "Ø§ÙĦØŃØ": 570,
      "ĠØ§ÙĦØ¯Ù": 571,
      "ĥØ©": 572,
      "ĠØ°": 573,
      "Ġ20": 574,
      "ØŃØª": 575,
      "ĠØ§ÙĦÙģ": 576,
      "ĠØ§ÙĦØŃÙ": 577,
      "ÙĥØ©": 578,
      "Ø¹Ø©": 579,
      "ħÙĪØ": 580,
      "ÙħØ±": 581,
      "ĠØ§ÙĦØŃØ": 582,
      "ØµØ±": 583,
      "Ġ.": 584,
      "Ø¯Ùħ": 585,
      "ħØ³Øª": 586,
      "ÙĦØ®": 587,
      "Ġ-": 588,
      "§ÙĦÙĥØ": 589,
      "Ø§ÙĦÙĥØ": 590,
      "ØŃÙĨ": 591,
      "ĠØ¹ÙĦÙĬ": 592,
      "Ø¨Ø±": 593,
      "§ÙĦØ®": 594,
      "Ø§ÙĦØ®": 595,
      "Ø³Ø¨": 596,
      "Ø¹Ø¯": 597,
      "Ø·ÙĦ": 598,
      "ØµÙĦ": 599,
      "ØŃÙĬ": 600,
      "ÙĦØ«": 601,
      "ÙĢ": 602,
      "ÙĨÙĪØ": 603,
      "ŃØ©": 604,
      "Ø³Ùħ": 605,
      "Ø¶Ø§": 606,
      "§ÙĦØ«": 607,
      "Ø§ÙĦØ«": 608,
      "ĠÙĩÙ": 609,
      "Ø¹ÙħÙĦ": 610,
      "ØŃØ¯": 611,
      "ĠØ§ÙĦØ®": 612,
      "ĠØ§ÙĦÙĥØ": 613,
      "ØŃÙħ": 614,
      "ħÙĪØ§": 615,
      "§ÙĬ": 616,
      "ÙĩØ±": 617,
      "§ÙĨØª": 618,
      "ĠÙĪÙĬ": 619,
      "Ø²Ø": 620,
      "ĠØ¢": 621,
      "ÙĪÙħ": 622,
      "ĠÙĥÙĦ": 623,
      "ĠÙĩØ°Ø": 624,
      "ĠÙĩØ°Ø§": 625,
      "ĠØ¬Ù": 626,
      "ÙĦÙģØ": 627,
      "ÙĦÙĪ": 628,
      "ÙĨÙĩØ§": 629,
      "ĠØ§ÙĦÙħØª": 630,
      "¨ÙĨ": 631,
      "¨Øª": 632,
      "ÙĦØ³Ù": 633,
      "ĪØ±": 634,
      "Ø·Ø±": 635,
      "ÙĦØ´": 636,
      "ĠÙĦÙħ": 637,
      "§ÙĦØ´": 638,
      "ĠØ§Ø³Øª": 639,
      "ĩÙħ": 640,
      "Ø§ÙĦØ´": 641,
      "Ø±Øª": 642,
      "Ø¨ÙĨ": 643,
      "ÙĦØ§Øª": 644,
      "ØªØ±": 645,
      "ĤØª": 646,
      "Ø³ÙĬØ": 647,
      "ĠÙĬØª": 648,
      "§ÙĦØ³Ù": 649,
      "Ø§ÙĦØ³Ù": 650,
      "ĠØ£ÙĬ": 651,
      "§ÙĦÙģØ": 652,
      "Ø§ÙĦÙģØ": 653,
      "Ø¬Ø±": 654,
      "§Ø": 655,
      "Ø§Ø": 656,
      "Ø§Ø¨": 657,
      "Ø§Ø¹": 658,
      "ĠØ«": 659,
      "ĠØ§ÙĦÙĬ": 660,
      "ĠØ§ÙĦØ«": 661,
      "ĠØ§ÙĦØ´": 662,
      "ÙĥØ±": 663,
      "ĠØ§ÙĦÙĦÙĩ": 664,
      "ÙĨØ³": 665,
      "ĠØ§ÙĦØ³Ù": 666,
      "Ø¯ÙĬÙĨ": 667,
      "ÙħØª": 668,
      "ĤÙĦ": 669,
      "ĤÙĪ": 670,
      "ħØ«": 671,
      "Ø¦ÙĬ": 672,
      "ĠØ§ÙĦØ°ÙĬ": 673,
      "ÙĴ": 674,
      "ÙĦÙĬØ©": 675,
      "ĠÙĩØ°Ùĩ": 676,
      "§ÙĦÙĪ": 677,
      "ÙĨØ¸": 678,
      "ĠØŃÙĬ": 679,
      "Ø§ÙĦÙĪ": 680,
      "ĠØ§ÙĦÙģØ": 681,
      "ÙĤØª": 682,
      "ÙĦÙĩ": 683,
      "ĠÙĤØ": 684,
      "ØªÙ": 685,
      "Ø°Ø": 686,
      "Ġ..": 687,
      "ĠÙħØª": 688,
      "ÙĥÙĪÙĨ": 689,
      "Ø·Ø©": 690,
      "Ø·ÙĬ": 691,
      "Ø¹ÙĬ": 692,
      "ĤØ¯": 693,
      "ÙĪØ¨": 694,
      "Ø§ÙĬ": 695,
      "Ø®Øª": 696,
      "ÙĨØ¹": 697,
      "ĠØ®ÙĦ": 698,
      "Ø¬ÙĦ": 699,
      "ħÙĬØ©": 700,
      "ħÙĪ": 701,
      "ĠØ§ÙĦÙĪ": 702,
      "¨Ø¹Ø¯": 703,
      "Ø·ØŃÙĨ": 704,
      "ĠÙĩÙĪ": 705,
      "Ø¯ÙĬØ¯": 706,
      "ĠÙĤØ§": 707,
      "ĠÙĪØ§ÙĦÙ": 708,
      "Ø£ÙĨ": 709,
      "Ø¯ÙĬØ©": 710,
      "ĠØ§ÙĦØªØ": 711,
      "Ø³ÙĬØ§": 712,
      "ÙĪØ¹": 713,
      "ħÙĨØ§": 714,
      "Ø°Ø§": 715,
      "ÙĦØº": 716,
      "ĠÙĦØª": 717,
      "¹Ø¶": 718,
      "¨Ùĩ": 719,
      "ĠØ³Ø": 720,
      "ĠÙĦÙĬ": 721,
      "¹ÙĪ": 722,
      "ÙĦØ³Ø": 723,
      "ØµØ©": 724,
      "Ø¬ÙĬ": 725,
      "§ÙĦØ³Ø": 726,
      "³Ø§Ø±Ø©": 727,
      "Ø§ÙĦØ³Ø": 728,
      "ħØµ": 729,
      "ÙħØ¹": 730,
      "ÙĦÙħØ§": 731,
      "Ø§Ø¬": 732,
      "Ø³Ø©": 733,
      "Ø³Ø§Ø": 734,
      "ĠØ¨ÙĨ": 735,
      "Ø¨Ø¹Ø¯": 736,
      "Ø¯ÙĪ": 737,
      "ĠØ®ÙĦØ": 738,
      "ĠØ´Ø±": 739,
      "Ø¹Ø±": 740,
      "Ø³ÙĬØ©": 741,
      "ĠØ®ÙĦØ§": 742,
      "Ø¨Øª": 743,
      "§ÙĦØº": 744,
      "00": 745,
      "ĠØ³ÙĬ": 746,
      "Ø§ÙĦØº": 747,
      "Ø³ÙĦØ": 748,
      "ĠØªØ¹": 749,
      "ÙĦØ¬Ù": 750,
      "Ø§ÙĨØª": 751,
      "Ø±ÙĬØ": 752,
      "§ÙĦØ¬Ù": 753,
      "ĠØ§ÙĦØ³Ø": 754,
      "Ø§ÙĦØ¬Ù": 755,
      "Ø¨ÙĬØ": 756,
      "ĠØ°ÙĦ": 757,
      "ĠØ°ÙĦÙ": 758,
      "ĠØ°ÙĦÙĥ": 759,
      "ÙĦÙĨÙ": 760,
      "ÙĩÙĬ": 761,
      "±ÙĬÙ": 762,
      "§ÙĦÙĨÙ": 763,
      "Ø§ÙĦÙĨÙ": 764,
      "ÙĩÙĪ": 765,
      "ĠĠ": 766,
      "ĠØ§ÙĨ": 767,
      "ÙģØ±": 768,
      "Ø¶ÙĬ": 769,
      "ĠØ´Ø": 770,
      "ĠØ³": 771,
      "Ø¯Ø§Øª": 772,
      "§Ø¯": 773,
      "Ø¹Ø¶": 774,
      "ĠØ¨Ø¹Ø¯": 775,
      "ĠØ®Ø§": 776,
      "ĠØ£ÙĥØ": 777,
      "¬Ø©": 778,
      "ÙĦØ´Ø": 779,
      "ĠØªÙĤ": 780,
      "ĠâĢ": 781,
      "§ÙĦØ´Ø": 782,
      "ÙĤØ¯": 783,
      "ØŁ": 784,
      "Ø§ÙĦØ´Ø": 785,
      "ØµÙĬ": 786,
      "ĠÙĬÙĪ": 787,
      "ĠØ®ÙĦØ§ÙĦ": 788,
      "ĠÙĥØ§ÙĨ": 789,
      "§ÙĨÙĬ": 790,
      "ÙĨØ¨": 791,
      "ØŃØ±": 792,
      "ÙħØ³Øª": 793,
      "ĠØ§ÙĦØ¬Ù": 794,
      "Ġ201": 795,
      "ĠØ§ÙĦÙĨÙ": 796,
      "ÙĪØ³": 797,
      "§Ø«": 798,
      "ĠØ¨ÙĬÙĨ": 799,
      "ÙħØ§Øª": 800,
      "¨Ø§Ø±": 801,
      "ÙĦØ": 802,
      "§ÙĦØ": 803,
      "Ø§ÙĦØ": 804,
      "ĠØ§ÙĦØ": 805,
      "ĠØ§ÙĦØ¹": 806,
      "ĠØ§ÙĦØ§": 807,
      "ĠØ§ÙĦØ£": 808,
      "ÙĦØ§": 809,
      "ĠØ§ÙĦØ¨": 810,
      "ĠØ§ÙĦØ¹Ø": 811,
      "ĠØ§ÙĦØ¹Ø§": 812,
      "ĠØ§ÙĦØ¬": 813,
      "ĠØ§ÙĦØŃ": 814,
      "ÙĪØª": 815,
      "ĠÙĩÙĬ": 816,
      "ĠÙĬÙħ": 817,
      "ĠÙĪØ§ÙĦØª": 818,
      "ĠØ§ÙĦØ´Ø": 819,
      "¬Ø±": 820,
      "ÙĦØ´Ø±": 821,
      "§ÙĦØ´Ø±": 822,
      "ÙģØª": 823,
      "ÙħÙĬØ©": 824,
      "Ø§ÙĦØ´Ø±": 825,
      "§ÙĦÙħØ§": 826,
      "ĠØŃØ§": 827,
      "Ø§ÙĦÙħØ§": 828,
      "ÙĥØª": 829,
      "Ø¬Øª": 830,
      "Ø²Ø§": 831,
      "in": 832,
      "ĠØ§ÙĦØº": 833,
      "ØŃØ¯Ø": 834,
      "Ø·Ù": 835,
      "ÙĦØ®Ø§": 836,
      "ĠØ·Ø": 837,
      "§ÙĦØ®Ø§": 838,
      "Ø§ÙĦØ®Ø§": 839,
      "ÙĪÙĤØ": 840,
      "ĠØ¨ÙĦ": 841,
      "ĠØ§ÙĦÙħØ§": 842,
      "Ø·ÙĦØ": 843,
      "«Ø±": 844,
      "ØŃÙħØ¯": 845,
      "ĠØ¶": 846,
      "ÙĦÙĨØ§": 847,
      "ĠØ§ÙĦØ®Ø§": 848,
      "Ġ:": 849,
      "ħÙĩ": 850,
      "ĠØ§ÙĦÙħØ¹": 851,
      "ÙĨØ§Øª": 852,
      "§Ø¯Ø©": 853,
      "ĠØ§ÙĦØ´Ø±": 854,
      "20": 855,
      "ÙħÙĪØ§": 856,
      "Ø¯Ø±Ø": 857,
      "Ø´ÙĬ": 858,
      "£ÙĨÙĩ": 859,
      "ĠÙĥØ³Ø§Ø±Ø©": 860,
      "ĠÙģÙī": 861,
      "ħÙĬØ": 862,
      "§ÙĦÙī": 863,
      "ĠÂ": 864,
      "Ø§Ø¯Ø©": 865,
      "Ø³ÙĦØ§": 866,
      "§Ø±ÙĬ": 867,
      "ĠÙĪØ¨": 868,
      "ĠÙĦÙĦØ": 869,
      "ÙĦØ·Ø": 870,
      "ħÙĨØª": 871,
      "Ø§ÙĨÙĬ": 872,
      "ÙĨØ©": 873,
      "§ÙĦØ·Ø": 874,
      "ħØŃØ§": 875,
      "Ø¯Ø¯": 876,
      "Ø§ÙĦØ·Ø": 877,
      "er": 878,
      "Ø§ÙĦÙī": 879,
      "ÙĦÙħØ³Øª": 880,
      "§ÙĨÙ": 881,
      "§ÙĦÙħØ³Øª": 882,
      "Ø§ÙĦÙħØ³Øª": 883,
      "Ġ...": 884,
      "Ø§Ø¯": 885,
      "¨Ø§Øª": 886,
      "Ø¹ÙĦØ": 887,
      "§ÙĦÙĨØ§": 888,
      "Ø§ÙĦÙĨØ§": 889,
      "ħØ±Ø§": 890,
      "Ø¨Ùĩ": 891,
      "Ġ3": 892,
      "ĪØ§": 893,
      "Ø¹ÙĦØ§": 894,
      "Ø¯Ø¹": 895,
      "ÙĦØ¢": 896,
      "ĠØ§ÙĦÙħØ³Øª": 897,
      "§ÙĦØ¢": 898,
      "ĠØ¯Ø§": 899,
      "¹ÙĬØ©": 900,
      "±ÙĬØ": 901,
      "ÙĥØ³": 902,
      "Ø§ÙĦØ¢": 903,
      "ØŃÙĦ": 904,
      "±ÙĬÙĤ": 905,
      "Ø®Øµ": 906,
      "ÙħØ§ÙĦ": 907,
      "¨ÙĪ": 908,
      "ĠØ§ÙĦÙĨØ§": 909,
      "ĠÙĥÙħØ§": 910,
      "ĠØ£Ø³": 911,
      "ÙĦØ²": 912,
      "ĠÙĨØ": 913,
      "§ÙĦÙĩ": 914,
      "ĠÙħØ³Øª": 915,
      "ħØ§ÙĨ": 916,
      "ĠÙĦÙĦÙ": 917,
      "§Ø±Ø§Øª": 918,
      "¨ÙĬØ©": 919,
      "Ø´Ø§Ø±": 920,
      "Ø§ÙĦÙĩ": 921,
      "ĠØ§ÙĦØ¢": 922,
      "ĠØ§ÙĦØ·Ø": 923,
      "ÙĢÙĢ": 924,
      "ØŃØ¯Ø©": 925,
      "ĠØŃÙĬØ«": 926,
      "ĪØ¥": 927,
      "ĠØ¬Ø": 928,
      "ĠÙĪØ¥": 929,
      "ĤØ§Øª": 930,
      "Ø¯Ùī": 931,
      "ħØµØ±": 932,
      "Ø®ÙĦ": 933,
      "ĠØ¥ÙĨ": 934,
      "Ø§ØŃ": 935,
      "Ø¯ÙĦ": 936,
      "ÙĦØ³": 937,
      "ĪÙģ": 938,
      "ħØ³": 939,
      "ħØ³Ø": 940,
      "Ø¦ÙĬØ³": 941,
      "ÙĦÙĨ": 942,
      "Ø§Ø±Ø§Øª": 943,
      "ÙĨØ§Ø¡": 944,
      "ÙĦÙħØ±": 945,
      "ħÙĦÙĬ": 946,
      "ħÙĬØ¹": 947,
      "ÙĪØ¶": 948,
      "§ÙĦÙħØ±": 949,
      "Ø§ÙĦÙħØ±": 950,
      "Ø¯ÙħØ§": 951,
      "ØµØ¨": 952,
      "ĠØ§ÙĦØ¹Ø§ÙĦ": 953,
      "ÙĦØ¹ÙħÙĦ": 954,
      "Ø§ÙĨÙ": 955,
      "§ÙĦØ¹ÙħÙĦ": 956,
      "Ø§ÙĦØ¹ÙħÙĦ": 957,
      "ÙĦØ§Ø³Øª": 958,
      "ĠÙħØ±": 959,
      "ħØ«ÙĦ": 960,
      "§ÙĦØ§Ø³Øª": 961,
      "ÙĥÙħ": 962,
      "ÙĤØ§Øª": 963,
      "ĠØ§ÙĦÙĬÙĪÙħ": 964,
      "ÙĪØ±Ø©": 965,
      "Ø§ÙĦØ§Ø³Øª": 966,
      "Ø¯Ùĩ": 967,
      "¶ÙĦ": 968,
      "ĠØªÙħ": 969,
      "¨Ø¹Ø¶": 970,
      "ĠØ§ÙĦØ£Ø³": 971,
      "ªÙī": 972,
      "ĪØ²": 973,
      "ĠØ¨Ø±": 974,
      "Ø±Ø¨ÙĬØ©": 975,
      "ĠÙĤØ¨ÙĦ": 976,
      "ĠØ¹ÙħÙĦ": 977,
      "ĠÙĪÙĦØ": 978,
      "ÙĪÙĤØ¹": 979,
      "Ø¨ÙĬØ¹": 980,
      "ÙĦØŃØ§": 981,
      "ĠØ§ÙĦÙħØ±": 982,
      "ÙħÙĪØ": 983,
      "¨ÙĩØ§": 984,
      "ħØ§Ø±": 985,
      "ħØ¬Ù": 986,
      "ÙħÙĨØ§": 987,
      "ĠØ§ÙĦØ¹ÙħÙĦ": 988,
      "ĠÙĪØ±": 989,
      "§Ùģ": 990,
      "ĠØ²": 991,
      "ĠÙĤØ¯": 992,
      "ĠØ¹ÙĦÙĬÙĩ": 993,
      "ĠÙħÙĦ": 994,
      "¬Ø¯": 995,
      "Ø³Ø¨Ø": 996,
      "ĠØªØ±": 997,
      "ĠØ§ÙĦÙĩ": 998,
      "ĠØªØª": 999,
      "ĠØºÙĬØ±": 1000,
      "§ÙĦØ²": 1001,
      "Ø·ØŃÙĨØ©": 1002,
      "ÙİÙĳ": 1003,
      "ĤØ±": 1004,
      "Ø§ÙĦØ²": 1005,
      "ĠØ§ÙĦØ§Ø³Øª": 1006,
      "ĠÙħØŃ": 1007,
      "ÙĨÙĥ": 1008,
      "ÙĥØ§Øª": 1009,
      "¨Ø´": 1010,
      "ħØ±ÙĬ": 1011,
      "an": 1012,
      "ÙĨØ§Ù": 1013,
      "§ÙĦØŃØ§": 1014,
      "ħØ·ØŃÙĨØ©": 1015,
      "ĠÙģÙ": 1016,
      "Ø£ÙĨÙĩ": 1017,
      "Ø¯Ø§Ù": 1018,
      "Ø§ÙĦØŃØ§": 1019,
      "ÙĩØ¯": 1020,
      "§ÙĦÙĨ": 1021,
      "ÙĥØ§ÙĨ": 1022,
      "Ø§ÙĦÙĨ": 1023,
      "Ø¨Ø¹Ø¶": 1024,
      "Ø¨Ø´": 1025,
      "ĠØ·": 1026,
      "ĠÙĪÙĦØ§": 1027,
      "Â»": 1028,
      "¨Ø¯": 1029,
      "§Ø²": 1030,
      "ĠÙħØµ": 1031,
      "ĠØ¨Øª": 1032,
      "ĠØ§ÙĦØŃØ§": 1033,
      "ÙĥÙĬØ©": 1034,
      "Ø³ÙĨ": 1035,
      "ØºÙĬ": 1036,
      "ĠØ¨Ø´": 1037,
      "ĠØªÙĪ": 1038,
      "ØªÙħ": 1039,
      "ĠÙģØ±": 1040,
      "ØµÙĪÙĦ": 1041,
      "Ø±ÙĬØ§": 1042,
      "on": 1043,
      "ĠØ§ÙĦØ²": 1044,
      "ĠØŃØªÙī": 1045,
      "ÙĤÙĦ": 1046,
      "ĠÙĥØ§": 1047,
      "Ø³Ø±": 1048,
      "Ø¯ÙĨ": 1049,
      "ĠÙĬØ¹": 1050,
      "¬ÙĪ": 1051,
      "ħØ¬Ø§": 1052,
      "Ø¯ÙĬÙ": 1053,
      "Ø±Ø§Ø¡": 1054,
      "ĠØªØŃÙ": 1055,
      "ĠÙĥÙĬ": 1056,
      "ĠØ§ÙĦÙī": 1057,
      "Ø¯Øª": 1058,
      "ĠØ§ÙĦØªØ¹": 1059,
      "ĠÙĪØ§ÙĦÙħ": 1060,
      "ÙĦÙħÙĪØ§": 1061,
      "ĠØ¨Ø¹Ø¶": 1062,
      "ÙĥØ²": 1063,
      "ĤÙĪÙ": 1064,
      "ĠØ§ÙĦÙĨ": 1065,
      "§ÙĦÙħÙĪØ§": 1066,
      "Ø®ÙĬ": 1067,
      "Ø§ÙĦÙħÙĪØ§": 1068,
      "ÙĦÙħÙĦ": 1069,
      "Ø·Ø§Ø": 1070,
      "¹Ø§Øª": 1071,
      "§ÙĦØ§Øª": 1072,
      "ÙĨÙĬØ": 1073,
      "§ÙĦÙħÙĦ": 1074,
      "Ø§ÙĦÙħÙĦ": 1075,
      "Ø¯Ø§Ùħ": 1076,
      "ĠÙĤØ§ÙĦ": 1077,
      "Ø¬Ø¨": 1078,
      "ÙħÙĪ": 1079,
      "ħÙĨØ": 1080,
      "ÙħØ§ÙĨ": 1081,
      "ĤÙĪÙĦ": 1082,
      "Ø§ÙĦØ§Øª": 1083,
      "ĥÙĪ": 1084,
      "ÙĨÙĬÙĨ": 1085,
      "ØŃØ«": 1086,
      "ĠØ§ÙĦØ£Ø±": 1087,
      "ÙĩØ°Ø": 1088,
      "ħØŃÙħØ¯": 1089,
      "ĠÙĪØ£": 1090,
      "ÙĩØ°Ø§": 1091,
      "ĠØ¬Ø§": 1092,
      "ĠÙĦÙĩ": 1093,
      "ĠØ£ÙĨÙĩ": 1094,
      "ĠØ§ÙĦØªÙ": 1095,
      "ĠÙħØ·ØŃÙĨØ©": 1096,
      "ĠÙģÙĤ": 1097,
      "ĠÙħØ¨": 1098,
      "§ÙĪ": 1099,
      "ĠØ§ÙĦÙħÙĪØ§": 1100,
      "ĠÂ«": 1101,
      "ÙĪØ§Øª": 1102,
      "ĠØ£ÙĥØ«Ø±": 1103,
      "Ø¨Ø¯": 1104,
      "Ø¨ÙĩØ§": 1105,
      "ĠØ£ÙģØ": 1106,
      "ĠØ£Ø±": 1107,
      "ĠØ§ÙĦÙħÙĦ": 1108,
      "ÙĦÙĥÙ": 1109,
      "ĪÙĦØ©": 1110,
      "ÙĦÙħÙĨ": 1111,
      "ÙĩØ¨": 1112,
      "ØŃÙĤ": 1113,
      "ÙĦØ³ÙĬ": 1114,
      "§ÙĦÙħÙĨ": 1115,
      "ÙĪÙģ": 1116,
      "Ø§ÙĦÙħÙĨ": 1117,
      "Ø³ÙĪ": 1118,
      "or": 1119,
      "Ø§ÙĪ": 1120,
      "¨Ø¯Ø§": 1121,
      "°ÙĦ": 1122,
      "ï»": 1123,
      "ħØ´": 1124,
      "°ÙĦÙ": 1125,
      "°ÙĦÙĥ": 1126,
      "ØªÙĩ": 1127,
      "Ø¹ÙĦÙ": 1128,
      "ĪØ£Ù": 1129,
      "Ø®Ø±Ùī": 1130,
      "ĠÙĪØ£Ù": 1131,
      "§ÙĦÙĥÙ": 1132,
      "§Ø³": 1133,
      "Ø§ÙĦÙĥÙ": 1134,
      "ĠØ«Ù": 1135,
      "ħØ®Øª": 1136,
      "ĠØ¨Ùĩ": 1137,
      "ÙĬÙĦ": 1138,
      "Ø¦Ø©": 1139,
      "Ġ4": 1140,
      "ÙĤØ±": 1141,
      "¹Ø¯Ø¯": 1142,
      "ĠÙĬÙħÙĥÙĨ": 1143,
      "Ø·Ùħ": 1144,
      "¬Ø²": 1145,
      "Ġ5": 1146,
      "ÙģÙĬØ©": 1147,
      "ħÙĦØ©": 1148,
      "\".": 1149,
      "ĠÙĥØ¨ÙĬ": 1150,
      "Ø±Ø§Ù": 1151,
      "Ø¯ÙħØ©": 1152,
      "ħØº": 1153,
      "ĠØ§ÙĦØŃØ±": 1154,
      "ĠØ§ÙĦÙħÙĨ": 1155,
      "ar": 1156,
      "ĠØ§ÙĦØ¹Ø§Ù": 1157,
      "ĠØ³Øª": 1158,
      "ĪÙĩÙĪ": 1159,
      "ĠÙĪÙĩÙĪ": 1160,
      "Ø³Ø§Ø¨": 1161,
      "ĤÙĬØ©": 1162,
      "ØĽ": 1163,
      "Ġ0": 1164,
      "ĠØ£ÙĦ": 1165,
      "ħÙĪÙĤØ¹": 1166,
      "£Ø«": 1167,
      "ĠÙħØ¤": 1168,
      "ĠÙħØŃÙħØ¯": 1169,
      "ÙĨØ§Ùĥ": 1170,
      "ÙĤÙĬØ": 1171,
      "ĠÙģØ¥": 1172,
      "ĪÙĦÙĬ": 1173,
      "Ø³Ø¨Ø¨": 1174,
      "¹Ø§Ø±": 1175,
      "Ø¯Ø±Ø§": 1176,
      "Ø¯ÙĬØ¯Ø©": 1177,
      "§Ø·": 1178,
      "§ÙĦØ³ÙĬ": 1179,
      "ĠØ§ÙĨØª": 1180,
      "Ø§ÙĦØ³ÙĬ": 1181,
      "ĠÙħÙĪØ§": 1182,
      "ĠÙĪØ³": 1183,
      "ÙĦØ³ÙĬØ§": 1184,
      "ÙħØ¬": 1185,
      "§ÙĦØ³ÙĬØ§": 1186,
      "ĠØ§ÙĦÙĥÙ": 1187,
      "Ø§ÙĦØ³ÙĬØ§": 1188,
      "¨Ø§Ø¨": 1189,
      "Ø§Ø²": 1190,
      "Ø¹ÙĬØ©": 1191,
      "Ø¨Ø¯Ø§": 1192,
      "Ø±Ø¬": 1193,
      "ħÙĨÙ": 1194,
      "ħØ¹": 1195,
      "ÙħÙĬÙĨ": 1196,
      "ĠÙħÙĪØ": 1197,
      "ÙĪÙī": 1198,
      "ÙģØ§Øª": 1199,
      "es": 1200,
      "ÙĪØ·": 1201,
      "ĠÙĪØ²": 1202,
      "ÙĦÙĪØ§": 1203,
      "ØŃÙĪ": 1204,
      "ĠØ§ÙĦØ³ÙĬØ§": 1205,
      "Ø¨Ø§Øª": 1206,
      "ÙĩÙĦ": 1207,
      "Ø¯Ø³": 1208,
      "at": 1209,
      "ØŃØ¨": 1210,
      "ĠÙħÙĬ": 1211,
      "ĠØ¥Ø°Ø§": 1212,
      "Ø¯ÙĬØ±": 1213,
      "ĠA": 1214,
      "¨Ø§ÙĦØ": 1215,
      "ĠØ§Øª": 1216,
      "ĤØ¯Ùħ": 1217,
      "ĠÙĨØ¸": 1218,
      "ĠÙĥØ§ÙĨØª": 1219,
      "Ø¯ÙĬØ«": 1220,
      "Ø¯Ùģ": 1221,
      "Ø®Ø¯Ø§Ùħ": 1222,
      "ĠÙħØµØ±": 1223,
      "ØŃØ¯Ø«": 1224,
      "Ø¨Ø§ÙĦØ": 1225,
      "ĠØªØµ": 1226,
      "ÙĦØ§Ø«": 1227,
      "ħØ´Ø±": 1228,
      "ÙĦÙħÙĨØ§": 1229,
      "ÙĦØ¨": 1230,
      "Ġ,": 1231,
      "§ÙĦÙħÙĨØ§": 1232,
      "§Ø©": 1233,
      "ĪÙģÙĬ": 1234,
      "Ø¹Ø¯Ø¯": 1235,
      "ĠØ³Ø§": 1236,
      "Ø§ÙĦÙħÙĨØ§": 1237,
      "ÙģØ¹": 1238,
      "ħØ´Ø§": 1239,
      "ĠÙĬØªÙ": 1240,
      "ĠØ¥Ø": 1241,
      "ĠØªÙĦ": 1242,
      "±ÙĬÙĨ": 1243,
      "Ġ|": 1244,
      "Ø¯ÙĪØ": 1245,
      "ĠØ¨Ø§ÙĦØ": 1246,
      "ĠØ§ÙĦØ³ÙĬ": 1247,
      "Ø¬Ùĩ": 1248,
      "§Ø¹": 1249,
      "ĠÙĬÙĥÙĪÙĨ": 1250,
      "ÙĤÙ": 1251,
      "Ø§Ø·": 1252,
      "al": 1253,
      "ÙĤÙĪ": 1254,
      "ĠØ¢ÙĦØ©": 1255,
      "ÙĩØ§Øª": 1256,
      "ĠØ«Ùħ": 1257,
      "Ø±Ø¹": 1258,
      "Ø¬ÙĦØ³": 1259,
      "ĠØ¬ÙħÙĬØ¹": 1260,
      "¨Ø·": 1261,
      "ĠØ¨Ø´ÙĥÙĦ": 1262,
      "ĠÙĦÙĦØª": 1263,
      "ÙħÙĨØª": 1264,
      "ĠØ§ÙĦÙģØ±": 1265,
      "ïº": 1266,
      "ĠØ¯ÙĬ": 1267,
      "ÙĦØ¨ÙĬ": 1268,
      "en": 1269,
      "ĠØ¨ÙĩØ§": 1270,
      "ĤÙĬÙ": 1271,
      "ĠÙħØ«ÙĦ": 1272,
      "Ø§Ø³": 1273,
      "ÙħÙĩ": 1274,
      "ĠÙĪØ¹": 1275,
      "Ø§Ùģ": 1276,
      "¶Ø": 1277,
      "ĠØŃØ±": 1278,
      "ĠØ§ÙĦØ§Øª": 1279,
      "ÙĪØ²": 1280,
      "Ø®Ø¨": 1281,
      "ÙĦØ¨ÙĦ": 1282,
      "Ø·ÙĤØ©": 1283,
      "ĠØ§ÙĦØ¹Ø§ÙĦÙ": 1284,
      "Ø§Ø©": 1285,
      "§ÙĦØ¨ÙĦ": 1286,
      "ĠÙħØŃØ·Ùħ": 1287,
      "Ø§ÙĦØ¨ÙĦ": 1288,
      "ĠØ§ÙĦØŃØ¬Ø±": 1289,
      "ĠØ§ÙĦØ¹Ø§ÙĦÙħ": 1290,
      "ØŃÙĬØ©": 1291,
      "ĠP": 1292,
      "Ø¬ØªÙħØ§": 1293,
      "ÙħØ§Ø±": 1294,
      "ĠØ§ÙĦÙħÙĨØ§": 1295,
      "ĠØ§ÙĦØ¹Ø§Ùħ": 1296,
      "Ø·Ø¹": 1297,
      "§Ùĩ": 1298,
      "ĠØ´ÙĬ": 1299,
      "ÙĪØ¬": 1300,
      "ÙħØµ": 1301,
      "ħØ¬ÙħÙĪØ": 1302,
      "ĠĠĠĠ": 1303,
      "ÙĦØ¬Ø§": 1304,
      "ĠÙĨØ§": 1305,
      "Ø¯ÙĬÙĨØ©": 1306,
      "Ø¯Ø§Ø±": 1307,
      "§ÙĦØ¬Ø§": 1308,
      "ħØµØ§": 1309,
      "Ø§ÙĦØ¬Ø§": 1310,
      "ÙĨÙī": 1311,
      "ÙĦØ¶": 1312,
      "¨Ø±Ø§": 1313,
      "ĠÙģØª": 1314,
      "ÙĦØ§ÙĨØª": 1315,
      "§ÙĦØ¶": 1316,
      "Ø§ÙĦØ¶": 1317,
      "Ø¬Ø§Øª": 1318,
      "¹Ø¨Ø¯": 1319,
      "ĠØ§ÙĦØ¨ÙĦ": 1320,
      "ÙĦÙħÙĪØ": 1321,
      "Ø±Ø£": 1322,
      "ĠØ£Ø¹": 1323,
      "ĠS": 1324,
      "Ø¯ÙĨÙ": 1325,
      "§ÙĦØ§ÙĨØª": 1326,
      "ĠâĢĵ": 1327,
      "§ÙĦÙħÙĪØ": 1328,
      "ÙĦÙĬØ": 1329,
      "¨Ø¯Ø": 1330,
      "Ø§ÙĦØ§ÙĨØª": 1331,
      "§ÙĦÙĪØ§": 1332,
      "ÙĦÙħÙĬ": 1333,
      "Ø§ÙĦÙħÙĪØ": 1334,
      "ĠÙĬØªÙħ": 1335,
      "ÙĩØª": 1336,
      "Ø®Ø¯Ùħ": 1337,
      "Ø·Ø¨ÙĬ": 1338,
      "Ø§ÙĦÙĪØ§": 1339,
      "ĠØ·ØŃÙĨ": 1340,
      "ØªØ§": 1341,
      "¨ÙĨØ§": 1342,
      "ĠØ¸": 1343,
      "ĠÙħÙĨØ§": 1344,
      "ĠØ³ÙĦ": 1345,
      "ĠØ§ÙĦÙĦØ": 1346,
      "Ø¹Ø¨Ø¯": 1347,
      "ĠØ²ÙĬ": 1348,
      "ħØ¯ÙĬÙĨØ©": 1349,
      "ØµÙģ": 1350,
      "ĥÙħ": 1351,
      "ħØ¬ÙĦØ³": 1352,
      "ĠÙħÙĨØ": 1353,
      "Ø´Ø©": 1354,
      "«ÙĬØ±": 1355,
      "ÙģØ¸": 1356,
      "ÙĨÙģ": 1357,
      "Ø¯Ø§ÙĪÙĦ": 1358,
      "ĠØ§ÙĦÙħØ¤": 1359,
      "Ġt": 1360,
      "Ø²Ø©": 1361,
      "Ø²ÙĦ": 1362,
      "Ø³ÙĦØ§Ù": 1363,
      "ħÙĩØ§": 1364,
      "ĤØ±Ø§": 1365,
      "ÙĦØ·": 1366,
      "ĠÙĪÙģÙĬ": 1367,
      "Ø´Øª": 1368,
      "ÙħØ±Ø§": 1369,
      "ÙĪØ§Ø": 1370,
      "ĠØ§ÙĦØ¬Ø§": 1371,
      "ĠÙģÙĬÙĩØ§": 1372,
      "ĪÙħÙĨ": 1373,
      "§ÙĦÙħÙĬ": 1374,
      "Ø¯ÙĩØ§": 1375,
      "Ø§ÙĦÙħÙĬ": 1376,
      "ĠØ§ÙĦØ³Ø¹ÙĪ": 1377,
      "ĠÙĪÙħÙĨ": 1378,
      "ĠØ§ÙĦØ§ÙĨØª": 1379,
      "ĠÙĬÙĪÙ": 1380,
      "ÙĪÙĦØ©": 1381,
      "ÙĨÙĬØ§": 1382,
      "ĠØ³ÙĨ": 1383,
      "ĠØ¹Ø¨Ø¯": 1384,
      "ĠØŃÙĪÙĦ": 1385,
      "ĠØ§ÙĦÙĪØ·": 1386,
      "ĠØªØŃØª": 1387,
      "ĠÙĥØª": 1388,
      "ÙĪÙĬØ©": 1389,
      "ĠØ¬ÙĬ": 1390,
      "¬ÙĦ": 1391,
      "ÙħØŃØ§": 1392,
      "ĠØ§Ø¹": 1393,
      "ĠÙĨÙģ": 1394,
      "ĠØ§ÙĦÙħÙĪØ": 1395,
      "Ø§Ø±ÙĬ": 1396,
      "Ø³ÙĦØ§Ùħ": 1397,
      "ÙĤÙĬØ§": 1398,
      "21": 1399,
      "ĠØ§ÙĦØ¯ÙĪÙĦ": 1400,
      "ĠØ£ÙħØ§": 1401,
      "ĠC": 1402,
      "Ø¯ÙĬÙħ": 1403,
      "ĠØ£Ø³Ø": 1404,
      "ĠÙĦÙĦØ¨ÙĬØ¹": 1405,
      "ÙĨÙĪ": 1406,
      "ĠÙĦØ¥": 1407,
      "ÙĦØ³Ø§": 1408,
      "ĤØ¨ÙĦ": 1409,
      "Ø£Ø³": 1410,
      "ĤÙĪÙħ": 1411,
      "¨Ø§ÙĦØª": 1412,
      "ĠÙģÙĬÙĩ": 1413,
      "ÙģØ¶": 1414,
      "ĠØ¹ÙĨØ¯": 1415,
      "ĠM": 1416,
      "Ø³ÙĥØ": 1417,
      "ĠØŃØ³": 1418,
      "ÙħØ³": 1419,
      "Ġ19": 1420,
      "Ø¬Ø©": 1421,
      "ĠÙĬÙĪÙħ": 1422,
      "ĠÙĩÙĨØ§Ùĥ": 1423,
      "ĠØ§ÙĦÙĪØ§": 1424,
      "ĠØµØ§": 1425,
      "ĠØ´Ø§": 1426,
      "Ùį": 1427,
      "§ÙĦØ³Ø§": 1428,
      "ĠØ£Ø¨": 1429,
      "ĠØ§ÙĦØ¹Ø±Ø¨ÙĬØ©": 1430,
      "Ø¨Ø§ÙĦØª": 1431,
      "Ø§ÙĦØ³Ø§": 1432,
      "¹Ø¨Ø±": 1433,
      "ic": 1434,
      "Ø²ÙĬØ¯": 1435,
      "§ÙĦØ³": 1436,
      "§ÙĦØ¨ÙĬ": 1437,
      "§ÙĨÙĬØ©": 1438,
      "ĠØ§ÙĦØ¶": 1439,
      "ÙĦÙĥØ§": 1440,
      "ĠØ±Ø¦ÙĬØ³": 1441,
      "ÙĥÙĪ": 1442,
      "Ø§ÙĦØ³": 1443,
      "Ø§ÙĦØ¨ÙĬ": 1444,
      "ĠØªØ³Øª": 1445,
      "ħØ®ØªÙĦÙģ": 1446,
      "ÙĨÙĤ": 1447,
      "ħØŃÙ": 1448,
      "Ø³Ø§Øª": 1449,
      "ÙģÙ": 1450,
      "ĠÙħØ¬Ø§": 1451,
      "Ø¹Ø¨Ø±": 1452,
      "ĠØ¹Ø±": 1453,
      "ĤØ§Ø¦": 1454,
      "ÙĤØªØµØ§": 1455,
      "Ø¹ÙĦÙħ": 1456,
      "ĠÙħØ³Ø": 1457,
      "§ÙĦÙĥØ§": 1458,
      "ħÙĨÙĩØ§": 1459,
      "ĠØ·Ø§": 1460,
      "ĩÙĦ": 1461,
      "ĠØ¨Ø§ÙĦØª": 1462,
      "ĠÙĬØ³Øª": 1463,
      "§ÙĦØ·": 1464,
      "ĠÙħØŃØ§": 1465,
      "Ø§ÙĦÙĥØ§": 1466,
      "Ø¶Ø§ÙģØ©": 1467,
      "Ø¯Ø§Ø±Ø©": 1468,
      "ĠÙĤÙĬ": 1469,
      "Ø§ÙĦØ·": 1470,
      "ĠØ§ÙĦØ£Ø³Ø": 1471,
      "ĠÙĦÙĩØ§": 1472,
      "ĠØ¥ÙĦØ§": 1473,
      "Ø·Ø¨": 1474,
      "ĠØ§ÙĦØ³Ø§": 1475,
      "Ø³ÙĦÙ": 1476,
      "Ø§Ùĩ": 1477,
      "ÙĦØ´Ø§": 1478,
      "ÙĩØ²": 1479,
      "ĠØ¥ÙĦÙĬ": 1480,
      "ÙĦÙģÙĬ": 1481,
      "§ÙĦØ´Ø§": 1482,
      "ÙĪØ©": 1483,
      "Ø§ÙĦØ´Ø§": 1484,
      "Ø¶ÙĬØ©": 1485,
      "ĠØ¹Ø¨Ø±": 1486,
      "ÙĦÙĪØ": 1487,
      "¨Ø¥": 1488,
      "ħÙĥØ§": 1489,
      "ØªÙĩØ§": 1490,
      "ĠØ¯ÙĪÙĦ": 1491,
      "ĠØ³ÙĪØ": 1492,
      "Ø¨Ø¥": 1493,
      "Ġ6": 1494,
      "ÙĦÙħÙĨØª": 1495,
      "ĤÙĬÙĤ": 1496,
      "§ÙĦÙħÙĨØª": 1497,
      "Ø§ÙĦÙħÙĨØª": 1498,
      "ÙħØ§Ù": 1499,
      "ĠØ§ÙĦØ³": 1500,
      "Ø®Ø¨Ø§Ø±": 1501,
      "ĠØ´Ø±ÙĥØ©": 1502,
      "Ġ/": 1503,
      "ÙħØº": 1504,
      "ĠÙĦÙĥ": 1505,
      "Ø´Ùģ": 1506,
      "ĠÙĪÙĦÙĥÙĨ": 1507,
      "ģØ±": 1508,
      "Ø£ÙĬ": 1509,
      "¬Ùĩ": 1510,
      "ĠÙĪØ£Ø": 1511,
      "ĠØ¨Ø¥": 1512,
      "§ÙĬØ©": 1513,
      "§Ø±Øª": 1514,
      "£ÙĨÙĩØ§": 1515,
      "§ÙĦÙĬØ©": 1516,
      "ÙĤØ±Ø§": 1517,
      "§Ø³Ùħ": 1518,
      "ĠÙĥÙĨ": 1519,
      "£Ø®": 1520,
      "Ġp": 1521,
      "Ø¯Ø§Ø¡": 1522,
      "ĠÙĥ": 1523,
      "Ø¯Ø§Ø¯": 1524,
      "ĠÙħØ¨Ø": 1525,
      "ĠØ§ÙĦØ·": 1526,
      "ĠØªÙĦÙ": 1527,
      "ĠØ§ÙĦØ¨ÙĬ": 1528,
      "ÙĦÙĨØ¸": 1529,
      "ĠÙħÙĦÙĬ": 1530,
      "§ÙĦÙĨØ¸": 1531,
      "ĠØ§ÙĦØ´Ø§": 1532,
      "ħØ±Ø©": 1533,
      "Ø§ÙĦÙĨØ¸": 1534,
      "ħØ³Ø§": 1535,
      "Ø°ÙĦ": 1536,
      "Ø§Ø¦Ø": 1537,
      "ÙĦÙĨØ³": 1538,
      "ÙħÙĦØ©": 1539,
      "ħØ´Ø±ÙĪØ¹": 1540,
      "ĠØ§ÙĦÙħØªØŃØ¯Ø©": 1541,
      "Ø³ÙĦÙħ": 1542,
      "Ø¯Ø±Ø©": 1543,
      "ÙĦØ¹Ø±": 1544,
      "§ÙĦÙĨØ³": 1545,
      "ĠØ§ÙĦÙħÙĨØª": 1546,
      "ĠÙħØ¨Ø§": 1547,
      "Ø§ÙĦÙĨØ³": 1548,
      "§ÙĦØ¹Ø±": 1549,
      "Ø§ÙĦØ¹Ø±": 1550,
      "§Ø±ÙĬØ®": 1551,
      "ÙĩÙħØ§": 1552,
      "ĠØ¹Ø¯Ø¯": 1553,
      "ÙĦÙĨØ": 1554,
      "ÙĦØ¨Ø±": 1555,
      "ÙĤØ¨ÙĦ": 1556,
      "ÙĦØ¹ÙĦ": 1557,
      "Ø·Ø§Ø¹": 1558,
      "it": 1559,
      "§ÙĦØ¨Ø±": 1560,
      "Ø¯ÙĤ": 1561,
      "ĠØ§ÙĦØ£ÙĪÙĦ": 1562,
      "Ø§ÙĦØ¨Ø±": 1563,
      "ĠØ¥ÙĬ": 1564,
      "Ø³Ùĩ": 1565,
      "ÙħØ§Ùħ": 1566,
      "Ø·ÙĦØ¨": 1567,
      "ÙĨÙħØ§": 1568,
      "ØºØ": 1569,
      "§ÙĦØ¹ÙĦ": 1570,
      "§ÙĦÙĨØ": 1571,
      "Ø§ÙĦØ¹ÙĦ": 1572,
      "ÙĦÙħØµ": 1573,
      "ħØ¬ÙħÙĪØ¹Ø©": 1574,
      "ħÙĪØ±": 1575,
      "ÙĦÙħØº": 1576,
      "§ÙĦÙħØµ": 1577,
      "Ø§ÙĦÙĨØ": 1578,
      "Ø§ÙĦÙħØµ": 1579,
      "ĠÙĪÙģ": 1580,
      "¹Ø±Ùģ": 1581,
      "£ØŃØ¯": 1582,
      "§ÙĦÙħØº": 1583,
      "ÙĩØ¯Ø": 1584,
      "Ø§ÙĦÙħØº": 1585,
      "ÙĦØ³ÙĦ": 1586,
      "Ø¯Ø§ÙĨ": 1587,
      "ĥÙĪÙħØ©": 1588,
      "Ø¯ÙĪÙĨ": 1589,
      "§ÙĦØ³ÙĦ": 1590,
      "°Ø": 1591,
      "ĠØ§ÙĦÙħÙĬ": 1592,
      "Ø§ÙĨÙĬØ©": 1593,
      "Ø°ÙĬ": 1594,
      "Ø¬Ø§Ø±": 1595,
      "Ø§ÙĦØ³ÙĦ": 1596,
      "Ø§Ø±Øª": 1597,
      "ÙĨÙĩÙħ": 1598,
      "¹Ø§Ø¯Ø©": 1599,
      "ĠÙĩØ§": 1600,
      "Ø´Ø±Ø©": 1601,
      "ÙĪØ§ÙĨ": 1602,
      "Ø·Ø§Ø±": 1603,
      "ĠÙĪØªØ": 1604,
      "ĠØ§ÙĦØŃÙĬ": 1605,
      "ĪÙĤØ¯": 1606,
      "ĠØŃÙĦ": 1607,
      "ĠÙĪÙĤØ¯": 1608,
      "Ø¯Ø¹Ù": 1609,
      "ÙĨØ¯": 1610,
      "ĠØ§ÙĦØ³ÙĪ": 1611,
      "Ø¹ÙĦÙĬÙ": 1612,
      "«ÙĬ": 1613,
      "ĠØ§ÙĦØ°ÙĬÙĨ": 1614,
      "ĠØªØŃ": 1615,
      "§ÙĦÙģÙĬ": 1616,
      "ÙĦØ¯Ø§": 1617,
      "ÙĨØ¸ÙĬ": 1618,
      "ĠØ§ÙĦØ´ÙĬ": 1619,
      "ĪÙĩÙĬ": 1620,
      "ĠÙĪÙĩÙĬ": 1621,
      "ÙħÙĦÙĬ": 1622,
      "ĠØ§ÙĦØ¹Ø±": 1623,
      "Ø§Ø³Ùħ": 1624,
      "ÙĦØ¬ÙĬ": 1625,
      "Ø±Ø§Ø¦": 1626,
      "Ø§ÙĦÙģÙĬ": 1627,
      "ĠØ§ÙĦØ¹ÙĦ": 1628,
      "ĠØªÙĥÙĪÙĨ": 1629,
      "Ø¨ÙĪ": 1630,
      "ÙĨØ§ÙħØ¬": 1631,
      "Ø³ÙħØ": 1632,
      "ÙĤÙĬØ©": 1633,
      "§ÙĦØ¯Ø§": 1634,
      "ØªØ¨": 1635,
      "§ÙĦØ¬ÙĬ": 1636,
      "Ø§ÙĦØ¯Ø§": 1637,
      "±ÙĬÙĤØ©": 1638,
      "ĠØ§ÙĦÙĨØ¸": 1639,
      "Ø§ÙĦØ¬ÙĬ": 1640,
      "ĠØ§ÙĦÙħØ¨": 1641,
      "ĠÙģÙĤØ·": 1642,
      "ÙĦØªØ±": 1643,
      "ÙģÙĤ": 1644,
      "\"ØĮ": 1645,
      "ĤÙĦÙĬ": 1646,
      "ĠÙħÙĪÙĤØ¹": 1647,
      "¹Ø¯Ø©": 1648,
      "...": 1649,
      "ØµØ±ÙĬ": 1650,
      "ĠÙħÙĨØ°": 1651,
      "ħØ´Ø§Ø±": 1652,
      "ĠÙħÙĨØª": 1653,
      "£Ø®Ø±Ùī": 1654,
      "ĠØ§ÙĦØ´Ø¹": 1655,
      "et": 1656,
      "ou": 1657,
      "ØŃØ³": 1658,
      "om": 1659,
      "ĠØ§ÙĦØ¨Ø±": 1660,
      "Ø¦Ø": 1661,
      "ÙħØ³Ø": 1662,
      "ĠØ§ÙĦÙħØµ": 1663,
      "¨ÙħØ§": 1664,
      "ÙĦÙĩØ§": 1665,
      "ĠØ£ÙĪÙĦ": 1666,
      "ĠØ£ÙĬØ¶Ø§": 1667,
      "ÙĪÙĦÙĬ": 1668,
      "¹ÙĦÙĪ": 1669,
      "Ø§Ø¦ÙĬ": 1670,
      "Ġ10": 1671,
      "Ø¨ÙħØ§": 1672,
      "Ġ8": 1673,
      "ĠØ§ÙĦÙĨØ": 1674,
      "ĠØ§ÙĦØ³ÙĦ": 1675,
      "ĠÙħÙĪ": 1676,
      "Ġ)": 1677,
      "Ø¯Ø¹Ùħ": 1678,
      "ħÙĬØ±": 1679,
      "ĠÙĪØ§ÙĦØ¹": 1680,
      "ĠÙģØ¥ÙĨ": 1681,
      "ĠØ§ÙĦÙĥØ±Ø©": 1682,
      "ĠØ§ÙĬ": 1683,
      "ÙħØ«": 1684,
      "Ø£Ø®Ø±Ùī": 1685,
      "ĠØ§ÙĦØ¯Ø§": 1686,
      "§ÙĦØªØ±": 1687,
      "ĠÙħØµÙĨØ¹": 1688,
      "ĠØ®Ø·": 1689,
      "Ø§ÙĦØªØ±": 1690,
      "ĠØ¹ÙĦ": 1691,
      "ĠØ§ÙĦÙģÙ": 1692,
      "ĠØ£ÙģØ¶ÙĦ": 1693,
      "Ø¬ØªÙħØ¹": 1694,
      "ÙĦÙĪÙĤ": 1695,
      "ĠØ§ÙĦÙĥØ§": 1696,
      "ĠÙĪØº": 1697,
      "¨Ø±ÙĬ": 1698,
      "ĠØ£Ø®Ø±Ùī": 1699,
      "Ø¬Ø±Ø§Ø¡": 1700,
      "ĠÙħÙĨÙĩØ§": 1701,
      "Ø³ÙĬÙĨ": 1702,
      "§ÙĦÙĪÙĤ": 1703,
      "ÙĨÙģÙĬ": 1704,
      "ØŃØ§Øª": 1705,
      "ĠØ§ÙĦÙħØº": 1706,
      "Ø§ÙĦÙĪÙĤ": 1707,
      "ĠØ¹ÙĦÙĬÙĩØ§": 1708,
      "is": 1709,
      "ĠØ§ÙĦØ¬ÙĬ": 1710,
      "ĤØµ": 1711,
      "ĤÙī": 1712,
      "Ø³ÙĬØ±": 1713,
      "ĠØ§ÙĪ": 1714,
      "ÙģØ§ÙĦ": 1715,
      "ÙĪÙĨÙĬ": 1716,
      "ĠØ§ÙĦØ°ÙĩØ¨": 1717,
      "ĠØªØ´": 1718,
      "ØµØ¨Ø": 1719,
      "Ø°ÙĦÙ": 1720,
      "ÙĤÙħ": 1721,
      "Ø°ÙĦÙĥ": 1722,
      "Ġs": 1723,
      "Ø·ÙĤ": 1724,
      "Ġ7": 1725,
      "ĠØ§ÙĦÙĪÙĤ": 1726,
      "ĠÙĪØ§ÙĦØªÙĬ": 1727,
      "ĠØªÙĦÙĥ": 1728,
      "ģØ¹": 1729,
      "ÙħÙĬÙ": 1730,
      "ĠÙĪØ§ÙĦØ¥": 1731,
      "Ø£Ø«": 1732,
      "ħÙĥÙĨ": 1733,
      "ĠÙĬÙħÙ": 1734,
      "ĥØª": 1735,
      "ĠÙĬÙħÙĥ": 1736,
      "Ø¶Ø¹": 1737,
      "ĠØ¯ÙĪÙĨ": 1738,
      "ĠÙĬØ¬Ø¨": 1739,
      "ÙĦØ¯": 1740,
      "Ø£ØŃØ¯": 1741,
      "ÙĪÙĬØ±": 1742,
      "ĠÙĪØ°ÙĦÙĥ": 1743,
      "ÙĦØ±ÙĬØ§": 1744,
      "ÙĪÙģÙĬ": 1745,
      "ØªØ¨Ø±": 1746,
      "§ÙĦØ±ÙĬØ§": 1747,
      "ĤØ§Ø¡": 1748,
      "ĠØ§ÙĦØªØ±": 1749,
      "Ø§ÙĦØ±ÙĬØ§": 1750,
      "Ø¶Ø©": 1751,
      "ÙĦÙħØŃØ§": 1752,
      "ÙĤÙĪÙĦ": 1753,
      "§ÙĦÙħØŃØ§": 1754,
      "ĠÙĦÙĥÙĨ": 1755,
      "ÙĪÙĥ": 1756,
      "ĪØ±ÙĬ": 1757,
      "Ø§ÙĦÙħØŃØ§": 1758,
      "ÙĪØ¯": 1759,
      "ed": 1760,
      "ÙĦØµØ": 1761,
      "Ø¨ÙĬÙĨ": 1762,
      "Ġc": 1763,
      "ĠÙĦØ¹": 1764,
      "ĠØªØ¨": 1765,
      "Ø§ÙĦÙĬØ©": 1766,
      "ħÙĬÙĨ": 1767,
      "ĠÙĪÙĦÙ": 1768,
      "201": 1769,
      "§ÙĦØµØ": 1770,
      "ØŃØ©": 1771,
      "ĠØ§ÙĦØ£ÙĪ": 1772,
      "ĠØ³ÙĬØ§": 1773,
      "Ø§ÙĦØµØ": 1774,
      "ĠØ§ÙĦÙĪØ²": 1775,
      "ħÙħØ§": 1776,
      "²Ø": 1777,
      "ħÙĨØ¸": 1778,
      "ĠØ§ÙĦØ³Ø¹ÙĪØ¯ÙĬØ©": 1779,
      "ÙĦÙĪÙĦ": 1780,
      "ĠØ§ÙĦÙģÙĬ": 1781,
      "ĠÙħÙĨÙ": 1782,
      "¬ÙĪØ¯": 1783,
      "ħØª": 1784,
      "§ÙĦÙĪØ": 1785,
      "¨Ø§ÙĦØ¥": 1786,
      "§ÙħÙĦ": 1787,
      "Ø¨Ø§ÙĦØ¥": 1788,
      "Ø·ÙĦØ§": 1789,
      "Ø§ÙĦÙĪØ": 1790,
      "ÙĪØ±ÙĬ": 1791,
      "âĢı": 1792,
      "Ø³Ø¨Ø©": 1793,
      "Ø§ÙħÙĦ": 1794,
      "ĠÙĨÙĪØ": 1795,
      "ÙĩØ§Ø": 1796,
      "ĠØ³Ø¹Ø±": 1797,
      "¹ÙĦÙĪÙħØ§Øª": 1798,
      "ģØ³": 1799,
      "ħØŃÙħ": 1800,
      "ÙĥØ±Ø©": 1801,
      "ĠØ£ØŃØ¯": 1802,
      "ĠÙĬØ±": 1803,
      "ÙĩØ°Ùĩ": 1804,
      "ĠÙĬØ§": 1805,
      "ĠØ¢Ø®Ø±": 1806,
      "§ØŃØª": 1807,
      "ĠÙĦÙĪ": 1808,
      "ĠØµØ": 1809,
      "±ÙĬØ§": 1810,
      "ĪØ£ÙĨ": 1811,
      "ĠÙĪØ£ÙĨ": 1812,
      "§Ø®Øª": 1813,
      "ħÙĬÙĦ": 1814,
      "Ø¯ÙħØ§Øª": 1815,
      "ÙĦØ¬Ø": 1816,
      "ĠØ¹ÙħÙĦÙĬØ©": 1817,
      "ÙĨÙĪØ§Øª": 1818,
      "ħØ¶": 1819,
      "ØºÙ": 1820,
      "ÙĦØ§Ù": 1821,
      "ĠØ°Ø§Øª": 1822,
      "Ø®Ø±Ø": 1823,
      "ĪÙħØ§": 1824,
      "ħØ²": 1825,
      "ĠT": 1826,
      "ÙħÙĥÙĨ": 1827,
      "ÙĨØªØ§Ø¬": 1828,
      "ÙĦØ·Ø§": 1829,
      "ĠØ¨ÙĬØ": 1830,
      "Ø·ÙĬØ": 1831,
      "as": 1832,
      "ØºÙħ": 1833,
      "ĠØ·Ø±": 1834,
      "Ø§Ø¦ÙĬØ©": 1835,
      "ĠØ®Ø§Ù": 1836,
      "ÙĪØ¬ÙĬ": 1837,
      ").": 1838,
      "ĠÙĨÙĬ": 1839,
      "Ø£ÙĥØ": 1840,
      "ĠØ³Ø¨": 1841,
      "ÙħØ¹Ø©": 1842,
      "ĠØ§ÙĦØµØ": 1843,
      "ĪÙĥØ": 1844,
      "ØºÙĬØ±": 1845,
      "ħØ³Ø§Ø": 1846,
      "ĠÙĬÙĤ": 1847,
      "ĠØ§ÙĦÙħØŃØ§": 1848,
      "Ø³Ø¹": 1849,
      "ÙĦØ³Ø§Ø¨": 1850,
      "ĥÙĬ": 1851,
      "§ÙĦØ³Ø§Ø¨": 1852,
      "Ø§ÙĦØ³Ø§Ø¨": 1853,
      "ĠÙħØ¹Ø¯Ø§Øª": 1854,
      "ĠØ§ÙĦÙĪÙĤØª": 1855,
      "Ø³ÙĪØ": 1856,
      "ħÙħÙĦ": 1857,
      "ØŃØ¸": 1858,
      "¬Ùħ": 1859,
      "Ø£ÙĨÙĩØ§": 1860,
      "§ÙĦØ·Ø§": 1861,
      "ĠØ®Ø§Ùħ": 1862,
      "Ø¦ÙĬØ©": 1863,
      "Ø§ÙĦØ·Ø§": 1864,
      "Ġm": 1865,
      "Ø´Øº": 1866,
      "ĠÙĦØ¯ÙĬ": 1867,
      "ÙĦÙħØ³Ø": 1868,
      "ĠÙħÙħØ§": 1869,
      "¨Ø£ÙĨ": 1870,
      "ħØ®": 1871,
      "Ø£ÙĦ": 1872,
      "Ø¨Ø£ÙĨ": 1873,
      "§ÙĦÙħØ³Ø": 1874,
      "ØºØ©": 1875,
      "Ø§ÙĦÙħØ³Ø": 1876,
      "ÙĪØŃ": 1877,
      "ĠÙĤØ§Ø¦": 1878,
      "Ø¬Ø²": 1879,
      "ħØ³ÙĦ": 1880,
      "ĠØ§ÙĦÙĪØ": 1881,
      "§ÙħØ©": 1882,
      "ÙĦÙĥÙĦ": 1883,
      "£Ø´": 1884,
      "ÙħØ´": 1885,
      "ĠØ¨ÙħØ§": 1886,
      "¹ÙħØ§ÙĦ": 1887,
      "§ÙĦØ¬Ø": 1888,
      "ĠØ¨Ø§ÙĦØ¥": 1889,
      "ĠÙĨÙĤ": 1890,
      "Ġ[": 1891,
      "Ø§ÙĦØ¬Ø": 1892,
      "Ø·Ø¨ÙĬÙ": 1893,
      "Ø·Ø¨ÙĬÙĤ": 1894,
      "Ø¨Ø¯Ø": 1895,
      "ĠØ¯": 1896,
      "ÙĦÙħÙĪ": 1897,
      "le": 1898,
      "ĠØ§ÙĦØ³Ø§Ø¨": 1899,
      "ĠØ£Ø«": 1900,
      "ĠÙĪÙħØ§": 1901,
      "¹Ø¯Ùħ": 1902,
      "ĤÙĬÙĤØ©": 1903,
      "he": 1904,
      "ĠØ³ÙĪ": 1905,
      "§Ø¨": 1906,
      "ĠØ§ÙĦØ§Ø¬ØªÙħØ§": 1907,
      "ÙĬØ±Ø§ÙĨ": 1908,
      "ÙĥØªØ": 1909,
      "ħØ¬ØªÙħØ¹": 1910,
      "Ø³ÙĩÙħ": 1911,
      "ÙħØµØ±": 1912,
      "ĠØ§Ø¨": 1913,
      "ĠØ¨Ø£ÙĨ": 1914,
      "ĠØ¯Ø": 1915,
      "ĠÙĦÙĬØ³": 1916,
      "ØªÙĬÙĨ": 1917,
      "ØªØ¹": 1918,
      "ĠØ§Ø³ØªØ®Ø¯Ø§Ùħ": 1919,
      "ÙĩØ±Ø©": 1920,
      "ħØ±Øª": 1921,
      "Ø§Ø®Øª": 1922,
      "Ø¹Ø¯Ùħ": 1923,
      "ħØ·Ø§": 1924,
      "ØŃØ¶": 1925,
      "ħÙĥØ§ÙĨ": 1926,
      "§ÙĦÙħÙĪ": 1927,
      "¬ÙĩØ§": 1928,
      "Ø§ÙĦÙħÙĪ": 1929,
      "ĠØ·Ø±ÙĬÙĤ": 1930,
      "ĠØ§ÙĦØ±ÙĬØ§": 1931,
      "ÙĨÙĨ": 1932,
      "ÙĨØº": 1933,
      "§ÙĦÙĥÙĦ": 1934,
      "¶ÙĪØ¹": 1935,
      "ĠØ§ÙĦØ¹Ø¯ÙĬØ¯": 1936,
      "Ø¬Ø¹": 1937,
      "ĠØ§ÙĦØ®ÙĬ": 1938,
      "¶Ø¹": 1939,
      "Ø±Ø§ÙĤ": 1940,
      "§ÙĦÙĪÙĦ": 1941,
      "Ø§ÙĦÙĪÙĦ": 1942,
      "Ø§ÙĦÙĥÙĦ": 1943,
      "ĠÙĪØªÙ": 1944,
      "ØºÙĬØ±Ø©": 1945,
      "ĠØ§ÙĦØ£ÙĦ": 1946,
      "ĠØ§ÙĦØ®Ø§ØµØ©": 1947,
      "ac": 1948,
      "ĠØ§ÙĦÙħØ³Ø": 1949,
      "Ø¨ÙĬØ§": 1950,
      "ĠØ§ÙĦØ¢ÙĨ": 1951,
      "¹ÙħØ±": 1952,
      "ħØ®Ø§": 1953,
      "Ø±Ø¨Ø": 1954,
      "ĠØ§ÙĦØªÙĤ": 1955,
      "ÙĨØ¬": 1956,
      "£Øµ": 1957,
      "§Ø¨ÙĨ": 1958,
      "ĠØ§ÙĦØ·Ø§": 1959,
      "ĪÙĤØª": 1960,
      "ĠÙĪÙĤØª": 1961,
      "ĠØ§ÙĦØ£ÙħØ±ÙĬ": 1962,
      "ħÙĪÙĨ": 1963,
      "ĠÙħØ¬ÙĦØ³": 1964,
      "ĠÙħØ®ØªÙĦÙģ": 1965,
      "ÙħÙĬØ²": 1966,
      "ģØ§": 1967,
      "ÙĪÙĨØ§": 1968,
      "ÙĪØ¶Ø": 1969,
      "ĠØ£Ùħ": 1970,
      "ing": 1971,
      "ĠØ£Ø¨ÙĪ": 1972,
      "ĠØ¹ÙĨØ¯ÙħØ§": 1973,
      "Ġ9": 1974,
      "ħØŃÙĦ": 1975,
      "ÙĨØ³Ø§ÙĨ": 1976,
      "Ø§Ø¨ÙĨ": 1977,
      "ĠÙħØ±Ø§": 1978,
      "ĠØ§ÙĦÙĨØ§Ø³": 1979,
      "¬Ø¯ÙĬØ¯Ø©": 1980,
      "Ø±ÙĨØª": 1981,
      "ÙĦÙĬØ§": 1982,
      "ØŃÙĦØ©": 1983,
      "ĠØ§ÙĦØ¹Ø§ÙħØ©": 1984,
      "Ø¹ÙħØ±": 1985,
      "ĠÙħØ¬ÙħÙĪØ¹Ø©": 1986,
      "ÙĨÙĪØ¨": 1987,
      "re": 1988,
      "ØŃØ§Ø¯": 1989,
      "ĠÙĪÙĥØ": 1990,
      "ÙĩØ±Ø": 1991,
      "ĠØ§ÙĦÙħÙĪ": 1992,
      "ÙĪØ±ÙĥØ³": 1993,
      "ĠÙħØ´Ø§": 1994,
      "ÙĭØĮ": 1995,
      "ħØ¯ÙĬØ±": 1996,
      "ĠÙģØ§": 1997,
      "Ø¬Ø§Ø": 1998,
      "ħÙĨÙĩ": 1999,
      "ØªÙĬØ": 2000,
      "ÙħØ§Ø±Ø§Øª": 2001,
      "ĠØ±Ø§": 2002,
      "ĠØ§ÙĦØ¬Ø": 2003,
      "ĠØ§ÙĦØ£Ùħ": 2004,
      "Ø¹Ø§Øª": 2005,
      "ĠØ§ÙĦØ±Ø¦ÙĬØ³": 2006,
      "ÙĤÙī": 2007,
      "ħÙħÙĦÙĥØ©": 2008,
      "Ø¬Ø¯ÙĬØ¯Ø©": 2009,
      "ÙĥÙħØ§": 2010,
      "ĠÙĦÙĨ": 2011,
      "Ø±Ø§Ø¨": 2012,
      "ĠØ¬Ø¯ÙĬØ¯Ø©": 2013,
      "¨Ø³Ø¨Ø¨": 2014,
      "ĤØ§ÙĨÙ": 2015,
      "Ø²ÙĬØ²": 2016,
      "Ø¨Ø³Ø¨Ø¨": 2017,
      "ÙĪØ§ØµÙĦ": 2018,
      "ÙĨØ¬Ø": 2019,
      "ĠØ§ÙĦØ£ÙĨ": 2020,
      "ÙģÙĦ": 2021,
      "Ø§ØŃØª": 2022,
      "ĠØ§ÙĦØ¬Ø²": 2023,
      "§Ø¨ÙĦ": 2024,
      "ĠÙĥØ¨ÙĬØ±Ø©": 2025,
      "ħØ²ÙĬØ¯": 2026,
      "ĠØ§ÙĦØµÙĬÙĨ": 2027,
      "¬Ø¯Ø§": 2028,
      "ĠÙĥØ¨ÙĬØ±": 2029,
      "ĠØ¹ÙĬ": 2030,
      "ÙĦØ³Ø·ÙĬ": 2031,
      "¬ÙĨØ©": 2032,
      "ÙĨÙĪØ§Ø¹": 2033,
      "ØµÙĬÙĦ": 2034,
      "ĠÙĥØ±": 2035,
      "Ø·Ø§Øª": 2036,
      "§Ø¨Ø©": 2037,
      "ÙħÙĩØ§": 2038,
      "ĠØ§ÙĦØ¯ÙĪÙĦØ©": 2039,
      "Ø³Ùģ": 2040,
      "Ø¯ÙĬÙĪ": 2041,
      "Ġ200": 2042,
      "¬Ø¯ÙĬØ¯": 2043,
      "ÙħÙĬÙħ": 2044,
      "ĠØ§ÙĦØªØŃÙ": 2045,
      "ĠØ§ÙĦÙĪÙĦ": 2046,
      "ĠÙĦØ£ÙĨ": 2047,
      "ĠÙĪÙĦÙĬ": 2048,
      "Ø§Ø¨ÙĦ": 2049,
      "ĠÙĪØ§ÙĦØ§": 2050,
      "ĠØ¨Ø³Ø¨Ø¨": 2051,
      "ĠØ§ÙĦÙĥØ«ÙĬØ±": 2052,
      "Ø¹ÙĦÙĬÙħ": 2053,
      "ÙĦØ§Ø¹": 2054,
      "Ø·ÙĦØ§Ù": 2055,
      "Ø·ÙĦØ§ÙĤ": 2056,
      "ĠØ³ØŃÙĤ": 2057,
      "ĠØ§ÙĦØ§ÙĤØªØµØ§": 2058,
      "ĠØ§Ø¨ÙĨ": 2059,
      "ÙĤØ¯Ùħ": 2060,
      "Ø§ÙħØ©": 2061,
      "ØµØ¨ØŃ": 2062,
      "¨ÙĪØ§": 2063,
      "§ÙħØ§": 2064,
      "ĠØ§ÙĦÙĥÙĦ": 2065,
      "¨ØŃØ«": 2066,
      "ĠØ£Ø¨ÙĬ": 2067,
      "§ÙĪÙĨ": 2068,
      "ÙĥÙĬØ": 2069,
      "¨ÙĨØ§Ø¡": 2070,
      "Ø£Ø´": 2071,
      "ĤÙģ": 2072,
      "ÙħØ¨": 2073,
      "ĠÙħØ´": 2074,
      "ĠÙĥÙĨØª": 2075,
      "ÙĪØ±ÙĬØ©": 2076,
      "ĠØ§Ø±Øª": 2077,
      "ØŃÙĬØ": 2078,
      "Ø·ÙģØ§ÙĦ": 2079,
      "ĠB": 2080,
      "ĠØ£Ø¬ÙĦ": 2081,
      "ĠØ¹ÙħØ±": 2082,
      "ħØŃØª": 2083,
      "Ø¶Ø§Ø¡": 2084,
      "ro": 2085,
      "Ø·ÙĨ": 2086,
      "ĠØ§ÙĨÙ": 2087,
      "ĠØ§ÙĦØ·Ø¨ÙĬ": 2088,
      "ĠG": 2089,
      "Ø¦ÙĬØ³ÙĬØ©": 2090,
      "§ÙĨØ§": 2091,
      "ĠÙĪØ§ØŃØ¯": 2092,
      "ĠØ«ÙĦØ§Ø«": 2093,
      "ÙĦÙĦÙĬ": 2094,
      "ÙĨÙĪÙĨ": 2095,
      "ÙĦØµØ§": 2096,
      "ĠØ§ÙĦÙģÙĥ": 2097,
      "ÙĤÙĦÙĬ": 2098,
      "Ø³ÙĪÙĦ": 2099,
      "ĠØ£ÙĨÙĩØ§": 2100,
      "ĠØ¬Ø±": 2101,
      "Ø¬Ø¯Ø§": 2102,
      "Ø§ÙĬØ§Øª": 2103,
      "Ġ12": 2104,
      "am": 2105,
      "ØŃÙĪÙĨ": 2106,
      "Ø§ÙħØ§": 2107,
      "Ø§ÙĪÙĨ": 2108,
      "ØºØ·": 2109,
      "ad": 2110,
      "ĠØ£ÙĪØ": 2111,
      "ĠÙħØ¹Ø±": 2112,
      "ÙħØ´Ø§": 2113,
      "ĠØ®Ø§ØµØ©": 2114,
      "ÙħØ¬Ø§": 2115,
      "ĠØ¬Ø¯Ø§": 2116,
      "ĠÙĨØª": 2117,
      "Ø¬Ø¹ÙĦ": 2118,
      "ŃØ¯ÙĬØ«": 2119,
      "ĠØ¯ÙĪØ±": 2120,
      "Ø§Ø¦Ø±": 2121,
      "ĠØ§ÙĦÙĩÙĨØ¯": 2122,
      "ĠØ§ÙĦØ£ÙĪÙĦÙī": 2123,
      "ÙĩØ²Ø©": 2124,
      "ĠØ¯Ø§Ø®ÙĦ": 2125,
      "ĠØ§ÙĦÙĥØª": 2126,
      "ĠÙħØµØ§": 2127,
      "ĪØµ": 2128,
      "ÙģØŃØ©": 2129,
      "£ØŃÙħØ¯": 2130,
      "ĠØªØ¬Ø§": 2131,
      "ÙĨØ§Ø¹Ø©": 2132,
      "ĠØ§ÙĦØ¥ÙĬ": 2133,
      "ÙĦØ§ÙĦ": 2134,
      "ĠØ§ÙĦØ³Ø¹Ø±": 2135,
      "¹Ø¨Ø¯Ø§": 2136,
      "§ÙĦØµØ§": 2137,
      "ĦÙĬÙĦ": 2138,
      "ĠÙĥØ³": 2139,
      "ħØŃØ": 2140,
      "ÙĦØŃ": 2141,
      "Ø§ÙĦØµØ§": 2142,
      "Ø¹Ø¨Ø¯Ø§": 2143,
      "§ÙĦÙĦÙĬ": 2144,
      "ĠØ§Ø®Øª": 2145,
      "Ø§ÙĦÙĦÙĬ": 2146,
      "ĥØªÙĪØ±": 2147,
      "ÙħÙħÙĦÙĥØ©": 2148,
      "ÙĤØ§Ø¦": 2149,
      "ÙģØ³": 2150,
      "ÙĤØ§Ø¡": 2151,
      "ªÙĬØ": 2152,
      "ÙĦÙĤØ±": 2153,
      "10": 2154,
      "ÙħØŃÙ": 2155,
      "ĠÙĪÙĨ": 2156,
      "Ø£ØŃÙħØ¯": 2157,
      "ĠÙĪØ§Ø³Øª": 2158,
      "ĠÙĪØµ": 2159,
      "ÙĩØ§Ø¨": 2160,
      "§ÙĦÙĤØ±": 2161,
      "Ø§ÙĦÙĤØ±": 2162,
      "Ø£Ø®": 2163,
      "el": 2164,
      "Ø£Øµ": 2165,
      "Ø¯ÙĪØ±": 2166,
      "ĠØ§ÙĦØ«Ø§ÙĨÙĬ": 2167,
      "ÙĥØªØ¨": 2168,
      "ĠØ§ÙĦÙģØª": 2169,
      "ÙĨÙģÙĬØ°": 2170,
      "ØªÙĤ": 2171,
      "ĠØ§ÙĦØ£ÙħØ±": 2172,
      "ĠØ¯Ø±": 2173,
      "Ø±ÙĬØ¯": 2174,
      "ÙĦÙħÙħÙĦÙĥØ©": 2175,
      "ĠØ£ÙĩÙħ": 2176,
      "Ø§Ø«": 2177,
      "ÙĢÙĢÙĢÙĢ": 2178,
      "ĠÙĨØ¸Ø": 2179,
      "ĠÙĨØ¸Ø§": 2180,
      "ĠÙħÙĨÙĩ": 2181,
      "§ÙĦÙħÙħÙĦÙĥØ©": 2182,
      "Ø§ÙĦÙħÙħÙĦÙĥØ©": 2183,
      "ÙħÙĪÙĨ": 2184,
      "ĠØªØ®": 2185,
      "ĠÙĪØ¶Ø¹": 2186,
      "us": 2187,
      "ion": 2188,
      "Ø§Ø¨Øª": 2189,
      "ĠØ§ÙĦØŃÙĥÙĪÙħØ©": 2190,
      "22": 2191,
      "¹Ø±Ø¶": 2192,
      "ĠØ£Ø´": 2193,
      "Ø¨Ø§Ø±": 2194,
      "ÙĨÙĪØ§": 2195,
      "ĠØ¹ÙĦØ§": 2196,
      "ĠØ¹Ø¯Ùħ": 2197,
      "ÙģØ§Ø": 2198,
      "ÙĪØ¬Ø¯": 2199,
      "ÙĦØ§ÙĨ": 2200,
      "ĠÙħØ«": 2201,
      "ĠÙħØ¯ÙĬÙĨØ©": 2202,
      "¬ÙĬØ©": 2203,
      "ÙĦØ§Ùģ": 2204,
      "ĠÙĩÙĨØ§": 2205,
      "ĠØ§ÙĦØ£Ø±Ø": 2206,
      "ĠØ§ÙĦØ¹Ù": 2207,
      "ĠÙĩÙĦ": 2208,
      "ĠÙĩØ": 2209,
      "ÙħØµØ§": 2210,
      "ĠØ¨Ø¯Ø": 2211,
      "ĠØ§ÙĦØµØ§": 2212,
      "ĠÙģÙĬÙħØ§": 2213,
      "ŃØ³ÙĨ": 2214,
      "ĠØ®ÙĬ": 2215,
      "ÙħÙĥØ§": 2216,
      "il": 2217,
      "ÙĨÙĨØ": 2218,
      "ĠÙĦÙħØ§": 2219,
      ")ØĮ": 2220,
      "ÙĦØ¸": 2221,
      "ĠØ§ÙĦØ´Ø±ÙĥØ©": 2222,
      "ÙĪØ§Ø¡": 2223,
      "ÙģØ¶ÙĦ": 2224,
      "ÙĨÙĨØ§": 2225,
      "Ø±Ø¤": 2226,
      "Ġ2020": 2227,
      "ĪÙħØ¹": 2228,
      "ĠÙĪÙħØ¹": 2229,
      "ĠØ§ÙĦØµÙĬ": 2230,
      "ÙħØ¯ÙĬÙĨØ©": 2231,
      "ÙĮ": 2232,
      "ĠØ³ÙĨØ©": 2233,
      "ÙħØ¨Ø±": 2234,
      "Ø¨Ø·": 2235,
      "Ø®Ø¨Ø±": 2236,
      "ĠD": 2237,
      "¨Ø§Ø³Øª": 2238,
      "ĠØ§ÙĦÙĨÙģ": 2239,
      "Ø¨ÙĪØ§": 2240,
      "ĠØ§ÙĦÙĤØ±": 2241,
      "ĠØ¹Ø¨Ø¯Ø§": 2242,
      "ÙĤØ§ÙĨÙ": 2243,
      "Ø¦Ø§": 2244,
      "Ø¨Ø§Ø³Øª": 2245,
      "ĠØ§ÙĦØªØ¹Ø¯ÙĬÙĨ": 2246,
      "¹ÙĬÙĨ": 2247,
      "ĠÙħØ³": 2248,
      "¹Ø§ÙĦÙĬØ©": 2249,
      "ĠÙĪØ§ØŃØ¯Ø©": 2250,
      "ĠØ¯Ø§Ø¦": 2251,
      "ħØ¯Ø±": 2252,
      "§ÙĦØ¸": 2253,
      "Ø§ÙĦØ¸": 2254,
      "ÙĦÙĤÙĬ": 2255,
      "ĠØ§ØŃØª": 2256,
      "Ø±ÙĬØ¨": 2257,
      "Ġ15": 2258,
      "ĠØŃØ§ÙĦØ©": 2259,
      "Ø¶Ø±": 2260,
      "ĪÙĩØ°Ø§": 2261,
      "ĠÙĪÙĩØ°Ø§": 2262,
      "Ø±Ø£Ø©": 2263,
      "¹ÙĪØ¯": 2264,
      "²Ø¨": 2265,
      "Ø´Ø§Ø¡": 2266,
      "§ÙĦØ§Ø¹": 2267,
      "Ø§ÙĦØ§Ø¹": 2268,
      "Ø®ØªÙĬ": 2269,
      "ĠØ§ÙĦÙħØ§Ø¶ÙĬ": 2270,
      "ĠØ£ÙħØ§Ù": 2271,
      "ÙĪØ¨Ø©": 2272,
      "ĠØ§ÙĦÙħØ±ÙĥØ²": 2273,
      "ĠÙģÙĤØ¯": 2274,
      "ÙģÙĬÙĨ": 2275,
      "Ø±Ø§Ø±": 2276,
      "Ø§ÙĬØ©": 2277,
      "ÙĩØ±Ø¨": 2278,
      "ĤÙĪÙĤ": 2279,
      "ĠØ£ÙħØ§Ùħ": 2280,
      "ÙħØ´Ø§Ø±": 2281,
      "ĠØ¨Ø§Ø³Øª": 2282,
      "Ø·ÙĦÙ": 2283,
      "ĠÙĪØºÙĬØ±": 2284,
      "ĠØ§ÙĦØ®Ø§Øµ": 2285,
      "ÙĦØ¹ÙĦØ§": 2286,
      "ĠØ£ØŃÙħØ¯": 2287,
      "§Ø±Ø§": 2288,
      "Ø°ÙĥØ±": 2289,
      "ÙĪØ¨ÙĬ": 2290,
      "ÙħØ±ÙĬ": 2291,
      "Ø«Ø±": 2292,
      "ÙĦÙĬÙĨ": 2293,
      "Ø·ÙĦÙĤ": 2294,
      "Ø¯Ø®ÙĦ": 2295,
      "ĪÙĥØ§": 2296,
      "ĠÙĬØ¤": 2297,
      "ĠØ§ÙĦØŃÙĦ": 2298,
      "ĠØ§ÙĦÙĦÙĬ": 2299,
      "ĠÙĬÙħÙĥÙĨÙĥ": 2300,
      "§ÙĦØ¹ÙĦØ§": 2301,
      "Ø§ÙĦØ¹ÙĦØ§": 2302,
      "ÙĪÙĤÙģ": 2303,
      "¹ÙĨÙĩ": 2304,
      "Ø·ÙĪÙĬØ±": 2305,
      "Ø³Ùī": 2306,
      "ĠF": 2307,
      "Ġ2021": 2308,
      "ÙħØ²ÙĬØ¯": 2309,
      "¹ÙĬØ¯": 2310,
      "ĠØ¨ÙĪ": 2311,
      "ªÙĬÙĨ": 2312,
      "Ø¶Ø§Ùģ": 2313,
      "Ø¹ÙĨÙĩ": 2314,
      "ØµØ§Ø¦": 2315,
      "ÙĪØµ": 2316,
      "ÙħØ¬ØªÙħØ¹": 2317,
      "ÙĦÙħØ¬Ø§": 2318,
      "ÙĤØ±Ø§Ø±": 2319,
      "ĠØ¹ÙĨÙĩ": 2320,
      "ĠØ§ÙĦØ¹Ø±Ø¨ÙĬ": 2321,
      "ÙĪØ£": 2322,
      "ÙĨØ³ÙĬ": 2323,
      "ħØ®Ø±": 2324,
      "ĠÙĪØ²Ø§Ø±Ø©": 2325,
      "§ÙĦÙħØ¬Ø§": 2326,
      "Ø§ÙĦÙħØ¬Ø§": 2327,
      "Ø³ÙĪÙ": 2328,
      "ĤØ§Ø±": 2329,
      "ÙħÙĨÙ": 2330,
      "ĠØ´Ø®Øµ": 2331,
      "Ø¯ÙĨÙĬ": 2332,
      "ĠØŃØ¯Ø": 2333,
      "ÙĲÙĳ": 2334,
      "ĠØ³Ø±": 2335,
      "ĤÙĤ": 2336,
      "ĠÙĤØ±": 2337,
      "ĠØ§ÙĦÙĨØ¸Ø": 2338,
      "ĠØ§ÙĦÙĨØ¸Ø§": 2339,
      "ĠØ§ÙĦÙħÙħÙĦÙĥØ©": 2340,
      "ÙĦÙĤÙĪ": 2341,
      "ĪØ³ÙĦÙħ": 2342,
      "ĠÙĪØ³ÙĦÙħ": 2343,
      "ħØ±Ø£Ø©": 2344,
      "ÙĦÙĥØªØ±": 2345,
      "Ø§Ø¨Ø©": 2346,
      "ĠØ§ÙĦÙħØ¨Ø": 2347,
      "ĠH": 2348,
      "Ø±ÙĬÙĨ": 2349,
      "ĠØ§ÙĦÙĥØ±": 2350,
      "§Ø´": 2351,
      "ÙĪØ§Ø¦": 2352,
      "ÙĦØ¯Ø±Ø§": 2353,
      "ĠØ´Ø¹": 2354,
      "ØŃØ±ÙĬ": 2355,
      "ĠØ£Øµ": 2356,
      "¸ÙĩØ±": 2357,
      "ĠÙĨØŃÙĪ": 2358,
      "Ø·ÙĪØ±": 2359,
      "§ÙĦØ¯Ø±Ø§": 2360,
      "Ø§ÙĦØ¯Ø±Ø§": 2361,
      "§Øº": 2362,
      "§Ø³Ø": 2363,
      "§ÙĦÙĤÙĪ": 2364,
      "ĠÙĨØ¸Ø§Ù": 2365,
      "Ø§ÙĦÙĤÙĪ": 2366,
      "ĠÙĨØ¸Ø§Ùħ": 2367,
      "ÙĩÙħØ©": 2368,
      "ĠÙĪÙĥØ§": 2369,
      "ĠØ§ÙĦØ£ÙĥØ": 2370,
      "Ø¬Ø¯ÙĬØ¯": 2371,
      "Ø¯Ø±ÙĬ": 2372,
      "ĠØ§ÙĦØ¸": 2373,
      "§Øµ": 2374,
      "ĠØ¶Ø¯": 2375,
      "Ø´ØªØ±": 2376,
      "ÙĦÙħØµØ±": 2377,
      "ĠØ´ÙĬØ¡": 2378,
      "¹Øª": 2379,
      "§ÙĦÙħØµØ±": 2380,
      "Ø§ÙĦÙħØµØ±": 2381,
      "ÙĦÙħØŃÙ": 2382,
      "Ø®Ø±Ø¬": 2383,
      "ĠØªØ±Ø§": 2384,
      "ĠÙħØ´Ø±ÙĪØ¹": 2385,
      "§ÙĦÙħØŃÙ": 2386,
      "Ø§ÙĦÙħØŃÙ": 2387,
      "Ġf": 2388,
      "¬ÙĨÙĪØ¨": 2389,
      "ĠØ§ÙĦÙģÙĦØ³Ø·ÙĬ": 2390,
      "Ø¸Ù": 2391,
      "ĠØµÙĦÙī": 2392,
      "ĠØ§ÙĦÙħØ¬Ø§": 2393,
      "ŃØµ": 2394,
      "ĠØ§ÙĦØ¨Ø": 2395,
      "ĠØªÙģ": 2396,
      "§ÙĩØ±Ø©": 2397,
      "ĠL": 2398,
      "ĠÙĦÙĦØ¥": 2399,
      "ĠÙħÙĦÙĬÙĪÙĨ": 2400,
      "Ø§ÙĩØ±Ø©": 2401,
      "Ø¸Ùħ": 2402,
      "ĠØ§ÙĦÙħØµØ±": 2403,
      "ĠR": 2404,
      "ÙĦÙħØ¬ØªÙħØ¹": 2405,
      "ÙģØ¸Ø©": 2406,
      "¬ÙĬÙĦ": 2407,
      "Ġ11": 2408,
      "Ġ14": 2409,
      "ĠØ¨Ø±ÙĨØ§ÙħØ¬": 2410,
      "ĠØ±Ø¨": 2411,
      "Ø§Ø´": 2412,
      "§ÙĦÙħØ¬ØªÙħØ¹": 2413,
      "ĠÙĪÙģÙ": 2414,
      "Ø§ÙĦÙħØ¬ØªÙħØ¹": 2415,
      "ĠØ¯ÙĪÙĦØ§Ø±": 2416,
      "ĠÙĥÙĪ": 2417,
      "ÙĦÙħØ²ÙĬØ¯": 2418,
      "Ø¯ÙĬØ": 2419,
      "ħØµØ±ÙĬ": 2420,
      "ĠØŃØ¬Ø±": 2421,
      "ĠE": 2422,
      "ÙĦÙĤØ§ÙĨÙ": 2423,
      "ĠØ£Ø±Ø": 2424,
      "ĠØ§ÙĦØ¯Ø±Ø§": 2425,
      "ĠØŃØ³Ø§Ø¨": 2426,
      "ĠØ§ÙĦÙģÙĪØ±ÙĥØ³": 2427,
      "ab": 2428,
      "§ÙĦÙĤØ§ÙĨÙ": 2429,
      "Ø¯Ø±Ø¬Ø©": 2430,
      "Ø§ÙĦÙĤØ§ÙĨÙ": 2431,
      "ĠØ§ÙĦØ¹ÙĦØ§": 2432,
      "¨ÙĪÙĦ": 2433,
      "ĠØ§ÙĦØ§ØŃØª": 2434,
      "ĠØ§ÙĦÙĨØ³": 2435,
      "ÙħÙĪÙĤØ¹": 2436,
      "ĠÙĪÙģÙĤ": 2437,
      "ĠÙĨÙĪØ¹": 2438,
      "Ø¤": 2439,
      "Ġd": 2440,
      "ĠI": 2441,
      "Ø¨Ø±ÙĬ": 2442,
      "ÙĪØ§Ø±": 2443,
      "ĠÙħÙĨØ·ÙĤØ©": 2444,
      "§ÙĦÙħØ²ÙĬØ¯": 2445,
      "ĠØ£Øº": 2446,
      "ĠÙĦÙĦØ¹": 2447,
      "ÙģØ§Ù": 2448,
      "Ø§ÙĦÙħØ²ÙĬØ¯": 2449,
      "ĠØ¨ÙĦØ": 2450,
      "Ø·Ø§Ø¡": 2451,
      "Ø¯ÙĪØ¯": 2452,
      "ØŃØ±Ù": 2453,
      "ÙĪØ¶Ø¹": 2454,
      "ĠØ£ÙĥØ¨Ø±": 2455,
      "ÙħØ³Ø§": 2456,
      "ÙĦÙĨÙĪØ": 2457,
      "ÙĤÙģ": 2458,
      "ĠØ£Ø®": 2459,
      "ĪÙĥØ§ÙĨ": 2460,
      "ĠØ§ÙĦÙħØŃÙ": 2461,
      "ĠÙĪÙĥØ§ÙĨ": 2462,
      "ĠØŁ": 2463,
      "ĠØ±Ù": 2464,
      "Ġb": 2465,
      "ĠØ§ÙĦÙħØ¬ØªÙħØ¹": 2466,
      "Ø§Ø¨Ø": 2467,
      "§ÙĦÙĨÙĪØ": 2468,
      "Ø§ÙĦÙĨÙĪØ": 2469,
      "Ø§Øµ": 2470,
      "ĠØ§ÙĦØŃØ¯ÙĬØ¯": 2471,
      "Ø¹Ø§ÙĦÙĬØ©": 2472,
      "ĠØ§ÙĦØ´Ø¹Ø": 2473,
      "ĠØ¬Ø¯ÙĬØ¯": 2474,
      "ĠØ§ÙĦØ§Ø¹": 2475,
      "ÙĪÙĤØ§": 2476,
      "§ÙĨÙĩ": 2477,
      "ĠØ§ÙĦØ«ÙĦØ§Ø«": 2478,
      "ÙģØ§ÙĤ": 2479,
      "ĠØ¨ÙĬØ¹": 2480,
      "ÙĦÙħØ±Ø§": 2481,
      "ĠÙĪØ²ÙĬØ±": 2482,
      "ĠÙħØ±Ø©": 2483,
      "ĠØ¬ÙĦ": 2484,
      "ÙĨØ§ÙĪÙĦ": 2485,
      "Ø§Ø¦ÙĦ": 2486,
      "ĠØ§ÙĦÙħÙĨØ·ÙĤØ©": 2487,
      "±ÙĬÙħ": 2488,
      "ÙĦÙħØ´": 2489,
      "ØŃÙĪÙĨØ©": 2490,
      "ĠÙĬØŃØª": 2491,
      "Ø¹Ø§Ø¯Ø©": 2492,
      "ĠØ§ÙĦÙĤÙĪ": 2493,
      "Ø£ØªÙĬ": 2494,
      "ĠØ£ÙĨØ": 2495,
      "ĠØ°ÙĥØ±": 2496,
      "ĠØ§ÙĦÙĤØ§ÙĨÙ": 2497,
      "Ø³ÙĩØ§": 2498,
      "§ÙĦÙħØ±Ø§": 2499,
      "Ø§ÙĦÙħØ±Ø§": 2500,
      "ØµØ§ÙĦ": 2501,
      "Ø²Ù": 2502,
      "ĠØ§ÙĦØ£Ø®": 2503,
      "§ÙĦÙħØ´": 2504,
      "Ø§ÙĦÙħØ´": 2505,
      "Ø²Ø¹": 2506,
      "Ùł": 2507,
      "ÙĦØ¯ÙĬ": 2508,
      "ÙĦØ·Ø±": 2509,
      "ĠÙĪÙĦÙħ": 2510,
      "ĠÙĥÙĬÙģ": 2511,
      "§ÙĦØ©": 2512,
      "§Ø³ÙĬ": 2513,
      "§ÙĦØ·Ø±": 2514,
      "Ø¹Ø¯Ø©": 2515,
      "§ØŃ": 2516,
      "Ø§ÙĦØ·Ø±": 2517,
      "ĠØ§ÙĦØ®Ø§Ø±Ø¬": 2518,
      "¬ÙĨØ¨": 2519,
      "âĢĿ": 2520,
      "ĤÙĪØ§": 2521,
      "ĠØ§ÙĦØ´ÙĬØ®": 2522,
      "ĠØ§ÙĦØ¬ÙħØ": 2523,
      "ĤØ§Ø¨ÙĦ": 2524,
      "ĠØ¹Ø§ÙĦÙĬØ©": 2525,
      "Ø·Ø§ÙĨ": 2526,
      "ØŃØ³Ø": 2527,
      "Ø·Ø§Ø¨": 2528,
      "Ø¬Ùħ": 2529,
      "ÙĦÙħÙĩ": 2530,
      "ot": 2531,
      "ÙħÙĦÙĬØ§Øª": 2532,
      "ĠØ§ÙĦØªØµ": 2533,
      "Ø®ÙĪÙĦ": 2534,
      "ÙĦØ¯ÙĬÙĨ": 2535,
      "ÙĦØ¹": 2536,
      "ÙģØ§Ø¹": 2537,
      "ĠÙĬÙĤÙĪÙĦ": 2538,
      "ÙĤØ§Ø¨ÙĦ": 2539,
      "ĠØ§ÙĦØŃØµÙĪÙĦ": 2540,
      "ĠØ§ÙĦÙĨØ¸Ø§Ù": 2541,
      "ĠØ§ÙĦÙĨØ¸Ø§Ùħ": 2542,
      "Ø³ÙĪØ§": 2543,
      "Ø¬ÙĨÙĪØ¨": 2544,
      "§Ø¦ÙĦ": 2545,
      "ĠØ±ÙĬ": 2546,
      "ĠÙĦÙĩÙħ": 2547,
      "Ø³ÙĥØ±": 2548,
      "Ø·ÙĬØ¹": 2549,
      "ĠÙĪØ¬ÙĪØ¯": 2550,
      "ĠØ§ÙĦÙĨÙĪØ": 2551,
      "Ø§ÙĦØ©": 2552,
      "ÙĨÙĬØ¹": 2553,
      "ÛĮ": 2554,
      "ĠØ§Ø³Ùħ": 2555,
      "§ÙģØ©": 2556,
      "ĠØ¨Ø¯Ø§": 2557,
      "ØµØ§Ø±": 2558,
      "ÙĪØ¬Ø": 2559,
      "ħØ®Ø±ÙĪØ·": 2560,
      "ÙĳÙİ": 2561,
      "ĠØªÙĨ": 2562,
      "ÙĪØ³Ø·": 2563,
      "ĠØ§ÙĦØ¯ÙĪÙĦÙĬ": 2564,
      "Ø¬ÙħØ§": 2565,
      "±ÙĬÙĤÙĬØ§": 2566,
      "ĠØ§ÙĦØªØ¯Ø§ÙĪÙĦ": 2567,
      "ĠØ§ÙĦÙĪØ·ÙĨÙĬ": 2568,
      "ĠÙĦÙĥÙĦ": 2569,
      "ĠØ±ÙĪ": 2570,
      "ĨÙĬ": 2571,
      "ħÙģØ§": 2572,
      "Ø³ÙħØ§": 2573,
      "ÙħØ±Ø£Ø©": 2574,
      "Ø³ÙħÙĨØª": 2575,
      "ĠÙĬØ¨": 2576,
      "ÙĦØ³ÙĦØ§Ùħ": 2577,
      "and": 2578,
      "ĠØ§ÙĦØ¬Ø¯ÙĬØ¯": 2579,
      "Ø§ÙĨØ©": 2580,
      "ĠØ§ÙĦØŃØ¯ÙĬØ«": 2581,
      "Ø§ÙĨÙĩ": 2582,
      "Ø®ØªÙĬØ§Ø±": 2583,
      "ÙĦÙģØ§": 2584,
      "ÙĦØ±Ø§": 2585,
      "ØºØ±": 2586,
      "Ø±ÙĬØ±": 2587,
      "ĠØ§ÙĦØªØ¬Ø§": 2588,
      "Ø³Ùĥ": 2589,
      "ĪÙĩ": 2590,
      "ĠØ§ÙĦÙģØŃÙħ": 2591,
      "ĠØ§ÙĦÙħØ¹Ø": 2592,
      "Ø¬ÙĩØ§": 2593,
      "§Ø¯ÙĦ": 2594,
      "¦Ø©": 2595,
      "ĠØ§ÙĦØ¥Ø³ÙĦØ§": 2596,
      "ĠØ§ÙĦÙħØ´": 2597,
      "ÙĨÙĤÙĦ": 2598,
      "ĠØ§ÙĦÙĩÙĬ": 2599,
      "ĠØ§ÙĦÙħØ±Ø§": 2600,
      "ĤÙĩ": 2601,
      "ÙĦÙħØ´Ø§": 2602,
      "ĠØ¬Ø²": 2603,
      "Ø®Ø§Øµ": 2604,
      "§ÙĦØ±Ø§": 2605,
      "Ø§ÙĦØ±Ø§": 2606,
      "ÙĦØ³Ø¨": 2607,
      "§ÙĦØ³ÙĦØ§Ùħ": 2608,
      "ĠÙħØ±ÙĥØ²": 2609,
      "Ø§ÙģØ©": 2610,
      "Ø§ÙĦØ³ÙĦØ§Ùħ": 2611,
      "Ø²Ø§ÙĦ": 2612,
      "ĠØ§ÙĦØ¯ÙĥØªÙĪØ±": 2613,
      "ĠÙħØ³ØªÙĪÙī": 2614,
      "ĠÙħØ¹Ø": 2615,
      "ĠØ§ÙĦØ£ÙĪØ±": 2616,
      "ĠØ§ÙĦÙĪÙĦØ§ÙĬØ§Øª": 2617,
      "Ø«ÙħØ§Ø±": 2618,
      "ÙģØ§Ø¡": 2619,
      "ĠØ§ÙĦØ·Ø±": 2620,
      "§ÙĦÙħØ´Ø§": 2621,
      "¨Øµ": 2622,
      "Ø§ÙĦÙħØ´Ø§": 2623,
      "§ÙĦÙħÙĩ": 2624,
      "ÙĪÙĤØ§ÙĦ": 2625,
      "ÙħØŃÙħ": 2626,
      "ÙĤØµ": 2627,
      "Ø¬ÙĩØ©": 2628,
      "Ø§ÙĦÙħÙĩ": 2629,
      "ĠØ§ÙĦØ¬Ø¯ÙĬØ¯Ø©": 2630,
      "Ø³ÙĦØ©": 2631,
      "Ø²ÙĬØ": 2632,
      "Ø¨ÙĨØ§Ø¡": 2633,
      "ŃØµÙĪÙĦ": 2634,
      "ÙĥØ§Ø±": 2635,
      "ħØ¯": 2636,
      "ÙĪØ¸": 2637,
      "ĠØ¨ÙĪØ§": 2638,
      "¨ÙĬØ±": 2639,
      "ĠØ¬ÙĪ": 2640,
      "ĠØ§ÙĦØ£ÙħÙĬØ±": 2641,
      "Ø¬Ø§Ø±ÙĬØ©": 2642,
      "11": 2643,
      "Ø¨Øµ": 2644,
      "ĠØ§ÙĦÙħØ§ÙĦÙĬØ©": 2645,
      "ÙħØ¬ÙĦØ³": 2646,
      "ĠØ³ÙĪÙģ": 2647,
      "ĠØªÙĨØ¸ÙĬ": 2648,
      "¬ÙĩØ²Ø©": 2649,
      "ħÙģ": 2650,
      "§ÙĦÙĤÙĬ": 2651,
      "ÙħØ§Ø¡": 2652,
      "Ø§ÙĦÙĤÙĬ": 2653,
      "ĠÙĪØ§ÙĦØ£Ù": 2654,
      "¬ÙĨÙĬ": 2655,
      "Ø¨Ø±Ø§": 2656,
      "ĠØ¬ÙĨÙĪØ¨": 2657,
      "ÙĦØ¬Ø±": 2658,
      "Ø±Ø§Ø¶": 2659,
      "ĠØ®Ø": 2660,
      "ol": 2661,
      "Ø§Øº": 2662,
      "ĠØ§ÙĦØªÙī": 2663,
      "ĠØ§ÙĦØŃÙĬØ§Ø©": 2664,
      "ĠÙħØ§Ø±": 2665,
      "Ø¯ÙĬÙĦ": 2666,
      "ĠØ¥Ø¯Ø§Ø±Ø©": 2667,
      "ÙĨÙħÙĬØ©": 2668,
      "ĪØ±ÙĬØ©": 2669,
      "Ø¹ÙĦØ§Ù": 2670,
      "Ø§Ø¯ÙĦ": 2671,
      "ÙħÙĪØ±": 2672,
      "ĩÙħØ§": 2673,
      "Ġ#": 2674,
      "Ø¹ÙĦØ§Ùħ": 2675,
      "50": 2676,
      "Ø³Ø±Ø§Ø¦ÙĬ": 2677,
      "¬ÙĨ": 2678,
      "ÙħØ³ÙĦ": 2679,
      "ĪØ³ÙĬ": 2680,
      "ĠØ¥Ø°": 2681,
      "âĢ¦": 2682,
      "ĠØ´Ø¨": 2683,
      "Ġ2018": 2684,
      "Ġ2019": 2685,
      "Ġw": 2686,
      "¨Ø£Ù": 2687,
      "ĠW": 2688,
      "§ÙĦØ¬Ø±": 2689,
      "ĠØ§ÙĦØ±Ø§": 2690,
      "ÙĥØ³Ø§Ø±Ø©": 2691,
      "Ø§ÙĦØ¬Ø±": 2692,
      "Ø¨Ø£Ù": 2693,
      "§Ø°": 2694,
      "§ÙĦØ¯ÙĬÙĨ": 2695,
      "Ø¯Ø±ÙĬØ": 2696,
      "Ġh": 2697,
      "Ø§ÙĦØ¯ÙĬÙĨ": 2698,
      "Ġ18": 2699,
      "ĠØ§ÙĦØ´Ø±ÙĥØ§Øª": 2700,
      "£ÙĨÙĪØ§Ø¹": 2701,
      "ĠØ¨Øµ": 2702,
      "ĠÙħØŃÙ": 2703,
      "ĠÙĪØ³ÙĬ": 2704,
      "ĠØ¨Ø£Ù": 2705,
      "¨ÙĪØ±": 2706,
      "ĠØ§ÙĦÙħØ´Ø§": 2707,
      "Ø¨ÙĬÙĦ": 2708,
      "°Ø§": 2709,
      "ħØ·Ø±": 2710,
      "ÙħØµØ±ÙĬ": 2711,
      "ĠØ§ÙĦØ¥ÙĨØ³Ø§ÙĨ": 2712,
      "ĠÙĥØ«ÙĬ": 2713,
      "ĠØ§ÙĦÙħÙĩ": 2714,
      "ĠØ¶ÙħÙĨ": 2715,
      "ÙĪÙĬØ": 2716,
      "ĠÙĪØ¬Ø": 2717,
      "ĠÙĪÙĩ": 2718,
      "ØŃÙģ": 2719,
      "ÙĪÙĨÙĬØ©": 2720,
      "ÙĦÙħØµØ§": 2721,
      "ÙĦÙħØµØ±ÙĬ": 2722,
      "Ø³Ø§ÙĨ": 2723,
      "ĠØ´Ø±ÙĥØ§Øª": 2724,
      "§ÙĦÙħØµØ±ÙĬ": 2725,
      "Ø§ÙĦÙħØµØ±ÙĬ": 2726,
      "¨ÙĢ": 2727,
      "Ø¬ÙĪ": 2728,
      "ĠØ£ÙĪØ±": 2729,
      "ÙĪÙĬÙĦ": 2730,
      "Ø´Ø¹": 2731,
      "ÙĥÙĬØ§": 2732,
      "ħÙĤØ§Ø¨ÙĦ": 2733,
      "ĠØªØ§Ø±ÙĬØ®": 2734,
      "Ø¬Ø§ÙĦ": 2735,
      "ĠØªØ¯Ø§ÙĪÙĦ": 2736,
      "§ÙĦÙħØµØ§": 2737,
      "Ø§ÙĦÙħØµØ§": 2738,
      "12": 2739,
      "ï¿": 2740,
      "Ø±Ø¨Ø©": 2741,
      "ï¿½": 2742,
      "Ø³ÙħÙĬ": 2743,
      "ĠÙĨÙģØ³Ùĩ": 2744,
      "Ø¯ÙĨØ": 2745,
      "ÙĤØ§Ø±": 2746,
      "ĠØ§ÙĦØ¨ØŃØ«": 2747,
      "ĠÙģØ±ÙĬÙĤ": 2748,
      "ĠÙĦÙĤ": 2749,
      "ģØ¸": 2750,
      "ØŃÙĪÙ": 2751,
      "ĠØ§ÙĦÙħØ²ÙĬØ¯": 2752,
      "ĠÙħÙĥØ§": 2753,
      "ØŃØ³Ø¨": 2754,
      "ĠØ³ÙĨÙĪØ§Øª": 2755,
      "ĠÙĪØ§ÙĦØ£": 2756,
      "ĠØ§ÙĦØ¯ÙĪØ": 2757,
      "Ø§Ø¦Ù": 2758,
      "ĠØªØ¹Ø§ÙĦÙī": 2759,
      "ĠÙĥØªØ§Ø¨": 2760,
      "ĠØŃÙĤ": 2761,
      "Ø£ÙĨÙĪØ§Ø¹": 2762,
      "ĠÙĤÙĪÙĦ": 2763,
      "ĠØ±ÙĬØ§": 2764,
      "000": 2765,
      "ÙĦÙħØ´Ø§Ø±": 2766,
      "¨ÙĪØ¹": 2767,
      "ĠÙĦØ¯Ùī": 2768,
      "§ÙĦØ³Ø¨": 2769,
      "ĠØ§ÙĦØ£Ø®Ø±Ùī": 2770,
      "Ø§ÙĦØ³Ø¨": 2771,
      "ĠØ¬ÙħØ§": 2772,
      "Ø¯ÙĨÙĬØ©": 2773,
      "Ø£Ø±": 2774,
      "Ø¯ÙĨØ§": 2775,
      "ÙĪÙĬØ§Øª": 2776,
      "Ø¯Ø¹ÙĪ": 2777,
      "§ÙĦÙħØ´Ø§Ø±": 2778,
      "ÙģÙĬØ±": 2779,
      "Ø¨ÙĢ": 2780,
      "Ø§ÙĦÙħØ´Ø§Ø±": 2781,
      "ÙĦÙĤÙĬØ§": 2782,
      "ÙĩÙĪØ±": 2783,
      "ĠØŃÙĬÙĨ": 2784,
      "ÙħÙĨØ": 2785,
      "ĠØ§ÙĦÙħØ¹Ø§": 2786,
      "ĠØ§ÙĦÙħØµØ±ÙĬ": 2787,
      "Ø§ØŃØ©": 2788,
      "ĠÙĦØªØ": 2789,
      "ŃØµÙĦ": 2790,
      "ĠØ§ÙĦÙĤÙĬ": 2791,
      "§ÙħØª": 2792,
      "ĠØ·Ø¨ÙĬ": 2793,
      "ÙĨØ§Ø¦ÙĬØ©": 2794,
      "ĠØ´ÙĩØ±": 2795,
      "ØŃØ§Ø": 2796,
      "ĠØ£Ø¹ÙĦ": 2797,
      "ÙĦÙħØ¯ÙĬÙĨØ©": 2798,
      "ĠÙħØ§ÙĬ": 2799,
      "ĩÙĪ": 2800,
      "ĠØŃØ³Ø": 2801,
      "ow": 2802,
      "ĠØŃÙħØ§": 2803,
      "ĪØ®": 2804,
      "§ÙĦÙħØ¯ÙĬÙĨØ©": 2805,
      "Ø¯ÙĩÙħ": 2806,
      "Ø¯Ø±Ø§Øª": 2807,
      "ÙĦÙħØŃÙħ": 2808,
      "ĠØ§ÙĦØ¥ÙĨØª": 2809,
      "§ÙĦÙĤÙĬØ§": 2810,
      "ÙĦÙħØ«": 2811,
      "Ø§ÙĦÙĤÙĬØ§": 2812,
      "Ø§ÙĦÙħØ¯ÙĬÙĨØ©": 2813,
      "ĠØ§ÙĦØ¯ÙĬÙĨ": 2814,
      "Ø§Ø³Ø": 2815,
      "ĠØµÙĪØ±": 2816,
      "§ÙĦØ¯": 2817,
      "ĥÙĨÙ": 2818,
      "ent": 2819,
      "§ÙĦÙħØŃÙħ": 2820,
      "ĠÙĦÙĢ": 2821,
      "id": 2822,
      "Ø§ÙĦØ¯": 2823,
      "ÙĥØ¯": 2824,
      "Ø§ÙĦÙħØŃÙħ": 2825,
      "ĠØ§ÙĦØ³ÙĨ": 2826,
      "§ÙĦØ¯ÙĬ": 2827,
      "§ÙĦÙħØ«": 2828,
      "Ø§ÙĦÙħØ«": 2829,
      "Ø¨Ø§Ø¨": 2830,
      "Ø§ÙĦØ¯ÙĬ": 2831,
      "ħØ³ÙĬ": 2832,
      "ĠÙħÙĦØ": 2833,
      "ĠÙĦØ±": 2834,
      "ĠØ±ÙĤÙħ": 2835,
      "ĠØŃÙĪØ": 2836,
      "Ø§ÙĦÙĨØ³Ø¨Ø©": 2837,
      "ĠØ§ÙĦØ®Ø·": 2838,
      "ĠÙĦØ°ÙĦÙĥ": 2839,
      "Ø§Ø¨Ø¹Ø©": 2840,
      "ĠØ£ÙĦÙģ": 2841,
      "ĠØ§ÙĦØ³ÙĪÙ": 2842,
      "Ø³Ø¬ÙĬÙĦ": 2843,
      "ÙĥÙĦØ©": 2844,
      "ØŃØ¯ÙĬØ«": 2845,
      "ĠØ§ÙĦØ¥ÙĦÙĥØªØ±": 2846,
      "ĠÙĪØ§ÙĦØ°ÙĬ": 2847,
      "ĠØ§ÙĦÙħØ§ÙĦ": 2848,
      "ĠØ§ÙĦØ¬ÙĪ": 2849,
      "ĠØ§ÙĦØ³Ø§Ø¹Ø©": 2850,
      "ĠÙĥÙĪØ±": 2851,
      "Ø¯ÙĪÙĦ": 2852,
      "ÙĦØ®Ø±": 2853,
      "¹Ø´Ø±": 2854,
      "ag": 2855,
      "ĥØ±": 2856,
      "ĠØ§ÙĦØ³ÙĪÙĤ": 2857,
      "ĠØ§ÙĦÙĨÙĤ": 2858,
      "ĠØ§ÙĦØ¹Ø§ÙĦÙħÙĬØ©": 2859,
      "ĠÙĪØªØ¹": 2860,
      "ĠØ§ÙĦÙħØµØ§": 2861,
      "Ø¬ÙħÙĬØ¹": 2862,
      "ÙħØ´Ø±ÙĪØ¹": 2863,
      "ĠØ§ÙĦØ¬Ø±": 2864,
      "ĠÙĦØ£": 2865,
      "§ÙĦØ®Ø±": 2866,
      "Ø§ÙĦØ®Ø±": 2867,
      "ĠÙĪØ®": 2868,
      "ÙĪØªØ±": 2869,
      "ħÙĤØ±": 2870,
      "ØµØ±Ùģ": 2871,
      "ĠØ§ÙĦØ³ÙĦØ§Ùħ": 2872,
      "Ø¹Ø´Ø±": 2873,
      "ĠÙĪØ§ÙĦØ±": 2874,
      "¤ÙĪÙĦ": 2875,
      "ĠØªÙĤØ¯Ùħ": 2876,
      "of": 2877,
      "£Ø«ÙĬØ±": 2878,
      "Ø¬Ø±Ø§Ø¡Ø§Øª": 2879,
      "¨ÙĦØº": 2880,
      "Ø¨ÙĬØ±": 2881,
      "ĠØ§ÙĦØŃØ±Ø": 2882,
      "Ø®Ø°": 2883,
      "Ø¬Ø±ÙĬ": 2884,
      "ĠØ£ÙĬØ¶": 2885,
      "!!": 2886,
      "ĠØ§ÙĦÙħØ«": 2887,
      "ØªØ±Ø§": 2888,
      "ĠØ§ÙĦØ£ÙĪØ": 2889,
      "Ø³Ø±Ø§Ø¦": 2890,
      "§Ø¦ÙĬ": 2891,
      "Ø¹ÙĦÙĤ": 2892,
      "ÙĦÙĩØ": 2893,
      "Ø±Ø¢": 2894,
      "Ø³Ø§ÙĦØ©": 2895,
      "§Ø¶": 2896,
      "ÙħØŃ": 2897,
      "ĠØ¨ÙĨØ§Ø¡": 2898,
      "¨ÙĪÙĨ": 2899,
      "Ø®ÙĬØ±Ø©": 2900,
      "ĠÙĪØ¹ÙĦÙī": 2901,
      "ĠØµÙĬ": 2902,
      "Ø³Ø±Ø§Ø¦ÙĬÙĦ": 2903,
      "19": 2904,
      "Ø²ÙħØ©": 2905,
      "ĠÙĪØ¬": 2906,
      "ĠÙħØº": 2907,
      "ħÙĨÙĬ": 2908,
      "ÙĤÙĦØ": 2909,
      "ĠØ§ÙĦØ¹Ø±Ø§ÙĤ": 2910,
      "ĠØ±Ø§Ø¦": 2911,
      "ĠØ§ÙĦÙħØŃÙħ": 2912,
      "§ÙĦÙĩØ§": 2913,
      "ĠØ¯ÙĪÙĦØ©": 2914,
      "ĥØ§": 2915,
      "Ø®ØµÙĬ": 2916,
      "ØŃÙħÙĦ": 2917,
      "ÙħØ²": 2918,
      "ĠØ¬Ø§ÙĨØ¨": 2919,
      "ĠØ§ÙĦÙĤÙĬØ§": 2920,
      "ĠØ¨ÙĢ": 2921,
      "ÙĦØ§Ùħ": 2922,
      "Ø´ØºÙĬÙĦ": 2923,
      "Ø§ÙħØª": 2924,
      "§Ø³ÙĬØ©": 2925,
      "ĠØ§ÙĦÙĨÙĩØ": 2926,
      "ĠØŃØ¯Ø«": 2927,
      "Ø§ÙĦØ¨": 2928,
      "§ÙĦÙĩØ": 2929,
      "Ø§ÙĦÙĩØ": 2930,
      "ĪÙĬØª": 2931,
      "ÙĦÙħØ³ÙĦ": 2932,
      "ĠØ¬Ø§Ø¡": 2933,
      "ĠØ§ÙĦØ£Ø±Ø¶": 2934,
      "ÙħØ®": 2935,
      "¹ÙĨØ§": 2936,
      "ĠØ§ÙĦØ¯Ø§Ø®": 2937,
      "Ø¯Ø«": 2938,
      "§ÙĦÙħØ³ÙĦ": 2939,
      "Ø§ÙĦÙħØ³ÙĦ": 2940,
      "ĠÙĬØ´": 2941,
      "ÙĬÙĨØ©": 2942,
      "ÙĦÙħÙĪÙĤØ¹": 2943,
      "§ÙĦÙģØ§": 2944,
      "ec": 2945,
      "ħÙĩÙħ": 2946,
      "¨ÙĥÙĦ": 2947,
      "Ø§ÙĦÙģØ§": 2948,
      "Ġ30": 2949,
      "ØµØ§Ø¨Ø©": 2950,
      "ĠØ¹Ø´Ø±": 2951,
      "ĠØ§ÙĦØ£Ø±Ø¨": 2952,
      "Ø¨ÙĥÙĦ": 2953,
      "ĠØ¯Ø±Ø§": 2954,
      "§ÙĦÙħÙĪÙĤØ¹": 2955,
      "ħØ°": 2956,
      "Ø§ÙĦÙħÙĪÙĤØ¹": 2957,
      "Ø±Ø§Ø¡Ø©": 2958,
      "ĠâĢľ": 2959,
      "ĠØ·Ø¨": 2960,
      "ØŃÙĪØ": 2961,
      "ĠØ§Ø³ØªØ": 2962,
      "ÙĥÙĬÙĦ": 2963,
      "ĠÙĦØ£Ù": 2964,
      "Ø§ÙĦÙĩØ§": 2965,
      "ĠØªØ·Ø¨ÙĬÙĤ": 2966,
      "Ø¨ÙĪÙĦ": 2967,
      "ĠØ·Ø±ÙĬÙĤØ©": 2968,
      "ØºÙĬÙĬØ±": 2969,
      "Ġ13": 2970,
      "ÙĦÙĢ": 2971,
      "ĠÙħØ®Ø±ÙĪØ·": 2972,
      "ÙħÙĨØ¸": 2973,
      "ħØ¬Ø±": 2974,
      "ÙĦÙĨØ¨": 2975,
      "ģØ¶ÙĦ": 2976,
      "Ø£ÙĥØ¯": 2977,
      "ØŃÙĬÙģØ©": 2978,
      "ĠØ§ÙĨÙĩ": 2979,
      "ÙĦØ¬ÙĦ": 2980,
      "ĠØ£Ø³Ø¹Ø§Ø±": 2981,
      "ÙĥÙĦÙģØ©": 2982,
      "ÙĩÙĬÙ": 2983,
      "ĠØ§ÙĦØ¯ÙĬ": 2984,
      "ĠÙħØ¯ÙĬØ±": 2985,
      "ĠĠĠĠĠĠĠĠ": 2986,
      "ÙħØ¤": 2987,
      "ĠØ£ÙĨØ§": 2988,
      "ĠØ·Ø§ØŃÙĪÙĨØ©": 2989,
      "ģØ§Ø¹": 2990,
      "ĠØ§ÙĦØ«Ø§ÙĦØ«": 2991,
      "ĥØ´Ùģ": 2992,
      "ĠÙĪØ§ÙĦØ¨": 2993,
      "§ÙĦØ¬ÙĦ": 2994,
      "Ø§ÙĦØ¬ÙĦ": 2995,
      "ÙĦÙĤØ§Ø¦": 2996,
      "ĠN": 2997,
      "ĠØ§ÙĦØ¯ÙĪÙĦÙĬØ©": 2998,
      "Ø®Ø©": 2999,
      "ĠØ¨ÙĥÙĦ": 3000,
      "ĠØ¨Ø±ÙĬ": 3001,
      "§ÙĦÙĨØ¨": 3002,
      "ĠØºØ±": 3003,
      "Ø§ÙĦÙĨØ¨": 3004,
      "ĠÙĬØ¹ÙĨÙĬ": 3005,
      "ÙħØŃØª": 3006,
      "ĠØ§ÙĦØ£ÙħØ±ÙĬÙĥÙĬØ©": 3007,
      "ĠØ¨ÙĦØ§": 3008,
      "ħØ´ÙĬ": 3009,
      "ĠØ§ÙĦÙħØ³ÙĦ": 3010,
      "ĠØ§ÙĦØ§ØªØŃØ§Ø¯": 3011,
      "ĠØ§ÙĦØ¯": 3012,
      "Ø§Ø¦Ø¬": 3013,
      "¨Ø§ÙĦÙĨØ³Ø¨Ø©": 3014,
      "ĠØ§ÙĦÙħØ¹ÙĦÙĪÙħØ§Øª": 3015,
      "ĠÙħÙĥØ§ÙĨ": 3016,
      "ĠÙħØ³Ø§": 3017,
      "ĠØ§ÙĦÙħØ¹Ø±": 3018,
      "ÙħØ³Ø§Ø": 3019,
      "¹Ø«": 3020,
      "ÙĦØ²ÙĬ": 3021,
      "ĠÂ»": 3022,
      "ÙĥÙĩ": 3023,
      "ĠØ¹Ø±Ø¶": 3024,
      "ÙħØ®Ø§": 3025,
      "Ø¯ÙĬØ§": 3026,
      "ĠØ§ÙĦÙħØ´Ø§Ø±": 3027,
      "ĠØ¥ÙĦÙĬÙĩ": 3028,
      "Ø¨Ø§ÙĦÙĨØ³Ø¨Ø©": 3029,
      "ĪØ´": 3030,
      "ÙĦÙħØ³Ø§": 3031,
      "ĠÙħØ¬Ø§ÙĦ": 3032,
      "ÙĪØ¡": 3033,
      "ĠØªØŃÙĤÙĬÙĤ": 3034,
      "ĠÙĢ": 3035,
      "Ø¥ÙĨ": 3036,
      "ĠØ§ÙĦÙĪØ·ÙĨÙĬØ©": 3037,
      "¹Ø§Ø¨": 3038,
      "ĠØ§ÙĦØ´Ø®Øµ": 3039,
      "ĠØªØ³ØªØ®Ø¯Ùħ": 3040,
      "ĠÙĨÙĩØ§": 3041,
      "ĠØŃØ¯ÙĬØ«": 3042,
      "ÙħØŃÙĦ": 3043,
      "ĠØ¹Ø¯Ø©": 3044,
      "--": 3045,
      "ĠÙģÙĦØ§": 3046,
      "ĠØ£ÙĬØ": 3047,
      "ĠÙĨÙĤÙĦ": 3048,
      "ÙħØªØ": 3049,
      "§ÙĦÙħØ³Ø§": 3050,
      "Ø´Ø¹Ø±": 3051,
      "ØªØ§ÙĨ": 3052,
      "§ÙĦØ²ÙĬ": 3053,
      "Ø§ÙĦÙħØ³Ø§": 3054,
      "ØŃØ§Ø¨": 3055,
      "Ø§ÙĦØ²ÙĬ": 3056,
      "ĠÙĨÙģØ³": 3057,
      "ÙģØ§ØµÙĬÙĦ": 3058,
      "ĠØ£ÙĨÙĪØ§Ø¹": 3059,
      "ĠØ¨Ø§ÙĦØ¥Ø¶Ø§ÙģØ©": 3060,
      "ĠÙĥÙĬÙģÙĬØ©": 3061,
      "ĠÙĥØ³Ø§Ø±Ø§Øª": 3062,
      "Ø®ÙĪØ±": 3063,
      "£Ø®Ø¨Ø§Ø±": 3064,
      "ÙħØ®ØªÙĦÙģ": 3065,
      "Ø§ÙĦØ¬Ø©": 3066,
      "ĠØ£ÙĩÙĦ": 3067,
      "ĥÙħØ©": 3068,
      "ĠØ£ÙĬØ§": 3069,
      "ÙħØ±Ø©": 3070,
      "ħÙĨØ¹": 3071,
      "ĠÙĨØ´Ø±": 3072,
      "ĠØ±Ø³ÙĪÙĦ": 3073,
      "ĠÙħÙĨØ¸": 3074,
      "ĤØ·Ø§Ø¹": 3075,
      "ØŃÙĬÙĨ": 3076,
      "ĠÙĪÙĬØ": 3077,
      "ĠØ§ÙĦØ³Ø¨": 3078,
      "ÙħÙĬØ³": 3079,
      "ĠØ§ÙĦØ®Ø±": 3080,
      "ĠØ§ÙĦÙĩØ": 3081,
      "Ø³Ø³Ø©": 3082,
      "ÙĪØ¨Ø": 3083,
      "Ø¯Ø§Ø": 3084,
      "ĠØ§ÙĦØµÙĨØ§": 3085,
      "ĠÙĬÙĨØ§": 3086,
      "ĠÙĥÙĪØ": 3087,
      "Ø¹ÙĬØ¯": 3088,
      "ĠØµØºÙĬØ±Ø©": 3089,
      "Ø´Ø¨": 3090,
      "ĠØ§ÙĦÙĨØ¨": 3091,
      "ØŃÙĬØŃ": 3092,
      "ĠØ§ÙĦÙģØ§": 3093,
      "Ø·ÙĬØ©": 3094,
      "ÙĬØ²": 3095,
      "ÙĦØ§Ø¡": 3096,
      "Ø¨ÙĨØ§": 3097,
      "ĠÙģØ¹ÙĦ": 3098,
      "ĠØ§ÙĦØ¨Ø§": 3099,
      "Ø§ØªÙĩ": 3100,
      "Ġl": 3101,
      "ĠÙĪØ´": 3102,
      "ÙĦÙħØ¬ÙĦØ³": 3103,
      "oo": 3104,
      "ÙĥÙĬÙģ": 3105,
      "§ÙĦØ§ÙĨ": 3106,
      "£Øª": 3107,
      "Ø§Ø°": 3108,
      "Ø«Ù": 3109,
      "ÙĪØ§ÙĦ": 3110,
      "Ø§ÙĦØ§ÙĨ": 3111,
      "ĠØ§ÙĦØ´Ø¹Ø¨": 3112,
      "Ø¬ÙĨÙĬ": 3113,
      "Ø®Ø§Ø¨Ø§Øª": 3114,
      "ĠØ§ÙĦØ¹Ø±Ø¨": 3115,
      "Ø§ÙĨØ§": 3116,
      "ĠØ§ÙĦØ¬ÙĦ": 3117,
      "§ÙĦÙħØ¬ÙĦØ³": 3118,
      "Ø§ÙĦÙħØ¬ÙĦØ³": 3119,
      "ØŃØ¯Ø§Ø«": 3120,
      "ØªÙħØ±": 3121,
      "ØµÙĪØ±": 3122,
      "Ġthe": 3123,
      "ÙĥÙĬÙĨ": 3124,
      "ĠØ§ÙĦÙħØ¯ÙĬÙĨØ©": 3125,
      "¨Ø¯Ø£": 3126,
      "ħÙĥØª": 3127,
      "ĠØ§ÙĦØ¬ÙħØ§": 3128,
      "Ùĭ.": 3129,
      "¹Ùĩ": 3130,
      "Ø¬Ø§ÙĨ": 3131,
      "ĠØ§ÙĦÙħÙĪÙĤØ¹": 3132,
      "§Ø¯ÙĬ": 3133,
      "st": 3134,
      "ĠÙĪØ¨ÙĬ": 3135,
      "ĠØ£ÙħØ±": 3136,
      "ĠÙĦØ§Ø": 3137,
      "ĤØ·": 3138,
      "Ø¶ÙħÙĨ": 3139,
      "ĤØ¯Ø³": 3140,
      "ĠÙħØ¹Ø§": 3141,
      "ØŃÙħØ§": 3142,
      "ĠØ§ÙĦÙħÙĦÙ": 3143,
      "ÙĦØ¯Ø±": 3144,
      "ĠÙĥØ§ÙģØ©": 3145,
      "Ø¯ÙĪØ§": 3146,
      "ÙĦÙĪØ±": 3147,
      "Ġ2017": 3148,
      "ĠØ§ÙĦØ£Ø¹ÙħØ§ÙĦ": 3149,
      "ØŃØ¯Ø¯": 3150,
      "Ø±ÙĬØ©": 3151,
      "ØŃØ±Ùĥ": 3152,
      "ÙĩÙĬÙħ": 3153,
      "ĥÙĨÙĪÙĦ": 3154,
      "ÙĩØ¯Ùģ": 3155,
      "ĠØ£Ø«ÙĨØ§Ø¡": 3156,
      "ĠØ§ÙĦÙģØ±ÙĬÙĤ": 3157,
      "ĠØµÙĨØ¹": 3158,
      "Ġin": 3159,
      "ĠØ§ÙĦØ¨ÙĦØ§Ø¯": 3160,
      "ħÙĪÙĦ": 3161,
      "ĠØ£Øª": 3162,
      "Ġ2016": 3163,
      "¨Ø§Ø¹": 3164,
      "ÙĦØ§ÙĬ": 3165,
      "ÙħØ±Øª": 3166,
      "ħØ¯Ø§Ø±": 3167,
      "ØŃØ³ÙĨ": 3168,
      "ĥÙĩØ±Ø¨": 3169,
      "ĠØ§ÙĦØ«Ù": 3170,
      "Ġ16": 3171,
      "ħØ·ÙĦ": 3172,
      "ÙĩØ§ØªÙģ": 3173,
      "ħØ¯Ùī": 3174,
      "ĠØ§ÙĦÙĪØ§Ù": 3175,
      "ĠØ¬ÙĩØ§": 3176,
      "§ÙĦØ¯Ø±": 3177,
      "Ø§ÙĦØ¯Ø±": 3178,
      "ģØª": 3179,
      "ĠØ§ÙĦÙĪØ§ÙĤ": 3180,
      "ÙĪØ¨Ø§": 3181,
      "Ø·Ø±Ø©": 3182,
      "ĠØ§ÙĦØ³Ø§Ø¨Ù": 3183,
      "ĠØ§ÙĦÙħØ³Ø§": 3184,
      "ĠØ¥ÙĨØªØ§Ø¬": 3185,
      "ÙĦÙħØŃØª": 3186,
      "ÙħÙĬÙĦ": 3187,
      "ĠØ¥Ø¹": 3188,
      "ÙĩÙĬØ±": 3189,
      "ÙĬØª": 3190,
      "ÙĨØ§Ø©": 3191,
      "ĠÙħØ¬Ù": 3192,
      "§ÙĦÙħØŃØª": 3193,
      "Ø§ÙĦÙħØŃØª": 3194,
      "ĠØ§ÙĦØ«ÙĤ": 3195,
      "Ø¹ÙĨØ§": 3196,
      "Ø³ÙĥÙ": 3197,
      "ÙĨÙĬÙĬÙĨ": 3198,
      "ĠØ§ÙĦØ¥ÙħØ§Ø±Ø§Øª": 3199,
      "ØªÙĥ": 3200,
      "ÙĪØ¬Ùĩ": 3201,
      "ÙĦÙĬÙĦ": 3202,
      "¯Ø§": 3203,
      "§ÙĦÙĢ": 3204,
      "ĠØ§ÙĦØ³Ø§Ø¨ÙĤ": 3205,
      "Ø§ÙĦÙĢ": 3206,
      "ur": 3207,
      "ÙĥÙĪØ": 3208,
      "ĠÙĪØ¸": 3209,
      "Ø¶Ùī": 3210,
      "ĠÙĦÙĨØ§": 3211,
      "¨Ø§ÙĨ": 3212,
      "ĠØ§ÙĦØ«Ø§ÙĨÙĬØ©": 3213,
      "Ø²Ø§ÙĬ": 3214,
      "Ġ24": 3215,
      "ĠØ§ÙĦØ¥ÙĨØªØ±ÙĨØª": 3216,
      "ĠØ£ÙĤ": 3217,
      "ĠØ§ÙĦØ±ÙĪ": 3218,
      "ĠØ§ÙĦÙħÙĪØ§Ø¯": 3219,
      "30": 3220,
      "Ø¯ÙĪØ§Øª": 3221,
      "ĠØ§ÙĦØ®Ø§Ø±Ø¬ÙĬØ©": 3222,
      "ĠØ§ÙĦØ²ÙĬ": 3223,
      "¨ÙĨØ§ÙĨ": 3224,
      "ÙĪÙĨØ©": 3225,
      "ÙĨØ¯ÙĪ": 3226,
      "ĠØªØ¤": 3227,
      "ĤØ§ÙĩØ±Ø©": 3228,
      "ĠØªÙĬ": 3229,
      "Ø§Ø¶": 3230,
      "ÙģØªØ": 3231,
      "ĠØ±Ø¤": 3232,
      "ĠØ¨Ø§ÙĦÙĨØ³Ø¨Ø©": 3233,
      "ĠØ¬ÙĨÙĬ": 3234,
      "ÙĨÙĬØ§Øª": 3235,
      "Ø³Ø³Ø§Øª": 3236,
      "Ø¬Ø¯": 3237,
      "Ø·ÙĦØ§Ø¨": 3238,
      "¨Ø¯ÙĪÙĨ": 3239,
      "ĠØ§ÙĦÙħØŃØª": 3240,
      "§ÙĥØª": 3241,
      "Ø·Ùģ": 3242,
      "ħØ´ØªØ±": 3243,
      "ħØ¶Ø§": 3244,
      "Ø´Ø±ÙĬÙĨ": 3245,
      "ÙĪØ§Ø¬": 3246,
      "ÙħØ·Ø§": 3247,
      "ÙĤØ¯Ø³": 3248,
      "ĠØ®Øµ": 3249,
      "ĠÙĤØ§Ø¦ÙħØ©": 3250,
      "Ø¨Ø¯ÙĪÙĨ": 3251,
      "ÙĪØ¨Ø±": 3252,
      "ÙĦÙħØ±Ø£Ø©": 3253,
      "ĠØ§ÙĦÙħÙĦÙĥ": 3254,
      "Ø±Ø§Ùħ": 3255,
      "Ø¹ÙĬÙĨ": 3256,
      "ĠØ§ÙĦÙħØ¬ÙĦØ³": 3257,
      "ĠØ³Ø§Ø¹Ø©": 3258,
      "ĠØ§ÙĦØ§ÙĨ": 3259,
      "ÙĨÙĪÙĬ": 3260,
      "Ø´Ø±ÙĥØ©": 3261,
      "ĠØ¥ÙĨÙĩ": 3262,
      "Ø¯Ùĥ": 3263,
      "ĠÙģÙĤØ": 3264,
      "ĠÙħØ®ØªÙĦÙģØ©": 3265,
      "ĠØ§ÙĦÙĩØ§": 3266,
      "ĠØ¨Ø±Ø§": 3267,
      "Ġ100": 3268,
      "Ø³Ø§Ø¹Ø¯": 3269,
      "Ø¹ÙĦØ§ÙĨ": 3270,
      "¨Ø³": 3271,
      "ĠØªØ¹ÙħÙĦ": 3272,
      "¨Øº": 3273,
      "ĠO": 3274,
      "ĠØªÙĤÙĪÙħ": 3275,
      "ĠØ³ÙĪØ§Ø¡": 3276,
      "ĠØ§ÙĦØ³ÙĬØ§Ø³ÙĬØ©": 3277,
      "§ÙĦÙħØ±Ø£Ø©": 3278,
      "Ø§ÙĦÙħØ±Ø£Ø©": 3279,
      "ĠÙĪÙĥØ°ÙĦÙĥ": 3280,
      "ay": 3281,
      "ĠØ·ÙĨ": 3282,
      "ĠØµÙģ": 3283,
      "ÙĨØ¬ÙĦÙĬ": 3284,
      "ÙĩÙĦØ": 3285,
      "ÙĨÙĪØ§ÙĨ": 3286,
      "ĠØ§ÙĦØ®ÙĬØ§Ø±Ø§Øª": 3287,
      "ÙĨØ§ÙĨ": 3288,
      "ĠÙģÙĤØ§": 3289,
      "ĠÙĬÙĨ": 3290,
      "ÙĪØ¬ÙĬØ": 3291,
      "Ø¨Ø§Ø¹": 3292,
      "ĠØ³Ø§Ø": 3293,
      "ÙĪØ¬ÙĬØ§": 3294,
      "ĠØ§ÙĦÙĢ": 3295,
      "ÙĤØ§ÙĩØ±Ø©": 3296,
      "ĠØ§Ø±": 3297,
      "ÙĬÙģ": 3298,
      "ĠÙģØ¶": 3299,
      "ÙĦÙĤØ§ÙĩØ±Ø©": 3300,
      "ĠÙĬÙĤÙĪÙħ": 3301,
      "§ÙĦÙĤØ§ÙĩØ±Ø©": 3302,
      "Ø§ÙĦÙĤØ§ÙĩØ±Ø©": 3303,
      "ĠØ£Ø±Ø¨": 3304,
      "Ø±ÙĬØ¹": 3305,
      "ĠØ§ÙĦØ£ÙħÙĨ": 3306,
      "¹ÙĪØ¯Ø©": 3307,
      "ĠÙĪØ¬Ùĩ": 3308,
      "Ø£Ø®Ø¨Ø§Ø±": 3309,
      "ÙĦÙħØ®": 3310,
      "Ø±Ø¨Ø¹": 3311,
      "ĠÙĨÙĩØ": 3312,
      "ĠØªÙĤØ¯ÙĬÙħ": 3313,
      "ĠÙĨÙĩØ§ÙĬØ©": 3314,
      "ĠØ±ÙĪØ§": 3315,
      "ÙĦÙħØŃÙĦ": 3316,
      "ĠØ§ÙĦØ³Ø±": 3317,
      "ĠØ¥Ù": 3318,
      "§ÙĦÙħØ®": 3319,
      "Ø§ÙĦÙħØ®": 3320,
      "§ÙĦÙħØŃÙĦ": 3321,
      "Ø§ÙĦÙħØŃÙĦ": 3322,
      "ĠÙĥÙĦØ": 3323,
      "ĠØ§ÙĦØ´Ø¹Ø±": 3324,
      "ĠØ§ÙĦÙħØµØ±ÙĬØ©": 3325,
      "Ø²ÙĬØ±Ø©": 3326,
      "ªÙĬØ§": 3327,
      "ĤÙĪØ§Øª": 3328,
      "Ø¬ÙħØ¹": 3329,
      "ĠØ³ÙĪØ±ÙĬØ§": 3330,
      "ĠÙģÙĩÙĪ": 3331,
      "ÙĦÙħØ´Ø±ÙĪØ¹": 3332,
      "ĠØŃØ¯": 3333,
      "ĠÙħØ³Ø§Ø¡": 3334,
      "Ġ17": 3335,
      "¹Ø¶Ø§Ø¡": 3336,
      "ĠØ§ÙĦØŃÙĪØ": 3337,
      "§ÙĦÙħØ´Ø±ÙĪØ¹": 3338,
      "Ø§ÙĦÙħØ´Ø±ÙĪØ¹": 3339,
      "¨Ø§ÙĦÙĦ": 3340,
      "ĠÙĬØ¹ÙħÙĦ": 3341,
      "ĠÙħÙĤØ§Ø¨ÙĦ": 3342,
      "ØŃØ°": 3343,
      "ĠÙģØªØ±Ø©": 3344,
      "Ø²ÙĬØ©": 3345,
      "ĠØ§ÙĦØ£Ø´": 3346,
      "Ø®Ø¯ÙħØ©": 3347,
      "ØŃÙĪÙĤ": 3348,
      "ØŃÙĩ": 3349,
      "Ø¨Ø§ÙĦÙĦ": 3350,
      "ĠØ®Ø¯ÙħØ©": 3351,
      "§ÙĦÙĤØ§Ø¦": 3352,
      "ĠØ£ÙĬØ§Ù": 3353,
      "Ø§ÙĦÙĤØ§Ø¦": 3354,
      "Ø¨ÙĪØ±": 3355,
      "com": 3356,
      "ĠÙĤØ·Ø¹": 3357,
      "Ø³ÙĦÙĬ": 3358,
      "§ØªÙĬ": 3359,
      "ĠØ£ÙĬØ§Ùħ": 3360,
      "ĠØ³ÙĪÙ": 3361,
      "ĠØ§ÙĦÙħØŃÙĦ": 3362,
      "Ø¸Ø±": 3363,
      "ĠÙĦÙĦØ£": 3364,
      "ĩØ©": 3365,
      "¨Ø·Ø§": 3366,
      "ØºØ§": 3367,
      "Ø·ÙĬÙĨ": 3368,
      "ĠØ§ÙĦØ´Ø¨Ø§Ø¨": 3369,
      "ÙĥÙĩØ±Ø¨": 3370,
      "ħÙħØª": 3371,
      "§ÙĦÙĪØ±": 3372,
      "ĠØ§ÙĦÙħØªØ": 3373,
      "ĠÙĬÙĨØª": 3374,
      "ÙĦÙħØ®Ø§": 3375,
      "Ø±Ø§ØªÙĬØ": 3376,
      "ĠØ§ÙĦØ¨ØŃØ±": 3377,
      "ĠØ¨Ø¯ÙĪÙĨ": 3378,
      "ÙħØ¯Ø±": 3379,
      "¹ÙĨÙĩØ§": 3380,
      "Ø§ÙĦÙĪØ±": 3381,
      "ĠÙħÙĨÙĩÙħ": 3382,
      "ĠÙĪØ¥ÙĨ": 3383,
      "§ÙĦÙħØ®Ø§": 3384,
      "Ø§ÙĦÙħØ®Ø§": 3385,
      "Ø§ÙĥØª": 3386,
      "Ø¹ÙĨÙĩØ§": 3387,
      "ĠØ§ÙĦØ±Ø¦ÙĬØ³ÙĬØ©": 3388,
      "ĪÙĥÙĦ": 3389,
      "ĠÙħØ·Ø§": 3390,
      "ĤØ¯ÙĬÙħ": 3391,
      "ÙĤÙĪØ§": 3392,
      "ÙĥÙĪØ±": 3393,
      "ĤØ§ÙħØ©": 3394,
      "ÙĨØ¨ÙĬ": 3395,
      "ÙĩÙĦØ§": 3396,
      "ĠØ¹ÙĨÙĩØ§": 3397,
      "ĠĊ": 3398,
      "Ġa": 3399,
      "ĤØ±Ø¢": 3400,
      "Ġ*": 3401,
      "ĤØ§Ø¨": 3402,
      "ĠÙĪÙĥÙĦ": 3403,
      "ħÙĥØªØ¨": 3404,
      "ĠØªØ£Ù": 3405,
      "ĠØ¨Ø§ÙĦÙĦ": 3406,
      "ÙĬØ§Øª": 3407,
      "Ø¹Ø±Ø¶": 3408,
      "ÙĦØ§Ø©": 3409,
      "ĠØ§ÙĦÙħØ±Ø£Ø©": 3410,
      "ĠØ¬Ø¹ÙĦ": 3411,
      "ĠØ³ÙĪÙĤ": 3412,
      "Ø±Ø¯": 3413,
      "ĠØ§ÙĦØ£Ø®ÙĬØ±Ø©": 3414,
      "ĠØ¹ÙĦÙĬÙ": 3415,
      "ĠØ²ÙĬØ§Ø¯Ø©": 3416,
      "ĠØ§ÙĦØ¥Ø±": 3417,
      "§Ø®ØªÙĬØ§Ø±": 3418,
      "ÙħÙĬØ": 3419,
      "ÙĦÙĥÙĬ": 3420,
      "ĠÙĪÙĦÙĬØ³": 3421,
      "¹Ø²": 3422,
      "ÙĪØ§Ø¨": 3423,
      "ÙıÙĳ": 3424,
      "ĠØµÙĨØ§Ø¹Ø©": 3425,
      "ĠØŃØ³Ø¨": 3426,
      "ØµØ§Øª": 3427,
      "Ø±Ø§ØªÙĬØ¬ÙĬØ©": 3428,
      "ÙĪØŃØ©": 3429,
      "ĠØ§ÙĦØºØ±": 3430,
      "Ø¯ÙģØ¹": 3431,
      "ĠØ§ÙĦÙħØ®": 3432,
      "ri": 3433,
      "ĠØ§ÙĦØ·Ø§ÙĤØ©": 3434,
      "ĠÙħØŃÙħ": 3435,
      "ĠÙĬÙĥÙĨ": 3436,
      "ĠØ§ÙĦØªØ¹ÙĦÙĬÙħ": 3437,
      "§Ø¶ÙĬ": 3438,
      "ĠØŃØ§ÙĦ": 3439,
      "ĠØ§ÙĦØªÙĪØ§ØµÙĦ": 3440,
      "Ø·ÙĨÙĬÙĨ": 3441,
      "ÙĦÙĥÙĩØ±Ø¨": 3442,
      "ĠÙĦÙħØ¯Ø©": 3443,
      "Ø§Ø¦Ùģ": 3444,
      "ĠØ´Ø±Ø§Ø¡": 3445,
      "§ÙĦÙĥÙĩØ±Ø¨": 3446,
      "ĠØªØµÙĨÙĬØ¹": 3447,
      "Ø§ÙĦÙĥÙĩØ±Ø¨": 3448,
      "ĠØ§ÙĦØªØ¬Ø§Ø±ÙĬØ©": 3449,
      "ĠÙħØ®": 3450,
      "ÙħØŃØ": 3451,
      "ĠØ³ÙĦØ³ÙĦØ©": 3452,
      "Ø³ÙĦØŃØ©": 3453,
      "ÙĦØ§Ø±": 3454,
      "ĠÙĨØŃÙĨ": 3455,
      "ĠØ¯Ø¹": 3456,
      "ĠØ§ÙĦÙħØ´Ø±ÙĪØ¹": 3457,
      "ĠØ§ÙĦÙĤØ§Ø¦": 3458,
      "Ġ25": 3459,
      "Ø¨Øº": 3460,
      "ĠØ¹ÙĦÙĬÙĥ": 3461,
      "Ø¶Ù": 3462,
      "ħÙħÙĥÙĨ": 3463,
      "ch": 3464,
      "ĠØ§ÙĦØªØ§Ø±ÙĬØ®": 3465,
      "¶ØŃ": 3466,
      "ÙĦØ®Ø¨": 3467,
      "ĠÙģÙĤØ§ÙĦ": 3468,
      "ĠØ§ÙĦØ¬ÙħÙĩ": 3469,
      "ÙĦÙħÙĨØ¸": 3470,
      "....": 3471,
      "Ø´Ø±Ø": 3472,
      "ĠÙĥÙħ": 3473,
      "ĠØ§ÙĦØ£Ø·ÙģØ§ÙĦ": 3474,
      "§ÙĦØ®Ø¨": 3475,
      "ĠÙĥÙĪØ±ÙĪÙĨØ§": 3476,
      "§Ø¬ØªÙħØ§": 3477,
      "Ø§ÙĦØ®Ø¨": 3478,
      "ĠØ³Ø§Ø¨": 3479,
      "§ÙĦÙħÙĨØ¸": 3480,
      "Ø³ÙħÙĬØ©": 3481,
      "Ø§ÙĦÙħÙĨØ¸": 3482,
      "ÙĪØ±Ø": 3483,
      "ØŃÙĪØ§": 3484,
      "ĠØ®Ø§Ø±Ø¬": 3485,
      "ĠØ§ÙĦÙĤØ§ÙĨÙĪÙĨ": 3486,
      "Â».": 3487,
      "ÙĨØ§Ø": 3488,
      "ÙĪÙĩ": 3489,
      "ĠØ§ÙĦØ¬ÙĩØ§": 3490,
      "Ø³ÙĥØ±ÙĬØ©": 3491,
      "14": 3492,
      "Ø±Ø§ØªÙĬ": 3493,
      "ĠØ¨Ø§ÙĦØ¹": 3494,
      "Ġg": 3495,
      "ÙħØ§ÙĨÙĬØ©": 3496,
      "ĠØ§ÙĦØªØ®": 3497,
      "ÙĨØªÙĬ": 3498,
      "Ġof": 3499,
      "ÙħØ·Ø±": 3500,
      "ÙĥØ¨": 3501,
      "ĠØ§ÙĦØ³Ø¹ÙĪØ¯ÙĬ": 3502,
      "ĠØ§ÙĦÙģØªØ±Ø©": 3503,
      "ØªØ¨Ø§Ø±": 3504,
      "ĠÙĪØ¢": 3505,
      "ÙħÙĬØ±": 3506,
      "ĠÙĪØ§Ø": 3507,
      "ĠØ´ÙĥÙĦ": 3508,
      "ħÙģØª": 3509,
      "ĠØ§ÙĦØ¥Ø": 3510,
      "ĠØ§ÙĦÙĪØ²Ø±Ø§Ø¡": 3511,
      "ĠØ§ÙĦÙĨØ¨ÙĬ": 3512,
      "ĠÙĩÙħ": 3513,
      "ĠØºÙĬ": 3514,
      "ĤØ¨Ø©": 3515,
      "ĠÙĦÙĬØ³Øª": 3516,
      "ĠØ£ÙħØ³": 3517,
      "¨Ø§Ø¡": 3518,
      "ÙĩØ¯Ø©": 3519,
      "ĠÙĦØ¨ÙĨØ§ÙĨ": 3520,
      "¨ÙĤÙĬ": 3521,
      "Â·": 3522,
      "ĠØ¯ÙĪØ": 3523,
      "ħÙĩÙħØ©": 3524,
      "ĠÙĬÙĪØ¬Ø¯": 3525,
      "ĠÙĪØ§ÙĦÙģ": 3526,
      "Ø§Ø®ØªÙĬØ§Ø±": 3527,
      "ÙħØªØ¹": 3528,
      "ÙĦÙħÙĪØ±": 3529,
      "ĠØ§ÙĦØ§Ø¬ØªÙħØ§Ø¹ÙĬ": 3530,
      "ĠÙĦØ§Ø³Øª": 3531,
      "ĠØªÙĪØ§": 3532,
      "ØµØ¨Ø§ØŃ": 3533,
      "Ø·Ø±ÙĬÙĤØ©": 3534,
      "ĠØ§ÙĦÙħØ¨Ø§": 3535,
      "ĠØ¬Ø§ÙħØ¹Ø©": 3536,
      "§ÙĦÙħÙĪØ±": 3537,
      "ÙĦÙħØ®ØªÙĦÙģ": 3538,
      "§ÙĦÙħØ®ØªÙĦÙģ": 3539,
      "Ø§ÙĦÙħØ®ØªÙĦÙģ": 3540,
      "ÙĪÙħØ§": 3541,
      "Ø§ÙĦÙħÙĪØ±": 3542,
      "ĠØ¯Ø¨ÙĬ": 3543,
      "ĠÙħØ³Ø§Ø": 3544,
      "ĠØ§ÙĦÙħØ®ØªÙĦÙģ": 3545,
      "¹Ø¨Ø©": 3546,
      "ĠØ§ÙĦØµØŃØ©": 3547,
      "Ø¯ÙĬØ§Øª": 3548,
      "ĩØ¯Ø": 3549,
      "ÙħØ«ÙĦ": 3550,
      "ÙĤØ±Ø¢": 3551,
      "¨Ø§Ø³Ùħ": 3552,
      "ĠØ§ÙĦØ³ÙĪØ±ÙĬ": 3553,
      "Ø¨Ø§Ø³Ùħ": 3554,
      "ĠØ§ÙĦØ£Ø¹": 3555,
      "ĠØ§ÙĦÙĥÙĩØ±Ø¨": 3556,
      "ĠØ§ÙĦØ³ÙĬØ§Ø³ÙĬ": 3557,
      "Ø³ÙĪØ§Ù": 3558,
      "Ø§Ø±Ø§": 3559,
      "ØªÙħØ¯": 3560,
      "Ø´ÙĨ": 3561,
      "ÙħØ§Ø¯": 3562,
      "ĠØªØŃÙħÙĬÙĦ": 3563,
      "em": 3564,
      "ĤØ¯ÙħØ©": 3565,
      "ĠÂ·": 3566,
      "ÙĤØ¯ÙħØ©": 3567,
      "ĠØ§ÙĦÙħØ®Ø§": 3568,
      "ĠØ§ÙĦØ¬ÙĬØ´": 3569,
      "¹ÙĦÙ": 3570,
      "Ø³ÙĪØ§ÙĤ": 3571,
      "¹Ø¯Ø§": 3572,
      "ĠÙħØ±Øª": 3573,
      "ÙħØ±Ø§Ø±": 3574,
      "ĠÙĪØ§ÙĦØµ": 3575,
      "ĠØ§ÙĦØ£ÙĬ": 3576,
      "un": 3577,
      "ĠÙĦØ£ÙĨÙĩ": 3578,
      "ÙĦÙĤØ±Ø¢": 3579,
      "ĠØ¹Ø¶": 3580,
      "ĠØŃØ³ÙĨ": 3581,
      "ØŃØªÙĬØ§": 3582,
      "ĠØ¥Ø¶Ø§ÙģØ©": 3583,
      "ĠØ¨Ø§Ø³Ùħ": 3584,
      "Ø§Ø¬ØªÙħØ§": 3585,
      "¹ÙħÙĦÙĬØ§Øª": 3586,
      "Ø´Ù": 3587,
      "ÙĤÙĬÙ": 3588,
      "ĠÙħØ§ÙĥÙĬ": 3589,
      "ÙĨØ¯Ø³": 3590,
      "ĠØ§ÙĦØ®Ø¨": 3591,
      "ĠØ£ÙģØ±ÙĬÙĤÙĬØ§": 3592,
      "ĠØ¶Ø±": 3593,
      "ÙĤØ·Ø§Ø¹": 3594,
      "ice": 3595,
      "ĠØ«ÙĦØ§Ø«Ø©": 3596,
      "§ÙĦÙĤØ±Ø¢": 3597,
      "Ø®Ø±ÙĬÙĨ": 3598,
      "ħÙĪÙĤÙģ": 3599,
      "Ø§ÙĦÙĤØ±Ø¢": 3600,
      "Ø³ÙĪÙħ": 3601,
      "ÙħÙĥØ§ÙĨ": 3602,
      "ĠØ¶Ø": 3603,
      "Ø·Ø§Ù": 3604,
      "ĠÙĪØ§ÙĦÙĤ": 3605,
      "ĠØ§ÙĦØ¹ÙħÙĦØ§Øª": 3606,
      "Ø´ÙĦ": 3607,
      "¹Ø§Ø¦": 3608,
      "Ø¹Ø§Ø±": 3609,
      "ÙĨÙĩØ": 3610,
      "Ġand": 3611,
      "Ø¯ÙħØª": 3612,
      "Ø¹ÙħÙĦÙĬØ§Øª": 3613,
      "ĠØ£ÙĤÙĦ": 3614,
      "ĠØ§ÙĦÙħÙĨØ¸": 3615,
      "ĠÙħØ¨Ø§Ø´Ø±Ø©": 3616,
      "ĠØ§ÙĦÙħÙĬØ§Ùĩ": 3617,
      "ĠÙħØŃØ·Ø©": 3618,
      "Ø²Ùħ": 3619,
      "§Ø±Ù": 3620,
      "Ø¹Ø«": 3621,
      "ĠÙĥØ«ÙĬØ±": 3622,
      "ĠØ¢ÙĦØ§Øª": 3623,
      "§ÙĦØ§Ø±": 3624,
      "ĠÙĪØ§ÙĦØ§Ø³Øª": 3625,
      "ĠØ§Ø«": 3626,
      "Ø§ÙĦØ§Ø±": 3627,
      "ÙģØ¹ÙĦ": 3628,
      "Ø±ÙĬÙģ": 3629,
      "ĠØ¨ÙĬÙĨÙħØ§": 3630,
      "ĠØªÙĨÙģÙĬØ°": 3631,
      "Ø¸Ø": 3632,
      "§ÙĥØ": 3633,
      "ĠÙģÙĪÙĤ": 3634,
      "ĠØ£ÙĦØ": 3635,
      "ĠØ§ÙĦØµØ®ÙĪØ±": 3636,
      "ĠÙĦÙĦØ£Ù": 3637,
      "ĠÙģØªØ": 3638,
      "ĠØ£ÙħØ±ÙĬ": 3639,
      "ĠÙĨØªÙĬ": 3640,
      "ØŃÙĤÙĬÙĤ": 3641,
      "ĠØªØº": 3642,
      "ħÙħØ§Ø±": 3643,
      "ĠÙĦÙĥÙħ": 3644,
      "ÙĨØ³Ø": 3645,
      "ĠØ§ÙĦÙħØ®ØªÙĦÙģØ©": 3646,
      "Ø´Ø§Ø±Ø©": 3647,
      "ØµÙĦØ": 3648,
      "ĠÙĨØ³Ø¨Ø©": 3649,
      "ÙĦØ®Ø": 3650,
      "ĠØ§ÙĦØ¬ÙħØ¹Ø©": 3651,
      "ĠÙĪØ«": 3652,
      "ħÙĤØª": 3653,
      "¹Ø§Ø¡": 3654,
      "ĠÙĦÙĩØ°Ø§": 3655,
      "ĠØªØ£Ø«ÙĬØ±": 3656,
      "ÙĨÙĬÙĪ": 3657,
      "¤Ø": 3658,
      "ĠØ§ÙĦØŃØ±Ø¨": 3659,
      "ÙĦÙħØ·Ø±": 3660,
      "Ø§ØŃØµÙĦ": 3661,
      "¨Ø§ÙĬ": 3662,
      "ĠÙĦÙħØ": 3663,
      "Ø¹Ø§Ø¡": 3664,
      "ĠØ§ÙĦØ·Ø¨": 3665,
      "ĠÙĤÙĬØ": 3666,
      "§ÙĦØ®Ø": 3667,
      "Ø§ÙĦØ®Ø": 3668,
      "ĠÙĬÙĤØ": 3669,
      "Ø²Ø§Ù": 3670,
      "ÙĪØ¨Ø§Øª": 3671,
      "§ÙĦÙħØ·Ø±": 3672,
      "ĠØ¸ÙĦ": 3673,
      "ÙħØ§ÙĨÙĬ": 3674,
      "ĠØ£Ø¹ÙħØ§ÙĦ": 3675,
      "¹Ø§ÙħØ§": 3676,
      "Ø¸Ø§": 3677,
      "ĠÙĦØ§Ø¹": 3678,
      "Ø§ÙĦÙħØ·Ø±": 3679,
      "ĠØ¨Ø·": 3680,
      "Ø¹Ø§Ø¦": 3681,
      "ĥÙĨÙĪÙĦÙĪØ¬ÙĬØ§": 3682,
      "ĩØ¯Ø§Ùģ": 3683,
      "Ø®ØµØµ": 3684,
      "ĠâĢ¦": 3685,
      "ĠÙħØŃÙĦ": 3686,
      "Ø¯Ø´Ø©": 3687,
      "§ÙģØª": 3688,
      "Ø§ÙĥØ": 3689,
      "ĥØ³ÙĬØ±": 3690,
      "ŃØ³ÙĬÙĨ": 3691,
      "Ø¯ÙĦØ": 3692,
      "ĠØ§ÙĦØ¨Ø±Ø§": 3693,
      "ØµØ§Ø": 3694,
      "¨ØªØ": 3695,
      "±ÙĬØ¹": 3696,
      "ØŃÙĬØ«": 3697,
      "Ø®ÙģØ¶": 3698,
      "Ø¬Ø³": 3699,
      "ÙĪØªÙĬ": 3700,
      "ĠØ§ÙĦÙĪØ±": 3701,
      "§ÙĦÙĥÙĬ": 3702,
      "Ø§ÙĦÙĥÙĬ": 3703,
      "ĠØ§Ø¬ØªÙħØ§": 3704,
      "ĠØ§ÙĦØŃÙĥÙĪ": 3705,
      "ĠØ§ÙĦØ¥Ø³Ø±Ø§Ø¦ÙĬ": 3706,
      "¤Ø§": 3707,
      "ĠØ§ÙĦØ®Ø¯ÙħØ§Øª": 3708,
      "ĠÙĪØ¶": 3709,
      "ĤØ§ÙĪ": 3710,
      "ĠØ¯Ø±Ø¬Ø©": 3711,
      "§Ø´Øª": 3712,
      "ĠØŃØ¬Ùħ": 3713,
      "ĠÙĥØ§ÙħÙĦ": 3714,
      "ĠÙĪØ¬Ù": 3715,
      "ĠØ¬ÙĩØ§Ø²": 3716,
      "ÙĤØ§ÙĪ": 3717,
      "Ø³Ø·Ø©": 3718,
      "ÙĤØ§Ø¨": 3719,
      "ĠØ§ÙĦÙĨÙĪ": 3720,
      "Ø¹Ø§ÙħØ§": 3721,
      "ÙĪØ£Ù": 3722,
      "Ø±ÙĪØ³": 3723,
      "ĠÙĪØ§ÙĦØ®": 3724,
      "ÙģÙĩ": 3725,
      "ĠØ¥Ø¹Ø§Ø¯Ø©": 3726,
      "Ø¶Ùħ": 3727,
      "ĠU": 3728,
      "ØªÙĤØ¯": 3729,
      "¨Ø«": 3730,
      "ĠØ§ÙĦØ¯Ø±": 3731,
      "ĠÙĦØ£Ø": 3732,
      "ore": 3733,
      "Ø±Ù": 3734,
      "ĠÙħØ®Ø§": 3735,
      "ĠÙĤØ±Ø§Ø±": 3736,
      "ia": 3737,
      "ŃØ¯ÙĬØ¯": 3738,
      "Ø¯Ø±ÙĬØ¨": 3739,
      "15": 3740,
      "ĠØ£ÙĥØª": 3741,
      "¨Ø§ÙĦÙħØ": 3742,
      "Ø¨Ø§ÙĦÙħØ": 3743,
      "ĠÙĨØªÙĬØ¬Ø©": 3744,
      "ĠØ®Ø§Øµ": 3745,
      "ĠØ§ÙĦÙħÙĪØ¶ÙĪØ¹": 3746,
      "ĠØ£Ùģ": 3747,
      "ĠØ§ÙĦØºØ°": 3748,
      "ÙĥÙĪÙĬ": 3749,
      "¬Ø§Ø±": 3750,
      "ĠØ§ÙĦÙħØ§Ø¡": 3751,
      "£Ø³": 3752,
      "ħØ³Ø©": 3753,
      "ÙĨØ³Ø¨Ø©": 3754,
      "ĠØ§ÙĦØ¬Ø²Ø§Ø¦Ø±": 3755,
      "ÙĨÙĤÙĦØ©": 3756,
      "ĠØ¨Ø§Ø³ØªØ®Ø¯Ø§Ùħ": 3757,
      "ÙĦÙĦÙĩ": 3758,
      "ĠØ¹Ø§ÙħØ§": 3759,
      "ĠÙħØªØ±": 3760,
      "ÙħØ³Ø©": 3761,
      "ÙĩØ§Ø¡": 3762,
      "ĠØ§ÙĦÙĤØ±Ø¢": 3763,
      "ÙĨØ¹Ø©": 3764,
      "ĠØ§ÙĦØ¯Ø§Ø®ÙĦÙĬØ©": 3765,
      "£Ø©": 3766,
      "Ø¹Ø²": 3767,
      "Ø§Ø¨Ø¹": 3768,
      "Ø¨ØªØ": 3769,
      "ĠÙĥÙĦØ§": 3770,
      "ªÙĩ": 3771,
      "ub": 3772,
      "§ÙĤØª": 3773,
      "ĠØ¨Ø§ÙĦÙħØ": 3774,
      "ÙĦÙħØ³": 3775,
      "ĠØªØ±ÙĥÙĬØ§": 3776,
      "ĠØ§ÙĦØªØ¹ÙĦÙĬ": 3777,
      "Ø¯ØªÙĩ": 3778,
      "ĠÙħØ´ÙĬ": 3779,
      "ÙģÙĬØ¯": 3780,
      "ĠØ®Ø±": 3781,
      "Ø¯Ø³Øª": 3782,
      "Ø¬Ø§Ùĩ": 3783,
      "ĠØ£Ø¹ÙĦÙī": 3784,
      "ĠØ§ÙĦØ§Ø±": 3785,
      "ÙĦØ±Ø§Ø¨": 3786,
      "¹ÙĤØ¯": 3787,
      "Ø¯ÙĪÙĬ": 3788,
      "§ÙĦØ±Ø§Ø¨": 3789,
      "Ø§ÙĦØ±Ø§Ø¨": 3790,
      "Ġ2022": 3791,
      "ÙĤÙĪØ¯": 3792,
      "Ø¨ÙĤÙĬ": 3793,
      "ÙĦÙħØ¯Ø±": 3794,
      "ĠØ§Ø±ØªÙģØ§Ø¹": 3795,
      "ĠØ§ÙĥØª": 3796,
      "ĠØµØ§ØŃØ¨": 3797,
      "ÙĪÙģØ±": 3798,
      "ÙĦÙħØ·Ø§": 3799,
      "Ø¶ØŃ": 3800,
      "Ø¬Ø±Ø¨Ø©": 3801,
      "ĠØ¨Øº": 3802,
      "§ÙĦÙħØ¯Ø±": 3803,
      "Ø²ÙĬÙĦ": 3804,
      "Ø§ÙĦÙħØ¯Ø±": 3805,
      "Ø¯Ø§Ø¹": 3806,
      "¬ÙĪØ§": 3807,
      "¤Ø§ÙĦ": 3808,
      "Ø³ÙħØ§Ø¡": 3809,
      "Ø¨ØŃØ«": 3810,
      "ĠÙĪØ¹ÙĨ": 3811,
      "Â«": 3812,
      "Ø¨ÙĬØ©": 3813,
      "ĠØŃØ¶": 3814,
      "ØŃØ§ÙĪÙĦ": 3815,
      "ĠØ¬Ø²Ø¡": 3816,
      "§ÙĦÙħØ·Ø§": 3817,
      "Ø§ÙĦÙħØ·Ø§": 3818,
      "ĠØ§ÙĦØ®Ø": 3819,
      "ĠØ§ÙĦÙħØ·Ø±": 3820,
      "¬ÙĬØ": 3821,
      "ŃØ¯Ùī": 3822,
      "ÙħÙĨØ©": 3823,
      "ĠØ¨Ø¯Ø§ÙĬØ©": 3824,
      "ĠØ·ÙĪÙĬ": 3825,
      "ĠØ§ÙĦØ¥Ø³ÙĦØ§ÙħÙĬØ©": 3826,
      "ÙħÙĨÙĬ": 3827,
      "Ø´Ø¯": 3828,
      "ØŃØ±ÙĬØ±": 3829,
      "ĠØ§ÙĦØ¬Ø³Ùħ": 3830,
      "¤ÙĦØ§Ø¡": 3831,
      "ĠÙĥØ°ÙĦÙĥ": 3832,
      "Ø³ÙħÙī": 3833,
      "ĠÙģÙĨ": 3834,
      "ĠØ¹Ø§Ø¦": 3835,
      "Ø´Ø±Ø§Øª": 3836,
      "ĠØ±Ø¬ÙĦ": 3837,
      "ÙĦÙĤØ¯Ùħ": 3838,
      "§ÙĦÙĤØ¯Ùħ": 3839,
      "Ø§ÙĦÙĤØ¯Ùħ": 3840,
      "ĠÙĨØ³": 3841,
      "Ġ{": 3842,
      "ĠØ§ÙĦÙĥÙĬ": 3843,
      "Ø§ÙģØª": 3844,
      "ÙĦØ§ÙĤ": 3845,
      "ħØ·": 3846,
      "Ø¯ÙĦØ©": 3847,
      "§ÙģÙĬ": 3848,
      "ĪÙĬÙĦ": 3849,
      "ÙĤÙĪØ§Øª": 3850,
      "ĠØªØ¹Ø¯ÙĬÙĨ": 3851,
      "Ø³Ø§Ø¡": 3852,
      "Ø·Ø§ÙĤ": 3853,
      "ew": 3854,
      "ĠØ§ÙĦÙĦØ¬ÙĨØ©": 3855,
      "ĠØªÙĨØª": 3856,
      "ĠØ§ÙĦØ®ÙħÙĬØ³": 3857,
      "Ø³Ø§Ù": 3858,
      "ÙĦÙħØŃØ": 3859,
      "ØµÙĦØ§ØŃ": 3860,
      "ĠØ§ÙĦÙħØ¹Ø¯Ø§Øª": 3861,
      "ÙĪÙĦØ": 3862,
      "ĠØªØµÙħÙĬÙħ": 3863,
      "Ø¶Ø§ÙĬ": 3864,
      "ÙĨØ³ÙĬØ©": 3865,
      "ÙĦØ¹ÙĬ": 3866,
      "ÙĨØ¸Ø±": 3867,
      "ĠØ§ÙĦØ±Ø§Ø¨": 3868,
      "ĠØ§ÙĦØ¨Ø±ÙĬ": 3869,
      "ĠØ§Ø®ØªÙĬØ§Ø±": 3870,
      "ĠØ¨Ø§Øª": 3871,
      "Ø²ÙĬÙĨ": 3872,
      "ĠØ§ÙĦÙĥØªØ§Ø¨": 3873,
      "ĠÙħØ´Ø§Ø±": 3874,
      "ÙģÙĤØ©": 3875,
      "ĠØªÙĨØ§ÙĪÙĦ": 3876,
      "§Ø¦ÙĬØ©": 3877,
      "ĠØ§ÙĦØ¹ÙĤ": 3878,
      "ĠØ§ÙĦÙĤØ¯Ùħ": 3879,
      "ĠØ¥Ø±": 3880,
      "ĠØ§ÙĦØ´Ø±ÙĬ": 3881,
      "tp": 3882,
      "§ÙĦÙħØŃØ": 3883,
      "Ø·Ø³": 3884,
      "ÙħÙĬØ§": 3885,
      "Ø§ÙĦÙħØŃØ": 3886,
      "ter": 3887,
      "ĠØ§ÙĦÙĥÙĪÙĬØª": 3888,
      "Ø¨ÙĬØ§ÙĨØ§Øª": 3889,
      "ĠØ¹ÙħÙĦÙĬØ§Øª": 3890,
      "im": 3891,
      "ĠØ¨ÙĨØ§": 3892,
      "ĠÙĤØ¯Ø±": 3893,
      "ĠØ§ÙĦØ£Ø³Ø¹Ø§Ø±": 3894,
      "ĠØ§ÙĦÙĤØ§ÙĩØ±Ø©": 3895,
      "ĠØ¹ÙĦÙħ": 3896,
      "ĠØ¨Ø§Ø¨": 3897,
      "ØŃØªÙī": 3898,
      "pp": 3899,
      "ħØ±Ø§Ø¶": 3900,
      "ĠØ§ÙĦØ«ÙĨØ§Ø¦ÙĬØ©": 3901,
      "§ÙĦÙħØ³": 3902,
      "Ø§ÙĦÙħØ³": 3903,
      "ĠÙĤÙĪØ§Øª": 3904,
      "ĠØ§ÙĥØ": 3905,
      "ÙĪØº": 3906,
      "Ø¨ÙĬÙĪØªØ±": 3907,
      "ĠÙħÙĪØ§Ù": 3908,
      "ÙĤØ¨Ø©": 3909,
      "ĠÙħÙĪØ§ÙĤ": 3910,
      "ĠÙĪÙĦÙĥ": 3911,
      "Ø¥Ø°Ø§": 3912,
      "ĠØ£Ø´ÙĩØ±": 3913,
      "ĠÙĤØ·Ø§Ø¹": 3914,
      "ĠØ³Ø¨ÙĬÙĦ": 3915,
      "Ø§ÙĤØª": 3916,
      "ĠØ·ÙĦØ¨": 3917,
      "ĠØ¨ØªØ": 3918,
      "Ù¡": 3919,
      "ĠØ§ÙĦØ¥Ø³ÙĦØ§Ùħ": 3920,
      "ig": 3921,
      "ĠØ§ÙĦØ£Ø³ÙĩÙħ": 3922,
      "ĤØ·Ø¹": 3923,
      "ĪÙģÙħØ¨Ø±": 3924,
      "¨ØŃØ§": 3925,
      "ĠÙĪØ§ÙĦØªØ": 3926,
      "Ø·Ø¹Ø©": 3927,
      "ĠØ§ÙĦØ¹Ø§ÙĦÙħÙĬ": 3928,
      "Ø¯Ø¦": 3929,
      "ÙĩØªÙħØ§Ùħ": 3930,
      "§ÙĦØ¹ÙĬ": 3931,
      "Ø§ÙĦØ¹ÙĬ": 3932,
      "18": 3933,
      "ĠÙĤØ¯Ùħ": 3934,
      "Â»ØĮ": 3935,
      "¹ÙĬØ´": 3936,
      "ħÙģØ±": 3937,
      "Ø°ÙĬØ©": 3938,
      "ĠØ§ÙĦÙĦØ§Ø¹": 3939,
      "ĠÙħÙĦÙĬØ§Ø±": 3940,
      "ĩÙĪØ¯": 3941,
      "ĠØ¨Ø´Ø£ÙĨ": 3942,
      "ħØ¯Ø©": 3943,
      "ĠØ§ÙĦØ£ÙĥØ«Ø±": 3944,
      "ĠÙħÙĪØ§ÙĤØ": 3945,
      "¬ÙĪÙ": 3946,
      "ØºØ§ÙĬØ©": 3947,
      "ÙħØ¯ÙĬØ±": 3948,
      "ĠÙĦÙĤØ¯": 3949,
      "Ø±Ø§Ø©": 3950,
      "Ø§Ø¹Ø¯Ø©": 3951,
      "¨Ø§ÙĦÙģØ": 3952,
      "Ø¨Ø§ÙĦÙģØ": 3953,
      "ÙĨÙĪØ¹Ø©": 3954,
      "ĠÙĪØ§ÙĦÙħØ¹": 3955,
      "¯Øª": 3956,
      "âĢ¬": 3957,
      "ĠØ¨ÙĦØº": 3958,
      "ĠØ¨ÙĤÙĬ": 3959,
      "ĠØ§ÙĦØµØºÙĬØ±Ø©": 3960,
      "ĠÙħÙĪØ§ÙĤØ¹": 3961,
      "Ø¹ÙĤØ¯": 3962,
      "ation": 3963,
      "ĠØ§ÙĦØ£ÙħØ±ÙĬÙĥÙĬ": 3964,
      "ĪØ®Ø§": 3965,
      "ĠØ§Ø¹Øª": 3966,
      "ĠÙĪØ®Ø§": 3967,
      "§Ø¬": 3968,
      "ĠÙĨØ¹": 3969,
      "ĠØ§ÙĦÙĨÙģØ·": 3970,
      "§ÙģØ¶ÙĦ": 3971,
      "¨Ø³ÙĬ": 3972,
      "ĠÙħØ³ØŃÙĪÙĤ": 3973,
      "¬ÙĪÙħ": 3974,
      "Ø³ÙħØ¨Ø±": 3975,
      "ĠØŃÙĤÙĪÙĤ": 3976,
      "ĠÙģØªØŃ": 3977,
      "ĠÙĬÙĨØ§ÙĬØ±": 3978,
      "ĠØ§Ø³Ø": 3979,
      "ĠØ§ÙĦØ³ÙĬØ§Ø±Ø§Øª": 3980,
      "ĠÙĪØªØ±": 3981,
      "ĠØ§ÙĦÙħØŃØ": 3982,
      "ĠØ§ÙĦÙħØ¯Ø±": 3983,
      "ÙĪØ°": 3984,
      "ĠØªØ·ÙĪÙĬØ±": 3985,
      "16": 3986,
      "ĠØ§ÙĦØ¯Ùħ": 3987,
      "ÙħÙģØ§": 3988,
      "ħØ¯Ø§": 3989,
      "Ø§ÙģØ¶ÙĦ": 3990,
      "Ø³ÙħØŃ": 3991,
      "§ÙĤØªØµØ§": 3992,
      "ĠØ±ÙģØ¹": 3993,
      "¨ÙĨÙĬ": 3994,
      "ĠØ§ÙĦØµØŃÙĬØ©": 3995,
      "Ø³ÙĪÙĬ": 3996,
      "ÙĩÙĨ": 3997,
      "ĠÙĪÙĬØª": 3998,
      "ĠØ¯Ø¹Ùħ": 3999,
      "ĠØ§ÙĦØ«ÙĦØ§Ø«Ø§Ø¡": 4000,
      "ĠØªÙħØ§": 4001,
      "Ø¯ÙĬÙĥ": 4002,
      "ØªÙħØ¨Ø±": 4003,
      "ĠØ§ÙĦØ´Ø±Ù": 4004,
      "ØŃÙĪÙĦ": 4005,
      "ĠØ§ÙĦÙħØ·Ø§": 4006,
      "ĪÙħØª": 4007,
      "Ø±ÙĬØ¨Ø©": 4008,
      "ĠØ§ÙĦØŃØ³": 4009,
      "Ø¯ÙĬÙħÙĤØ±Ø§": 4010,
      "ĠÙħØŃØ": 4011,
      "ir": 4012,
      "¨Ø´Ø±": 4013,
      "ÙĦØ±Ø§Ø¦": 4014,
      "ĠÙĪÙħØª": 4015,
      "ĠØªØ¹Ø±Ùģ": 4016,
      "§ÙĦØ±Ø§Ø¦": 4017,
      "Ø§ÙĦØ±Ø§Ø¦": 4018,
      "ĠØ¨Ø§ÙĦÙģØ": 4019,
      "ĠÙĪØ¨Ø§ÙĦØª": 4020,
      "Ø³ÙĪÙĨ": 4021,
      "Ø¨Ø·Ø§": 4022,
      "ØŃØ²": 4023,
      "25": 4024,
      "Ø¦Ø§Ø³Ø©": 4025,
      "Ġ>": 4026,
      "ĠØ§ÙĦØ£Øµ": 4027,
      "ÙĤØ¯ÙĬÙħ": 4028,
      "ĠØ§ÙĦØŃØ§ÙĦÙĬ": 4029,
      "ĠÙħØ¹ÙĦÙĪÙħØ§Øª": 4030,
      "¨Ø±Ø²": 4031,
      "ÙĦÙħÙĨÙ": 4032,
      "Ø¬ÙħØ©": 4033,
      "Ø®Ø·": 4034,
      "ħÙĪØ§ÙĦ": 4035,
      "Ø§Ø¨Ø³": 4036,
      "Ø³Ø¹Ø©": 4037,
      "ÙĦÙħØ³Ø§Ø": 4038,
      "ĠØŃØ±ÙĥØ©": 4039,
      "ĠØŃØ±Ø": 4040,
      "Ø¸ÙĬ": 4041,
      "ĠÙĪØºÙĬØ±ÙĩØ§": 4042,
      "ÙĦÙĤØ·Ø§Ø¹": 4043,
      "¬Ø±Ø©": 4044,
      "ĠÙĬØ¬Ø¹ÙĦ": 4045,
      "ÙĤÙĩ": 4046,
      "ĠØ¹ÙĦÙĬÙĩÙħ": 4047,
      "Ø¨ÙĪÙĨ": 4048,
      "24": 4049,
      "ÙĦØ¹ÙĦÙħ": 4050,
      "§ÙĨØ³": 4051,
      "ĠÙģØ¹": 4052,
      "ĠØ§ÙĦÙĤØ±Ø¢ÙĨ": 4053,
      "ĠV": 4054,
      "Ø¹ÙĦÙĬÙĤ": 4055,
      "§ÙĦÙĤØ·Ø§Ø¹": 4056,
      "Ø§ÙĦÙĤØ·Ø§Ø¹": 4057,
      "ħØŃØ±": 4058,
      "ħØ¯ÙĨÙĬ": 4059,
      "§ÙĦÙħÙĨÙ": 4060,
      "Ø§ÙĦÙħÙĨÙ": 4061,
      "ĠØµÙĪØ±Ø©": 4062,
      "ĠÙĪØ§ÙĨ": 4063,
      "ut": 4064,
      "ģØ§Ø¸": 4065,
      "§Ø¦Ø©": 4066,
      "ĠÙĦÙĦØ±": 4067,
      "13": 4068,
      "ħÙĤØ§Ø±": 4069,
      "¹ÙĨÙĪØ§ÙĨ": 4070,
      "ĠØ¹ÙĨØ§": 4071,
      "ĠÙħØ³ÙĦ": 4072,
      "ÙĪÙĦØ§": 4073,
      "ĠØ§ÙĦÙħØ³": 4074,
      "¨Ø§Ø±Ø©": 4075,
      "ĠØ§ÙĦØ§ÙĤØªØµØ§Ø¯ÙĬØ©": 4076,
      "Ø«Ø§Ø±": 4077,
      "Ø§ÙĨÙĬØ": 4078,
      "ĠÙĪØ³Ø·": 4079,
      "ĠÙĦÙĦØ§Ø³Øª": 4080,
      "ØŃÙĥÙħ": 4081,
      "ĠØ§ÙĦØ±Ø§Ø¦": 4082,
      "ĠÙĦØ¬ÙĨØ©": 4083,
      "ĠØ§ÙĦÙħØºØ±Ø¨": 4084,
      "§ÙĦÙħØ³Ø§Ø": 4085,
      "Ø§Ø¦Ø¨": 4086,
      "Ø§ÙĦÙħØ³Ø§Ø": 4087,
      "Ø®Ø±Ø§Ø¬": 4088,
      "ĠØ§ÙĦØ¨ÙĨØ§Ø¡": 4089,
      "ÙĦÙĬÙĪ": 4090,
      "ÙĥØ±ÙĬ": 4091,
      "ħØ¶Ø§ÙĨ": 4092,
      "ĠØ§ÙĦØªÙĪ": 4093,
      "Ø§Ø´Øª": 4094,
      "ĠØ¬Ø±ÙĬ": 4095,
      "ĠØ£ÙĥØªÙĪØ¨Ø±": 4096,
      "ĤØ§Ø¦Ù": 4097,
      "Ø§ÙĨÙĬØ§": 4098,
      "§Ø®": 4099,
      "Ġn": 4100,
      "ĠØ§ÙĦØ¯ÙģØ§Ø¹": 4101,
      "ĪØ³Ù": 4102,
      "ĠâĢı": 4103,
      "Ø¶Ø§ÙĬØ": 4104,
      "ĠØ§ÙĦÙĪØ§ÙĤØ": 4105,
      "ÙħØ·ÙĦ": 4106,
      "ĠØ§ÙĦÙħÙĨØ§Ø·ÙĤ": 4107,
      "§Ø®Ø¨Ø§Ø±": 4108,
      "Ø´Ø·Ø©": 4109,
      "ØªÙĩÙħ": 4110,
      "ØŃÙģÙĬ": 4111,
      "ĠÙĥØªØ": 4112,
      "ħÙĤØ§ÙĪ": 4113,
      "ĠØ§ÙĦÙħÙĨØªØ¬Ø§Øª": 4114,
      "ÙĦÙħØ±Øª": 4115,
      "ħÙĤØ¨ÙĦ": 4116,
      "Ø¶Ø§ÙĬØ§": 4117,
      "ĠØ§ÙĦÙĪØ§ÙĤØ¹": 4118,
      "ÙĨØ¸Ø": 4119,
      "ĠØ§ÙĦØ¬ÙĩØ§Ø²": 4120,
      "ÙĪØ§Ø¦Ø¯": 4121,
      "ĠÙĨÙĤØ·Ø©": 4122,
      "ĠÙħØ²": 4123,
      "§ÙĦÙħØ±Øª": 4124,
      "Ø§ÙĦÙħØ±Øª": 4125,
      "ĠÙĬØ¹Ø±Ùģ": 4126,
      "ØµÙĬØ": 4127,
      "ÙĨØ¸Ø§": 4128,
      "ĠØ´Ø±Ø": 4129,
      "ÙħØ¬ÙħÙĪØ¹Ø©": 4130,
      "Ġïº": 4131,
      "ĠØ§ÙĦØ¨Ø´Ø±": 4132,
      "ĠÙĬØªØ": 4133,
      "ĠØ§ÙĦÙĪØµÙĪÙĦ": 4134,
      "§ÙĦØ¹ÙĦÙħ": 4135,
      "Ø§ÙĦØ¹ÙĦÙħ": 4136,
      "ĤØ§Ùģ": 4137,
      "ĠÙĤØ·Ø±": 4138,
      "Ġï»": 4139,
      "ĠØ§ÙĦØ§Ø«": 4140,
      "Ø§Ø¨Ø§Øª": 4141,
      "§Ø¦Ø±": 4142,
      "¨Ø°ÙĦÙĥ": 4143,
      "ĠÙħØ¶": 4144,
      "ĠØ±ØºÙħ": 4145,
      "ĠØ§ÙĦÙĦØ¨ÙĨØ§": 4146,
      "¬ÙĪØ¯Ø©": 4147,
      "ĠÙĤØª": 4148,
      "¬ÙĬØ±": 4149,
      "Ø³ÙĥØ±ÙĬ": 4150,
      "ÙĦØ¯Ø": 4151,
      "ĠØ¥ÙĦÙĬÙĩØ§": 4152,
      "Ø¸ÙħØ©": 4153,
      "ĠÙĪØ³Ø§Ø¦ÙĦ": 4154,
      "ØŃÙĤÙĤ": 4155,
      "Ø¨Ø°ÙĦÙĥ": 4156,
      "ĠÙĥÙĦÙħØ©": 4157,
      "Ġ50": 4158,
      "Ø´ÙģÙī": 4159,
      "ĠØ§ÙĦØ¹ÙĬ": 4160,
      "ĥØ§Ù": 4161,
      "ħØ³ÙĦÙħ": 4162,
      "ĪØ·": 4163,
      "ĠØ¬ÙĨÙĬÙĩ": 4164,
      "ÙĤÙĦØ¨": 4165,
      "ĠÙĪØ³Ù": 4166,
      "ul": 4167,
      "ĠØ¨Ø°ÙĦÙĥ": 4168,
      "Ġto": 4169,
      "Ø¨Ø«": 4170,
      "ĠÙĤØ§Ù": 4171,
      "ĩÙĪÙĦØ©": 4172,
      "Ø¨Ø§ÙĨ": 4173,
      "ĠÙĤØ§Ùħ": 4174,
      "ĠØ¥Ø³Ø±Ø§Ø¦ÙĬÙĦ": 4175,
      "ĠØ§ÙĦÙħÙĪØ±": 4176,
      "ĠÙħØ¨Ø§Ø±Ø§Ø©": 4177,
      "ÙģØªØŃ": 4178,
      "Ø´Ø§Ø·": 4179,
      "ħÙī": 4180,
      "ĠØ§ÙĦØ´ÙĩØ±": 4181,
      "ĠØ´Ø¨ÙĥØ©": 4182,
      "¨Ø§Ø·": 4183,
      "ĠØ¨ÙĬØ§ÙĨ": 4184,
      "ĠØ§ÙĦØ§ÙĨØªØ±ÙĨØª": 4185,
      "ĠØµØŃÙĬÙģØ©": 4186,
      "ĠÙĪÙĬÙ": 4187,
      "ĥØ§Ùħ": 4188,
      "ĠÙĤÙĬÙħØ©": 4189,
      "Ø®Ø§Ù": 4190,
      "ĠØ§ÙĦØ±ÙĬØ§Ø¶": 4191,
      "ĠØ§ÙĦØ¨Ø±ÙĨØ§ÙħØ¬": 4192,
      "ÙĪÙĦÙĬÙĨ": 4193,
      "ĠØ§ÙĦØ±ØºÙħ": 4194,
      "ĠØ¥ÙĬØ±Ø§ÙĨ": 4195,
      "ÙģÙĬÙģ": 4196,
      "ĠØ§ÙĦÙħØ³ÙĦÙħÙĬÙĨ": 4197,
      "ÙħÙĤØ±": 4198,
      "ÙħÙĬØ²Ø©": 4199,
      "ĠØ§ÙĦØªØ¬Ø§Ø±Ø©": 4200,
      "¨ÙĨØ³Ø¨Ø©": 4201,
      "Ø¬ÙĩÙĬØ²": 4202,
      "Ø§ÙģÙĬ": 4203,
      "Ø¨ÙĨØ³Ø¨Ø©": 4204,
      "Ø®Ø±Ø©": 4205,
      "Ø·ÙĬØ¨": 4206,
      "Ø±ÙĪÙģ": 4207,
      "ĠØ§ÙĦØ³Ø¨Øª": 4208,
      "qu": 4209,
      "200": 4210,
      "Ø¨Ø³ÙĬ": 4211,
      "ĠØ±ÙĬØ§ÙĦ": 4212,
      "ĠÙħØ§Ø±Ø³": 4213,
      "ÙĨÙģØ": 4214,
      "Ø¹ÙĨÙĪØ§ÙĨ": 4215,
      "ĠØ§ÙĦØ´Ø±ÙĤ": 4216,
      "ĠÙħØ¹Ùĩ": 4217,
      "Ø®Ø§Ùħ": 4218,
      "Ø³ÙĪØ¯": 4219,
      "ĠÙħØ¹Ø¸Ùħ": 4220,
      "Ø§ØªÙĬ": 4221,
      "ÙģØ±Ø©": 4222,
      "ĠØ¨ÙĨØ³Ø¨Ø©": 4223,
      "ĠØ§ÙĦÙħÙĨÙ": 4224,
      "¨ÙĩÙħ": 4225,
      "Ø§ÙĦØ±Ø¦ÙĬØ³ÙĬØ©": 4226,
      "ĠØ§ÙĦÙħØ±Øª": 4227,
      "Ø·ØŃ": 4228,
      "ÙħÙĩÙħ": 4229,
      "ĠØ®Ø¯ÙħØ§Øª": 4230,
      "ĠØ§ÙĦÙĦØºØ©": 4231,
      "ĠØ¨ÙĬØª": 4232,
      "Ø¦ÙĦØ©": 4233,
      "Ø·ÙĦØ¹": 4234,
      "ħØ±Ø§Øª": 4235,
      "Ø³ØªÙĬ": 4236,
      "ħØ¬Ø±Ø¯": 4237,
      "ĠØ§ÙĦØ¹ÙħÙĦÙĬØ©": 4238,
      "ħØŃÙĬ": 4239,
      "ht": 4240,
      "ĠØ§ÙĦØµÙĪØ±": 4241,
      "¤ÙĪÙĨ": 4242,
      "ĠØ§ÙĦÙĪØ·ÙĨ": 4243,
      "ĠØ§ÙĦÙħÙĨØ²ÙĦ": 4244,
      "ĠÙĤÙĪÙĦÙĩ": 4245,
      "ħÙĩØ±": 4246,
      "ĠØ§ÙĦØ³ÙĬØ¯": 4247,
      "ĠØ§ÙĦØ¬ÙħÙĬØ¹": 4248,
      "Ø§Ø®Ø¨Ø§Ø±": 4249,
      "ÙĨÙģØ³": 4250,
      "¨Ø§Ø³": 4251,
      "Ø¶ÙĬÙģ": 4252,
      "Ø³Ø§Ø¹": 4253,
      "ĠØ§ÙĦÙĥØ¨ÙĬØ±": 4254,
      "ĠØ§ÙĦÙħØ³Ø§Ø": 4255,
      "ve": 4256,
      "ĠØ±Ø£ÙĬ": 4257,
      "ÙĨØ¸Ø§Ù": 4258,
      "§ÙĦØ§ÙĬ": 4259,
      "ÙĨØ¸Ø§Ùħ": 4260,
      "ĥÙĦ": 4261,
      "ĠØ§ÙĦØ§Ø³ØªØ«ÙħØ§Ø±": 4262,
      "ĠØ§ÙĦØ£Ø³Ø¨ÙĪØ¹": 4263,
      "ÙĦÙĨÙĬ": 4264,
      "ÙħØ¬Ù": 4265,
      "Ø§ÙĦØ§ÙĬ": 4266,
      "Ø§ÙĦØ¹": 4267,
      "ĠØŃØ²Ø¨": 4268,
      "ĠØ§ÙĦØŃÙĥÙħ": 4269,
      "ĠÙĬÙĤØ¯Ùħ": 4270,
      "ÙħÙĤØ¨ÙĦ": 4271,
      "Ø¯ÙĬÙĤ": 4272,
      "¨ÙĩØ°Ø§": 4273,
      "ĠÙĪØ·": 4274,
      "Ø¶Øª": 4275,
      "Ø±ÙĬÙĦ": 4276,
      "ĠØ§ÙĦØ³ÙĨØ©": 4277,
      "ħÙĥÙĪ": 4278,
      "ĠÙħÙĪØ¶ÙĪØ¹": 4279,
      "ĠØ§ÙĦØ¬ÙĬØ±ÙĬ": 4280,
      "¨Ø±Ùī": 4281,
      "ĠØ§ÙĦÙĤØ·Ø§Ø¹": 4282,
      "¨Ø¶": 4283,
      "ĠÙĬØ¹Ø¯": 4284,
      "Ø¨ÙĩØ°Ø§": 4285,
      "ÙĦÙħÙĤØ¨ÙĦ": 4286,
      "ØŃÙĬØ¯": 4287,
      "§ÙĦÙħÙĤØ¨ÙĦ": 4288,
      "Ø§ÙĦÙħÙĤØ¨ÙĦ": 4289,
      "ØŃÙħÙĨ": 4290,
      "ÙĦÙĥÙĨ": 4291,
      "ĠØ±ÙħØ¶Ø§ÙĨ": 4292,
      "¹Ø§Ø¯": 4293,
      "ĤØ±Ø£": 4294,
      "ĠØ¹Ø²": 4295,
      "ĠØ§ÙĦØ§Ø¬ØªÙħØ§Ø¹ÙĬØ©": 4296,
      "ĠØ§ÙĦÙħØŃÙĦÙĬØ©": 4297,
      "Ø·ÙĦØ¨Ø§Øª": 4298,
      "ĠØ¨Ø³ÙĬ": 4299,
      "ĠØ®Ø¨": 4300,
      "Ø§ÙĨØ³": 4301,
      "ĠØ§ÙĦÙħÙĤØ¨ÙĦ": 4302,
      "Ø·Ø¨ÙĬÙĤØ§Øª": 4303,
      "ĠØ§ÙĦØ¹Ø§Øµ": 4304,
      "ĠØ¯ÙģØ¹": 4305,
      "ģØ§Ø¡": 4306,
      "ÙĬÙģØ©": 4307,
      "ĠØ§ÙĦØ·Ø§Ø¦": 4308,
      "§ÙĦØ¯Ø": 4309,
      "ÙĨØ§Ø¦ÙĬ": 4310,
      "Ø§ÙĦØ¯Ø": 4311,
      "Ø±Ø§ÙĤÙĬ": 4312,
      "ĠÙħÙĩØ§": 4313,
      "ĠÙĦÙĦØºØ§ÙĬØ©": 4314,
      "Ø²Ø§Øª": 4315,
      "ĠØªÙħØª": 4316,
      "ØµÙĪØµ": 4317,
      "Ġ22": 4318,
      "ĠØªÙĨØ¸ÙĬÙ": 4319,
      "Ġ23": 4320,
      "ĠØŃØ²": 4321,
      "ÙĪÙħÙĬ": 4322,
      "Ø¯ÙĪÙĬØ©": 4323,
      "ÙħØ°": 4324,
      "ĠØªÙĨØ¸ÙĬÙħ": 4325,
      "ÙħØ³ÙĬ": 4326,
      "ĠØ³ÙĬÙĥÙĪÙĨ": 4327,
      "Ø¶ÙĬØ": 4328,
      "ÙħØ®Øª": 4329,
      "Ø³ÙĪÙĤ": 4330,
      "ÙĨØ¬Ø§Ø²": 4331,
      "ħØ¯ÙĬ": 4332,
      "ĠØªØŃØ¯ÙĬØ¯": 4333,
      "ĠØ§ÙĦÙģØ¶": 4334,
      "ĠØ§ÙĦØªØ¹Ø§ÙĪÙĨ": 4335,
      "ĥØ³ÙĬ": 4336,
      "ĠØ³ÙĦÙĬ": 4337,
      "ÙĤØ·Ø¹": 4338,
      "ine": 4339,
      "ĠÙħØ¹Ø§ÙĦØ¬Ø©": 4340,
      "ØŃØ¸Ø©": 4341,
      "ÙģÙĬØ§Øª": 4342,
      "ĠØ¨ÙĩØ°Ø§": 4343,
      "¹Ø¯Ø§Ø¯": 4344,
      "ĠJ": 4345,
      "ĥÙĬØ¯": 4346,
      "ĠØ§ÙħØª": 4347,
      "ÙĨÙĨÙĬ": 4348,
      "ĠÙĬÙĪÙĨÙĬÙĪ": 4349,
      "ĠØ§ÙĦØ¹ÙĦÙħ": 4350,
      "ĠØ§ÙĦÙĨØ³Ø§Ø¡": 4351,
      "ĠÙģÙĩÙĬ": 4352,
      "ĠØ¯Ø§Ø¦ÙħØ§": 4353,
      "ØµÙĦØ©": 4354,
      "ÙĨÙĪØ¹": 4355,
      "Ø²ÙĨ": 4356,
      "ħÙĪØ°Ø": 4357,
      "ÙĨØ§ÙĤ": 4358,
      "¹ÙĦÙħ": 4359,
      "ĠØ¨ÙĪØ§Ø³Ø·Ø©": 4360,
      "ØŃÙħØ±": 4361,
      "17": 4362,
      "Ø±Ø§Ø¹": 4363,
      "ers": 4364,
      "ØŃØ§Ø³": 4365,
      "ÙĦÙĤÙĪØ§Øª": 4366,
      "Ø´ÙĬØ§Ø¡": 4367,
      "ĠØ§ÙĦØŃØ¬Ø": 4368,
      "ÙĪØ§Ù": 4369,
      "ĠÙĤØ§ÙĨÙĪÙĨ": 4370,
      "ĠØ§ÙĦØ·Ø±ÙĬÙĤ": 4371,
      "§ÙĦÙĤÙĪØ§Øª": 4372,
      "Ø§ÙĦÙĤÙĪØ§Øª": 4373,
      "ĠØ£Ø®Ø¨Ø§Ø±": 4374,
      "ÙĦØ³Ùħ": 4375,
      "ĤØ¯ÙĬ": 4376,
      "Ø³ÙĥÙĨ": 4377,
      "ĠØ¨Ø§Ø±": 4378,
      "ĠØ£ÙĨØª": 4379,
      "ĠØ§ÙĦØ¨Ø¹Ø¶": 4380,
      "ĠÙĬØ¹ØªØ¨Ø±": 4381,
      "Ø®ØªÙĦÙģ": 4382,
      "Ġv": 4383,
      "ÙĦÙħØ·ÙĦ": 4384,
      "§Ø¦Ø¯Ø©": 4385,
      "ĠØ¥Ø·Ø§Ø±": 4386,
      "Ø¦ÙĬØ³ÙĬ": 4387,
      "ĠØ§ÙĦØ¨ÙĬØª": 4388,
      "ĠÙĨÙĪÙģÙħØ¨Ø±": 4389,
      "ĠÙĦØ¹Ø¨Ø©": 4390,
      "¨Ø§ÙĦØ±": 4391,
      "ĠØ§ÙĦØ£ØŃØ¯": 4392,
      "ĠØ§ÙĦØ°Ùī": 4393,
      "§ÙĦØ³Ùħ": 4394,
      "ÙħØ·ØŃÙĨØ©": 4395,
      "ØŃØ§Ù": 4396,
      "Ø§ÙĦØ³Ùħ": 4397,
      "ÙĪØ£Ø¶Ø§Ùģ": 4398,
      "ĠØŃÙĪØ§ÙĦÙĬ": 4399,
      "ØµØ¯": 4400,
      "ĠØ£ÙĩÙħÙĬØ©": 4401,
      "ÙĥÙĬØ±": 4402,
      "Ġ2015": 4403,
      "ÙĦÙħÙĩØ§": 4404,
      "ĠØ§ÙĦÙĬÙħÙĨ": 4405,
      "ĠÙħÙģ": 4406,
      "ĠØ³Ø§Ø¨Ù": 4407,
      "Ø¯Ø±Ø¨": 4408,
      "§ÙĦÙħØ·ÙĦ": 4409,
      "Ø§ÙĦÙħØ·ÙĦ": 4410,
      "ĠÙħØªØ": 4411,
      "¨Ø±Ø§ÙĬØ±": 4412,
      "ĠÙĤÙĬØ§": 4413,
      "ĠØ§ÙĦØ£Ø±Ø¨Ø¹Ø§Ø¡": 4414,
      "ĠØ§ÙĦØ£ÙĪØ³": 4415,
      "ÙĨØ¯ÙĪÙ": 4416,
      "ĠØ§ÙĦÙĨØ¨Ø§Øª": 4417,
      "§ÙĦÙĨÙĬ": 4418,
      "Ø³Ø§ÙĦ": 4419,
      "ĠÙĦÙģ": 4420,
      "Ø±Ø§Ø¹Ø©": 4421,
      "ÙĨØ¯ÙĪÙĤ": 4422,
      "Ø§ÙĦÙĨÙĬ": 4423,
      "ØµØ¯Ø§Ø±": 4424,
      "ĤØ§Ø¦ÙĤ": 4425,
      "ĠÙĪØªÙħ": 4426,
      "ĠØ§ÙĦØªØ±ÙĥÙĬ": 4427,
      "Ø¦Ø§Øª": 4428,
      "Ø±Ø¹Ø§ÙĬØ©": 4429,
      "Ø¨Ø§ÙĦØ±": 4430,
      "ÙĪØ«": 4431,
      "§Ø¦Ù": 4432,
      "ĠØ¬ÙĬØ¯": 4433,
      "¬ÙĨØ¨ÙĬØ©": 4434,
      "ÙĦØ¨ÙĬØ§ÙĨØ§Øª": 4435,
      "ÙħØ´Ø±": 4436,
      "§ÙĦØ¨ÙĬØ§ÙĨØ§Øª": 4437,
      "Ø§ÙĦØ¨ÙĬØ§ÙĨØ§Øª": 4438,
      "ĤØ¶Ø§Ø¡": 4439,
      "ĠØ§ÙĦÙģÙĦØ³Ø·ÙĬÙĨÙĬØ©": 4440,
      "ĠØ§ÙĦØ±Ø¬ÙĦ": 4441,
      "ÙĦØ³Ø·ÙĬÙĨ": 4442,
      "Ø²Ø§ÙĦØ©": 4443,
      "ĠØŃØ¨": 4444,
      "ĠØ§ÙĦØ§ÙĬ": 4445,
      "Ø¬ÙĦØ©": 4446,
      "ĠØ¨ØŃØ«": 4447,
      "ĠÙĪØŃ": 4448,
      "Ø±Ø§Ø¨Ø·": 4449,
      "ĠØ¬ÙĩØ©": 4450,
      "Ø³ØªØ®Ø¯Ùħ": 4451,
      "ĠÙĩÙĬØ¦Ø©": 4452,
      "ĠÙĬØµ": 4453,
      "ww": 4454,
      "ĠØ§ÙĦÙħØ¹Ø§Ø±": 4455,
      "ÙĦÙĬÙģ": 4456,
      "ĠØ§ÙĦÙħÙĪØ§Ø·ÙĨÙĬÙĨ": 4457,
      "ĠØ§ÙĦØ¥ÙĬØ±Ø§": 4458,
      "ĠØ¯ÙĬØ³ÙħØ¨Ø±": 4459,
      "ĠØ§ÙĦØ¢Ø®Ø±": 4460,
      "ĠØ§ÙĦÙħØ·ÙĦ": 4461,
      "ĠØ³Ø§Ø¨ÙĤ": 4462,
      "ĠØ§ÙĦØ³ÙĦØ·Ø©": 4463,
      "âĢĤ": 4464,
      "ĠØ¸ÙĩØ±": 4465,
      "Ø±Ùī": 4466,
      "Ø´Ø§Ø±Ù": 4467,
      "£ÙĨÙĩÙħ": 4468,
      "ĠØ§ÙĦØ§Ø®Øª": 4469,
      "Ø²Ø§Ùħ": 4470,
      "Ø´Ø§Ø±Ùĥ": 4471,
      "ĠØ§ÙĦØµØŃÙĬ": 4472,
      "§ØŃØ©": 4473,
      "ĠÙĩØ¤ÙĦØ§Ø¡": 4474,
      "ØŃØ§Ø¡": 4475,
      "ĠØ³Ø¨ØªÙħØ¨Ø±": 4476,
      "£Ø®Ø°": 4477,
      "Ø§ØªÙĩØ§": 4478,
      "ĠØ§ÙĦØ³Ùħ": 4479,
      "ĠØ¥Ø¨Ø±Ø§": 4480,
      "ħØ§Ø¡": 4481,
      "ØµØ¨ØŃØª": 4482,
      "ĠØ¯Ø±Ø§Ø³Ø©": 4483,
      "ĠØªØŃØªØ§Ø¬": 4484,
      "ĠØ§ÙĦÙħØ±ØŃÙĦØ©": 4485,
      "ĠØªÙĤØ±ÙĬØ±": 4486,
      "ÙĥÙĪÙĬÙĨ": 4487,
      "ĠØ§ÙĦØ¥ÙĦÙĥØªØ±ÙĪÙĨÙĬ": 4488,
      "Ø¨Ø§Ø±Ø©": 4489,
      "ra": 4490,
      "ĠÙĤÙĦ": 4491,
      "ĠØ§ÙĦÙĥØ±ÙĬÙħ": 4492,
      "ĠÙħØµØ¯Ø±": 4493,
      "ĠØªØ§": 4494,
      "ĠØªÙĪÙģÙĬØ±": 4495,
      "Ġ21": 4496,
      "ÙĨØ±": 4497,
      "ĠØ§ÙĦØ¯ÙĪØ±": 4498,
      "ħØ¯ÙĨ": 4499,
      "ĠØ¨ÙĪØ±": 4500,
      "ĠØ§ÙĦÙħØ´Ø§Ø±ÙĥØ©": 4501,
      "ĠØ§ÙĦÙģÙĨ": 4502,
      "ĠØ·ÙĪÙĬÙĦØ©": 4503,
      "ÙĤØ¯ÙĬ": 4504,
      "ĤØ¯Ø±": 4505,
      "ĠØ¯ÙĤÙĬÙĤØ©": 4506,
      "ĠØ§ÙĦØ·ÙģÙĦ": 4507,
      "ĠØªÙĤØ": 4508,
      "ħÙĤØ§Ø±ÙĨØ©": 4509,
      "ĠØ¨Ø·Ø§": 4510,
      "ĠÙĤØ³Ùħ": 4511,
      "ħÙĨÙĬØ©": 4512,
      "ÙĪÙĬÙĨ": 4513,
      "ĠØ§ÙĦØ¯Ø": 4514,
      "ÙĨØ³Ø§": 4515,
      "ĠØ§ÙĦÙħØ§Ø¶ÙĬØ©": 4516,
      "ĠØ§ÙĦØŃÙĤ": 4517,
      "Ø§ÙĤØªØµØ§": 4518,
      "Ø®Ø§Ø°": 4519,
      "ĠØ§ÙĦØŃØ¨": 4520,
      "ĠØ³Ø¹ÙĬØ¯": 4521,
      "ĪØŃØ¯Ø©": 4522,
      "ÙĪÙħÙĨ": 4523,
      "ĠØ¹ÙĦØ§Ø¬": 4524,
      "ĠÙĪØŃØ¯Ø©": 4525,
      "ĤØ±Ø¨": 4526,
      "ĠØ§ÙĦØ·Ø¹": 4527,
      "Ù¢": 4528,
      "ÙĦÙħÙģØ§": 4529,
      "ĠÙĦÙĦØ¨": 4530,
      "ĠØ§ÙĦØ¨ÙĬØ§ÙĨØ§Øª": 4531,
      "os": 4532,
      "ĠØ§ÙĦØªØ£Ù": 4533,
      "Ø¨Ø´Ø±": 4534,
      "ÙĥÙħØ¨ÙĬÙĪØªØ±": 4535,
      "ĠØ§ÙĦÙħÙĦØ": 4536,
      "op": 4537,
      "£Ø®Ø±": 4538,
      "§ÙĦÙħÙģØ§": 4539,
      "Ø§ÙĦÙħÙģØ§": 4540,
      "ĠÙĪØ°": 4541,
      "ÙħØ´ØªØ±": 4542,
      "ĠÙĪØ§ÙĦÙħØª": 4543,
      "¨ÙħØ¹": 4544,
      "eb": 4545,
      "ĠØ®ÙĦÙģ": 4546,
      "ĠØ³ÙĬØ": 4547,
      "ÙħØ¯": 4548,
      "ÙĦØ¨Ø©": 4549,
      "Ø¨ÙħØ¹": 4550,
      "ĠÙĪØ¨Ø¹Ø¯": 4551,
      "ĠØ¨Ø§ÙĦØ±": 4552,
      "rice": 4553,
      "ĠÙĬØ®": 4554,
      "ĠØ§ÙĦÙģÙĬØ¯ÙĬÙĪ": 4555,
      "ħØŃØ¯Ø¯": 4556,
      "ĠÙħÙĥØª": 4557,
      "Ø³Ø¹Ø±": 4558,
      "¹ÙħÙĦØ©": 4559,
      "§ÙĦÙħÙĩØ§": 4560,
      "Ø£Øª": 4561,
      "Ø§ÙĦÙħÙĩØ§": 4562,
      "ĠÙĪØ£ÙĥØ": 4563,
      "ØªØ§Ø°": 4564,
      "ĠØ§ÙĦÙĨÙĬ": 4565,
      "Ø¹Ø±Ùģ": 4566,
      "ĠØ¢ÙĦ": 4567,
      "§ÙĩØ±": 4568,
      "ÙĦÙĤØ±Ø§Ø±": 4569,
      "ĠØ§ÙĦÙĥØ³": 4570,
      "ĠK": 4571,
      "Ø§ÙĩØ±": 4572,
      "//": 4573,
      "ĠÙĤÙĪØ©": 4574,
      "ĠØĽ": 4575,
      "ÙĪÙĬØ¯": 4576,
      "§Ø§Ø": 4577,
      "§ÙĦÙĤØ±Ø§Ø±": 4578,
      "Ø§ÙĦÙĤØ±Ø§Ø±": 4579,
      "Ø®ØµØµØ©": 4580,
      "ĠØ±Ø£Ø³": 4581,
      "ĠØ§ÙĦØ§ØªØµØ§ÙĦ": 4582,
      "Ø³Ø¹Ùī": 4583,
      "ĠØ§ÙĦÙĨØ¸Ø±": 4584,
      "ÙĦÙħØ´ØªØ±": 4585,
      "ĠÙħØ¯Ø±": 4586,
      "§ÙĦÙħØ´ØªØ±": 4587,
      "Ø§ÙĦÙħØ´ØªØ±": 4588,
      "ÙĤØ§ÙħØ©": 4589,
      "ÙĨØ¸ÙĬÙ": 4590,
      "Ø¹ÙħÙĦØ©": 4591,
      "¹Ø¨Ø§Ø±Ø©": 4592,
      "ÙĦÙĤØ¯Ø³": 4593,
      "ħÙĤØ§ÙĪÙħØ©": 4594,
      "Ø±Ø§ØªÙĬØ¬ÙĬ": 4595,
      "Ø·Ø§ÙĦØ¨": 4596,
      "Ø¨ÙĬØª": 4597,
      "ĠÙħØ§ÙĬÙĪ": 4598,
      "ÙĨØ¸ÙĬÙħ": 4599,
      "Ø´Ø§Øª": 4600,
      "§ÙĦÙĤØ¯Ø³": 4601,
      "ÙĪØ´": 4602,
      "Ø§ÙĦÙĤØ¯Ø³": 4603,
      "ĠÙĤÙĪØ§": 4604,
      "ÙĦÙĬØ¬": 4605,
      "Ø®ÙģØ§": 4606,
      "ĠÙĪØ§ÙĦØ«": 4607,
      "ÙĦÙħØ°": 4608,
      "ĠØŃÙĬØ§Ø©": 4609,
      "ĠØ¹ÙĤØ¯": 4610,
      "Ġ2014": 4611,
      "Ø¹Ø¨Ø§Ø±Ø©": 4612,
      "ÙĥÙĬÙģÙĬØ©": 4613,
      "ĠÙģØ³": 4614,
      "ØºØ¨": 4615,
      "ĠØ§ÙĦÙĩÙĬØ¦Ø©": 4616,
      "ĠÙĨÙĪ": 4617,
      "Ø¬Ø§Ø¨Ø©": 4618,
      "ĠØ§ÙĦØ£Ø³Ø§Ø³ÙĬØ©": 4619,
      "Ø³ÙĦØ§ÙħØ©": 4620,
      "ĠØ§ÙĦØ¥Ø¹ÙĦØ§": 4621,
      "²ÙĬ": 4622,
      "ÙĨØ³Ø§ÙĨÙĬØ©": 4623,
      "Ø¨ÙĨÙĬ": 4624,
      "¨Ø§ÙĦØ£Ù": 4625,
      "§Ø°Ø§": 4626,
      "ħÙĥØ": 4627,
      "ÙħÙģ": 4628,
      "ĠØ§ÙĦØ¥Ø¹ÙĦØ§Ùħ": 4629,
      "Ø§Ø®": 4630,
      "¨ÙĦØ©": 4631,
      "Ø¨Ø§ÙĦØ£Ù": 4632,
      "¨Ø£ÙĨÙĩ": 4633,
      "ĠØ§ÙĦÙħØ´ØªØ±": 4634,
      "Ø¨Ø£ÙĨÙĩ": 4635,
      "Ø¬Ø¦": 4636,
      "ÙĪØ¨ÙĬØ©": 4637,
      "ÙħØ§ÙĨÙĬØ§": 4638,
      "ĠØ§ÙĦØ£Ø´Ø®Ø§Øµ": 4639,
      "ĠØ§ÙĦØ§Ø³ÙħÙĨØª": 4640,
      "ĠØ§ÙĦÙħØµÙĨØ¹Ø©": 4641,
      "ĠÙħÙĨØ§Ø·ÙĤ": 4642,
      "ĠØ¥ØŃØ¯Ùī": 4643,
      "¬ÙĬÙĨ": 4644,
      "ÙĤØ±Ø£": 4645,
      "ĠØ§ÙĦÙĤÙĪØ§Øª": 4646,
      "ĠÙĥØ§ÙĨÙĪØ§": 4647,
      "Ø³Ø·Ø³": 4648,
      "ĠØ¨ÙħØ¹": 4649,
      "ĠØ¨Ø£ÙĨÙĩ": 4650,
      "ĠÙħØµØ§Ø¯Ø±": 4651,
      "ÙĪÙĤØ¯": 4652,
      "Ø¯ÙĦØ§": 4653,
      "ĠØ°Ø": 4654,
      "ħØ¶ÙĬ": 4655,
      "ĠØ§ÙĦØ¯ÙĪØ±ÙĬ": 4656,
      "ĠØ§ÙĦØ±ÙħÙĦ": 4657,
      "ĠØµØ±": 4658,
      "ØµØ§Ø¨": 4659,
      "Ø±ÙĬØ¨Ø": 4660,
      "ĥØ§ÙĨ": 4661,
      "ĠÙĬØŃØ¯Ø«": 4662,
      "ĠØ¬ÙħØ¹": 4663,
      "ĠØ§ÙĤØª": 4664,
      "ĠÙĦØ¯ÙĬÙĨØ§": 4665,
      "§Ø¦Ø²Ø©": 4666,
      "Ø±ÙĬØ¨Ø§": 4667,
      "ĠÙĥØªØ¨": 4668,
      "Ø¯Ø£": 4669,
      "ĤØ¯Ø±Ø©": 4670,
      "ĠÙħØ¯Ùī": 4671,
      "ÙģÙĬØ": 4672,
      "£Ø³ÙĬ": 4673,
      "ĠØ§ÙĦÙħÙģØ§": 4674,
      "ĠØ§ÙģØ¶ÙĦ": 4675,
      "Ø¬ÙĪØ§": 4676,
      "Ø·Øª": 4677,
      "ĠÙĦÙĦØ§": 4678,
      "Ø¹Ø§Ø¯": 4679,
      "ĠÙĪÙĦØ§ÙĬØ©": 4680,
      "ĠØ§ÙĦØ¥Ø¯Ø§Ø±Ø©": 4681,
      "ĠÙĬÙģ": 4682,
      "ess": 4683,
      "Ø±Ø¬ÙĬ": 4684,
      "§ÙĦÙħØ°": 4685,
      "ĠÙħÙĨØªØ¬Ø§Øª": 4686,
      "Ø§ÙĦÙħØ°": 4687,
      "ĠÙħØŃØª": 4688,
      "ħÙĪØ°Ø¬": 4689,
      "ĠØ¨Ø§ÙĦØ£Ù": 4690,
      "¹ÙħØ§": 4691,
      "ÙĦÙħØ®Øª": 4692,
      "Ø¶Ø§Øª": 4693,
      "¨Ø§Ø±Ù": 4694,
      "§ÙĦÙħØ®Øª": 4695,
      "ĠØ£ÙĪØ±ÙĪØ¨Ø§": 4696,
      "Ø§ÙĦÙħØ®Øª": 4697,
      "§ÙĪÙĦ": 4698,
      "¨Ø§ÙĦØµ": 4699,
      "ĠØªÙĥÙĦÙģØ©": 4700,
      "Ø¨Ø§ÙĦØµ": 4701,
      "ĠÙĤÙĨØ§Ø©": 4702,
      "Ø²ÙĬØ¹": 4703,
      "¨Ø§Ø±Ùĥ": 4704,
      "ĠØ¨Ø´Ø±": 4705,
      "ĤÙĬÙĨ": 4706,
      "ĠØ®Ø§ÙĦØ¯": 4707,
      "ĠØ¥Ø³Øª": 4708,
      "ĠÙĦØ¹Ø": 4709,
      "Ø¯Ø¨": 4710,
      "ØµØŃ": 4711,
      "±ÙĬØŃ": 4712,
      "ħØ·Ø§Ø±": 4713,
      "Ø§Ø°Ø§": 4714,
      "ĠØ§ÙĦÙĥÙĦØ": 4715,
      "ÙĤØ¯Ø±Ø©": 4716,
      "ĠØ§ÙĦØ£Ø²": 4717,
      "ØŁØŁ": 4718,
      "ĠÙĪÙĥØ§ÙĨØª": 4719,
      "ĠØ¥ÙĨØ´Ø§Ø¡": 4720,
      "§Ø¹Ø©": 4721,
      "ĠØ§ÙĦÙĦØ§Ø²": 4722,
      "ÙĪØ³Ø": 4723,
      "ÙĦÙĨØª": 4724,
      "ĠÙħØ¹Ø¯ÙĦ": 4725,
      "ÙĪØ±Ù": 4726,
      "ind": 4727,
      "ĠØ§ÙĦÙħØ³ØªØ®Ø¯ÙħØ©": 4728,
      "ĠØ³Ø¨Ø¨": 4729,
      "ĠØ§ÙĦØ¬Ø§ÙħØ¹Ø©": 4730,
      "ĠØ§ÙĦØ³ÙĪØ±ÙĬØ©": 4731,
      "ĠØ§ÙĦÙĤÙĬØ§Ù": 4732,
      "ĠØ§ÙĦÙĤÙĬØ§Ùħ": 4733,
      "¹ØªØ¨Ø±": 4734,
      "§Ø±Ø¨": 4735,
      "ħÙħÙĬØ²": 4736,
      "ÙĪÙĬØªØ±": 4737,
      "ØµØ§ÙĦØ§Øª": 4738,
      "ÙĤÙĬØª": 4739,
      "ĠØ§ÙĦØ¹Ø§ØµÙħØ©": 4740,
      "23": 4741,
      "ĠÙĥØ«ÙĬØ±Ø§": 4742,
      "ĠØ§ÙĦØ§ØŃØªÙĦØ§ÙĦ": 4743,
      "ÙĥØ´Ùģ": 4744,
      "2021": 4745,
      "ct": 4746,
      "ĠØ¯ÙĪ": 4747,
      "ÙģØ§Ø©": 4748,
      "Ø£ÙĨÙĩÙħ": 4749,
      "ĠØ§ÙĦÙĦØ§": 4750,
      "ĠØ§ÙĦÙħØ°": 4751,
      "ĠØ±ÙĪØ³ÙĬØ§": 4752,
      "Ø§Ø¦Ùħ": 4753,
      "li": 4754,
      "Ø¨Ø³": 4755,
      "ĠØ§Ø´Øª": 4756,
      "ĠØ²ÙĬØª": 4757,
      "ĠØ§ÙĦØ³ÙĪØ¯Ø§ÙĨ": 4758,
      "ĠØ¨Ø§ÙĦØ§": 4759,
      "ĠÙĦÙĦØŃØµÙĪÙĦ": 4760,
      "Ø³ÙĨØ©": 4761,
      "ħØ¯Ø§Ø±Ø³": 4762,
      "ĠØµÙĪØª": 4763,
      "hat": 4764,
      "ÙĥØ§ÙĨØª": 4765,
      "ĠÙħØŃØ§ÙģØ¸Ø©": 4766,
      "ĠÙĨØ§Ø¯ÙĬ": 4767,
      "ĠØ§ÙĦÙĤØ±Ø§Ø±": 4768,
      "ĠØ§ÙĦØ´Ø®ØµÙĬØ©": 4769,
      "ĠÙĦÙħÙĨ": 4770,
      "ĠÙĨØ·Ø§ÙĤ": 4771,
      "Ġ26": 4772,
      "Ġ'": 4773,
      "ĠØ§ÙĦØªØ¹Ø§ÙħÙĦ": 4774,
      "¨ÙĬØ±Ø©": 4775,
      "ÙĦÙĪØ¶Ø¹": 4776,
      "ĠØ§ÙĦØ·Ø¹Ø": 4777,
      "ĠØ§ÙĦØ·Ø¹Ø§": 4778,
      "ĠØ¯ÙĦÙĬÙĦ": 4779,
      "ÙĪÙĬÙ": 4780,
      "£ÙĨÙģ": 4781,
      "Ø¬Ø±Ø": 4782,
      "ĠÙħØ®Øª": 4783,
      "Ø§ÙĪÙĦ": 4784,
      "¹Ø§ÙħÙĦ": 4785,
      "ĠØ§ÙĦØ·Ø¹Ø§Ù": 4786,
      "ĠØ§ÙĦÙħØ®Øª": 4787,
      "ĠØ§ÙĦØ·Ø¹Ø§Ùħ": 4788,
      "ĠØ§ÙĦØ¥ÙĨØªØ§Ø¬": 4789,
      "ĠØ¨Ø«": 4790,
      "ĠY": 4791,
      "um": 4792,
      "ĠØ§ÙĦÙħØ³ØªÙĤØ¨ÙĦ": 4793,
      "Ø¦Ø¨": 4794,
      "ĠØ¥Ø¨Ø±Ø§ÙĩÙĬÙħ": 4795,
      "ĠØ§ÙĦØµÙģ": 4796,
      "ĠÙģÙĦ": 4797,
      "ĪÙĩÙħ": 4798,
      "ĠÙĤÙĦÙĬ": 4799,
      "Ø·Ø·": 4800,
      "Ø¨Ø§Ø¡": 4801,
      "§ÙĨÙĩØ§": 4802,
      "ĠÙĦÙĩØ°Ùĩ": 4803,
      "ĠØ£ÙħÙĬØ±": 4804,
      "ÙĨØ¶": 4805,
      "ĠØ¹Ø¨Ø¯Ø§ÙĦÙĦÙĩ": 4806,
      "ģÙĦ": 4807,
      "ĠØ§ÙĦØªÙģ": 4808,
      "ÙĦÙħØ´Ø±": 4809,
      "ĠÙĬØªØ¹ÙĦÙĤ": 4810,
      "Ø¹Ø¯Ø¯Ø©": 4811,
      "ĠØ§ÙĦØ¹ÙĨØ§": 4812,
      "ĠØ²ÙĬØ§Ø±Ø©": 4813,
      "Ø¬ÙĪØ²": 4814,
      "ĠÙħÙĩ": 4815,
      "ĠØªØµÙĦ": 4816,
      "§ÙĦÙĪØ¶Ø¹": 4817,
      "Ø¯ÙħÙĬÙĨ": 4818,
      "Ø§ÙĦÙĪØ¶Ø¹": 4819,
      "ÙĩÙĬØ©": 4820,
      "ĠØ§ÙĦØªÙĪØ§": 4821,
      "ØªÙĪ": 4822,
      "Ø§ÙĬØ": 4823,
      "ĠÙħÙģØ§": 4824,
      "Ø³ÙĬÙĦ": 4825,
      "Ø§ÙĬÙĬÙĨ": 4826,
      "ï»Ł": 4827,
      "ĤÙĦØ©": 4828,
      "ÙĥØ§ÙĦ": 4829,
      "ĠØ§ÙĦØ§ÙĨØªØ®Ø§Ø¨Ø§Øª": 4830,
      "ĠÙĪÙĩÙħ": 4831,
      "ÙĤØ¯Ø±": 4832,
      "§ÙĦÙħØ´Ø±": 4833,
      "ĠÙĪØ¨Ø§ÙĦØªØ§ÙĦÙĬ": 4834,
      "Ø§ÙĦÙħØ´Ø±": 4835,
      "ĠØ§ÙĦØ¹ÙĦØ§ÙĤØ§Øª": 4836,
      "ħÙĤØ¯ÙħØ©": 4837,
      "Ø´Ø±ÙĬ": 4838,
      "ÙĥØ±Ø": 4839,
      "ĠØ§ÙĦÙħÙĩØ§": 4840,
      "ĠØ§ÙĤØªØµØ§": 4841,
      "ªØ±Ù": 4842,
      "Ġe": 4843,
      "ÙĩØ§Ø¯Ø©": 4844,
      "40": 4845,
      "ĠØ§ÙĦØ±ÙħØ§ÙĦ": 4846,
      "ÙħÙĦØ": 4847,
      "¨Ø¹ÙĬ": 4848,
      "ĠØ¨ÙĬØ±": 4849,
      "ĠÙĬÙĪÙĦÙĬÙĪ": 4850,
      "ÙĨÙĩÙħØ§": 4851,
      "ĠØ§ÙĦØ®Ø§Ù": 4852,
      "ÙĪØ±Ø§": 4853,
      "://": 4854,
      "ĠÙģØ¨Ø±Ø§ÙĬØ±": 4855,
      "ĠØ¨Ø±Ø§ÙħØ¬": 4856,
      "ØµÙĬØ¨": 4857,
      "ĠØ§ÙĦÙħØ¨Ø§Ø±Ø§": 4858,
      "Ø¬ØŃ": 4859,
      "ÙĨØ³ÙĬÙ": 4860,
      "ĠØ¥Ø·ÙĦØ§ÙĤ": 4861,
      "ÙĦØ¯Ø¹Ùħ": 4862,
      "ħØ´Øª": 4863,
      "ÙĪØ¹Ø©": 4864,
      "£ØµØ¨ØŃ": 4865,
      "ĠØ§ÙĦØ¹Ø³ÙĥØ±ÙĬØ©": 4866,
      "ØŃÙĥØ§Ùħ": 4867,
      "ĠØ§ÙĦØ®Ø§Ùħ": 4868,
      "ĠØ§Ø¶": 4869,
      "§ÙĨØ§Øª": 4870,
      "ÙħÙĨÙĬØ©": 4871,
      "ĩÙĦÙĬ": 4872,
      "ÙĥØ°Ø§": 4873,
      "ĠØ§ÙĦÙģÙĦØ³Ø·ÙĬÙĨÙĬ": 4874,
      "Ø·Ø±Ø": 4875,
      "ĠØ§ÙĦØ£Ùģ": 4876,
      "ÙģØ§Ø¯Ø©": 4877,
      "ÙĦØ¹ÙĦÙĬ": 4878,
      "ØµØ±Ø©": 4879,
      "ÙĨØ§Ùģ": 4880,
      "ØªÙĬØŃ": 4881,
      "§ÙĦØ¯Ø¹Ùħ": 4882,
      "§ÙĤØ©": 4883,
      "£ØŃØ¯Ø«": 4884,
      "ĠÙ¡": 4885,
      "§ÙĦÙĨØª": 4886,
      "ØµØ§Øµ": 4887,
      "ĠÙĦØµ": 4888,
      "Ø§ÙĦØ¯Ø¹Ùħ": 4889,
      "ĠØ§ÙĦØ¨Ø±ÙĬØ·Ø§": 4890,
      "§ÙĦØ¹ÙĦÙĬ": 4891,
      "ĠÙĬØµÙĦ": 4892,
      "ÙĦÙĤÙĪÙĦ": 4893,
      "Ø§ÙĦØ¹ÙĦÙĬ": 4894,
      "Ø§ÙĦÙĨØª": 4895,
      "ĠØªØºÙĬÙĬØ±": 4896,
      "Ø«ÙĬ": 4897,
      "ÙĨØ³ÙĬÙĤ": 4898,
      "ĠØªØŃØ¯ÙĬØ«": 4899,
      "Ġ2013": 4900,
      "ĠØ·Ø§ÙĦØ¨": 4901,
      "ÙĤÙĦØ©": 4902,
      "ÙĤÙĬÙĦØ©": 4903,
      "¨ÙĩØ°Ùĩ": 4904,
      "ĠØ·Ø±Ù": 4905,
      "ĠØ·Ø±ÙĤ": 4906,
      "ĠÙĬØ£ØªÙĬ": 4907,
      "Ø£ÙĨÙģ": 4908,
      "ĠØªÙģØ": 4909,
      "ĠØ§ÙĦÙĤØ±ÙĨ": 4910,
      "ÙĦØµØ±": 4911,
      "ÙĨÙĬÙģ": 4912,
      "ĪØŃØªÙī": 4913,
      "ĠÙĪØŃØªÙī": 4914,
      "Ø¨ÙĩØ°Ùĩ": 4915,
      "ħØ§Ù": 4916,
      "ÙĦØ¬Ø¨": 4917,
      "ÙħØ¯ÙĨÙĬ": 4918,
      "Ø®ÙĬØµ": 4919,
      "ĠØ¹Ø¨Ø§Ø±Ø©": 4920,
      "ĠØ§ÙĦØ¹ÙĦÙĬ": 4921,
      "ĠØ¨Ø§Ø¹": 4922,
      "ÙĦÙĤØ¯ÙĬ": 4923,
      "ĠØ§ÙĦØ·Ø±Ù": 4924,
      "est": 4925,
      "Ø°ÙĩØ¨": 4926,
      "ĠØ§ÙĦØ·Ø±ÙĤ": 4927,
      "ĠIn": 4928,
      "ĠØŃØ§ÙĦÙĬØ§": 4929,
      "ĠØŃÙĥÙħ": 4930,
      "§ÙĦÙĤØ¯ÙĬ": 4931,
      "Ø§ÙĦÙĤØ¯ÙĬ": 4932,
      "ØµÙģØ§Øª": 4933,
      "ÙĪÙĤÙĪ": 4934,
      "oc": 4935,
      "ĠÙ¢": 4936,
      "ÙĬØ¯": 4937,
      "05": 4938,
      "Ø£ØŃØ¯Ø«": 4939,
      "ÙħØªÙĩ": 4940,
      "ĠÙģØ¥ÙĨÙĩ": 4941,
      "ÙĨØ§Ø¯ÙĤ": 4942,
      "¬Ø²Ø§Ø¡": 4943,
      "ÙĦØ¯ÙĬÙħÙĤØ±Ø§": 4944,
      "Ø¨Ø¹ÙĬ": 4945,
      "§ÙĦØµØ±": 4946,
      "ÙĪÙĪ": 4947,
      "Ø§ÙĦØµØ±": 4948,
      "ĠØ§ÙĦØ£ÙħÙĪØ±": 4949,
      "ÙĦÙĤÙĦØ¨": 4950,
      "ĠÙĪÙģÙĤØ": 4951,
      "ĤÙĬÙĤÙĬ": 4952,
      "§ÙĦØ¬Ø¨": 4953,
      "Ø§ÙĦØ¬Ø¨": 4954,
      "ĠÙĪÙģÙĤØ§": 4955,
      "ĠØµØºÙĬØ±": 4956,
      "ĠØ§ÙĦØ£ÙĪØ³Ø·": 4957,
      "Ġ27": 4958,
      "Ø¨ÙĩÙħ": 4959,
      "§ÙĦØ¯ÙĬÙħÙĤØ±Ø§": 4960,
      "Ø§ÙĦØ¯ÙĬÙħÙĤØ±Ø§": 4961,
      "ĠØ§ÙĦØ£Ø¨": 4962,
      "§ÙĦÙĤÙĪÙĦ": 4963,
      "Ø§ÙĦÙĤÙĪÙĦ": 4964,
      "ĠØ§ÙĦÙħØ´Ø±": 4965,
      "ĠØ§ÙĦØ£ÙħÙ": 4966,
      "ĠØµØ§ÙĦØŃ": 4967,
      "ĠØªØ¹ØªØ¨Ø±": 4968,
      "§ÙĦÙĤÙĦØ¨": 4969,
      "Ø·Ø£": 4970,
      "Ø§ÙĦÙĤÙĦØ¨": 4971,
      "ÙĨØ§Ø¹": 4972,
      "¹Ø´": 4973,
      "ĠØªØŃÙħÙĦ": 4974,
      "ĠØ§ÙĦÙĨØŃØ§Ø³": 4975,
      "Ø¨Ø¶": 4976,
      "°Ø¨": 4977,
      "ĠØ§ÙĦØ£ÙħÙħ": 4978,
      "ĠÙĪØªØª": 4979,
      "ÙĪØµØ§": 4980,
      "ĠÙĨØªØ§Ø¦Ø¬": 4981,
      "ÙĦØ±Ø¨": 4982,
      "Ø¹Ø§Ø¨": 4983,
      "ÙĤÙĦÙ": 4984,
      "ĠØ§ÙĦÙĤØ¯ÙĬ": 4985,
      "Ø·Ø±Ù": 4986,
      "ÙħÙĪØ³": 4987,
      "ĠØ§ÙĦØ³Ø§Ø¨ÙĤØ©": 4988,
      "ĠØªØ¹Ø¯": 4989,
      "ĠÙģÙĬØ¯ÙĬÙĪ": 4990,
      "¨Ø³Ø±": 4991,
      "ÙĦØ¯Ø³Øª": 4992,
      "ĠØ§Øº": 4993,
      "ĠÙħØ§ÙĦ": 4994,
      "¨Ø®": 4995,
      "ĠØ´ÙħØ§ÙĦ": 4996,
      "ĠØ§ÙĦÙħØ¨Ø§Ø±Ø§Ø©": 4997,
      "Ø¨Ø³Ø±": 4998,
      "Ø²ÙĬØ§Ø¯Ø©": 4999,
      "ĠØ§ÙĦØ¹ÙĦØ§Ø¬": 5000,
      "ÙĦÙĤÙĪØ§": 5001,
      "ĠÙĪØ§Øª": 5002,
      "ĠØ¨ÙĩØ°Ùĩ": 5003,
      "ĠÙĥØ«ÙĬØ±Ø©": 5004,
      "ĠÙĪØ³Ø": 5005,
      "01": 5006,
      "ĠØ§ÙĦØ·Ø¨ÙĬØ©": 5007,
      "ĠØªÙĪÙģØ±": 5008,
      "§ÙĦØ¯Ø³Øª": 5009,
      "Ø§ÙĦØ¯Ø³Øª": 5010,
      "ĠÙħÙĦØ§": 5011,
      "ÙĥØ±Ø§": 5012,
      "ĠØ¯Ø§Ø±": 5013,
      "ĠØ§ÙĦÙħØŃÙħÙĪÙĦ": 5014,
      "ĠØŃÙĥÙĪÙħØ©": 5015,
      "Ø¨ÙĦØ©": 5016,
      "Ġ28": 5017,
      "ĠØ§ÙĦØ¬Ø§ÙĨØ¨": 5018,
      "ħØ·Ø¨": 5019,
      "ĠØ¨Ø§ÙĦØªØ": 5020,
      "ÙĪÙħØ©": 5021,
      "ĠÙĤØµ": 5022,
      "Ø¹Ø´": 5023,
      "ĠØªØ±ÙĬØ¯": 5024,
      "Ġ199": 5025,
      "ĠØ¨Ø³Ø±": 5026,
      "ĠØ¨ÙĨÙĬ": 5027,
      "§ÙĦØ±Ø¨": 5028,
      "ĠØ§ÙĦÙĨØ§Ø±": 5029,
      "Ø§ÙĦØ±Ø¨": 5030,
      "ïºİ": 5031,
      "ĤØ³Ùħ": 5032,
      "ĠÙĦÙĦØµ": 5033,
      "ÙĪØ®": 5034,
      "ĠØ§Øµ": 5035,
      "ĠØ³ÙĬØªÙħ": 5036,
      "ĠØ§ÙĦØ£ÙĪØ±ÙĪØ¨ÙĬ": 5037,
      "ĠØ®ÙĬØ§Ø±Ø§Øª": 5038,
      "Ø·Ø¦": 5039,
      "ÙĦÙħØ¯ÙĨÙĬ": 5040,
      "ĠÙĨØ§Ø¦Ø¨": 5041,
      "Ø³Ø§Ùħ": 5042,
      "ĠØ§ÙĦØ¹Ø±Ø§ÙĤÙĬ": 5043,
      "§ÙĦÙħØ¯ÙĨÙĬ": 5044,
      "Ø§ÙĦÙħØ¯ÙĨÙĬ": 5045,
      "ĠØªØ²": 5046,
      "Ø¬Ø¹Ø©": 5047,
      "ĠÙħØ³Ø¤ÙĪÙĦ": 5048,
      "ĠÙĥØ£Ø³": 5049,
      "03": 5050,
      "Ø¯Ø¯Ø§": 5051,
      "Ø§ÙĤØ©": 5052,
      "ĠØªØ³Ø¬ÙĬÙĦ": 5053,
      "ĠØ§ÙĦØ®Ø¯ÙħØ©": 5054,
      "ĠÙģÙĦØ³Ø·ÙĬÙĨ": 5055,
      "Ø®Ø±Ø§": 5056,
      "Ø£ØµØ¨ØŃ": 5057,
      "ĪÙħØ": 5058,
      "Ø£ÙħØ§": 5059,
      "26": 5060,
      "ĠÙĪÙĦÙĪ": 5061,
      "ÙĦÙħÙĨØ": 5062,
      "Ø§ÙĦØ§": 5063,
      "ĠØ¬ÙĬØ¯Ø©": 5064,
      "¨ÙĥØ": 5065,
      "ĠØªÙĪÙ": 5066,
      "ĠÙĨØµÙģ": 5067,
      "ĠØ§ÙĦÙĪØ²Ø§Ø±Ø©": 5068,
      "ĠÙħØ¹Ø±ÙģØ©": 5069,
      "ĠØ§ÙĦÙħØ¯ÙĨÙĬ": 5070,
      "ÙĦÙħØ§ÙĨ": 5071,
      "06": 5072,
      "Ø¶Ø¹Ùģ": 5073,
      "ģØ§Ø¡Ø©": 5074,
      "ĠØ§ÙĦÙĥÙĪ": 5075,
      "ĠØ¥Ø¬Ø±Ø§Ø¡": 5076,
      "ĠÙĪØ¹Ø¯Ùħ": 5077,
      "ÙĦÙħÙĤØ±": 5078,
      "ħØ§Ùħ": 5079,
      "Ø·Ø±ÙĤ": 5080,
      "Ø§Ø¯ÙĬ": 5081,
      "ħØ¨ÙĬØ¹": 5082,
      "Ø¯ÙĤØ©": 5083,
      "ĠØ§ÙĦØ¹ÙħÙĦØ§Ø¡": 5084,
      "ĠØ§ÙĦÙĪØ¶Ø¹": 5085,
      "§ÙĦÙħÙĨØ": 5086,
      "ÙĦÙĩØ§ØªÙģ": 5087,
      "§ÙĦÙħÙĤØ±": 5088,
      "ĠÙĨÙģØ³ÙĩØ§": 5089,
      "Ø§ÙĦÙħÙĤØ±": 5090,
      "Ø§ÙĦÙħÙĨØ": 5091,
      "ĠÙĪØ¨ÙĬÙĨ": 5092,
      "ĠØ°Ø§": 5093,
      "ĠØ³Ø§Ø¹Ø§Øª": 5094,
      "ĤØ¶ÙĬØ©": 5095,
      "¨Ø°": 5096,
      "Ø±ØªÙĩ": 5097,
      "ĠØ§ÙĦØ±ÙĪØ§": 5098,
      "ĠØ¨Ø¯Ø£Øª": 5099,
      "ĠØ§ÙĦØªÙħ": 5100,
      "ĠØ§ÙĦØ¯Ø¹Ùħ": 5101,
      "ĠÙħØ¨Ø§Ø´Ø±": 5102,
      "¶Ø©": 5103,
      "ĠØ§ÙĦÙħÙĨØªØ": 5104,
      "§ÙĦÙĩØ§ØªÙģ": 5105,
      "Ø§ÙĦÙĩØ§ØªÙģ": 5106,
      "ĠØªØŃØ¯Ø«": 5107,
      "ĠÙĪØ§ÙĦØ£Ø": 5108,
      "ĠØ§ÙĦØ¥Ø³ÙĦØ§ÙħÙĬ": 5109,
      "Ø¨Ø®": 5110,
      "her": 5111,
      "ĠØ§ÙĦØµÙĦØ§Ø©": 5112,
      "Ø·Ø±Ø§Ùģ": 5113,
      "ĠØ§ÙĦØ¨ÙĨÙĥ": 5114,
      "ĠØ¨Ø¹ÙĬ": 5115,
      "ĠØªØ¹ÙĦÙĬ": 5116,
      "ĠÙĬØ³ØªØ®Ø¯Ùħ": 5117,
      "ĠØ§ÙĦÙĨØª": 5118,
      "âĢİ": 5119,
      "ØŃØµ": 5120,
      "ĠØ§ÙĦÙĤÙĦØ¨": 5121,
      "§ÙĥØ³": 5122,
      "ÙĦÙħØ¯ÙĬØ±": 5123,
      "Ø¦Ù": 5124,
      "§Ø¨ÙĬ": 5125,
      "Ø§ÙĨÙĩØ§": 5126,
      "ĠÙĪØªÙĤ": 5127,
      "ÙĨØ¬ÙĦÙĬØ²ÙĬØ©": 5128,
      "ĠØ§ÙĦØŃÙħÙĦ": 5129,
      "ĠÙĬØ¤Ø¯ÙĬ": 5130,
      "ĠØ§ÙĦØ´Ø±Ø·Ø©": 5131,
      "ÙĩØ¯Øª": 5132,
      "ĠØ§ÙĦØ§ÙĤØªØµØ§Ø¯": 5133,
      "§ÙĦÙħØ¯ÙĬØ±": 5134,
      "ĠÙĪØ§ÙĤ": 5135,
      "ĠØ´Ù": 5136,
      "Ø§ÙĦÙħØ¯ÙĬØ±": 5137,
      "£Ø¯Ø§Ø¡": 5138,
      "ĠØ§ÙĦØ¹Ø§Ø¦": 5139,
      "Ø³ÙĤ": 5140,
      "ĠØ§ÙĦØ¯ÙĬÙħÙĤØ±Ø§": 5141,
      "ÙĨÙĪÙ": 5142,
      "ÙĦÙħÙĥØ§ÙĨ": 5143,
      "ĤØ§ÙģØ©": 5144,
      "ÙħØ¶": 5145,
      "ĠØ§ÙĦÙĤØ¯Ø³": 5146,
      "ØŃØµÙĦ": 5147,
      "ĠØŃÙħÙĦ": 5148,
      "ÙĪÙģØ©": 5149,
      "ĠØ§ÙģØª": 5150,
      "Ø§Ø±ÙĬØ§Øª": 5151,
      "Ø¨ÙĦØº": 5152,
      "ĠÙĦÙĦÙĩ": 5153,
      "__": 5154,
      "ĦÙĬØ": 5155,
      "ĠØ§ÙĦÙħØ³ØªÙĪÙī": 5156,
      "Ø§ÙĥØ³": 5157,
      "ĠØ§ÙĦØ¬Ø¨": 5158,
      "ħÙħØ«": 5159,
      "ÙĦÙĬØ¯": 5160,
      "ĠØ®Ø·Ø©": 5161,
      "ĪØµÙĦ": 5162,
      "ØŃÙĥ": 5163,
      "§ÙĦÙħÙĥØ§ÙĨ": 5164,
      "Ø§ÙĦÙħÙĥØ§ÙĨ": 5165,
      "¨ØŃÙĬØ«": 5166,
      "Ø¨ØŃÙĬØ«": 5167,
      "ĠØ§ÙĦØŃØ¶": 5168,
      "Ø¹Øª": 5169,
      "§ÙĦÙĤÙĪØ§": 5170,
      "ÙĩØ§Ù": 5171,
      "Ø§ÙĦÙĤÙĪØ§": 5172,
      "ÙĦØ·ÙĦØ§Ø¨": 5173,
      "Ø·Ø§ÙĦ": 5174,
      "27": 5175,
      "Ø±Ø§ÙĤÙĬØ©": 5176,
      "ĠØ±ÙģØ¶": 5177,
      "ÙħÙĦÙ": 5178,
      "ĠÙħÙĨØ¹": 5179,
      "ĠØ§Ø³ØªÙ": 5180,
      "ħØ³Ø§Ø¨": 5181,
      "¹ÙĬÙ": 5182,
      "ĠØ±Ø³Ø§ÙĦØ©": 5183,
      "ĠÙĪØ§ÙĨØª": 5184,
      "Ġ&": 5185,
      "ħØ³Ø¨": 5186,
      "Ø§ÙĦØ¬": 5187,
      "ĠÙħØ´ÙĥÙĦØ©": 5188,
      "ØŃØ§ÙĦÙģ": 5189,
      "ĠØ§ÙĦÙħÙĤØ±": 5190,
      "§ÙĦØ·ÙĦØ§Ø¨": 5191,
      "28": 5192,
      "Ø§ÙĦØ·ÙĦØ§Ø¨": 5193,
      "²Ø§": 5194,
      "Ø¹Ùĩ": 5195,
      "ħÙħØ§Ø±Ø³Ø©": 5196,
      "ĠÙĪÙħØ": 5197,
      "ĠØªÙħØ§ÙħØ§": 5198,
      "ÙĤØ±Ø¨": 5199,
      "ĠÙĪØµÙĦ": 5200,
      "ħØ¹ÙĬØ©": 5201,
      "ĠØªØ´ØºÙĬÙĦ": 5202,
      "ĪØ¶ØŃ": 5203,
      "ĠÙĩØ¯Ùģ": 5204,
      "ÙħØ§ÙĦÙĬØ©": 5205,
      "ÙĤØ§Ùģ": 5206,
      "¹Ø±ÙģØ©": 5207,
      "ĥÙĨÙĥ": 5208,
      "âĢĵ": 5209,
      "ĠØ§ÙĦØµØ±": 5210,
      "Ø¨ÙĥØ": 5211,
      "ĠØ§ÙĦØ¯Ø³Øª": 5212,
      "ĠØ§Ø³": 5213,
      "Ø¬ÙĪÙĨ": 5214,
      "Ø®ÙģØ§Ø¶": 5215,
      "Ø¹ÙħØ§": 5216,
      "Ø±ØŃ": 5217,
      "ĠØ¨ØŃÙĬØ«": 5218,
      "Ø³Ø§Ø¦ÙĦ": 5219,
      "ĠØªÙĥØ³ÙĬØ±": 5220,
      "ĠÙĦÙĦØªØ¹": 5221,
      "ÙĥÙĨÙĥ": 5222,
      "Ø¬Ø§ÙĨØ¨": 5223,
      "Ġon": 5224,
      "ÙĦØ±ÙĬ": 5225,
      "ĤØ±Ø§Ø¡Ø©": 5226,
      "ĠØ±Ø¤ÙĬØ©": 5227,
      "ĤØ§ÙĦØª": 5228,
      "ĠÙħØ±ØŃÙĦØ©": 5229,
      "¨Ø£Ø": 5230,
      "ĠØ§ÙĦØ£Øº": 5231,
      "ĠØ¨Ø®": 5232,
      "ĠØ§ÙĦÙħØ¹Ø§Ø¯ÙĨ": 5233,
      "ĠÙħÙĤØª": 5234,
      "ĠØ±Ø¯": 5235,
      "Ø¨Ø£Ø": 5236,
      "ĠÙħÙĩÙħØ©": 5237,
      "ĠØ§ÙĦØ£Ø¬ÙĨØ¨ÙĬØ©": 5238,
      "ĠØ¨Ø¯Ø¡": 5239,
      "Ø´Ø§Ùģ": 5240,
      "Ø´ÙĬØ": 5241,
      "ØªÙĪÙĨ": 5242,
      "Ø¨ØŃØ§": 5243,
      "ŃØ¯ÙĬ": 5244,
      "ĠØ¯Ø®ÙĪÙĦ": 5245,
      "Ø¶ÙĬØ¹": 5246,
      "Ø§Ø±ÙĬØ©": 5247,
      "Ø·Ø±ÙĬ": 5248,
      "ĠØ§ÙĦØ§Ø«ÙĨÙĬÙĨ": 5249,
      "¨ÙĪØ": 5250,
      "ĠÙĦØ¯ÙĬÙĥ": 5251,
      "Ùª": 5252,
      "ĠØªØ«": 5253,
      "ØªØ´": 5254,
      "ĠØ·Ø§Ø¦": 5255,
      "ĠÙĪÙĥØ§ÙĦØ©": 5256,
      "ÙĦØ¹Ø¶": 5257,
      "ÙħØŃÙħØ¯": 5258,
      "ÙĦØ®Ø¨Ø±": 5259,
      "ĠÙĪØ§ÙĦÙĨ": 5260,
      "ĠØ§ÙĦØ·ÙĦØ§Ø¨": 5261,
      "09": 5262,
      "¨Ø§ÙĦØ¯Ù": 5263,
      "ĠØ§ÙĦØµÙĪØ±Ø©": 5264,
      "Ø¨Ø§ÙĦØ¯Ù": 5265,
      "07": 5266,
      "all": 5267,
      "§ÙĦØ±ÙĬ": 5268,
      "ĠÙģØ±ØµØ©": 5269,
      "§ÙĦØ¹Ø¶": 5270,
      "Ø§ÙĦØ±ÙĬ": 5271,
      "ĠÙĦÙĦØ¹ÙħÙĦ": 5272,
      "Ø§ÙĦØ¹Ø¶": 5273,
      "ÙģØŃ": 5274,
      "Ġ+": 5275,
      "ÙĩÙĪØ¯": 5276,
      "ĠØ£Ø®Ø°": 5277,
      "Ø±Ø§Ùĥ": 5278,
      "ÙĤØ¶Ø§Ø¡": 5279,
      "ĠØ¨Ø£Ø": 5280,
      "§ÙĦØ®Ø¨Ø±": 5281,
      "ĠØ§ÙĦØ¬ÙĨÙĪØ": 5282,
      "ÙĥÙĬØ¨": 5283,
      "ĠØ§ÙĦØ¥ÙĦÙĥØªØ±ÙĪÙĨÙĬØ©": 5284,
      "Ø§ÙĦØ®Ø¨Ø±": 5285,
      "ÙĦØ§ÙĦØª": 5286,
      "ħÙĥÙĪÙĨØ§Øª": 5287,
      "Ø£ÙĥØ«Ø±": 5288,
      "¹ÙħÙĪ": 5289,
      "08": 5290,
      "¨ØŃØ³Ø¨": 5291,
      "ĠØ£Ø¹Ø¶Ø§Ø¡": 5292,
      "ĠÙĪÙĬÙħÙĥÙĨ": 5293,
      "ĠØ²Ø": 5294,
      "ÙĦÙĪÙĨ": 5295,
      "ĠÙĪØ§ÙĦØº": 5296,
      "ÙĥÙĪÙĦ": 5297,
      "ĠØ§ÙĦØªØ±Ø¨ÙĬØ©": 5298,
      "ĠØ£ØµØ¨ØŃ": 5299,
      "ĠØ§ÙĦØŃØ±ÙĥØ©": 5300,
      "ÙĤÙĬÙħ": 5301,
      "Ø¯ØªÙĩØ§": 5302,
      "Ø£Ø¯Ø§Ø¡": 5303,
      "ĠØ¨ÙĥØ": 5304,
      "ĠØºØ²Ø©": 5305,
      "ĠØ¨Ø§ÙĦØµ": 5306,
      "04": 5307,
      "¬Ø¯ÙĬ": 5308,
      "ØµÙĦØ§": 5309,
      "ĠØ§ÙĦØ§ÙĤØªØµØ§Ø¯ÙĬ": 5310,
      "ĠØ§ÙĦÙħØ·Ø±ÙĤØ©": 5311,
      "ÙĦØ³ÙĬØ": 5312,
      "ĠØ¨Ø§ÙĦØ¯Ù": 5313,
      "ĠPM": 5314,
      "ĠØ§ÙĦØªØ§ÙĦÙĬØ©": 5315,
      "Ø§ÙĨÙĪ": 5316,
      "Ø§Ø¦Ø¹": 5317,
      "Ø¯ÙĨÙī": 5318,
      "ĠØ§ÙĦØµÙĨØ§Ø¹ÙĬØ©": 5319,
      "Ø¹ÙħÙĪ": 5320,
      "Ø§ÙĬØ§": 5321,
      "ĠØ§ÙĦØ´Ø§Ø´Ø©": 5322,
      "ĠØ§ÙĦØ¯Ø®ÙĪÙĦ": 5323,
      "ĠØªØ±Ø§ÙħØ¨": 5324,
      "ĠØµØ¨Ø§ØŃ": 5325,
      "ĠÙĬÙĨØ¨": 5326,
      "ĠØ¬ÙĪØ§": 5327,
      "§Ø¬ÙĦ": 5328,
      "ĠØ§ÙĦÙħÙĨØ": 5329,
      "ØŃØ±ÙĥØ©": 5330,
      "ĤØ¨ÙĦØ©": 5331,
      "§ÙĦØ³ÙĬØ": 5332,
      "ĠØ§ÙĦÙħØ«Ø": 5333,
      "Ø§ÙĦØ³ÙĬØ": 5334,
      "ĠÙĬÙĦÙĬ": 5335,
      "ĠÙĪØ£ÙĬ": 5336,
      "ĠØ³Ø¬ÙĦ": 5337,
      "ĠØ§ÙĦÙĩØ§ØªÙģ": 5338,
      "Ø¬Ø§Ø¯": 5339,
      "¹Ø¯ÙĩØ§": 5340,
      "§Ø±ÙĤ": 5341,
      "ÙĤØ¨ÙĦØ©": 5342,
      "ĤØ§ÙĦØ§Øª": 5343,
      "ĠØ²Ø§": 5344,
      "Ø¨ØŃØ³Ø¨": 5345,
      "ÙħÙī": 5346,
      "Ø²Ø§ÙĬØ¯": 5347,
      "ĠØ§ÙĦÙħØ§Ø¯Ø©": 5348,
      "ÙģÙī": 5349,
      "Ġy": 5350,
      "ĠØ§ÙĦÙĪØ¸": 5351,
      "ĠØªØªÙħ": 5352,
      "ĠØ§ÙĦØ¬ÙĪØ¯Ø©": 5353,
      "ĠØ¨ØŃØ§": 5354,
      "ĠØ§Ø°Ø§": 5355,
      "ĠØ§ÙĦÙĤØ§ÙĨÙĪ": 5356,
      "ÙģØ§Ø¹ÙĦ": 5357,
      "ÙħÙĦÙĥ": 5358,
      "ÙĪÙģÙĬØ±": 5359,
      "ØŃÙħÙĬÙĦ": 5360,
      "ÙĪØ±ÙĪ": 5361,
      "¬Ø¯Ø©": 5362,
      "ĠØ§ÙĦØªØ·Ø¨ÙĬÙĤ": 5363,
      "ÙĦÙħØ¬Ù": 5364,
      "Ø³ÙħØ¹": 5365,
      "ĠØ´Ø±Ù": 5366,
      "ĠØ³ÙħØ¹": 5367,
      "Ø¨Ø§Ø³": 5368,
      "ĠØ§ÙĦÙħØ«Ø§": 5369,
      "ÙĩÙī": 5370,
      "Ø¯ÙĪÙĦØ©": 5371,
      "ĪØµÙĪÙĦ": 5372,
      "ĠÙĪØµÙĪÙĦ": 5373,
      "Ø§Ø¬ÙĦ": 5374,
      "ĠØ§ÙĦØŃØ§ÙĦØ©": 5375,
      "ĠØ§ÙĦØ¬ÙħÙĩÙĪØ±ÙĬØ©": 5376,
      "ĠÙģÙĬÙĦ": 5377,
      "ĠØ§ÙĦÙħÙĨØªØ¬": 5378,
      "Ø´Ø±Ø§Ø¡": 5379,
      "ÙĦÙĤØµ": 5380,
      "§ÙĦØ§ÙĦØª": 5381,
      "Ø§ÙĦØ§ÙĦØª": 5382,
      "ĠØ´Ø¹Ø±": 5383,
      "ĠÙħÙĦØ¹": 5384,
      "ĠÙħØ§ÙĦÙĬ": 5385,
      "ÙħØ¶Ø§": 5386,
      "ĠØ§ÙĦÙģÙĨÙĬ": 5387,
      "ĠÙħÙģØª": 5388,
      "§ÙĦÙħØ¬Ù": 5389,
      "ĠØ§ÙĦÙħÙĪØ³Ùħ": 5390,
      "Ø§ÙĦÙħØ¬Ù": 5391,
      "ĠÙĦÙģØª": 5392,
      "ĠØ£Ø¨Ø±ÙĬÙĦ": 5393,
      "ĠØ§ÙĦØªÙĨÙħÙĬØ©": 5394,
      "ĠØ§ÙĦØ¹Ø«": 5395,
      "ĠØ¨Ø¯": 5396,
      "ÙģØ±ÙĬÙĤ": 5397,
      "ĠØ³Ø±ÙĬ": 5398,
      "ªÙĬØ¨": 5399,
      "§ÙĦÙĤØµ": 5400,
      "ÙĤÙĪÙħ": 5401,
      "ØŃØ¶Ø±": 5402,
      "Ø§ÙĦÙĤØµ": 5403,
      "ĠØ¬ÙĪØ¯Ø©": 5404,
      "ĠØ§ÙĦÙħØ«Ø§ÙĦ": 5405,
      "ĠÙĪØ§ÙĦØªØ¹": 5406,
      "Ø±Ø¨ÙĬ": 5407,
      "ÙĤØ¶ÙĬØ©": 5408,
      "ħÙĬÙĦØ©": 5409,
      "ĠÙģÙĩÙħ": 5410,
      "ØªØ¨Ø": 5411,
      "ĠØ§ÙĦÙħÙĥØ§ÙĨ": 5412,
      "ÙĩØ±ÙĬ": 5413,
      "ÙĬØ§Ø±": 5414,
      "ĠØ§ÙĦØ¹Ø¶": 5415,
      "§ÙĤØ±Ø£": 5416,
      "Ø§ÙĤØ±Ø£": 5417,
      "ÙĤØ§ÙĦØ§Øª": 5418,
      "ĠÙĬØ²ÙĬØ¯": 5419,
      "ĠØ§ÙĦØµØŃØ§": 5420,
      "ĠØªÙĤÙĬ": 5421,
      "ÙĦÙħØ²": 5422,
      "ÙĥØ§Ø¡": 5423,
      "ĠÙħØŃÙħÙĪØ¯": 5424,
      "ĠÙĥØ§ÙħÙĦØ©": 5425,
      "ĠØ§ÙĦÙħØ¬Ø§ÙĦ": 5426,
      "ĠØ§ÙĦÙħØ¯ÙĬØ±": 5427,
      "ĠÙħØªÙĨÙĤÙĦØ©": 5428,
      "ÙĤØ³Ùħ": 5429,
      "ĠØ¹ÙĬØ¯": 5430,
      "ĠÙĦÙĦÙģ": 5431,
      "ĪÙĪ": 5432,
      "ħÙĪÙħ": 5433,
      "Ø³ÙĨØ": 5434,
      "ĠØ§ÙĥØ«Ø±": 5435,
      "ĠØªÙĨØ¸ÙĬÙģ": 5436,
      "ĠØ§ÙĦÙħØŃÙĦÙĬ": 5437,
      "Ø³Ø¨Ø§": 5438,
      "ĠØŃÙħØ§ÙĬØ©": 5439,
      "ĠØ³ÙĪÙī": 5440,
      "ĠØµØ¹": 5441,
      "ĠØ§ÙĦØ¹Ø¨": 5442,
      "Ø¬Ø§ÙĪØ²": 5443,
      "ĠÙĪÙĪ": 5444,
      "ÙħØ¹Ø¯Ø§Øª": 5445,
      "ħØ¦Ø©": 5446,
      "ĠØ§ÙĦØ§Ø¹Øª": 5447,
      "¹ÙĦÙĨ": 5448,
      "ĠÙħÙĥØªØ¨": 5449,
      "ÙĦÙħØ³ÙĬ": 5450,
      "Ø§Ø¦ÙĤ": 5451,
      "ĠØ£ÙĪÙĦØ": 5452,
      "ĪØµÙģ": 5453,
      "ĠÙĪØµÙģ": 5454,
      "ĠØ¨ÙĩØ¯Ùģ": 5455,
      "ĠØ§ÙĦØ¹ÙħØ±": 5456,
      "ĠØ§ÙĦÙħØŃ": 5457,
      "§ÙĦÙħØ²": 5458,
      "Ø·ÙĪÙĦ": 5459,
      "Ø§ÙĦÙħØ²": 5460,
      "ĠØ§ÙĦÙĥØ³Ø§Ø±Ø§Øª": 5461,
      "ĠØ§ÙĦØ±ØŃÙħÙĨ": 5462,
      "ĠØ£ÙĪÙĦØ§": 5463,
      "Ø§Ø±ÙĬØ±": 5464,
      "¬Ø³Ùħ": 5465,
      "ĠØ§ÙĦØ³ÙĪÙĬ": 5466,
      "ÙħÙĥØ§ÙĨÙĬØ©": 5467,
      "§ÙĦÙħØ³ÙĬ": 5468,
      "Ø§ÙĦÙħØ³ÙĬ": 5469,
      "¨Ø·Ø±ÙĬÙĤØ©": 5470,
      "ĠÙĪØ§ÙĦØªÙ": 5471,
      "ĠÙħØ´ÙĬØ±Ø§": 5472,
      "Ø¨Ø·Ø±ÙĬÙĤØ©": 5473,
      "ÙħÙĪÙĦ": 5474,
      "ÙĤØ±Ø§Ø¡Ø©": 5475,
      "ak": 5476,
      "ĪÙģØ±": 5477,
      "ĠÙħÙĨØ¸ÙħØ©": 5478,
      "ĠØ§Ø³ØªØ®": 5479,
      "ĠØ§ÙĦÙĤÙĪØ§": 5480,
      "ĠØ¯ÙĦ": 5481,
      "ĠØ¹ÙĦÙĬÙĨØ§": 5482,
      "ĠÙĥØ±Ø©": 5483,
      "ĠØ£ÙĨÙĩÙħ": 5484,
      "¨ÙĬØ¶": 5485,
      "ĠØ§ÙĦÙħØµÙĨØ¹": 5486,
      "³Ø±": 5487,
      "ĠÙħÙĪÙĤÙģ": 5488,
      "ĠÙĦÙħÙĪØ§": 5489,
      "ĠÙħÙĬØ": 5490,
      "ĠØ£ØºØ³Ø·Ø³": 5491,
      "ÙĦØ¶Ø": 5492,
      "ĨÙĬØ": 5493,
      "ĠØ§ÙĦØ¯Ø±Ø§Ø³Ø©": 5494,
      "¨ÙĥØ±": 5495,
      "ĨÙĬØ§": 5496,
      "ĠØ¬Ø¯": 5497,
      "ØŃÙħØ©": 5498,
      "ĠØ¨Ø·Ø±ÙĬÙĤØ©": 5499,
      "29": 5500,
      "ØµÙĬØ±Ø©": 5501,
      "ĠØªØ¹Ø±Ø¶": 5502,
      "ÙħÙģØ±": 5503,
      "§ÙĦØ¶Ø": 5504,
      "Ø§ÙĦØ¶Ø": 5505,
      "ĠØ§ÙĦØ¥Ø³Ø±Ø§Ø¦ÙĬÙĦÙĬ": 5506,
      "ĠÙĦØ°Ø§": 5507,
      "Ø±Ø¨ØŃ": 5508,
      "ĠØ¨ØŃØ³Ø¨": 5509,
      "ÙĦØªÙĩ": 5510,
      "ĠØ´Ø±ÙĬ": 5511,
      "ĠØ§ÙĦØºØ±Ø¨ÙĬØ©": 5512,
      "ĠØ§ÙĦØ¶Ø±": 5513,
      "Ø£ÙĦØ©": 5514,
      "ĠÙĪÙģØ±": 5515,
      "ħÙħØªØ§Ø²": 5516,
      "ĠØ£Ø¬ÙĩØ²Ø©": 5517,
      "ĤØµÙī": 5518,
      "¨Ø³Ù": 5519,
      "ÙģØ§Ùģ": 5520,
      "ĠØ§ÙĦØªØ§ÙĦÙĬ": 5521,
      "our": 5522,
      "ĠØ§ÙĦØªØ´": 5523,
      "Ø·ÙĪØ§ÙĨ": 5524,
      "ĠÙĬØ¨Ø¯ÙĪ": 5525,
      "Ø¨ÙĥØ±": 5526,
      "ĠØ¶Ø±ÙĪØ±Ø©": 5527,
      "Ø®Ù": 5528,
      "Ø¸ÙĬÙ": 5529,
      "ĠØ§ÙĦÙĨÙĪØ¹": 5530,
      "Ø¸ÙĬÙħ": 5531,
      "ĠÙģØ±Ø": 5532,
      "ĠÙģØ±ÙĬ": 5533,
      "ħÙĥÙĨÙĥ": 5534,
      "ĠØ§ÙĦØ±ÙĬ": 5535,
      "ĠØ§ÙĦØ£Ø®ÙĬØ±": 5536,
      "ĠØ§ÙĦØŃÙĥÙĪÙħÙĬØ©": 5537,
      "ĠØ§ÙĦÙĥØ¨ÙĬØ±Ø©": 5538,
      "Ø¯Ø§Ø©": 5539,
      "ÙĦÙħØ¬ÙħÙĪØ¹Ø©": 5540,
      "ĠØ¹Ø§Ø¯Ø©": 5541,
      "Ø·Ø¨Ø": 5542,
      "ĠØ§ÙĦØ¬Ø§ÙħØ¹": 5543,
      "Ø£ÙĨØ": 5544,
      "ÙĨÙĩØ§ÙĬØ©": 5545,
      "ĠÙħÙĪØ§Ø¬ÙĩØ©": 5546,
      "ĠÙħÙĪØ§Ø¯": 5547,
      "ÙĩÙĢ": 5548,
      "ĠØ§ÙĬØ¶Ø§": 5549,
      "ĠÙħØ¬ÙħÙĪØ": 5550,
      "ĠØ¹ÙħÙĪ": 5551,
      "ĠØ£Ø³Ø§": 5552,
      "ÙĨÙĥØ": 5553,
      "§ÙĦÙħØ¬ÙħÙĪØ¹Ø©": 5554,
      "ĠØ§ÙĦØªØ±Ø§": 5555,
      "Ø§ÙĦÙħØ¬ÙħÙĪØ¹Ø©": 5556,
      "02": 5557,
      "ĠØµØŃÙĬØŃ": 5558,
      "ÙĢÙĢÙĢ": 5559,
      "ØŃØ¯Ø§Øª": 5560,
      "ĠØ§ÙĦØ·Ø¨ÙĬØ¹ÙĬØ©": 5561,
      "Ġ29": 5562,
      "ĠØ§ÙĦÙħØ²": 5563,
      "±ÙĬÙĥ": 5564,
      "Ø¯ÙĪÙī": 5565,
      "ĠØ§ÙĦØ£ÙħØ§": 5566,
      "rus": 5567,
      "ĠØ¥ÙĨÙĩØ§": 5568,
      "ĠÙĤØ§ÙĦØª": 5569,
      "ÙĪØ§ØªÙģ": 5570,
      "ĠÙĤØ§ÙħØª": 5571,
      "ÙĦÙģØ²ÙĬ": 5572,
      "ĠØ§ÙĦØ´Ø¨": 5573,
      "ØŃØ¶ÙĪØ±": 5574,
      "Ø¸Ø§Ø±": 5575,
      "ÙĦÙĬØ§Øª": 5576,
      "ĠÙĨØ¸Ø±": 5577,
      "ĠÙħØ¤Ø³Ø³Ø©": 5578,
      "ÙħÙĨØ¹": 5579,
      "ÙĥÙģÙĬ": 5580,
      "ÙĪÙĦÙī": 5581,
      "ÙĪØ§ÙħÙĦ": 5582,
      "ĠØ¨ÙĪÙĦ": 5583,
      "ĠØ§ÙĦÙĦÙĤØ§Ø¡": 5584,
      "ĠØ£ÙĥØ¯": 5585,
      "¨Ø§ÙĦØŃÙ": 5586,
      "ĠØ·ÙĬ": 5587,
      "ĠÙĦÙĥÙĬ": 5588,
      "Ø¨Ø§ÙĦØŃÙ": 5589,
      "ĠÙħÙħÙĥÙĨ": 5590,
      "ĠØ§ÙĦØªÙĤÙĦÙĬ": 5591,
      "ĠØªØªØ": 5592,
      "ĠØ±Ø¨ÙħØ§": 5593,
      "ap": 5594,
      "ÙĥÙĦÙĬ": 5595,
      "Ø·ÙĦØ§Ø¹": 5596,
      "ÙĪØ§ÙĨØ§Øª": 5597,
      "ĠØ£Ø¨Ø±Ø²": 5598,
      "ĠØ®ÙĬØ±": 5599,
      "ĠØ£ÙĨØŃØ§Ø¡": 5600,
      "ĠÙħØ³ÙĬ": 5601,
      "¹ÙħØ§ÙĨ": 5602,
      "ĠØ§ÙĦØ¹Ø²ÙĬØ²": 5603,
      "Ø¹ÙħØ§ÙĨ": 5604,
      "£ÙĨÙĥ": 5605,
      "ĠÙģÙħÙĨ": 5606,
      "ĤØ§ÙĦØ©": 5607,
      "ĠØ¨ÙĥØ±": 5608,
      "ÙĦØ³Ø¨Ø¨": 5609,
      "ĠÙħÙĤØ±": 5610,
      "ĠØ§ÙĦØ±Ø³ÙħÙĬ": 5611,
      "Ø³ÙĦÙĪØ¨": 5612,
      "Ø¯ÙħÙĬ": 5613,
      "ĠØµÙĦ": 5614,
      "ĠØ§ÙĦÙĬØ§Ø¨": 5615,
      "ĠØ§ÙĦØ¬Ø²Ø¡": 5616,
      "ĠØ£Ø±Ø¶": 5617,
      "ĠÙĦØªØ¹": 5618,
      "ĠÙĬÙĪØ³Ùģ": 5619,
      "ĠØ¨Ø§ÙĦØŃÙ": 5620,
      "ĠØ§ÙĦØ¹ÙĦÙĬØ": 5621,
      "Ø´Ø§Ø": 5622,
      "ĠØ§ÙĦØ¹ÙĦÙĬØ§": 5623,
      "ĠØ§ÙĦØ±Ø¨": 5624,
      "§Ø¯Ø±": 5625,
      "¬ÙĩØ§Øª": 5626,
      "ĠØ§ÙĦÙħØŃÙħÙĪÙĦØ©": 5627,
      "ĠÙĪØ¥Ø°Ø§": 5628,
      "Ø¯ÙĪØ«": 5629,
      "ĠØ§ÙĦÙĤØµ": 5630,
      "Ø¬ÙħØ§ÙĦÙĬ": 5631,
      "ÙħÙĨÙĩØ§": 5632,
      "ĠÙĦÙĦÙħ": 5633,
      "ĠØ§ÙĦØ³ÙĬØ": 5634,
      "¹ÙĬÙħ": 5635,
      "ĠØ³ÙħØ§": 5636,
      "ĠÙģÙĬÙĦÙ": 5637,
      "ĠÙĪØ§ÙĦØ´": 5638,
      "Ø¯Ø®": 5639,
      "ĠÙĪØ±Ø§Ø¡": 5640,
      "Ġ!": 5641,
      "ħÙĩØ±Ø¬Ø§ÙĨ": 5642,
      "ĠÙĪØ¨Ø": 5643,
      "ØŃÙħØ§ÙĬØ©": 5644,
      "ħÙĩÙħØ§": 5645,
      "§ÙĦØ³Ø¨Ø¨": 5646,
      "ÙĨØ¯ÙĬ": 5647,
      "Ø§ÙĦØ³Ø¨Ø¨": 5648,
      "ÙĩÙĨØ§Ùĥ": 5649,
      "ĠØªØ¹ÙĦÙĬÙĤ": 5650,
      "ĠØ§ÙĦÙħØ³ÙĬ": 5651,
      "ĠØ§ÙĦØªØ§": 5652,
      "ĥØ´": 5653,
      "ÙĦÙħÙģ": 5654,
      "ĠØŃØ±Ø¨": 5655,
      "ĠÙĪØ¹ÙĦ": 5656,
      "Ø§ÙĦÙĬØ§Øª": 5657,
      "ħÙĥØ±": 5658,
      "Ø³ÙĨØ§": 5659,
      "ĠØ£ÙĩØ¯Ø§Ùģ": 5660,
      "ĠØ¨ÙĩÙħ": 5661,
      "Ø±ØªÙĬ": 5662,
      "£Ø¶": 5663,
      "ĠØ§ÙĦØ·Ø±ÙĬÙĤØ©": 5664,
      "£ØµØ¨ØŃØª": 5665,
      "¨ÙħÙĨ": 5666,
      "Ø±ØªØ": 5667,
      "Ø¹ÙĦÙĤØ©": 5668,
      "Ø¨ÙħÙĨ": 5669,
      "ĠØ¸ÙĩÙĪØ±": 5670,
      "§ÙĦÙħÙģ": 5671,
      "ĠØ³ÙĬØ§Ø±Ø©": 5672,
      "Ø§ÙĦÙħÙģ": 5673,
      "Ø³Ø§ÙĨØ©": 5674,
      "§Ø¦ÙĤ": 5675,
      "ħØ¨ÙĬ": 5676,
      "ĠØªØ§Ø¨": 5677,
      "ÙĦÙĤØ¶Ø§Ø¡": 5678,
      "²Ø§Ù": 5679,
      "ÙĦÙĥÙħØ¨ÙĬÙĪØªØ±": 5680,
      "Ø¬Ø§Ø¡": 5681,
      "ÙģØ±ÙĬ": 5682,
      "ĠØ§ÙĦØ®ÙĦÙĬØ¬": 5683,
      "ĠØ£ÙģØ±": 5684,
      "²Ø§Ùħ": 5685,
      "ÙħØ±ÙĥØ²": 5686,
      "ĠØ§ÙĦÙħØ¬Ù": 5687,
      "ĠÙħØ·Ø§ØŃÙĨ": 5688,
      "ØŃØ§ÙĨ": 5689,
      "ÙģÙĪÙĨ": 5690,
      "ĠÙħØ¤Ø´Ø±": 5691,
      "§ÙĦÙĥÙħØ¨ÙĬÙĪØªØ±": 5692,
      "Ø§ÙĦÙĥÙħØ¨ÙĬÙĪØªØ±": 5693,
      "Ø°ÙĨ": 5694,
      "ĠØ§ÙĦØ£Ø³ÙħÙĨØª": 5695,
      "ÙĤØ§ÙĦØª": 5696,
      "ÙĦÙħØ±ÙĬ": 5697,
      "ĠØ§ÙĦØ®ÙĬØ±": 5698,
      "ĠØ¨ÙħÙĨ": 5699,
      "§Ø¯Ø§Øª": 5700,
      "Ø®Ùħ": 5701,
      "ĠÙħÙĨØ²ÙĦ": 5702,
      "ħÙĥØ©": 5703,
      "Ġ2011": 5704,
      "**": 5705,
      "ĠØ§ÙĦØ±Ø¦ÙĬØ³ÙĬ": 5706,
      "ov": 5707,
      "ook": 5708,
      "§ÙĦÙĤØ¶Ø§Ø¡": 5709,
      "Ø³ÙĨØ§ÙĨ": 5710,
      "ÙĦÙĩÙħ": 5711,
      "Ø§ÙĦÙĤØ¶Ø§Ø¡": 5712,
      "ĠØ§ÙĦØ´ÙħØ³": 5713,
      "ĠØ§ÙĦØ£ÙĤÙĦ": 5714,
      "Ġ2012": 5715,
      "ĠÙĬØŃØªÙĪÙĬ": 5716,
      "ĠØ§ÙĦÙĤØ¯ÙĬÙħØ©": 5717,
      "§ÙĦÙħØ±ÙĬ": 5718,
      "Ø§ÙĦÙħØ±ÙĬ": 5719,
      "ĠØ£ØŃØ¯Ø«": 5720,
      "ĠØ¹Ø¶ÙĪ": 5721,
      "ĠØ§ÙĦØ£ÙĬØ": 5722,
      "Ø¬Ø§Ø±Ø©": 5723,
      "ĠØ£ÙĦÙħØ§ÙĨÙĬØ§": 5724,
      "ĠØ§ÙĦØŃØ¯": 5725,
      "ĠØ§ÙĦÙĩÙĪØ§Ø¡": 5726,
      "ĠÙĨÙĬÙĪØ²": 5727,
      "ĠØŃØµ": 5728,
      "ĠØ§ÙĦØŃØ¯ÙĪØ¯": 5729,
      "ÙĢÙĢÙĢÙĢÙĢÙĢÙĢÙĢ": 5730,
      "ĠØ§ÙĦÙħÙĨØªØ®Ø¨": 5731,
      "âĢ¢": 5732,
      "Ø§Ø¯Ø±": 5733,
      "ĠØ§ÙĦÙĦØ§Ø²ÙħØ©": 5734,
      "ĠØ§Ø¨Øª": 5735,
      "¹Ø§ÙħØ©": 5736,
      "ĠÙħØ¬Ø§ÙĨØ§": 5737,
      "¨ÙĨÙĥ": 5738,
      "ĤÙĬÙĤÙĬØ©": 5739,
      "ÙģØ§ÙĤÙĬØ©": 5740,
      "ØŃÙĦØ": 5741,
      "Ø§ÙĬÙĬØ±": 5742,
      "ĠÙģÙĬØ±ÙĪØ³": 5743,
      "ĠØ§ÙĦÙĥØ³Ø§Ø±Ø©": 5744,
      "Ø¨Ø³Ù": 5745,
      "ĠØ§ÙĦØ§Ø³ØªØ": 5746,
      "ĠØ§ÙĦØ£ÙĬØ§": 5747,
      "¨Ø§ÙĦØº": 5748,
      "ĠØªØ¹Ø²ÙĬØ²": 5749,
      "ØµØ¹": 5750,
      "ĠØ§ÙĦØ®Ø¨Ø±": 5751,
      "ĠØ§ÙĦÙĥØ¨Ø±Ùī": 5752,
      "Ø¹Ø§ÙħØ©": 5753,
      "ÙĦØ³ÙĦØ": 5754,
      "Ø£ÙĨØ§": 5755,
      "ÙħØŃÙĬ": 5756,
      "¨Ø§ÙĦØŃØ": 5757,
      "Ø´Ø±ÙĥØ§Øª": 5758,
      "ĠØ£ÙĦØ§": 5759,
      "ĠØ§ÙĦØ³ÙĦØ·Ø§Øª": 5760,
      "Ø¨Ø§ÙĦØŃØ": 5761,
      "§ÙĦØ³ÙĦØ": 5762,
      "ĠØ§ÙĦØ£ÙĬØ§Ù": 5763,
      "ĠØ§ÙĦØ£ÙĬØ§Ùħ": 5764,
      "ĠÙĨØµ": 5765,
      "Ø§ÙĦØ³ÙĦØ": 5766,
      "ĠÙĤØ¶ÙĬØ©": 5767,
      "ĠÙħØŃØ§ÙģØ¸": 5768,
      "ĠØªØŃØªÙĪÙĬ": 5769,
      "ĪØŃÙ": 5770,
      "ĠÙĪØŃÙ": 5771,
      "ĠÙĥØ±ÙĬ": 5772,
      "ĠÙĪØ§ÙĦØ¢": 5773,
      "ĪÙĩØ°Ùĩ": 5774,
      "ĠÙĪÙĩØ°Ùĩ": 5775,
      "ĠØªÙĩØª": 5776,
      "ĩÙĪÙĨ": 5777,
      "ĠØŃØ§ÙĦØ§Øª": 5778,
      "Ø·ÙĬØ·": 5779,
      "ĠØ§ÙĦØŃØ²Ø¨": 5780,
      "ĠÙĦÙĬØ¨ÙĬØ§": 5781,
      "ĠØ§ÙĦØ¯ÙĪØ±Ø©": 5782,
      "Ø¨ØªÙĩ": 5783,
      "ÙĨØ§Ø±": 5784,
      "ĠÙĦÙĤØ§Ø¡": 5785,
      "ØŃÙĬØ§Ø¡": 5786,
      "ÙĤÙĬØ¹": 5787,
      "ĠØ§ÙĦØ§ÙĦØª": 5788,
      "ĠÙĪØ§ÙĦÙĬ": 5789,
      "Ø¬Ø¯Ø©": 5790,
      "Ø¨Ø§ÙĬ": 5791,
      "ĠØ§ÙĦÙħØ¤ØªÙħØ±": 5792,
      "ill": 5793,
      "ĠÙĪØ§ÙĦÙħÙĪØ§": 5794,
      "ĠØ¨Ø§ÙĦØŃØ": 5795,
      "ħØ¨ÙĬØ¹Ø§Øª": 5796,
      "ħØ³ÙĦØŃØ©": 5797,
      "Ø´Ø§Ù": 5798,
      "ÙĪÙĬÙħ": 5799,
      "ĠØ±Ø£": 5800,
      "ĠØ£ØµØŃØ§Ø¨": 5801,
      "ĠÙģÙĬÙĦÙħ": 5802,
      "ØŃØ±Ø": 5803,
      "ĠÙĬØŃØªØ§Ø¬": 5804,
      "ĠØ§ÙĦØ³ÙģØ±": 5805,
      "ĠØªÙģØ§ØµÙĬÙĦ": 5806,
      "ĠÙħØ§ÙĥÙĬÙĨØ©": 5807,
      "ĠÙħØµØ§ÙĨØ¹": 5808,
      "ĠØ¨Ø§ÙĦÙģØ¹ÙĦ": 5809,
      "ĠØ§ÙĦÙĨÙĤÙĦ": 5810,
      "ĠÙĦØ£ÙĨÙĩØ§": 5811,
      "Ø³ÙĥÙĪ": 5812,
      "ĠØ§ÙĦØ«ÙĪØ±Ø©": 5813,
      "Ø³ÙħØ§Ø¹ÙĬ": 5814,
      "ĠØ¨Ø³Ù": 5815,
      "ĠØ¹Ø§ÙħØ©": 5816,
      "ØŃÙĬÙĦ": 5817,
      "ĠØªØ¹ÙĦÙħ": 5818,
      "ĠØ§ÙĦÙģÙĨÙĬØ©": 5819,
      "ĠÙħØ°": 5820,
      "ĠØ§ÙĦÙħØ¬ÙħÙĪØ¹Ø©": 5821,
      "ħØ¯Ø±Ø¨": 5822,
      "ĠÙĤØ±Ø§Ø¡Ø©": 5823,
      "ĠÙĪØ£Ø±": 5824,
      "ĠØ§ÙĦØ£Ø®Ø¨Ø§Ø±": 5825,
      "Ø±ØªÙĬØ¨": 5826,
      "ÙĬØ±Ø§Øª": 5827,
      "Ø¯Ø¹Ø§Ø¡": 5828,
      "ĠØ£Ø¯Ø§Ø¡": 5829,
      "th": 5830,
      "Ø£Ø¶": 5831,
      "ĠØ§ÙĦÙĪØ¬Ùĩ": 5832,
      "ĠÙĦØ§Ø¹Ø": 5833,
      "ĠÙħÙĦÙģ": 5834,
      "Ø£ØµØ¨ØŃØª": 5835,
      "ŃØ¯ÙĪØ¯": 5836,
      "ĠØ§ÙĦØ¨ÙĦØ¯": 5837,
      "ħÙĤØ¨ÙĦØ©": 5838,
      "Ø¬ÙĬØ": 5839,
      "ĠØ§ÙĦØ³Ø¨Ø¨": 5840,
      "Ø²Ø§ÙĨ": 5841,
      "¨ÙĨØª": 5842,
      "ĠÙħØ´Ø§ÙĥÙĦ": 5843,
      "ĠØ¢ÙĦØ§Ùģ": 5844,
      "Ø¯Ø§Ø±ÙĬØ©": 5845,
      "ĠØ§ÙĦØ·Ø¨ÙĬØ¹ÙĬ": 5846,
      "ØµÙĦØŃØ©": 5847,
      "ĠÙħÙĤØ§Ø±ÙĨØ©": 5848,
      "ĠØ§ÙĦØ³Ø§Ø¯Ø³": 5849,
      "ĠØªÙĪØ¬Ø¯": 5850,
      "ĠÙĦØ§Ø¹Ø¨": 5851,
      "ĠØ§ÙĦÙħØ±ÙĬ": 5852,
      "ĠØ¹ÙĦØ§ÙĤØ©": 5853,
      "ØŃØ³ÙĬÙĨ": 5854,
      "ĠØªØ¸ÙĩØ±": 5855,
      "ĠØ§ÙĦØŃØ³ÙĨ": 5856,
      "ÙĦØ·ÙĦØ¨": 5857,
      "ĠØ§ÙĦØ®ÙĬØ§Ø±": 5858,
      "ĠØ§ÙĦÙħÙĪØ¬ÙĪØ¯Ø©": 5859,
      "ÙģÙĬØ§": 5860,
      "ĠØ§ÙĦÙħØ¤Ø³Ø³Ø§Øª": 5861,
      "ØµØ±ÙĬØŃØ§Øª": 5862,
      "ĠØ§ÙĦÙĥÙħØ¨ÙĬÙĪØªØ±": 5863,
      "ĠØ·Ø±Ùģ": 5864,
      "¨Ø¯ÙĦØ§": 5865,
      "ĠÙħØ¬Ø§ÙĨÙĬØ©": 5866,
      "ĠÙĥØ§Ø±": 5867,
      "ĠØ¨ØªÙĪ": 5868,
      "ĠØ§ÙĦØ£ÙħÙĨÙĬØ©": 5869,
      "ĠØ§ÙĦØ±Ø³ÙħÙĬØ©": 5870,
      "ĠØ§ÙĦØªØ§Ø¨Ø¹Ø©": 5871,
      "ĠØªÙĨØ§": 5872,
      "ĠØ§ÙĦØµÙģØŃØ©": 5873,
      "ĠÙĦØ¬ÙħÙĬØ¹": 5874,
      "ĠØµØŃØ©": 5875,
      "ĠØ§ÙĦØ¹Ø³ÙĥØ±ÙĬ": 5876,
      "od": 5877,
      "ĠÙĤØ¯Ø±Ø©": 5878,
      "ĠØ§ÙĦØ¨Ø¯Ø§": 5879,
      "§ÙĦØ·ÙĦØ¨": 5880,
      "Ø±ÙĤ": 5881,
      "ÙģØ±ÙĬÙĤÙĬØ§": 5882,
      "Ø§ÙĦØ·ÙĦØ¨": 5883,
      "ĠÙħØŃØ§ÙĪÙĦØ©": 5884,
      "£Ø²": 5885,
      "ØŃÙĬØ§ÙĨ": 5886,
      "ĠÙĪØ§ÙĦÙħØ": 5887,
      "ĠØ¥ÙħØ§": 5888,
      "Ġ40": 5889,
      "ĠØ£ÙĨÙģ": 5890,
      "ĥÙĨÙĬ": 5891,
      "Ġfor": 5892,
      "ÙĦÙĤØ¯": 5893,
      "ĠØ§ÙĦØ£Ø¨ÙĬØ¶": 5894,
      "Ø¨Ø§ÙĦØº": 5895,
      "ÙĦØ§Ø¨Øª": 5896,
      "ÙĤÙĬÙĦ": 5897,
      "ĠÙħØ¶Ø§": 5898,
      "ĠØªÙĥÙĨ": 5899,
      "Ø«Ùħ": 5900,
      "ĠØŃÙĬØ§Øª": 5901,
      "ĠÙģÙĥØ±Ø©": 5902,
      "§ÙĩØ§": 5903,
      "£Ø¯ÙĪØ§Øª": 5904,
      "ĠØ§ÙĦØ¥Ø³Øª": 5905,
      "ĠØ§ÙĦÙħØ³Ø¤ÙĪÙĦ": 5906,
      "Ø´ÙĬØ±": 5907,
      "ĠØ¨ÙĬØ§ÙĨØ§Øª": 5908,
      "ĠØ§ÙĦÙħÙģ": 5909,
      "ĠØ§ÙĦØ´Ø®ØµÙĬ": 5910,
      "Ø±Ø§ØŃØ©": 5911,
      "¨ÙĦÙĬ": 5912,
      "ĠÙħØ¹ÙĩØ§": 5913,
      "Ø´ÙĤ": 5914,
      "ØªÙĨØ§": 5915,
      "Ø¢ÙĦØ©": 5916,
      "Ġi": 5917,
      "ÙĦÙĤØ¯Ø±Ø©": 5918,
      "Ø´Ø¨Ùĩ": 5919,
      "ĠØ§Ø¬ØªÙħØ§Ø": 5920,
      "ĠØ§Ø¬ØªÙħØ§Ø¹": 5921,
      "ĠØ¨Ø³": 5922,
      "ĠØ§ÙĨÙĩØ§": 5923,
      "ĠØ¹ÙħØ§": 5924,
      "Ø´Ø§Ø±Ø§Øª": 5925,
      "ĠÙĦÙĦØ¹Ø": 5926,
      "ĠØ®ÙĦØ§ÙĦÙĩØ§": 5927,
      "ĠÙĬØ³ØªØ·ÙĬØ¹": 5928,
      "ĠÙħÙĨØµØ©": 5929,
      "§ÙĦÙĤØ¯Ø±Ø©": 5930,
      "ĠÙħØ³ÙĦØ³ÙĦ": 5931,
      "ŃØ¯ÙĪØ«": 5932,
      "ĠØ£Ø³Ø¨Ø§Ø¨": 5933,
      "ØµØ±ÙĬØ©": 5934,
      "Ø§Ø¨ÙĬ": 5935,
      "ħÙħÙĬØ²Ø©": 5936,
      "ĠØ§ÙĦÙħÙĪØ§Ù": 5937,
      "Ø§ÙĦÙĤØ¯Ø±Ø©": 5938,
      "Ø¨Ø°": 5939,
      "ĠØ§ÙĦÙħÙĪØ§ÙĤ": 5940,
      "ĠÙģØµÙĦ": 5941,
      "Ø³ÙĬÙ": 5942,
      "ĠØ¥Ø¶Ø§": 5943,
      "ĠØºØ±ÙģØ©": 5944,
      "ĠÙģÙħØ§": 5945,
      "ĠÙħØ´Ø§ÙĩØ¯Ø©": 5946,
      "ØŃØªÙĬØ§Ø¬Ø§Øª": 5947,
      "ĠØ§ÙĦÙģØ±ÙĨØ³ÙĬ": 5948,
      "§ÙĦØ§Ø¨Øª": 5949,
      "ĠØªØ¬Ø±Ø¨Ø©": 5950,
      "ĠØ§ÙĦÙħØµØ¯Ø±": 5951,
      "ce": 5952,
      "Ø§ÙĦØ§Ø¨Øª": 5953,
      "Ø´ÙĨØ·ÙĨ": 5954,
      "¹Ø´Ø±Ø©": 5955,
      "ÙģØ²": 5956,
      "ÙĩØ§Ø±": 5957,
      "¹Ø¯ÙħØ§": 5958,
      "Ø¹Ø´Ø±Ø©": 5959,
      "ĠØ§ÙĦØ¶ØºØ·": 5960,
      "ĠØ§ÙĦÙħÙĪØ§ÙĤØ": 5961,
      "ĠØ§ÙĦÙħÙĪØ§ÙĤØ¹": 5962,
      "Ø¬Ø§Ø¨": 5963,
      "ĠØ§ÙĦØ«Ø§ÙĦØ«Ø©": 5964,
      "Ø¯ÙĪØ¯Ø©": 5965,
      "ÙĪØ¬Ø©": 5966,
      "ĠØ§Ø®Ø¨Ø§Ø±": 5967,
      "ĠØ§ÙĦÙħØ±ÙĥØ²ÙĬ": 5968,
      "Ø£ÙĪ": 5969,
      "¨Ø£Ø³": 5970,
      "ĠÙħÙĪØ±": 5971,
      "ÙĪÙĥØ§ÙĨ": 5972,
      "ÙĥØ´": 5973,
      "Ø¹ÙĦÙĨ": 5974,
      "ÙħÙħÙĥÙĨ": 5975,
      "Ø¨Ø¯ÙĦØ§": 5976,
      "ĠØ´Ø±ÙĤ": 5977,
      "Ø²Ø±": 5978,
      "ĠØ±Ø¬Ø§ÙĦ": 5979,
      "ÙĪØ¬ÙĬÙĩ": 5980,
      "ang": 5981,
      "ĠØ§ÙĦØ³ÙĦØ": 5982,
      "ÙĪÙĬØª": 5983,
      "ÙĥØ§ÙĦØ©": 5984,
      "ÙĥØ³ÙĬ": 5985,
      "Ø·ÙģÙī": 5986,
      "ĠØ£Ø³Ø§Ø³": 5987,
      "ØµØ¨Ø§": 5988,
      "Ø³Ø·": 5989,
      "ĠØ§ÙĦØ¨Ø·Ø§": 5990,
      "ĠØ§ÙĦØ¥Ø¬Ø±Ø§Ø¡Ø§Øª": 5991,
      "ĠØ§ÙĦÙĨÙĪØ§Ø¨": 5992,
      "ĠPrice": 5993,
      "ÙĦÙĤØ¶ÙĬØ©": 5994,
      "ĪÙħÙĪØ§": 5995,
      "ĠÙĪÙħÙĪØ§": 5996,
      "2020": 5997,
      "ĠÙĪØ§Ø³Ø¹": 5998,
      "ĠØ¥Ø«": 5999,
      "Ø§Ø±Ø¨": 6000,
      "ĠØŃØ°": 6001,
      "ĠØ§ÙĦØ±ÙĬØ§Ø¶ÙĬØ©": 6002,
      "¨Ø¯ÙĪØ±": 6003,
      "ĠØ§ÙĦÙĪØ²ÙĨ": 6004,
      "ĠØªØ¶": 6005,
      "ĠØ§ÙĦÙĤÙĪÙĦ": 6006,
      "ĠÙĪÙĨØŃÙĨ": 6007,
      "Ø¨Ø¯ÙĪØ±": 6008,
      "ĠØ§ÙĦÙĨØ¬Ø": 6009,
      "ĠØ§ÙĦØ¹Ø±Ø¶": 6010,
      "ĠØ§ÙĦØ¥ÙħØ§Ùħ": 6011,
      "Ø¨Ø£Ø³": 6012,
      "ĠÙĦÙħØ¹": 6013,
      "Ġr": 6014,
      "ĠÙĬØŃÙħÙĦ": 6015,
      "ÙĦÙĪØ³": 6016,
      "Ġis": 6017,
      "ÙĨÙħÙĪ": 6018,
      "ĠÙĪØ®Ø§ØµØ©": 6019,
      "ĠÙħØ¹ÙĨÙī": 6020,
      "ĠÙĬÙĪÙħØ§": 6021,
      "ĠØªØ¬Ø§Ø±Ø©": 6022,
      "ĠØ§ÙĦØŃØ¯ÙĬØ«Ø©": 6023,
      "ĠØ§ÙĦØ³ÙĪØ¯Ø§": 6024,
      "ĠØ®ÙĦÙĬ": 6025,
      "Ø´ÙĥÙĦ": 6026,
      "§ÙĬÙĨ": 6027,
      "ĠØ§ÙĦØ£Ø¬ÙĩØ²Ø©": 6028,
      "§ÙĦÙĤØ¶ÙĬØ©": 6029,
      "ĠØ´Ø®ØµÙĬ": 6030,
      "Ø§ÙĦÙĤØ¶ÙĬØ©": 6031,
      "ØµÙī": 6032,
      "og": 6033,
      "ØªØ§ÙĦ": 6034,
      "ĠØ¨Ø£Ø³": 6035,
      "ĠÙģØ±ÙĨØ³Ø§": 6036,
      "ĠØªÙĤÙĪÙĦ": 6037,
      "ĠØ§ÙĦØŃØ§ÙĦ": 6038,
      "ÙħÙĤØ¨ÙĦØ©": 6039,
      "ĠØ§ÙĦØ£ØŃÙħØ±": 6040,
      "ĠØ§ÙĦØºØ§Ø²": 6041,
      "ħØŃØ±Ùĥ": 6042,
      "ĠÙĦØªØŃÙĤÙĬÙĤ": 6043,
      "ÙĦÙħÙĤØ¨ÙĦØ©": 6044,
      "§ÙĦÙħÙĤØ¨ÙĦØ©": 6045,
      "Ø§ÙĦÙħÙĤØ¨ÙĦØ©": 6046,
      "¨ÙĬØ": 6047,
      "ÙĨÙģØ§": 6048,
      "ĠØ§ÙĦØ³ÙĬØ§Ø±Ø©": 6049,
      "ĠØ§ÙĦÙħÙĤØ¨ÙĦØ©": 6050,
      "ħØ¹Ø©": 6051,
      "ÙĨØŃ": 6052,
      "Ø²ÙĬØ§": 6053,
      "ĠÙĦØ¯ÙĬÙĩ": 6054,
      "Ø£ÙĨÙĥ": 6055,
      "ĠØ§ÙĦØ·ÙĦØ¨": 6056,
      "ĠØ§ÙĦØ£ÙĩÙĦÙĬ": 6057,
      "ĠØªÙĪÙĨØ³": 6058,
      "ÙĩÙĪÙ": 6059,
      "ĠØ§ÙĦØ§ÙĪÙĦ": 6060,
      "ÙĦØ¹Ø": 6061,
      "ØµØ§Ø¦Ø": 6062,
      "ÙĩÙĪØ©": 6063,
      "ĠØ¬Ø±Ø": 6064,
      "ÙģØ°": 6065,
      "ĠØªØ¬Ø¹ÙĦ": 6066,
      "ĠØ§ÙĦÙĤØ¶Ø§Ø¡": 6067,
      "ĠÙĦÙĥØ±Ø©": 6068,
      "ĠØ§ÙĨØ§": 6069,
      "ĠØ§ÙĦØºØ°Ø§Ø¦ÙĬØ©": 6070,
      "ĠØ£ØµØ¨ØŃØª": 6071,
      "ĠÙĤÙĪÙĬØ©": 6072,
      "§ÙĩÙħ": 6073,
      "ĠØ§ÙĦÙĨØ§Ø¯ÙĬ": 6074,
      "ĠØ¨Ø§ÙĦØº": 6075,
      "ĠØªÙĪÙĤ": 6076,
      "ĠØ±Ø¶ÙĬ": 6077,
      "ĠÙĦØ¯ÙĬÙĩØ§": 6078,
      "ÙĨØ¹Ù": 6079,
      "Ø³ÙĦÙĬÙ": 6080,
      "ÙħØ¯ÙĨ": 6081,
      "ik": 6082,
      "ĠÙĬØ¯": 6083,
      "¨Ø§ÙĦØ°": 6084,
      "ĠØ§ÙĦØªØ±ÙĥÙĬØ©": 6085,
      "ĥÙĪÙĨ": 6086,
      "ĠØ§ÙĦØ¬Ø§Ø±ÙĬ": 6087,
      "ØªÙĬØ±": 6088,
      "Ø¨Ø§ÙĦØ°": 6089,
      "ÙħØ¦Ø©": 6090,
      "Ø£Ø¯ÙĪØ§Øª": 6091,
      "ĠØ¨Ø§ÙĦØªØ¹": 6092,
      "£ØµÙĦ": 6093,
      "ĠÙĦØ¹ÙĦ": 6094,
      "ÙħØªÙĩØ§": 6095,
      "ĠÙĪØ§ÙĦØŃÙ": 6096,
      "ØªÙĤØ": 6097,
      "ĠÙħØªØ¹Ø¯Ø¯Ø©": 6098,
      "ĠÙĦÙħØ§Ø°Ø§": 6099,
      "ĠØ§ÙĦØ³ÙħØ§": 6100,
      "£ÙĨÙĨØ§": 6101,
      "ĠØ¨Ø§ÙĦØ°": 6102,
      "ĠØ§ÙĦØ¹ÙħÙĪ": 6103,
      "ĠØ§ÙĦØ£ÙħÙĬØ±ÙĥÙĬØ©": 6104,
      "ĠØ§ÙĦÙģØ±Ù": 6105,
      "ĠØ§ÙĦØ¬ÙĩØ§Øª": 6106,
      "¨ØŃØ±": 6107,
      "ÙħÙĥØª": 6108,
      "ĠÙĤØ±Ø§": 6109,
      "ĠØ¨Ø³Ø±Ø¹Ø©": 6110,
      "Ø¸ÙĩØ±": 6111,
      "ĠØŃØ³ÙĬÙĨ": 6112,
      "ĠØ§ÙĦÙĤØ§Ø¦ÙħØ©": 6113,
      "Ø·ÙĦØ¨Ø©": 6114,
      "ÙĤÙĪÙĦÙĩ": 6115,
      "ÙģØªÙĬ": 6116,
      "¨Ø§Ø±ÙĬ": 6117,
      "ÙĨØ¸ÙĬÙģ": 6118,
      "ÙħÙĥØªØ¨": 6119,
      "ĠØ§ÙĦØªÙģØ§ØµÙĬÙĦ": 6120,
      "ĠØ¶ÙĬ": 6121,
      "ÙĨÙĬØ§Ø¨Ø©": 6122,
      "ĠÙĦÙĦÙħÙĪØ§": 6123,
      "§Ø¯ÙħØ©": 6124,
      "Ø³Ø±Ø": 6125,
      "ĠØ¨Ø¯Ø£": 6126,
      "Ø§Ø¯ÙħØ©": 6127,
      "ĠØ§Ø³ØªØ±Ø§ØªÙĬØ¬ÙĬØ©": 6128,
      "ÙĤØ·": 6129,
      "ÙħØ¯Ø§Ø±Ø³": 6130,
      "ĠØ§ÙĦØ³ÙĨÙĪØ§Øª": 6131,
      "ĠSt": 6132,
      "Ø·ÙĪØ§ÙĨØ©": 6133,
      "ĩÙĩÙ": 6134,
      "¹ÙĪØ¯ÙĬØ©": 6135,
      "£Ø®Ø¨Ø±": 6136,
      "ĠØ§ÙĦØ£ØµÙĦ": 6137,
      "ĠÙĪØ§ÙĦÙĦÙĩ": 6138,
      "ĠÙĬØ±ÙĬØ¯": 6139,
      "ÙĩØ§Ø¨ÙĬØ©": 6140,
      "ĤÙĪÙī": 6141,
      "ĠØ§ÙĦÙĩØ¯Ùģ": 6142,
      "Ø¹Ø¯ÙħØ§": 6143,
      "ÙģØ¹Ø©": 6144,
      "ÙĦØ¨ÙĬØ©": 6145,
      "ĠØ¨Ø¯ÙĦØ§": 6146,
      "ÙĪØ±Ùĥ": 6147,
      "ÙĦØ§Ø¨": 6148,
      "Ø³ÙĪÙĬÙ": 6149,
      "ĠØ§ÙĦÙģØ±ÙĤ": 6150,
      "ĠØ¹ÙĨØ§ØµØ±": 6151,
      "ĠÙĨÙĪØ±": 6152,
      "ĠØªØ±ÙĥÙĬ": 6153,
      "ÙĩÙĪÙħ": 6154,
      "ĠØªØ·ÙĪØ±": 6155,
      "ÙĨÙĪØ¯": 6156,
      "ĠÙĦØ§ÙĨ": 6157,
      "¨Ø¹Ø¯ÙħØ§": 6158,
      "£Ø²ÙħØ©": 6159,
      "ÙĪØ±Ø§Øª": 6160,
      "ĠØ§ÙĦØ±Ù": 6161,
      "one": 6162,
      "Ø´ØŃ": 6163,
      "ÙĦØ¨ÙĬØ": 6164,
      "ĠØ§ÙĦØ§Ø¨Øª": 6165,
      "ĠÙĦØŃÙ": 6166,
      "ģÙĬØ±": 6167,
      "ĠØ·ÙĪÙĦ": 6168,
      "ĤØ§Ø¯ÙħØ©": 6169,
      "ĠØ§ÙĦØ£Ø³ÙĪØ§ÙĤ": 6170,
      "ÙĤØ§Ø¯ÙħØ©": 6171,
      "ÙĨÙĬÙĩ": 6172,
      "ĠØ§ÙĦØ£Ø¹ÙĦÙī": 6173,
      "£ÙĨÙĬ": 6174,
      "Ø±Ø¨Ø§": 6175,
      "ĠÙħØ§Ø°Ø§": 6176,
      "Ø§ÙĨÙĬØª": 6177,
      "ĠØ§ÙĦØ¥Ø®": 6178,
      "ĠØŃØµÙĦ": 6179,
      "Ø¹Ø¯Ø§": 6180,
      "Ø³ÙĪÙĬÙĤ": 6181,
      "ÙħØ¯Ùī": 6182,
      "ĠØ§ÙĦÙħØŃÙĥÙħØ©": 6183,
      "ĠÙħØ§Ø¯Ø©": 6184,
      "ĠÙĬØº": 6185,
      "ĠÙĪØ£Ø³": 6186,
      "ĠÙħÙĪÙĦ": 6187,
      "§ÙĦØ¨ÙĬØ": 6188,
      "Ø§ÙĦØ¨ÙĬØ": 6189,
      "ĠØ§ÙĦØ¨Ø±Ø§ÙħØ¬": 6190,
      "ÙħØ§ÙĦÙ": 6191,
      "ÙģØ§ÙĨ": 6192,
      "ĠØ¹Ø´Ø±Ø©": 6193,
      "ĠÙĪÙĩÙĨØ§Ùĥ": 6194,
      "Ø¯Ø±ÙĪÙĬØ¯": 6195,
      "ĠØ²ÙĪØ¬": 6196,
      "¹ÙĪÙĨ": 6197,
      "ort": 6198,
      "ĠØ§ÙĨØªÙ": 6199,
      "ĠÙĦÙĦØŃÙ": 6200,
      "ĠÙĤØªÙĦ": 6201,
      "Ø¨Ø¹Ø¯ÙħØ§": 6202,
      "ĠØ¨Ø°": 6203,
      "ØŃØ±ÙĬÙĨ": 6204,
      "ØŃØ²Ø¨": 6205,
      "ÙĦÙĤØ§Ø¯ÙħØ©": 6206,
      "ĠØ§ÙĦØŃÙĤÙĬÙĤØ©": 6207,
      "§ÙĦÙĤØ§Ø¯ÙħØ©": 6208,
      "§Ø¯Ùħ": 6209,
      "Ø§ÙĦÙĤØ§Ø¯ÙħØ©": 6210,
      "ÙĦØ·ÙĬ": 6211,
      "Ø´Ø±Ùģ": 6212,
      "Ø§ÙĬÙĨ": 6213,
      "ĠØ§ÙĦÙĤØ§Ø¯ÙħØ©": 6214,
      "ĠØ§ÙĦØ¹ÙĦÙħÙĬØ©": 6215,
      "ĠØ¨Ø·ÙĪÙĦØ©": 6216,
      "Ø¨ÙĪØ": 6217,
      "ĠØ§ÙĦØ¨Ø´Ø±ÙĬØ©": 6218,
      "Ø¶Ø¨": 6219,
      "¨ÙĩØ©": 6220,
      "¹Ø¨Ø§Ø³": 6221,
      "Ø¨ÙĨÙĥ": 6222,
      "¨Ø§ÙĦØ®": 6223,
      "ĠØ§ÙĦÙģÙĤ": 6224,
      "ĠØ§ÙĦØ¨ÙĬØ": 6225,
      "Ø¨Ø§ÙĦØ®": 6226,
      "Ø·Ø¨Ø§Ø¡": 6227,
      "£Ø®ÙĬ": 6228,
      "ÙħØ§ÙĦÙĥ": 6229,
      "ĠØ§ÙĦÙħÙĨØ§Ø³Ø¨": 6230,
      "ħÙĤØ§ÙĦØ§Øª": 6231,
      "ĠÙĦÙĦÙħØ³Øª": 6232,
      "ĠÙĪØ¬ÙĪ": 6233,
      "ĠÙĥÙĬÙĦÙĪ": 6234,
      "ØŃØ¯ÙĪØ«": 6235,
      "¨Ø§Ø±Ø§Øª": 6236,
      "ĠÙĦÙĥÙĨÙĩ": 6237,
      "ØºØ¨Ø©": 6238,
      "ĠØ§ÙĦØ¯ÙĨÙĬØ§": 6239,
      "ĠÙĬÙĪÙħÙĬØ§": 6240,
      "ĠÙĤØµØ©": 6241,
      "§Ø±Ø³": 6242,
      "ĠØ§ÙĦØ¨Ø§Ø±": 6243,
      "ÙĥÙħØ©": 6244,
      "ĠÙĨÙĤØ§Ø·": 6245,
      "ĤØ¶Ø§ÙĬØ§": 6246,
      "ĠØ§ÙĦØ¹ÙĦÙħÙĬ": 6247,
      "Ø§Ø¯Ø§Øª": 6248,
      "ĠÙħØ¹ÙĨØ§": 6249,
      "ĠØ§ÙĦØ±Ø³Ùħ": 6250,
      "ĠØ³ÙĬØ§Ø±Ø§Øª": 6251,
      "ĠØ§ÙĦØŃØ§ÙĦÙĬØ©": 6252,
      "ĠØ§ÙĦÙħØ§ÙĦÙĬ": 6253,
      "Ø²ÙĪ": 6254,
      "35": 6255,
      "ĠØ§ÙĦÙĤØ¯Ø±Ø©": 6256,
      "ĤØµØ©": 6257,
      "ĠÙĦØ§ÙĬ": 6258,
      "ØŃØ¶ÙĬØ±": 6259,
      "ĠØªØ¬": 6260,
      "ĠÙħÙĥØ": 6261,
      "ĠØ¨Ø§ÙĦØ®": 6262,
      "ØµØª": 6263,
      "ħØ²Ø§": 6264,
      "Ø·Ø§Ø¹Ø§Øª": 6265,
      "ĠØ¨Ø§ÙĬ": 6266,
      "ĠØ§ÙĦØ§Ø¬ØªÙħØ§Ø": 6267,
      "ØµØ§ÙĦØŃ": 6268,
      "ĠØ§ÙĦØ§Ø¬ØªÙħØ§Ø¹": 6269,
      "ĠØ¨ÙĬÙĨÙĩÙħ": 6270,
      "ĠØ®ÙĬØ§Ø±": 6271,
      "ÙħÙĨØ°": 6272,
      "ĠØ´ÙĬØ¦Ø§": 6273,
      "ĠÙħØ¬Ø±Ø¯": 6274,
      "ĠØ§ÙĦØ¹ÙĬÙĨ": 6275,
      "Ø¬Ø§Ø¬": 6276,
      "ĠØªÙģØ³ÙĬØ±": 6277,
      "ĠÙĪØ§ÙĦØ°": 6278,
      "ħØ®ÙĬ": 6279,
      "Ø§Ø¯Ùħ": 6280,
      "ØŃØ²Ø§Ø¨": 6281,
      "ĠÙħØ¯Ø§Ø±": 6282,
      "ĠÙĤÙ": 6283,
      "ĠØ³ØªÙĥÙĪÙĨ": 6284,
      "ĠÙĨÙĨ": 6285,
      "ĠØªØ¹Ø": 6286,
      "ĠØ¯ÙĪØ±ÙĬ": 6287,
      "Ø¹Ø¨Ø§Ø³": 6288,
      "ØºÙĦØ§ÙĤ": 6289,
      "ÙĪØ±Ø¯": 6290,
      "Ø¯ÙģÙ": 6291,
      "ĠØ§ÙĦØ§Øµ": 6292,
      "ØŃÙĦØ§": 6293,
      "ĠÙģØ¶ÙĦØ§": 6294,
      "ĠÙĩØ§ØªÙģ": 6295,
      "ÙĩØ§ÙĨ": 6296,
      "ĠØ³ÙĬØ±": 6297,
      "ĠÙĤØ§Ø¦ÙĦØ§": 6298,
      "ĠØ§ÙĦØ¨Ø§ØŃØ«": 6299,
      "ÙĳÙĲ": 6300,
      "ĠØ¬ÙħÙĩ": 6301,
      "ÙĩØ©": 6302,
      "ĠØ§ÙĦØŃØ§ÙĦØ§Øª": 6303,
      "ĠØ§ÙĦÙĤÙĪØ©": 6304,
      "are": 6305,
      "ÙĦØ±Ø¤": 6306,
      "Ø¨Ø§Ø±Ø§Øª": 6307,
      "ĠÙĤÙħ": 6308,
      "ÙĤØ§ÙĦØ©": 6309,
      "ģØ±Ø§Ø¯": 6310,
      "Ø´Ø§Ø¨": 6311,
      "ĠÙĬÙĤØª": 6312,
      "ĠØ³Ø¹Ø¯": 6313,
      "ĠØ§ÙĦØ£Ø²ÙħØ©": 6314,
      "ĠØ§ÙĦØ¢Ø®Ø±ÙĬÙĨ": 6315,
      "ØµØ§Ø¨Ø§Øª": 6316,
      "ĠØ§ÙĦØŃØ¯Ø": 6317,
      "ØªØ¨Ø¹": 6318,
      "ÙħÙĤØ§ÙĪÙħØ©": 6319,
      "ÙĦÙħØŃÙĬ": 6320,
      "ÙĦÙħÙħÙĥÙĨ": 6321,
      "Ø¶Ø§ÙģØª": 6322,
      "ĠØ§ÙĦØ±Ø¬Ø§ÙĦ": 6323,
      "§ÙĦÙħÙħÙĥÙĨ": 6324,
      "Ø§ÙĦÙħÙħÙĥÙĨ": 6325,
      "nd": 6326,
      "ĠØ§ÙĦØ§Ù": 6327,
      "Ø¨ÙĨØª": 6328,
      "ÙĨÙĥØ±": 6329,
      "§ÙĦÙħØŃÙĬ": 6330,
      "Ø¯ÙģÙĤ": 6331,
      "Ø§ÙĦÙħØŃÙĬ": 6332,
      "ĠØ¨Ø¹Ø¯ÙħØ§": 6333,
      "ÙĦÙħØ¦Ø©": 6334,
      "§ÙĦÙħØ¦Ø©": 6335,
      "Ø§ÙĦÙħØ¦Ø©": 6336,
      "ĠØ§ÙĦØŃØ±Ø§Ø±Ø©": 6337,
      "ĠØ§ÙĦÙħÙħÙĥÙĨ": 6338,
      "ĠØ§ÙĦØ´Ø±ÙĤÙĬØ©": 6339,
      "Ġk": 6340,
      "ĠØ±Ø§Ø¦Ø¹Ø©": 6341,
      "art": 6342,
      "ĠØµØŃÙĬ": 6343,
      "ĠØ§ÙĨØªØ´Ø§Ø±": 6344,
      "ĠÙħØ¶ÙĬ": 6345,
      "ÙħØ¨Ø": 6346,
      "ÙħØŃØ±": 6347,
      "ĠØ§ÙĦØ¥ÙĤÙĦÙĬ": 6348,
      "ÙĪÙĦØ§Øª": 6349,
      "§ÙħØ±": 6350,
      "ĠÙħØ³ØªÙĪÙĬØ§Øª": 6351,
      "ĠØ£Ø¨ÙĨØ§Ø¡": 6352,
      "ĠØ§ÙĦÙģØµÙĦ": 6353,
      "ĠØ§ÙĦÙħÙĪØ¸": 6354,
      "¨Ø§ÙĦØ·Ø": 6355,
      "ĠØ§ÙĦÙĤØ¶ÙĬØ©": 6356,
      "ĠØ§ÙĦØ£Ø±Ø¯ÙĨ": 6357,
      "ĠØ§ÙĦØ¨ÙĬØ¦Ø©": 6358,
      "ĠØŃØ¯Ø«ÙĨØ§": 6359,
      "Ø§Ø¶ÙĬ": 6360,
      "ĠØ¹ÙħØ§ÙĨ": 6361,
      "ĠØ§ÙĦÙĦØ¹Ø¨Ø©": 6362,
      "Ø£Ø®ÙĬ": 6363,
      "ÙĦÙħÙĥØ§": 6364,
      "ĠÙĬÙħØª": 6365,
      "Ø³ÙĩÙĦ": 6366,
      "ÙģÙĪ": 6367,
      "ĠÙħØ¤ØªÙħØ±": 6368,
      "ĠÙĪØ§Ø³Ø¹Ø©": 6369,
      "ĠØ«Ø§ÙĨÙĬØ©": 6370,
      "Ø³ÙĬØ·": 6371,
      "ĠØ§ÙĦØ¬ÙħØ¹ÙĬØ©": 6372,
      "ÙĤØ¶Ø§ÙĬØ§": 6373,
      "ĠØ¯Ø§Ø¦Ù": 6374,
      "ĠØ§ÙĦÙĤÙĬØ§Ø¯Ø©": 6375,
      "38": 6376,
      "ĠØ§ÙĦØ£ÙħÙĬØ±ÙĥÙĬ": 6377,
      "ĠÙħØ´Ø§Ø±ÙĥØ©": 6378,
      "ĠØ¯Ø§Ø¦Ùħ": 6379,
      "ĠÙģØ¥Ø°Ø§": 6380,
      "Ø¨Ø§ÙĦØ·Ø": 6381,
      "ÙĦÙĪØ³Ø·": 6382,
      "§ÙĦØ±Ø¤": 6383,
      "ĠØ§ÙĦØ¨Ø·": 6384,
      "ĠÙĪØ¸Ø§Ø¦Ùģ": 6385,
      "Ø§ÙĦØ±Ø¤": 6386,
      "ĠÙĦÙģØ": 6387,
      "ĠØ§ÙĦØ¹ÙĦÙħØ§Ø¡": 6388,
      "§ÙĦÙĪØ³Ø·": 6389,
      "Ø§ÙĦÙĪØ³Ø·": 6390,
      "ÙĨÙĪÙĥ": 6391,
      "ØµØ±ÙĬØŃ": 6392,
      "Ø±Ø¹Ø©": 6393,
      "¹Ø±Ø¨ÙĬØ©": 6394,
      "ĠAM": 6395,
      "§ÙĦÙħÙĥØ§": 6396,
      "Ø§ÙĦÙħÙĥØ§": 6397,
      "Ø«ÙĨÙĬÙĨ": 6398,
      "ÙĪØªØ": 6399,
      "ĠØ§ÙĦØ£ÙĤ": 6400,
      "ĠÙħØ±Ø¶": 6401,
      "ĠØµÙĨØ§": 6402,
      "ĠÙĦØ£ÙĬ": 6403,
      "ÙĪØ¬ÙĬØ©": 6404,
      "ĠÙĬØŃÙĬ": 6405,
      "ĠØ¹Ø±Ø¨ÙĬ": 6406,
      "ÙĤØªÙĩ": 6407,
      "ĠØ§ØŃØµÙĦ": 6408,
      "out": 6409,
      "ĪÙħØ³Øª": 6410,
      "ĠØ£Ø³Ø¨ÙĪØ¹": 6411,
      "ÙħØ³ÙĦØŃØ©": 6412,
      "ÙĪØ§Ø¬Ø¯": 6413,
      "ĠØŃÙģØ¸": 6414,
      "ĠÙĪÙħØ³Øª": 6415,
      "§ÙĦØ·ÙĬ": 6416,
      "ĠÙħØ³ØªÙĤØ¨ÙĦ": 6417,
      "¢Øª": 6418,
      "Ø§ÙĦØ·ÙĬ": 6419,
      "ĠØ¯Ø¹ÙĪ": 6420,
      "ĠØŃÙĤÙĬÙĤØ©": 6421,
      "ĠÙĪØ¬ÙĦ": 6422,
      "ate": 6423,
      "ĠÙĥØ¨ÙĬØ±Ø§": 6424,
      "ĠØ¹Ø¨Ø§Ø³": 6425,
      "ÙĦÙħØ³ÙĦØŃØ©": 6426,
      "§ÙĦÙħØ³ÙĦØŃØ©": 6427,
      "Ø§ÙĦÙħØ³ÙĦØŃØ©": 6428,
      "§ÙĤÙĬ": 6429,
      "36": 6430,
      "ĠØ´Ø®ØµÙĬØ©": 6431,
      "ÙĦÙħÙĬØ©": 6432,
      "ÙħÙģØª": 6433,
      "ĠØ§ÙĦÙħØ³ÙĦØŃØ©": 6434,
      "ÙĦØ²Ø": 6435,
      "ĠØ§ÙĦØ¥ØµØ§Ø¨Ø©": 6436,
      "ĠØ§ÙĦØ±ÙĬØ§Ø¶ÙĬ": 6437,
      "Ø¹Ø±Ø¨ÙĬØ©": 6438,
      "ĠØ¶ØºØ·": 6439,
      "ÙĦØ¹Ø¨": 6440,
      "Ø¨ØŃØ±": 6441,
      "ĠØ£Ø±Ø¨Ø¹Ø©": 6442,
      "ĠØ§ÙĦØ§ÙĨØªÙ": 6443,
      "ob": 6444,
      "ĠØªØ´ÙĥÙĬÙĦ": 6445,
      "ĠØ§ÙĦØ§ÙĨØªÙĤ": 6446,
      "ĠØ§ÙĦÙħØŃÙĬ": 6447,
      "Ġ198": 6448,
      "ĠØªØµØ§": 6449,
      "ØµÙ": 6450,
      "ĠØ£ÙħØ±ÙĬÙĥØ§": 6451,
      "£Ø³ÙħØ§Ø¡": 6452,
      "ĠØ¨ÙĬÙĨÙĩØ§": 6453,
      "Ø§ÙĦÙĥØªØ±": 6454,
      "Ø£Ø²ÙħØ©": 6455,
      "ĠÙħØ¬": 6456,
      "ĠÙħØ±Ø§Øª": 6457,
      "ĠØ§ÙĦØ¹Ø±Ø§ÙĤÙĬØ©": 6458,
      "ĠØ§ÙĦÙħØŃØ§ÙģØ¸Ø©": 6459,
      "ĠØªÙĤÙĬÙĬ": 6460,
      "ÙĦÙģØ©": 6461,
      "ĠØ§ÙĦØ£ÙħÙĪØ§ÙĦ": 6462,
      "§Ø¹Ø¯": 6463,
      "Ø§ÙĩÙħ": 6464,
      "ĠØ§ÙĦØ´Ø±Ø": 6465,
      "Ø³ÙĦÙĬÙħ": 6466,
      "ØªØ§ØŃ": 6467,
      "Ø£Ø²": 6468,
      "ont": 6469,
      "§Ø®Ø±": 6470,
      "ĪÙĤÙģ": 6471,
      "ĠØ§ÙĦØªØ¬Ø§Ø±ÙĬ": 6472,
      "39": 6473,
      "ÙĦÙħØ¯Ø§Ø±Ø³": 6474,
      "Ø£Ùī": 6475,
      "ews": 6476,
      "ĠØ¹ÙĦÙĬÙĥÙħ": 6477,
      "ĠØ§ÙĦÙħØªØ¹ÙĦÙĤØ©": 6478,
      "ÙĦÙĤÙĦÙĬ": 6479,
      "ĠØ§ÙĦØ¹ÙĤÙĦ": 6480,
      "ĠÙĦØº": 6481,
      "ĠØ¹ÙĨÙĪØ§ÙĨ": 6482,
      "ĠØ§ÙĦØªÙĤØ±ÙĬØ±": 6483,
      "ĠØ§ÙĦØ´Ø¹Ø¨ÙĬ": 6484,
      "ĠÙħØ¬ØªÙħØ¹": 6485,
      "ØµØ§Ø¦ØŃ": 6486,
      "¨Ø§ÙĦØ´": 6487,
      "ÙĪØ³Ø·Ø©": 6488,
      "¨Ø§ÙĦÙĥØ§": 6489,
      "Ø³ÙĦØ§ÙħÙĬØ©": 6490,
      "§ÙĦÙħØ¯Ø§Ø±Ø³": 6491,
      "45": 6492,
      "Ø¨Ø§ÙĦØ´": 6493,
      "Ø§ÙĦÙħØ¯Ø§Ø±Ø³": 6494,
      "Ø£ÙĨÙĨØ§": 6495,
      "ĩÙĦØ©": 6496,
      "§ÙĦÙĤÙĦÙĬ": 6497,
      "Ø¨Ø§ÙĦÙĥØ§": 6498,
      "ØŃØ¯ÙĪØ¯": 6499,
      "Ø§ÙĦÙĤÙĦÙĬ": 6500,
      "ÙĦØ·ØŃÙĨ": 6501,
      "ĠÙĬÙĨØ¨ØºÙĬ": 6502,
      "ÙħØµÙĨØ¹": 6503,
      "ĠĠĠ": 6504,
      "Ø£Ø®Ø¨Ø±": 6505,
      "ÙĦØ§ÙĦÙĥØªØ±": 6506,
      "ĠØ§ÙĦÙģØ³": 6507,
      "ĠØ§ÙĦØªØ¨": 6508,
      "Ø¯ÙĬÙĩ": 6509,
      "§ÙĦØ§ÙĦÙĥØªØ±": 6510,
      "Ø§ÙĦØ§ÙĦÙĥØªØ±": 6511,
      "ÙħØ±ÙĬÙĨ": 6512,
      "ĤÙĩØ§": 6513,
      "ĠØ¨Ø§ÙĦØ´": 6514,
      "ip": 6515,
      "ĠØ¨Ø§ÙĦÙĥØ§": 6516,
      "ĠØ£Ø¬Ø²Ø§Ø¡": 6517,
      "§ÙĦØ·ØŃÙĨ": 6518,
      "ĠØ§ÙĨØªÙĤ": 6519,
      "ÙĦÙħÙĩÙħ": 6520,
      "Ø§ÙĦØ·ØŃÙĨ": 6521,
      "ĠÙĬØ¹ÙĬØ´": 6522,
      "ĠØ§ÙĦØ±Ø§Ø¨Ø": 6523,
      "Ú©": 6524,
      "ĠØ¨Ø§ÙĨ": 6525,
      "Ø§ÙĨÙĪÙĬØ©": 6526,
      "ĠØ§ÙĦØ«ÙĤØ§ÙģØ©": 6527,
      "ĠØŃØ¯ÙĪØ«": 6528,
      "ĠØ¨ÙĪØ": 6529,
      "ĠØ§ØªØ®Ø§Ø°": 6530,
      "Ø¨Ø§Ø±ÙĬ": 6531,
      "ĠØ¹Ø±Ø¨ÙĬØ©": 6532,
      "ĠÙħØ¹ÙĬÙĨØ©": 6533,
      "Ø§ÙħØ±": 6534,
      "ĠØ§ÙĦØ§ÙĦÙĥØªØ±": 6535,
      "ĠØ§ÙĦÙĥÙĦØ§": 6536,
      "ĠØªØ¨Ø¯Ø£": 6537,
      "ĠØ¹ÙĬÙĨ": 6538,
      "ØµØ§Ø¦Øµ": 6539,
      "Ø³ÙĬÙħ": 6540,
      "ĠÙĪØ§ÙĦØ¹ÙħÙĦ": 6541,
      "ĠÙĬØ¸ÙĩØ±": 6542,
      "ĠÙĬØ²Ø§ÙĦ": 6543,
      "ÙħØ³ÙĦÙħ": 6544,
      "ail": 6545,
      "ĠØ§ÙĦÙĥØªØ": 6546,
      "ĠØ§ÙĦØ³ÙĥØ±": 6547,
      "Ø§Ø®Ø±": 6548,
      "ÙĨÙĦ": 6549,
      "ĠØ³ÙĪØ±ÙĬØ©": 6550,
      "ĠØ§ÙĦØªÙĪÙĨ": 6551,
      "ĠØ§ÙĦØ£ÙģØ¶ÙĦ": 6552,
      "ĠØ§ÙĦÙĥÙĩØ±Ø¨Ø§Ø¡": 6553,
      "ĠØ£Ø¬": 6554,
      "ÙĦÙħÙģØ±": 6555,
      "ĠØ§ÙĦØ±ÙĤ": 6556,
      "ÙĤÙĪØ©": 6557,
      "ĠÙĪÙĤÙģ": 6558,
      "ÙħØ¨Ø§": 6559,
      "ĠØ±Ø¦ÙĬ": 6560,
      "ĠÙĨÙĩØ§Ø¦ÙĬ": 6561,
      "ÙĤØªÙĦ": 6562,
      "ĠØ¯ÙĤØ§Ø¦ÙĤ": 6563,
      "Ø§ÙĦÙĬØ": 6564,
      "ĠØ£ÙĨÙĥ": 6565,
      "¨Ø£ÙĬ": 6566,
      "ĠØ§ÙĦÙĨØªØ§Ø¦Ø¬": 6567,
      "ĠØ§ÙĦØ¥Ø±ÙĩØ§Ø¨": 6568,
      "ĠÙĬØ³Ø§Ø¹Ø¯": 6569,
      "ĠØ¥Ø¬Ø±Ø§Ø¡Ø§Øª": 6570,
      "Ø¹Ø§ÙħÙĦ": 6571,
      "ÙĦØ¨ÙĬØ¹": 6572,
      "ĠÙħÙĥØ§ÙģØŃØ©": 6573,
      "ÙĨÙģÙĬØ°ÙĬ": 6574,
      "ĠØªÙħØ§Ùħ": 6575,
      "§ÙĦÙħÙģØ±": 6576,
      "§Ø¯Øª": 6577,
      "ĠØ§ÙĦÙĪØ³Ø·": 6578,
      "Ø§ÙĦÙħÙģØ±": 6579,
      "Ø¯Ø±ÙĬØ©": 6580,
      "¹Ø±Ø¨": 6581,
      "Ġâ": 6582,
      "ĠØ£Ø¶": 6583,
      "ÙĥÙĨØª": 6584,
      "ĠØ§ÙĦØ·ÙĬ": 6585,
      "ÙĥÙħØ§ÙĦ": 6586,
      "ÙĥØ¯Ø§": 6587,
      "¨ØŃØ": 6588,
      "if": 6589,
      "ØŃØ¯Ø§": 6590,
      "ĠÙĤÙĦØ¨": 6591,
      "ĠÙĪØ¥ÙĨÙħØ§": 6592,
      "ĠÙħØŃØ¯Ø¯": 6593,
      "ĠÙĥØ´Ùģ": 6594,
      "ÙĤØµØ©": 6595,
      "ĠØ§ÙĦØ±Ø§Ø¨Ø¹": 6596,
      "§ÙĦÙħÙĬØ©": 6597,
      "ĠØ§ÙĦØ·ØŃÙĨ": 6598,
      "ĠØ£Ø¯ÙĪØ§Øª": 6599,
      "§ÙĦØ²Ø": 6600,
      "ĠØ¨ØŃØ±": 6601,
      "Ø§Ø±Ùĩ": 6602,
      "ĠØ§ÙĦÙħÙĥØ§": 6603,
      "ĠØµÙģØŃØ©": 6604,
      "Ø³Ø¨ÙĪÙĥ": 6605,
      "ĠØ§ÙĦØ£Ø¬": 6606,
      "ĠØ§ÙĦØ¹ÙĦØ§ÙĤØ©": 6607,
      "ube": 6608,
      "Ø§ÙĦØ²Ø": 6609,
      "Ø£ØµÙĦ": 6610,
      "Ø´Ø±Ø§Ùģ": 6611,
      "ĠØ§ÙĦØ§ØªÙģØ§ÙĤ": 6612,
      "ĠÙĦØ¹ÙħÙĦ": 6613,
      "ĠÙħÙĪØ¸": 6614,
      "Ø¹ÙĪ": 6615,
      "ĠÙĪØ§ÙĦØ²": 6616,
      "Ġ500": 6617,
      "ĠØ§ÙĦÙħØ¯Ø±Ø³Ø©": 6618,
      "Ø«Ø©": 6619,
      "ĠØ§ÙĦÙĨÙĪÙ": 6620,
      "§ÙĦÙħÙĩÙħ": 6621,
      "ĠØ§ÙĦÙģØ±ÙĨØ³ÙĬØ©": 6622,
      "ÙĦØ§Ø¯": 6623,
      "Ø¦ÙĦ": 6624,
      "ĠØ§ÙĦÙħØ¤Ø³Ø³Ø©": 6625,
      "ĠØ§ÙĦØªØ¬Ø§Ø±": 6626,
      "ĠØ§ÙĦØ²Ø±Ø§Ø": 6627,
      "Ø§ÙĦÙħÙĩÙħ": 6628,
      "§Ø·Ø¹": 6629,
      "Ø¨Ø£ÙĬ": 6630,
      "ĠØ§ÙĦØ±Ø¤": 6631,
      "ĠØ£Ø¹ÙĦÙĨØª": 6632,
      "ÙĤØ§Ø¨ÙĦØ©": 6633,
      "ÙłÙł": 6634,
      "ĤÙĪØ·": 6635,
      "Ġ60": 6636,
      "ĠØ§ÙĦÙĨÙģØ³": 6637,
      "ĠØªØ§ÙĬ": 6638,
      "ÙĦØ§Ø¬": 6639,
      "ĠØªØ£ØªÙĬ": 6640,
      "ĠØ§ÙĦÙħØ¹ÙĦ": 6641,
      "ĠÙħØ³Ø¨": 6642,
      "ĠØ§ÙĦØªØ´ØºÙĬÙĦ": 6643,
      "ĠÙĦØ¯ÙĬÙĩÙħ": 6644,
      "ĠØªÙĤØ¹": 6645,
      "ĠØ§ÙĦÙĨÙĪÙħ": 6646,
      "ĠØªØ³": 6647,
      "ÙĪØ¸Ø¨ÙĬ": 6648,
      "ĠØ¹ÙħØ±ÙĪ": 6649,
      "Ø®Ø±ÙĬ": 6650,
      "ÙĦØ³Ø§Ø": 6651,
      "ĠØŃØ¸": 6652,
      "Ø§ÙĦÙħÙĬØ©": 6653,
      "Ø¬Ø§ÙħØ¹Ø©": 6654,
      "ĠØ§ÙĦÙħØ´ÙĥÙĦØ©": 6655,
      "ĠØ¨ÙĨØª": 6656,
      "ĠÙĪØ£Ø¶Ø§Ùģ": 6657,
      "ÙĨØ¯Ø³Ø©": 6658,
      "ĠØ§ÙĦØ¯ÙĤÙĬÙĤØ©": 6659,
      "ĠØ§ÙĦÙģÙĪØ²": 6660,
      "Ø®ÙĦØµ": 6661,
      "ÙĦØ¹Ø²ÙĬØ²": 6662,
      "ŃØµØ": 6663,
      "Ùĭ:": 6664,
      "ĠÙĤØ§Ø¹Ø¯Ø©": 6665,
      "Ù¥": 6666,
      "ĠØ§ÙĦØ¯Ø§Ø¦": 6667,
      "ĠØ§ÙĦØŃÙģØ§Ø¸": 6668,
      "§ÙĦØ³Ø§Ø": 6669,
      "ĠÙĬØ±Øª": 6670,
      "Ø§ÙĦØ³Ø§Ø": 6671,
      "Ġ01": 6672,
      "ĠĠĠĠĠĠĠĠĠĠĠ": 6673,
      "ÙĪØ¹ÙĬ": 6674,
      "ĠÙĦØ§Øª": 6675,
      "ĠØ¨Ø¯ÙĪØ±": 6676,
      "ĠØ§ÙĦØµÙĪØª": 6677,
      "ĠÙħØ³Ø§ØŃØ©": 6678,
      "ĠØ¨ÙĨÙĥ": 6679,
      "ĠØ¨Ø£ÙĬ": 6680,
      "ÙģØªÙĩ": 6681,
      "ÙģÙĥ": 6682,
      "ĠØ¨ØªØ§Ø±ÙĬØ®": 6683,
      "ĠØ®ÙħØ³Ø©": 6684,
      "Ġst": 6685,
      "ÙħØ¯Ø§": 6686,
      "ĠØ§ÙĦØªÙĨÙģÙĬØ°": 6687,
      "ÙĦÙĬÙĩ": 6688,
      "ant": 6689,
      "ĠØªØ±ÙĬ": 6690,
      "ÙħÙĩÙħØ©": 6691,
      "ĠØ§ÙĦØ¶Ø": 6692,
      "ĠØ³Ø¨Ù": 6693,
      "ach": 6694,
      "37": 6695,
      "Ø£Ø³ÙħØ§Ø¡": 6696,
      "ĠÙĦÙĦÙĤ": 6697,
      "ĠØªØ³Ø§Ø¹Ø¯": 6698,
      "Ø°Ø©": 6699,
      "ÙĩØ¯Ø§Ùģ": 6700,
      "ØºÙĦ": 6701,
      "ĠÙĨØ²": 6702,
      "ĠØ®ÙĦÙ": 6703,
      "ĠØ§ÙĦØ¥ÙĨØ³Ø§ÙĨÙĬØ©": 6704,
      "ØµØŃØ©": 6705,
      "ĠØ®ØµÙĪØµØ§": 6706,
      "ÙĦØºØ§Ø¡": 6707,
      "ÙĨØªØ": 6708,
      "ĠØ§ÙĦÙĤÙĪÙī": 6709,
      "Ø£ÙĥÙĬØ¯": 6710,
      "ÙĩÙĦØ§ÙĦ": 6711,
      "ĠØ§ÙĦØ´ÙĩÙĬ": 6712,
      "ħØ²Ø": 6713,
      "ĠØ§ÙĦØŃÙĪØ§Ø±": 6714,
      "ÙĨØ¯Ø§": 6715,
      "Ø¶ØŃØ©": 6716,
      "ĠØµØ¯Ø±": 6717,
      "ĠØ§ÙħØ§": 6718,
      "ØªØ¬": 6719,
      "ĠØ±Ø§Ø¦Ø": 6720,
      "ħØ³Ø§Ø¨ÙĤØ©": 6721,
      "ÙĪØ§Ø¨Ø·": 6722,
      "ĠØ§ÙĦÙĦÙĪÙĨ": 6723,
      "ĠØªØ±Ù": 6724,
      "ĠØ§ÙĦØ´Ø¹Ø¨ÙĬØ©": 6725,
      "ĠØ§ÙĦÙħÙĨØ§Ø³Ø¨Ø©": 6726,
      "ĠÙĦØ¹Ø§": 6727,
      "ĠØ§ÙĦØ³ÙĬØ§Ø³Ø©": 6728,
      "ĠØ§Ø³ØªØ«": 6729,
      "Ø¯Ø¹ÙĪØ©": 6730,
      "ĠØ¨ØµÙĪØ±Ø©": 6731,
      "§ÙĦØ¨ÙĬØ¹": 6732,
      "ħØ¯Ø±ÙĬ": 6733,
      "ĠØªØ³Ø": 6734,
      "Ø§ÙĦØ¨ÙĬØ¹": 6735,
      "ĠØŃØ§Ø¬Ø©": 6736,
      "ħØµÙĦØŃØ©": 6737,
      "----": 6738,
      "ÙħØ¯Ø©": 6739,
      "ØªØ¹Ø±Ùģ": 6740,
      "ĠÙĥÙĦÙĬØ©": 6741,
      "ĠØ§ÙĦÙħÙģØ±": 6742,
      "ĠÙģØ§ÙĨ": 6743,
      "ĠØªØ¬Ø¯": 6744,
      "ħØ¯ÙĨÙĬØ©": 6745,
      "ÙħÙĪÙĤÙģ": 6746,
      "ĠÙħÙĪØ³Ùī": 6747,
      "ĠØªØ±Ø§Ø¬Ø¹": 6748,
      "Ø¨ÙĬØ¯": 6749,
      "ĠØµØ§Ø±": 6750,
      "ĠÙģØ±Øµ": 6751,
      "ĠØ§ÙĦØ¯ÙĪÙĦØ§Ø±": 6752,
      "ĠØªÙĥØ": 6753,
      "ĠØ§ÙĦÙĥØªØ¨": 6754,
      "ĠØªØ¬Ø§Ùĩ": 6755,
      "ĠØ§ÙĦÙĦØ§Ø¹Ø¨ÙĬÙĨ": 6756,
      "ÙĩØ§Ø¨ÙĬ": 6757,
      "Ø·ÙĦÙĤØª": 6758,
      "Ø¯Ø±Ø§Ø³Ø©": 6759,
      "ĦÙĬØ¨": 6760,
      "Ø³ÙģÙĦ": 6761,
      "Ø¸Ø§Ù": 6762,
      "Ø¸Ø§Ùħ": 6763,
      "ĠØ§ÙĦØ·Ø¨ÙĬØ": 6764,
      "ĠØ¨ØºØ¯Ø§Ø¯": 6765,
      "Ù¤": 6766,
      "ĠØ¬ÙĬØ¯Ø§": 6767,
      "ÙħØ´Øª": 6768,
      "Ø¨ØŃØ": 6769,
      "ÙģÙĬÙĩ": 6770,
      "ĠÙĬØ¬ÙĪØ²": 6771,
      "§Ø±ÙĤØ©": 6772,
      "ĠØ§ÙĦØ¬ÙĦØ¯": 6773,
      "ĠÙĦØ¶": 6774,
      "ĠÙĥØ§ÙĨÙ": 6775,
      "ĠØ§ÙĦÙħØ´Ø§Ø±ÙĬØ¹": 6776,
      "ĥÙĨ": 6777,
      "Ø¯Ø¹ÙĬ": 6778,
      "ĠØ¨Ø§ÙĦØ·Ø": 6779,
      "ĠØ§ÙĦØªØ¹ÙĦÙĬÙħÙĬØ©": 6780,
      "ĠØ§ÙĦØ§Ø´Øª": 6781,
      "§ØŃØ¯": 6782,
      "ĠØ§ÙĦØŃÙĤÙĬÙĤÙĬ": 6783,
      "ÙĨØ¬ÙĦÙĬØ²ÙĬ": 6784,
      "ĠØ¥ÙĦ": 6785,
      "ÙĦÙħØ¯ÙĨ": 6786,
      "ÙĪØ¶ØŃ": 6787,
      "ÙĥÙĪØ§": 6788,
      "ĠÙĦØªÙ": 6789,
      "ĠÙħØ´ØªØ±": 6790,
      "ĠØºØ±Ø¨": 6791,
      "ÙĥÙĦØ§Øª": 6792,
      "ĠÙħØ§ÙĥÙĬÙĨØ§Øª": 6793,
      "ĠØ§ÙĦØ¬ÙĪÙĬØ©": 6794,
      "ĠÙĪÙĬØªÙħ": 6795,
      "¶Ø§Ø¹": 6796,
      "§ÙĦÙħØ¯ÙĨ": 6797,
      "ĠØ§ÙĦØ¨Ø±ÙĦÙħØ§ÙĨ": 6798,
      "Ø§ÙĦÙħØ¯ÙĨ": 6799,
      "ØŃÙĬÙ": 6800,
      "Ġ2010": 6801,
      "¤ÙĪÙĦÙĬÙĨ": 6802,
      "±ÙĬØ¨": 6803,
      "ĠØ§ÙĦÙĥÙĦØ§Ù": 6804,
      "ĠØ§ÙĦÙĥÙĦØ§Ùħ": 6805,
      "ĠØªØ¬ÙĩÙĬØ²": 6806,
      "ĠØ§ÙĦØŃÙħØ§": 6807,
      "Ø§ØŃØ¯": 6808,
      "Ø³ÙħØ©": 6809,
      "ĠÙĨØ³Øª": 6810,
      "ĠØ§ØªÙģØ§ÙĤ": 6811,
      "Ø¬Ø¯ÙĬ": 6812,
      "Ø²ÙĪÙĨ": 6813,
      "ĠÙħÙĦÙ": 6814,
      "¬ÙĩØª": 6815,
      "ĠØªØŃÙĪÙĬÙĦ": 6816,
      "ĠÙĪØ§ÙĦÙħØ³Øª": 6817,
      "ĠØ§ÙĦØ¹ÙĦÙĪÙħ": 6818,
      "ĠØ¨Ø±ÙĬØ·Ø§": 6819,
      "ÙħØ·Ø¨": 6820,
      "Ġpro": 6821,
      "ĠØ¬ÙħØ§ÙĦ": 6822,
      "ĠÙģÙĦÙ": 6823,
      "ÙĦÙĤØ±Ø¨": 6824,
      "ĠØ§Ø³ØªÙĤ": 6825,
      "ĠØªÙģØ§": 6826,
      "ĠØ§ÙĦÙħÙĦØ§Ø¨Ø³": 6827,
      "ĠØ±Ø§Ø¦Ø¹": 6828,
      "ÙĤÙħÙĬØ©": 6829,
      "Ø®Ø¯ÙħÙĬÙĨ": 6830,
      "§ÙĦÙĤØ±Ø¨": 6831,
      "Ø°Ø¨": 6832,
      "ĪÙĦØ": 6833,
      "ĠÙĪØ£ÙĨØ": 6834,
      "ÙĬÙĩ": 6835,
      "¨Ø§ÙĦØ£Ø": 6836,
      "Ø·Ø±ØŃ": 6837,
      "ĠØ£Ø¹Ø±Ùģ": 6838,
      "ĠØªØ³ØªØ·ÙĬØ¹": 6839,
      "Ø¨Ø§ÙĦØ£Ø": 6840,
      "§ÙĦÙĪØ³": 6841,
      "ĠØ§ÙĦÙħØ¯Ø§Ø±Ø³": 6842,
      "±ÙĬÙħØ©": 6843,
      "ĠØ¹Ø¨Ø¯Ø§ÙĦØ¹Ø²ÙĬØ²": 6844,
      "ĠØ¨Ø§ÙĦØ£": 6845,
      "ĠØ§ÙĦÙģÙĥØ±": 6846,
      "ĠØ§ÙĦØ³Ø§Ø": 6847,
      "ÙĦØ³Øª": 6848,
      "Ø§ÙĦÙĪØ³": 6849,
      "¨ÙĬØ¨": 6850,
      "ÙĪØ³Øª": 6851,
      "ØŃØªØ§Ø¬": 6852,
      "ĠÙĦØ³": 6853,
      "ĠØ§ÙĦÙĪØ²ÙĬØ±": 6854,
      "iv": 6855,
      "ĠØªØŃØ³ÙĬÙĨ": 6856,
      "ĠÙĦØ¨": 6857,
      "ĠØªØ´Ø±ÙĬÙĨ": 6858,
      "Ø§Ø¹Ø©": 6859,
      "ÙĪØ±Øª": 6860,
      "ĠØ£Ø²": 6861,
      "ĠØ£ØŃ": 6862,
      "ĠØ¯Ø®ÙĦ": 6863,
      "ÙĦÙĬØ³": 6864,
      "ĠÙĦØ®": 6865,
      "ÙĩÙħØª": 6866,
      "Ø¹ÙĪØ¯Ø©": 6867,
      "ĠÙħØ´Ø±": 6868,
      "âĢĭ": 6869,
      "ħØ±Ø¨Ø¹": 6870,
      "pt": 6871,
      "ĠÙĤÙĦØª": 6872,
      "ĠÙħÙĦØ§ÙĬÙĬÙĨ": 6873,
      "ĠØ§ÙĦØ£Ø´ÙĬØ§Ø¡": 6874,
      "ĠØ§ÙĦØ¹ÙħÙĦÙĬØ§Øª": 6875,
      "ĠØ§ÙĦØ¥Ø¹": 6876,
      "ĠØ³ÙĬØ§Ø³ÙĬØ©": 6877,
      "ĠÙĬÙĪØ§": 6878,
      "¨ÙĬÙĨ": 6879,
      "ĠØŃØ¯ÙĪØ¯": 6880,
      "ĠØ§ÙĦÙħØŃØ§ÙģØ¸": 6881,
      "ĠØ®ÙĦÙĤ": 6882,
      "ĠØ§ÙĦÙĤÙĦÙĬ": 6883,
      "ment": 6884,
      "ĠÙħØ¤ÙĥØ¯Ø§": 6885,
      "Ø´ÙĬØ¯": 6886,
      "ĠØ§ÙĦØªØº": 6887,
      "¬Ø¨": 6888,
      "ĠÙĪØªØµ": 6889,
      "Ø§ÙģÙĬØ©": 6890,
      "ħØ³Ù": 6891,
      "ĠØ£ØµÙĦ": 6892,
      "99": 6893,
      "ĠØ§ÙĦØµÙĬÙĨÙĬØ©": 6894,
      "ĠÙħÙĩÙħØ§": 6895,
      "ĠØ§ÙĦØ¨Ø§Ø¨": 6896,
      "Ø¯ÙĦÙĬ": 6897,
      "ĠÙĥÙĦÙĬ": 6898,
      "ØŃÙĤØ": 6899,
      "ĠÙħÙĩÙħ": 6900,
      "¨Ø§ÙĦØ³Ù": 6901,
      "ĠØªÙĤÙĦ": 6902,
      "Ø¨Ø§ÙĦØ³Ù": 6903,
      "ĠÙĦÙĦØ£Ø": 6904,
      "ĠØ§Ø®": 6905,
      "55": 6906,
      "ĠØ§ÙĦØ¹ÙĪØ¯Ø©": 6907,
      "ĠØ§ÙĦØ°Ø§Øª": 6908,
      "ĠØºØ§ÙĦØ¨": 6909,
      "2019": 6910,
      "ÙĩØ§Ùħ": 6911,
      "Ø°Ø±": 6912,
      "Ø¯Ø±Ù": 6913,
      "ħÙĨÙĪØ": 6914,
      "ÙħÙĨÙī": 6915,
      "ĠØ§ÙĦØ¨Ø¯Ø§ÙĬØ©": 6916,
      "ĠØ§ÙĦÙħØ³ØªØ®Ø¯Ùħ": 6917,
      "ÙĦÙħÙģØª": 6918,
      "ĠØ§ÙĦØ«Ø": 6919,
      "ĠØ¨Ø§ÙĦØ£Ø": 6920,
      "ÙħÙĤØ¯ÙħØ©": 6921,
      "ÙĪÙĥÙĬ": 6922,
      "¸ÙĦ": 6923,
      "ost": 6924,
      "ĠÙĤØ§ÙĨÙĪ": 6925,
      "§ÙĦÙħÙģØª": 6926,
      "Ø§ÙĦÙħÙģØª": 6927,
      "ĠØ¹Ø«": 6928,
      "ÙĪØ¶Ø§Øª": 6929,
      "ÙĥØ¨Ø©": 6930,
      "Ø±Ø§ØªÙĬØ¬ÙĬØ§Øª": 6931,
      "ĠØ³Ø¹": 6932,
      "ĠÙĪØ§ÙĦÙħØ¤": 6933,
      "ÙĦÙħÙĤØ§ÙĪÙħØ©": 6934,
      "ÙħÙĦØ§": 6935,
      "ĠØ¨Ø§ÙĦØ³Ù": 6936,
      "ĠØ§ÙĦØ¨Ø´Ø±Ø©": 6937,
      "ĠØ§Ø´": 6938,
      "ĠÙĦÙĦØ¹Ø§": 6939,
      "ĠØºØ³ÙĦ": 6940,
      "ĠØ§ÙĦÙĥÙĩØ±Ø¨Ø§Ø¦ÙĬØ©": 6941,
      "Ø¯ÙĪÙĨÙĬ": 6942,
      "¹ÙĩØ¯": 6943,
      "ĠØ§ÙĦØ±ÙĪØ³ÙĬØ©": 6944,
      "ĠØ³ÙĦÙĬÙħØ§ÙĨ": 6945,
      "ĠÙħÙĪØ¹Ø¯": 6946,
      "ħÙĤØ¯Ø³": 6947,
      "ØŃÙĤØ§": 6948,
      "¹Ø¯ÙĬØ¯Ø©": 6949,
      "48": 6950,
      "Ø¹Ø¯ÙĬØ¯Ø©": 6951,
      "ĠÙĬØŃØµÙĦ": 6952,
      "ĠØ³Ø¨ÙĤ": 6953,
      "£Ø¬Ø±": 6954,
      "ÙģØ³Ø©": 6955,
      "Ø§ÙĦÙĤØ±Ø¨": 6956,
      "ĠÙħÙĨØ§Ø³Ø¨Ø©": 6957,
      "ĠÙĦØªØ±": 6958,
      "§ÙĦÙħÙĤØ§ÙĪÙħØ©": 6959,
      "ĠÙħÙĬØ§Ùĩ": 6960,
      "ħØ¯Ø±ÙĬØ¯": 6961,
      "ĠÙĬÙĪÙģØ±": 6962,
      "ĠØ£Ø±Ø¨Ø": 6963,
      "Ø§ÙĦÙħÙĤØ§ÙĪÙħØ©": 6964,
      "ĠØ¹Ø¯ÙĬØ¯Ø©": 6965,
      "ĠØ¨ØŃØ": 6966,
      "ĠÙĬÙħØ«ÙĦ": 6967,
      "ĠØ³ÙĦÙħØ§ÙĨ": 6968,
      "ÙĩÙĦØ§Ù": 6969,
      "ĥÙħÙĦ": 6970,
      "ħÙĬØ¯": 6971,
      "ĠØ§ÙĦØªØ¹Ø": 6972,
      "ĠØ§ÙĦÙħÙĪØ§Ø·ÙĨ": 6973,
      "ĠØ§ÙĦÙģÙĨØ§": 6974,
      "ĠØŃÙħÙĦØ©": 6975,
      "ud": 6976,
      "¨Ø·Ø©": 6977,
      "§ÙĦÙĥÙĨ": 6978,
      "ĠØ§ÙĦÙħÙĨØ§Ù": 6979,
      "ĠØ§ÙĦØ£Ø³Ø§Ø³ÙĬ": 6980,
      "Ø³ÙĥØ§ÙĨ": 6981,
      "Ø§ÙĦÙĥÙĨ": 6982,
      "ĠØ§Ø³ØªÙħØ±Ø§Ø±": 6983,
      "¬ÙħØ§": 6984,
      "ĠØ§ØŃØ¯": 6985,
      "ĪÙĦØ§": 6986,
      "ĠØ§ÙĦØ¯Ø±Ø§Ø³Ø§Øª": 6987,
      "Ø¯Ø±Ùĥ": 6988,
      "df": 6989,
      "¹Ø§ÙĦÙħÙĬ": 6990,
      "ĠÙħØ¬ÙĦØ©": 6991,
      "Ġ09": 6992,
      "ĠØ§ÙĦÙħÙĨØ¸ÙħØ©": 6993,
      "ĠÙħØ·Ø±": 6994,
      "Ø¹Ø§ÙĦÙħÙĬ": 6995,
      "ĠÙĪØ£ÙĨØ§": 6996,
      "Ø±Ø§Ø¯": 6997,
      "ĤØ§Ø¹Ø¯Ø©": 6998,
      "ĠØ§ÙĦÙħÙĩÙħ": 6999,
      "ÙĪÙĬØ¶": 7000,
      "ĠØ§ÙĦØµØ¹": 7001,
      "Ø§Ø¹Ø¯": 7002,
      "ĠØ§ÙĦÙħØ³ØªØ«": 7003,
      "ĠØ§ÙĦÙħÙĪØª": 7004,
      "ah": 7005,
      "ĠØ§ÙĦØ¬Ø²ÙĬØ±Ø©": 7006,
      "ĠØ®Ø·Ø±": 7007,
      "ĠØ·ÙģÙĦ": 7008,
      "ĠØ§ÙĦØªÙĥÙĨÙĪÙĦÙĪØ¬ÙĬØ§": 7009,
      "¨ÙĨÙģ": 7010,
      "ĠØ³ÙĬØ§Ø³Ø©": 7011,
      "ĠÙĪØ¹ÙĦÙĬ": 7012,
      "ĠØ£Ø²ÙħØ©": 7013,
      "Ø¨ÙĨÙģ": 7014,
      "ĤØ§Ø¯Ùħ": 7015,
      "ĠÙĬØ¨ÙĦØº": 7016,
      "ĠÙħÙĨØªØ®Ø¨": 7017,
      "ĠØ¥Ø®": 7018,
      "ĠÙĨØ³Ø®Ø©": 7019,
      "ÙĥØ§ÙħÙĦ": 7020,
      "ĠØ§ÙĦØ£ÙģØ": 7021,
      "Ø®Ø§ÙĦ": 7022,
      "ĠAr": 7023,
      "ĠÙħØ®Ø±ÙĪØ·ÙĬØ©": 7024,
      "ĠØ£ÙħÙĨ": 7025,
      "ĠØ§ÙĦØ¨ÙĬØ¹": 7026,
      "ÙĦÙĪÙĤÙĪ": 7027,
      "ĠØ¥Ø¹ÙĦØ§": 7028,
      "ÙĤØ§Ø¯Ùħ": 7029,
      "ĠØ³ÙĪÙĬ": 7030,
      "ĠØ¨ÙĨÙģ": 7031,
      "Ø´Ø§Ø±Øª": 7032,
      "ĠÙĤÙĬØ§Ø¯Ø©": 7033,
      "ĠÙģØ±Ù": 7034,
      "Ø®Ø§Ø±": 7035,
      "ÙĤÙĬÙĬ": 7036,
      "ĠØªÙĩØªØ²": 7037,
      "ĪÙħÙĨÙĩØ§": 7038,
      "ĠMore": 7039,
      "ĠÙĪÙħÙĨÙĩØ§": 7040,
      "ħÙģÙĬ": 7041,
      "60": 7042,
      "ĠØ§ÙĦØ®ÙĦÙĬ": 7043,
      "ÙĪÙģÙ": 7044,
      "ex": 7045,
      "ĠØ«Ø§Ø¨Øª": 7046,
      "ĠÙĨÙħÙĪØ°Ø¬": 7047,
      "ĠØ§ÙĦÙħÙģØª": 7048,
      "§Ø¦Ø": 7049,
      "¹Ø±Ø§Ø¶": 7050,
      "ist": 7051,
      "ĠØ§ÙĦØ£Ø³ØªØ§Ø°": 7052,
      "ĠØŃØ§ÙĪÙĦ": 7053,
      "ĠØ³Ùħ": 7054,
      "act": 7055,
      "ĠØ§ÙĦÙħØ³Ø±": 7056,
      "ĠØ¹Ø§ÙĦÙħÙĬ": 7057,
      "ÙĪØ£ÙĥØ¯": 7058,
      "Ø°Ø§Ø±": 7059,
      "ĠÙħØ¯Ø©": 7060,
      "ÙĥØ§ÙĦÙĬÙģ": 7061,
      "§ÙĦÙĪÙĤÙĪ": 7062,
      "ħÙĬØ§Øª": 7063,
      "ĠÙħØ§ÙĦÙ": 7064,
      "ĠØ¬ÙħÙĬØ¹Ø": 7065,
      "ĠØ§ÙĦØ²Ø": 7066,
      "Ø§ÙĦÙĪÙĤÙĪ": 7067,
      "Ø·ÙĨØ©": 7068,
      "ĠØªØ´ÙħÙĦ": 7069,
      "Ø¬ÙĨ": 7070,
      "ÙĨØ¨Ùĩ": 7071,
      "ĠÙĬÙĤØ¹": 7072,
      "¹ÙĨÙĬ": 7073,
      "ĠØ§ÙĦÙģÙĬÙĦ": 7074,
      "ĠØ¬ÙħÙĬØ¹Ø§": 7075,
      "¨Ø¹ÙħÙĦ": 7076,
      "ĠØ§ÙĦØ³Ø±ÙĬ": 7077,
      "Ø·Ø§ÙĦÙĬØ§": 7078,
      "ÙĦÙħØŃØ±": 7079,
      "Ø¨Ø¹ÙħÙĦ": 7080,
      "ĥÙī": 7081,
      "ĠØ§ÙĦØ£ÙħØ©": 7082,
      "ĠX": 7083,
      "¨ÙħÙĪØ": 7084,
      "ĠÙĥÙĩØ±Ø¨": 7085,
      "ÙĦÙħÙĥØªØ¨": 7086,
      "ĠØ³Ø·ØŃ": 7087,
      "ÙģÙĪØ±": 7088,
      "ĠØªØ£Ø": 7089,
      "ĠØµÙĨØ¯ÙĪÙĤ": 7090,
      "ĠÙĦÙĦÙĪ": 7091,
      "ĠØ§ÙĦØ¹Ø§Ø¨": 7092,
      "ĠÙĪØ£ÙĦ": 7093,
      "§ÙĦØ§Ø¨": 7094,
      "ĠØ£Ø®ÙĬ": 7095,
      "ħÙĨÙĬÙĨ": 7096,
      "ĠØ§ÙĦÙħØªÙĪØ³Ø·": 7097,
      "Ø¨ÙħÙĪØ": 7098,
      "ĠØ§ÙĦØ±ÙĬØ§Ø¶Ø©": 7099,
      "Ø§Ø¹Ø": 7100,
      "§ÙĦÙħØŃØ±": 7101,
      "§ÙĦÙħÙĥØªØ¨": 7102,
      "ĠÙħØ§Øª": 7103,
      "Ø§ÙĦÙħØŃØ±": 7104,
      "ĠØ§ÙĦØ¬ÙĨÙĪØ¨ÙĬØ©": 7105,
      "Ø§ÙĦÙħÙĥØªØ¨": 7106,
      "ÙĩÙĦØ§Ùĥ": 7107,
      "ĠØ¶Ø¨Ø·": 7108,
      "ĠØ§ÙĦØªÙĨÙģÙĬØ°ÙĬ": 7109,
      "ĠÙħÙħØ§Ø±Ø³Ø©": 7110,
      "Ø§ÙĦØ§Ø¨": 7111,
      "ĠØ§ÙĦØ¹Ø§ÙĦÙĬ": 7112,
      "ĠØ§Ø³Ø¹Ø§Ø±": 7113,
      "ĠØ¨Ø¹ÙħÙĦ": 7114,
      "ÙĩÙĦØ©": 7115,
      "Ø³ÙĬÙĤÙī": 7116,
      "ĠØ§ÙĦØ£ÙħØ±Ø§Ø¶": 7117,
      "Ø§ÙĨÙī": 7118,
      "Ø¬Ø§Ø¨ÙĬØ©": 7119,
      "ĠØ¨Ø³ÙĩÙĪÙĦØ©": 7120,
      "ĠØ¥ØµØ¯Ø§Ø±": 7121,
      "ĠØ§ÙĦÙħØ¯ÙĨ": 7122,
      "ĠØ¯ÙħØ´": 7123,
      "ĠØ§ÙĦÙħÙĩÙĨÙĬØ©": 7124,
      "ĠØ±ØŃÙħ": 7125,
      "ĠØ§ÙĦÙĥØ§ØªØ¨": 7126,
      "ĠØ¨Ø·Ø§ÙĤØ©": 7127,
      "ÙģÙĬÙ": 7128,
      "ĠØ§ÙĦÙħÙĨØ²": 7129,
      "Ġï": 7130,
      "Ø´Ø§Ø¯": 7131,
      "ĠÙĬØ¹ÙĪØ¯": 7132,
      "age": 7133,
      "ØŃØ¸Ø§Øª": 7134,
      "ÙĥÙħÙĦ": 7135,
      "ĠÙĪÙĬØ³Øª": 7136,
      "¨ØŃÙĤ": 7137,
      "ØµÙĬØ¯": 7138,
      "ĠØ£Ø¹ÙĦÙĨ": 7139,
      "Ġre": 7140,
      "Ø¨ØŃÙĤ": 7141,
      "ĠÙĪØ§ÙĦØªØ¹ÙĦÙĬÙħ": 7142,
      "ÙĤÙĬÙĨ": 7143,
      "ÙĦØ¨ÙĨ": 7144,
      "Ø±ÙĬØ§Øª": 7145,
      "ĠÙħØ±ÙĬ": 7146,
      "ĠÙĬÙĤØ§": 7147,
      "ĠØ´Ø¨Ø§Ø¨": 7148,
      "Ø³ÙĪØ±": 7149,
      "ÙģÙĦØ©": 7150,
      "ĠÙĦÙĦØ®": 7151,
      "ĠØ£Ø¬Ù": 7152,
      "ĠÙĬØ³": 7153,
      "ĠÙħØ¯Ø±ÙĬØ¯": 7154,
      "ĠÙģÙĪØ§Ø¦Ø¯": 7155,
      "ĠØ§ÙĨØ³": 7156,
      "Ø·Ø¹Ù": 7157,
      "Ø¯Ø§ÙĦØ©": 7158,
      "Ø£Ø®Ø±": 7159,
      "ĠØ§ÙĦØ§Ø®": 7160,
      "ĠØ§ÙĦÙĤØ§ÙĨÙĪÙĨÙĬØ©": 7161,
      "ĠÙħØ´Ø§Ø±ÙĬØ¹": 7162,
      "ÙĪÙĬØ¨": 7163,
      "ĠØ§ÙĦØŃØ¬Ø§Ø±Ø©": 7164,
      "ĠØ¨ØŃÙĤ": 7165,
      "Ø´Ø¹Ø": 7166,
      "Ø´ÙĬØ©": 7167,
      "Ø²ÙĤ": 7168,
      "Ø³ÙģØ±": 7169,
      "Ø·Ø¹Ùħ": 7170,
      "ÙĦÙħÙĥØª": 7171,
      "ĠØ§ÙĦØ¨Ø±ÙĬØ¯": 7172,
      "ĠÙĥÙħÙĬØ©": 7173,
      "Ø§ÙĤÙĬ": 7174,
      "ĠÙĪØ§Ø´ÙĨØ·ÙĨ": 7175,
      "ĠØŃÙĥÙĪ": 7176,
      "ðŁ": 7177,
      "Ø§ÙĩØ§": 7178,
      "ĠThe": 7179,
      "ÙĦÙħØ¶Ø§": 7180,
      "ĠØªØ´ÙĬ": 7181,
      "ÙĤÙĦØ§": 7182,
      "ĠØ§ÙĦÙĪØ³": 7183,
      "Ù©": 7184,
      "ĠØ§ÙĦØªØŃÙĥÙħ": 7185,
      "Ø·Ø¨Ù": 7186,
      "ĠØ§ÙĦØŃØ§Ø¬Ø©": 7187,
      "§ÙĦÙħÙĥØª": 7188,
      "ÙĪÙĤØ§ÙĦØª": 7189,
      "tps": 7190,
      "Ø§ÙĦÙħÙĥØª": 7191,
      "2018": 7192,
      "ĠØ´Ø§Ø´Ø©": 7193,
      "ÙĦÙĤØ§Ø¯Ùħ": 7194,
      "ĠØ§ÙĦÙħØŃØ¬Ø±": 7195,
      "§ÙħÙĬ": 7196,
      "ĠØ§ÙĦÙĪØ§ØŃØ¯": 7197,
      "ĠØ³Ø±ÙĬØ¹": 7198,
      "ĠÙĥÙĦÙĩØ§": 7199,
      "ĠØ¯ÙħØ´Ù": 7200,
      "ĠØ¨ÙħÙĪØ": 7201,
      "ĠØ¯ÙħØ´ÙĤ": 7202,
      "ĠØ£ÙĨÙĨØ§": 7203,
      "ĤØ¨ÙĪÙĦ": 7204,
      "ĠÙħØ¯ÙĬ": 7205,
      "ÙĥØªØ§Ø¨": 7206,
      "ÙĦÙĤØ±Ø§Ø¡Ø©": 7207,
      "§ÙĦÙħØ¶Ø§": 7208,
      "ph": 7209,
      "¨ÙħØŃØ§": 7210,
      "§ÙĨÙĪØ§Ø¹": 7211,
      "Ø§ÙĦÙħØ¶Ø§": 7212,
      "Ø¨ÙħØŃØ§": 7213,
      "ĠØ§ÙĦÙĨØµ": 7214,
      "ĠØªØ±Øª": 7215,
      "ĠÙĪØ³Øª": 7216,
      "ÙĤØ¨ÙĪÙĦ": 7217,
      "§ÙĦÙĤØ§Ø¯Ùħ": 7218,
      "ĠÙĨØ¹Ù": 7219,
      "ĠØ§ÙĦÙħØ¹Ø¯ÙĨÙĬØ©": 7220,
      "Ø§ÙĦÙĤØ§Ø¯Ùħ": 7221,
      "ÙĨØ²": 7222,
      "ØªØ§Ø¨": 7223,
      "ĠÙĪØ¨Ø¹Ø¶": 7224,
      "ĠØ§ÙĦØŃØ¬Ùħ": 7225,
      "Ø§ÙĨÙĪØ§Ø¹": 7226,
      "ĠØ§ÙĦØ£Ø³Ø¯": 7227,
      "ÙĪØ£ÙĪØ¶ØŃ": 7228,
      "ØªÙĤØ§": 7229,
      "Ø¯Ø§Ø¦": 7230,
      "ĠØ§ÙĦÙĥÙĪØ§": 7231,
      "ĠØ§ÙĦÙĤÙĬÙħØ©": 7232,
      "ĠØ§ÙĦÙħØ¹Ø§Ø±Ø¶Ø©": 7233,
      "ĠØ¨Ø§Ø¹ØªØ¨Ø§Ø±": 7234,
      "Ø¹Ø¯ÙĩØ§": 7235,
      "ĠØªÙĤØ±ÙĬØ¨Ø§": 7236,
      "ĠØ¬Ø¯ÙĬ": 7237,
      "§ÙĬØ§Øª": 7238,
      "ĠÙĨØ¹Ùħ": 7239,
      "ÙĬØ±Ùĩ": 7240,
      "ĠÙħØ«ÙĦØ§": 7241,
      "ĠØ§ÙĦÙĦØ§Ø¹Ø": 7242,
      "ĠØ§ÙĦØ®Ø§ÙħØ³": 7243,
      "ĠØ§ÙĦÙĦØ§Ø¹Ø¨": 7244,
      "ĠØ§ÙĦÙĥÙĨ": 7245,
      "Ø®ÙĦÙ": 7246,
      "ÙħÙĨÙĬÙĨ": 7247,
      "ĠÙģÙĩØ°Ø§": 7248,
      "ÙĪØ¶ÙĬ": 7249,
      "):": 7250,
      "ĠØºØ": 7251,
      "ĠÙħØ¤Ø®Ø±Ø§": 7252,
      "ĠÙħØ¹Ø±Ø¶": 7253,
      "ĠØ¨ÙħØŃØ§": 7254,
      "ĠØ§ÙĦÙĪØŃÙĬØ¯": 7255,
      "31": 7256,
      "§Ø¦ØŃØ©": 7257,
      "ĠÙģØ±Ø¶": 7258,
      "ĠØ§ÙĦØ®Ø±Ø³Ø§ÙĨØ©": 7259,
      "¨ÙħÙĨØ§": 7260,
      "ĠÙģÙĥÙĬØ©": 7261,
      "ĠØ§ÙĦØ¨ÙĬØ§ÙĨ": 7262,
      "ÙĬÙĪ": 7263,
      "ĠØ±ÙĬÙħÙĪÙĨ": 7264,
      "Ø¨ÙħÙĨØ§": 7265,
      "¨Ø§ÙĦØ³Ø": 7266,
      "Ø¨Ø§ÙĦØ³Ø": 7267,
      "ĠØ§ÙĦØ·Ø¨ÙĬØ¨": 7268,
      "£Ø¯Ùī": 7269,
      "Ø²ÙĬØ§Ø¡": 7270,
      "ĠØŃÙħ": 7271,
      "ĠUS": 7272,
      "ÙģØ¹ÙĬ": 7273,
      "ĠØ§ÙĦÙĤØ§Ø¯Ùħ": 7274,
      "ØŃÙĦØ§Øª": 7275,
      "ĠØ§ÙĦØ¨ØŃØ±ÙĬÙĨ": 7276,
      "¹Ø§Øµ": 7277,
      "ĠÙĪØ§ÙĦØ¯Ù": 7278,
      "ÙĪÙĬØ§": 7279,
      "Ġ05": 7280,
      "ĠÙĨÙħÙĪ": 7281,
      "Ø¬Ø§ØŃ": 7282,
      "ĠÙĦØ¹Ø§Ù": 7283,
      "ÙĪØ£Ø´Ø§Ø±": 7284,
      "ĠÙĦØ¹Ø§Ùħ": 7285,
      "§ÙĥØ©": 7286,
      "ĠÙħØ±ÙĪØ±": 7287,
      "ÙĪÙĬØ¬": 7288,
      "ĠØ¨Ø§ÙĦØ³Ø": 7289,
      "¨ÙĪØª": 7290,
      "ĤØ§Ø¹": 7291,
      "ĠÙħÙħØ«": 7292,
      "ĠÙģÙĦÙħ": 7293,
      "ĠØ§ÙĦÙħÙĤØ§ÙĪÙħØ©": 7294,
      "ĠÙĪØªÙĪ": 7295,
      "ÙĪØ£Ø": 7296,
      "ĠØ¯Ø§Ø¦Ø±Ø©": 7297,
      "§ÙĩØª": 7298,
      "ĠÙĪØ¨Ø±": 7299,
      "ĠÃ": 7300,
      "Ø±ØªÙĬÙĨ": 7301,
      "ħØ®ÙĦ": 7302,
      "ÙħØ¹ÙĬ": 7303,
      "¨Ø£ÙĨÙĩØ§": 7304,
      "ĠØ§ÙĦØ®Ø¶": 7305,
      "ØŃÙĨØ": 7306,
      "Ø¨Ø£ÙĨÙĩØ§": 7307,
      "ĠØªØ¹Ø±ÙĬÙģ": 7308,
      "ĠÙħØµØ·ÙģÙī": 7309,
      "Ø£Ø¯Ùī": 7310,
      "ªÙĬÙ": 7311,
      "Ø´Ø·": 7312,
      "ÙĤØ§Ø¹Ø¯Ø©": 7313,
      "ĠØ§ÙĦØªØ³Ø¬ÙĬÙĦ": 7314,
      "ĠØµØ¨Ø§": 7315,
      "ØªØ§ÙĨÙĬ": 7316,
      "Ø³Ø§ÙĩÙħ": 7317,
      "ĠØ§ÙĦØ£Ø±Ø§Ø¶ÙĬ": 7318,
      "ÙĦÙħØ´Øª": 7319,
      "ĠØ§ÙĦØ³ÙĪØ": 7320,
      "ĠØ´Ùĥ": 7321,
      "ÙĦÙħÙĩÙħØ©": 7322,
      "41": 7323,
      "ĠØ§ÙĦØ±ÙĪØ³ÙĬ": 7324,
      "ĠÙħØªÙĨÙĪØ¹Ø©": 7325,
      "ect": 7326,
      "ĠÙħØŃØ±": 7327,
      "ħÙħÙĨ": 7328,
      "ĠØ¨Ø£ÙĨÙĩØ§": 7329,
      "§ÙĪÙĬ": 7330,
      "±ÙĬØ¯": 7331,
      "§ÙĦÙħÙĩÙħØ©": 7332,
      "Ø§ÙĦÙħÙĩÙħØ©": 7333,
      "ĠØ§ÙĦÙĦÙ": 7334,
      "ĠØ´Ø±ØŃ": 7335,
      "ĠÙħØ³Ø±": 7336,
      "ĠØ´ÙĩØ§Ø¯Ø©": 7337,
      "ĠØ§ÙĦÙĬÙĪÙħÙĬØ©": 7338,
      "ĥÙĬÙ": 7339,
      "ĠØ¯Ø§Ø®": 7340,
      "ĠØ´Ø§Ø¡": 7341,
      "¨ÙĦÙĪÙħØ§": 7342,
      "ÙĦÙħØ³ÙĦÙħ": 7343,
      "§ÙĦÙħØ´Øª": 7344,
      "Ø§ÙĦÙħØ´Øª": 7345,
      "ĠÙĬØ±Ùī": 7346,
      "ĪÙģØ§Ø©": 7347,
      "ĠÙĪÙģØ§Ø©": 7348,
      "ĠÙĩØ±": 7349,
      "ĠØ§ÙĦØ¨Ø·ÙĪÙĦØ©": 7350,
      "ĠØªØ´Ø": 7351,
      "Ø£ÙģØ¶ÙĦ": 7352,
      "ĠÙĥØ§ÙĨÙĪÙĨ": 7353,
      "ĠÙĥØ±ÙĬÙħ": 7354,
      "ĠÙĨØ¬Ø§ØŃ": 7355,
      "ĠØªØŃØ±ÙĬØ±": 7356,
      "ÙĦÙĤØ³Ùħ": 7357,
      "ĠØ¶Ø±Ø¨": 7358,
      "ass": 7359,
      "ĠØµÙĦØ§ØŃ": 7360,
      "ģØ°": 7361,
      "Ø£Ø¬Ø±": 7362,
      "£ØŃØ¨": 7363,
      "ĠØ§ÙĦÙģÙĨØ§ÙĨ": 7364,
      "¨Ø¹ÙĬØ¯": 7365,
      "Ø±Ùĩ": 7366,
      "ĠØªØ¬Ø§ÙĪØ²": 7367,
      "ĠØªØ¯Ø®ÙĦ": 7368,
      "ºØ±Ø§": 7369,
      "§ÙĦÙĤØ±Ø§Ø¡Ø©": 7370,
      "§ÙĦÙĤØ³Ùħ": 7371,
      "Ø§ÙĦÙĤØ±Ø§Ø¡Ø©": 7372,
      "Ø§ÙĦÙĤØ³Ùħ": 7373,
      "ĠÙħØ¹ÙĬ": 7374,
      "ĤØ·Ø±": 7375,
      "ÙĨØ¬Ø§ØŃ": 7376,
      "ĠØ§ÙĦÙĦØ¨ÙĨØ§ÙĨÙĬØ©": 7377,
      "Ø§ÙĩØª": 7378,
      "ÙĦÙĨÙĩØ§ÙĬØ©": 7379,
      "¦Ø§Øª": 7380,
      "ĠØ®Ø·ÙĪØ©": 7381,
      "ĠÙĤØ·Ø¹Ø©": 7382,
      "ÙĤØ§Ø¹": 7383,
      "Ø³ÙĥÙĨØ¯Ø±ÙĬØ©": 7384,
      "ÙĩØ¯ÙĬ": 7385,
      "Ġ08": 7386,
      "¨Ø¯ÙĦ": 7387,
      "ÙĦÙħØ·Ø¨": 7388,
      "ÙĬÙħÙĥÙĨ": 7389,
      "ĠØªØ²Ø§ÙĦ": 7390,
      "¸Ø§ÙĩØ±": 7391,
      "ŃÙī": 7392,
      "ĠØ§ÙĦÙĨÙĩØ§Ø¦ÙĬ": 7393,
      "ħÙĥÙĬ": 7394,
      "ĠØ§ÙĦÙħÙĪØ±Ø¯": 7395,
      "Ø¨Ø·Ø©": 7396,
      "ØŃÙĨØ§": 7397,
      "Ø¨Ø¹ÙĬØ¯": 7398,
      "§ÙĦÙĨÙĩØ§ÙĬØ©": 7399,
      "ĠRe": 7400,
      "ĠØ§ÙĨØ®ÙģØ§Ø¶": 7401,
      "Ø´ØºÙĦ": 7402,
      "¨Ø±Ø¬": 7403,
      "ĥÙĬÙħ": 7404,
      "Ø¬Ø¦ÙĬÙĨ": 7405,
      "ĠØ§ÙĦØ£Ø³ÙĪØ¯": 7406,
      "ĠÙħØ§ÙĦÙĥ": 7407,
      "ĠØ·Ø±Ø": 7408,
      "ĠØªØ¹ÙĬ": 7409,
      "ĠÙĪÙĦÙĨ": 7410,
      "ĠØ§ÙĦØ³Ø§Ø¨Ø": 7411,
      "ĠØ§ÙĦØ¥Ø³Ø±Ø§Ø¦ÙĬÙĦÙĬØ©": 7412,
      "ĠØ§ÙĨØªØ§Ø¬": 7413,
      "ĠØ§ÙĦØ¨Ø±ÙĬØ·Ø§ÙĨÙĬØ©": 7414,
      "¹Ø¯Ø§Øª": 7415,
      "ÙĪØ§ÙĤ": 7416,
      "§ÙĦÙħØ³ÙĦÙħ": 7417,
      "33": 7418,
      "Ø§ÙĦÙħØ³ÙĦÙħ": 7419,
      "ĠAl": 7420,
      "ĠØ¥ÙħÙĥØ§ÙĨÙĬØ©": 7421,
      "ĠØ§Ø²": 7422,
      "ĠÙħÙĥØ©": 7423,
      "Ø·Ø¨ÙĤ": 7424,
      "ĠÙĥÙĦØ§Ù": 7425,
      "§ÙĦØ¨ÙĨ": 7426,
      "ģØ§Ø±Ø©": 7427,
      "Ø§ÙĦÙĨÙĩØ§ÙĬØ©": 7428,
      "ĠØ§ÙĦÙĦÙĪØ§Ø¡": 7429,
      "ĠØ§ÙĦØ³Ø§Ø¨Ø¹": 7430,
      "§ÙĦÙħØ·Ø¨": 7431,
      "ĠÙħØ¬Ø§ÙĨÙĬ": 7432,
      "Ø§ÙĦØ¨ÙĨ": 7433,
      "§ØŃÙħØ¯": 7434,
      "Ø§ÙĦÙħØ·Ø¨": 7435,
      "ĠØ¯ÙĪØ±Ø©": 7436,
      "ĠØ§ÙĦÙħØŃØ±": 7437,
      "ĠØ§ÙĦØ«ÙĤÙĬÙĦØ©": 7438,
      "Ø±ÙĪ": 7439,
      "ĠØ§ÙĦÙħÙĥØªØ¨": 7440,
      "¹ØµØ±": 7441,
      "Ø§ØŃÙħØ¯": 7442,
      "ĠØ§ÙĦØ¹Ø«ÙĪØ±": 7443,
      "ĠØªØŃÙĪÙĦ": 7444,
      "ĠØ§ÙĦØ¸Ø±ÙĪÙģ": 7445,
      "ĠØ·ÙĪØ§ÙĦ": 7446,
      "Ø¬ÙĩØ§Øª": 7447,
      "ĠØ£ÙħÙĦ": 7448,
      "ĠÙĨÙĤØ¯Ùħ": 7449,
      "ĠÙĥÙĦØ§Ùħ": 7450,
      "Ø¯Ø¹Ùī": 7451,
      "ĩØ±": 7452,
      "ĠØ¨Ø§Ø±ÙĬ": 7453,
      "Ø§Ø·Ø¹": 7454,
      "Ø·Ø§Ø¹Ù": 7455,
      "ĪÙĨØ§": 7456,
      "Ø«Ø": 7457,
      "ĠÙĥÙĨØ": 7458,
      "ĠÙĦÙĬÙĦØ©": 7459,
      "ĠØ§ÙĦØ¬ÙĪÙĦØ©": 7460,
      "].": 7461,
      "ÙģØªØ±": 7462,
      "ĠØ§ÙĦØ´ÙħØ§ÙĦÙĬØ©": 7463,
      "³Ø§Ø¦Ø±": 7464,
      "ĠÙħØ³ÙĦÙħ": 7465,
      "Ø¹Ø§Øµ": 7466,
      "¬Ø§Ø¬": 7467,
      "ĠØªØ±Ùĥ": 7468,
      "ĠØ£Ø®Ø¨Ø±": 7469,
      "ĠØ¹Ø§ÙħÙĦ": 7470,
      "ĠØ§ÙĦØ¶ÙĪØ¡": 7471,
      "Ø·Ø§Ø¹Ùħ": 7472,
      "ï»´": 7473,
      "ĠÙģÙĨØ¯ÙĤ": 7474,
      "ĠØ¨Ø³ÙĬØ·Ø©": 7475,
      "Ø®ÙĦÙĤ": 7476,
      "ĠØ¨Ø§ÙĦÙĥØ§ÙħÙĦ": 7477,
      "ĠØªØ³Ø¨Ø¨": 7478,
      "ÙĪÙģÙĤ": 7479,
      "ÙĪØ¬ÙĦ": 7480,
      "ĠØµØ¨": 7481,
      "ĠØ§ÙĦÙĥÙĬÙħÙĬ": 7482,
      "ĠØ§ÙĦÙħØ¶Ø§": 7483,
      "Ø¹ØµØ±": 7484,
      "ĠØ§ÙĦÙħØºØ±Ø¨ÙĬ": 7485,
      "Ø§Ø³ÙĬ": 7486,
      "ÙĪØ§Ø±Ø¹": 7487,
      "Ġth": 7488,
      "ĠØ§ÙĦØ³ÙĬØ§ØŃØ©": 7489,
      "ÙħÙĤØª": 7490,
      "Ġ197": 7491,
      "ĠØ§ÙĦÙħÙĩÙĨØ¯Ø³": 7492,
      "ÙħÙĥÙĨÙĥ": 7493,
      "ÙĨÙĥÙ": 7494,
      "ÙĦÙĩÙĦØ§ÙĦ": 7495,
      "ĠØ§ÙĨØªÙĩØ§Ø¡": 7496,
      "¨ÙħØ¯ÙĬÙĨØ©": 7497,
      "Ø¨ÙħØ¯ÙĬÙĨØ©": 7498,
      "ĠYou": 7499,
      "ĠØ§ÙĦÙħØ´Ø§ÙĥÙĦ": 7500,
      "ĠØŃÙĦØ": 7501,
      "ĠØ§ÙĦÙħØ³Ø¬Ø¯": 7502,
      "ĠØ§ÙĦÙħÙĥØª": 7503,
      "Ø¯ÙĤØ§Ø¡": 7504,
      "ĠØ§ÙĦØŃÙĪØ«ÙĬ": 7505,
      "¨Ùģ": 7506,
      "ĪÙħØŃØ§": 7507,
      "ĠÙĪÙħØŃØ§": 7508,
      "ĠØ·Ø¨ÙĬØ¹ÙĬ": 7509,
      "ĢÙĢ": 7510,
      "ĠØ¨ØŃØ§Ø¬Ø©": 7511,
      "ĠÙħÙĨØ²": 7512,
      "ĠØ§Ø®ØªØ¨Ø§Ø±": 7513,
      "ĠØ§ÙĦØŃØ±ÙĬ": 7514,
      "Ø±Ø§Ø¦Ø": 7515,
      "¨ÙĤÙī": 7516,
      "ĠØ§ÙĦÙĦÙĬÙĦ": 7517,
      "ĠØ¬ÙħØ§Ø¹Ø©": 7518,
      "ĩÙħÙĬØ©": 7519,
      "ity": 7520,
      "¨Ø¦Ø©": 7521,
      "ØªØ±Ùģ": 7522,
      "ĠØ¨ÙħØ¯ÙĬÙĨØ©": 7523,
      "Ø®ØµÙĪØµ": 7524,
      "ØŃØ§ÙĤ": 7525,
      "Ø´ÙĦÙĪÙĨØ©": 7526,
      "ÙĨÙĥÙħ": 7527,
      "ÙĪÙĤØ§Øª": 7528,
      "ĠØ¥ÙĤ": 7529,
      "ĠÙĦØ£ÙĪÙĦ": 7530,
      "§ÙĦÙĩÙĦØ§ÙĦ": 7531,
      "ĠØ§ÙĦÙĪØŃØ¯Ø©": 7532,
      "Ø§ÙĦÙĩÙĦØ§ÙĦ": 7533,
      "ĠØ§ÙĦÙĨÙĤØ¯": 7534,
      "ħÙĢ": 7535,
      "ĠØ±Ø³Ùħ": 7536,
      "ÙģØ±Ø": 7537,
      "¨Ø¹Ø¯ÙĩØ§": 7538,
      "Ø£ØŃØ¨": 7539,
      "£Ø°": 7540,
      "ĠØ§ÙĦØ£ØŃÙĬØ§ÙĨ": 7541,
      "ĠÙĥÙĦÙĩ": 7542,
      "ĠÙģÙĪØ±ÙĥØ³": 7543,
      "ĠØ§ÙĦØ£ÙĪØ±ÙĪØ¨ÙĬØ©": 7544,
      "ĠÙĪØ§ÙĦØ£Ø±": 7545,
      "ĠÙĩØ²": 7546,
      "ÙĥÙĨÙĬ": 7547,
      "ĠØªØµØ±ÙĬØŃØ§Øª": 7548,
      "ØŃÙĬØ§Øª": 7549,
      "¨Ø§ÙĦØ¬Ù": 7550,
      "ĠØ¬Ø¯Ø©": 7551,
      "ĪØŃØ§": 7552,
      "Ø¨Ø§ÙĦØ¬Ù": 7553,
      "ĠØ§ÙĦÙħÙĩÙħØ©": 7554,
      "ĠÙĬØ³ÙħØŃ": 7555,
      "ÙĨØ´Ø§Ø¡": 7556,
      "ĤÙĨØ§Ø©": 7557,
      "ĠØ¥Ø¹Ø¯Ø§Ø¯": 7558,
      "ĠØ£Ø¯Ùī": 7559,
      "ØªØµ": 7560,
      "ĠØ·Ø¨ÙĬØ": 7561,
      "Ø¨Ùģ": 7562,
      "ØŃØ¨Ø©": 7563,
      "ÙģØ¯": 7564,
      "ĪÙħØ¤": 7565,
      "ĠÙĪÙħØ¤": 7566,
      "¨Ø§ÙĦØ¶": 7567,
      "ĠØ§ÙĦÙħØ´Øª": 7568,
      "ħØ²Ø§ÙĬ": 7569,
      "ĠØ¨ÙħÙĨØ§": 7570,
      "ÙĪØ§Ø±ÙĬ": 7571,
      "Ø´Ùī": 7572,
      "ĠÙĪØŃØ§": 7573,
      "Ø·ÙĬØ±Ø©": 7574,
      "ĠØ³Ø¤Ø§ÙĦ": 7575,
      "Ø¨Ø§ÙĦØ¶": 7576,
      "ħØªÙĬ": 7577,
      "ĠØ§ÙĦØ²ÙĪØ§Ø¬": 7578,
      "ĠÙĪØ§ÙĦØ¬": 7579,
      "ÙĦÙĤØ¶Ø§ÙĬØ§": 7580,
      "ĠØªØ¨ØŃØ«": 7581,
      "ĠØ§ÙĦØµÙĨØ§Ø¹Ø©": 7582,
      "ĠØ§ÙĦÙħØºØ±Ø¨ÙĬØ©": 7583,
      "§ÙĦØ³Øª": 7584,
      "ĠÙģØ±ÙĤ": 7585,
      "Ø³ÙħØ§Ø¹ÙĬÙĦ": 7586,
      "Ø§Ø±ÙĬØ®": 7587,
      "§ÙĦÙĤØ¶Ø§ÙĬØ§": 7588,
      "Ø§ÙĦÙĤØ¶Ø§ÙĬØ§": 7589,
      "ÙĤÙĨØ§Ø©": 7590,
      "Ø·Ùī": 7591,
      "ĠØ£ÙĪØ§": 7592,
      "ÙħÙĥØ±": 7593,
      "§ÙħØ±Ø£Ø©": 7594,
      "ĠØ¨ÙĦØºØª": 7595,
      "ĠØ§ÙĦÙħØ³ÙĦÙħ": 7596,
      "Ø§ÙħØ±Ø£Ø©": 7597,
      "ĠØ§ÙĦØŃØ³ÙĬÙĨ": 7598,
      "Ø¨Ø¹Ø¯ÙĩØ§": 7599,
      "ĠØ§ÙĦÙħÙĦÙģ": 7600,
      "ÙħØ¬ÙħÙĪØ": 7601,
      "ØªÙĬØ§": 7602,
      "ĠØªØŃÙĤÙĤ": 7603,
      "Ø±ÙĪØ©": 7604,
      "ĠØ®ÙħØ³": 7605,
      "ĠØ³ÙĨÙĪÙĬ": 7606,
      "ĠÙĥØ«": 7607,
      "ÙħØ§ÙĦÙĬ": 7608,
      "Ġ02": 7609,
      "ĠØ§ÙĦØ³Ø¤Ø§ÙĦ": 7610,
      "ĠÙĪÙĨØ§": 7611,
      "ĠØ§ÙĦØ§Ø¨": 7612,
      "ĠØ§ÙĦÙĨÙħÙĪ": 7613,
      "Ø·Ø¹ÙħØ©": 7614,
      "ĠØ¨Ø§ÙĦØ¬Ù": 7615,
      "£Ø¯Ø§Ø©": 7616,
      "ĠØ¨Ø§ÙĦØ¶": 7617,
      "Ø£ÙĨÙĬ": 7618,
      "ØŃÙĬØ§ÙĨØ§": 7619,
      "ĠØ¥ÙĦÙĥØªØ±": 7620,
      "ÙĨÙĩÙĬ": 7621,
      "ØŃØ±Øµ": 7622,
      "¹ÙĩØ§": 7623,
      "ĠÙĥÙĦÙħØ§Øª": 7624,
      "42": 7625,
      "Ø´ÙĩØ¯": 7626,
      "ĠØ§ÙĦÙħØ±Ø¶": 7627,
      "Ġ07": 7628,
      "ĠØ§ÙĦØ¯ÙģØ¹": 7629,
      "ĠÙĨØ§ØŃÙĬØ©": 7630,
      "ĤØ¨Ø¶": 7631,
      "ĠØ§ÙĦØ£ÙĪØ±Ø": 7632,
      "Ġ%": 7633,
      "¨Ø§ÙĦÙĬ": 7634,
      "ĠØ§ÙĦØ¥ÙĬØ±Ø§ÙĨÙĬ": 7635,
      "ĠØ¨Ø¹ÙĬØ¯": 7636,
      "ĠØ°ÙĪ": 7637,
      "ĠØ§Ø®Ø±": 7638,
      "ÙĩØ¯Ø§Ø¡": 7639,
      "¬Ø¯Ø¯": 7640,
      "ÙĪØ¸ÙĬÙģ": 7641,
      "ĠØ¨Ùģ": 7642,
      "ĠÙħØ·ÙĦ": 7643,
      "ĠØ§ÙĦÙħØ®Ø§Ø·Ø±": 7644,
      "ĠØ¥ÙĨÙħØ§": 7645,
      "ĤØ¶": 7646,
      "ĠØ£Ø³Ø§Ø³ÙĬ": 7647,
      "ĠØ§ÙĦØ£ØŃØ¯Ø§Ø«": 7648,
      "ÙĨØ¹ÙĬ": 7649,
      "ĠÙħØ¯Ø±Ø³Ø©": 7650,
      "ĠØ¥Ø²Ø§ÙĦØ©": 7651,
      "Ø¹ÙħØ§ÙĦ": 7652,
      "ĠØ§ÙĦØ¥Ø¹ÙĦØ§ÙĨ": 7653,
      "ÙħÙĤØ¯Ø³": 7654,
      "ĠØ²ÙĪØ¬Ø": 7655,
      "ĠÙĦØ´": 7656,
      "ØµÙĬØ±": 7657,
      "Ġ!!": 7658,
      "ØŃÙĬØ§Ø©": 7659,
      "¹Ø§Ø´": 7660,
      "ħÙĤØµ": 7661,
      "ĠØ§Ø¬": 7662,
      "ĠÙħÙħÙĨ": 7663,
      "ĠØ§ÙĦÙģÙĬÙĦÙ": 7664,
      "¨ØªØ±": 7665,
      "ĠØ§ÙĦØ£ÙĥØ¨Ø±": 7666,
      "ĠØ³ÙħÙĪ": 7667,
      "ĠØ´Ø±ÙĪØ·": 7668,
      "ÙĨÙĤØ§Ø°": 7669,
      "ĠØ§ÙĦÙħØ·Ø¨": 7670,
      "ĠÙħØ¹Ø§Ø±": 7671,
      "ÙĤØ·Ø±": 7672,
      "Ø§Ø¦Ø±ÙĬ": 7673,
      "ĠØ´Ø¨Ùĩ": 7674,
      "ĠØ°Ø§ØªÙĩ": 7675,
      "ÙĦÙĬÙ": 7676,
      "Ø§ÙĦØ£": 7677,
      "Ø´ÙħÙĦ": 7678,
      "ĠØ§ÙĦÙħÙĦØ§": 7679,
      "ĠØ§ÙĦØ£ÙĪØ±Ø§": 7680,
      "ĠØ§ÙĪÙĦ": 7681,
      "ĠØ§ÙĦØ®ÙĦØ§": 7682,
      "Ø´Ø±Øª": 7683,
      "ĠØ£ÙģØ±Ø§Ø¯": 7684,
      "ĠØ§ÙĦÙĨÙĩØ§ÙĬØ©": 7685,
      "Ø±ØªÙĩØ§": 7686,
      "ĠÙĦÙĥÙĨÙĩØ§": 7687,
      "ĠØ§ÙĦÙħØ¹Ø±ÙģØ©": 7688,
      "ĠØ¥ÙĤØ§ÙħØ©": 7689,
      "ĠØ¬ÙħØ¹ÙĬØ©": 7690,
      "Ø´Ø¦": 7691,
      "ĠØ§ÙĦØªØ¯Ø±ÙĬØ¨": 7692,
      "ĠÙĦØ¢": 7693,
      "Ø¯Ø§Ø±ÙĬ": 7694,
      "ÙĥÙĪÙ": 7695,
      "ĠÙħØ§ÙĦÙĬØ©": 7696,
      "ÙĦØŃØ©": 7697,
      "ÙĦÙħØ¶": 7698,
      "ÙĨÙĪØ±": 7699,
      "ĠÙħØ¹ÙĦ": 7700,
      "ĠÙĪÙĦØ¯": 7701,
      "ĠÙħÙĨØŃ": 7702,
      "ØºØ·ÙĬØ©": 7703,
      "ĠÙĨØ´Ø§Ø·": 7704,
      "¨Ø§ÙĦÙĤØ±Ø¨": 7705,
      "ĠØ¥Ø³": 7706,
      "ØŃÙģØ¸": 7707,
      "ĠØ§ÙĦØ¹ÙĨÙģ": 7708,
      "ÙģØ§Ø±": 7709,
      "Ø¨Ø§ÙĦÙĤØ±Ø¨": 7710,
      "ĠÙħØ§ÙĦÙĬØ²ÙĬØ§": 7711,
      "ĠÙħÙĨØ®ÙģØ¶": 7712,
      "ĠØ§ÙĦØ¯Ø³ØªÙĪØ±": 7713,
      "ÙĤØ¨Ø¶": 7714,
      "¬Ø§": 7715,
      "ØŃØ§ÙĬ": 7716,
      "ØŃØ§ÙĨÙĩ": 7717,
      "34": 7718,
      "ĠØ§ÙĦØŃÙĪØ§": 7719,
      "§ÙĦÙħØ¶": 7720,
      "Ø§ÙĦÙħØ¶": 7721,
      "Ø§Ø¦Ùĩ": 7722,
      "ĠÙħØ¹ÙĬÙĨ": 7723,
      "Ø¯Ø±ÙĬØ³": 7724,
      "ĠÙĬØ«": 7725,
      "Ø¹Ø¯Ø§Ø¯": 7726,
      "Ø¨ÙĦÙĬ": 7727,
      "ĠØ¬Ø±Ø§": 7728,
      "ĠØ¶Ø§": 7729,
      "Ø®ØªØ§Ø±": 7730,
      "Ġ300": 7731,
      "ĠØ§ÙĦÙģØ³Ø§Ø¯": 7732,
      "ive": 7733,
      "ÙĦÙĤÙ": 7734,
      "ard": 7735,
      "ĠØ§ÙĦØ¹ÙĨØ§ØµØ±": 7736,
      "ÙĦÙħÙĤØ¯ÙħØ©": 7737,
      "ÙħÙĬØ¯": 7738,
      "ĠØ³ÙĦØ§": 7739,
      "ĠÙħÙĨÙĬ": 7740,
      "Ø²ÙĬØ§Ø±Ø©": 7741,
      "£Ø³ÙĬØ³": 7742,
      "ĠØ§ÙĦØ¯ÙĬÙħÙĤØ±Ø§Ø·ÙĬØ©": 7743,
      "¨ÙħØ": 7744,
      "ÙĨÙĩØ§Ø¡": 7745,
      "§ÙĦÙħÙĤØ¯ÙħØ©": 7746,
      "ĠÙħØ¨Ø§Ø±ÙĬØ§Øª": 7747,
      "Ø§ÙĦÙħÙĤØ¯ÙħØ©": 7748,
      "ØŃÙĪØ«": 7749,
      "ĠØ§ÙĦØ£ÙĪØ±Ø§Ù": 7750,
      "ĠØ§ÙĦØµØŃÙĬØŃ": 7751,
      "ĠØ§ÙĦÙĬØ¯": 7752,
      "ĠÙĨØ¸Ø±Ø§": 7753,
      "Ø¨ÙħØ": 7754,
      "ĠÙħØ±Ø§ÙĥØ²": 7755,
      "ĠØªÙĪØ²ÙĬØ¹": 7756,
      "ÙĥØªÙĬ": 7757,
      "ĠØ§ÙĦØµÙĦØ¨": 7758,
      "ĠØ¹ØµØ±": 7759,
      "Ø§ÙĦØ³Øª": 7760,
      "Ø§Ø¨Ø§": 7761,
      "ĠØ§ÙĦÙģÙĬÙĦÙħ": 7762,
      "ĠØªØ¹Ø±": 7763,
      "ĠÙĥØªØ§Ø¨Ø©": 7764,
      "ÙĨÙģØ°": 7765,
      "ÙħØ¯ÙĨÙĬØ©": 7766,
      "ħÙħØ«ÙĦ": 7767,
      "ĠØ¨Ø§ÙĦÙĤØ±Ø¨": 7768,
      "ĠØ§ÙĦÙħØªÙĨÙĤÙĦØ©": 7769,
      "ĠØªØŃÙĦÙĬÙĦ": 7770,
      "ĠØ§ÙĦØ³ÙĬØ·Ø±Ø©": 7771,
      "ĠØ°ÙĩØ¨": 7772,
      "Ø¬Ø³Ùħ": 7773,
      "Ø¬Ø§Ø¨ÙĬ": 7774,
      "2016": 7775,
      "Ø¹ÙĩØ¯": 7776,
      "ĠØŃÙĦÙĪÙĦ": 7777,
      "Ø¨Ø±Ø¬": 7778,
      "ĠØ¬Ø±ÙĬØ¯Ø©": 7779,
      "ÙĦØ²Ø§": 7780,
      "Ø®ØªØ": 7781,
      "ĠØ§ÙĦØ´Ø±Ø¹ÙĬØ©": 7782,
      "ĠØ¨Ø§ÙĦØ¨": 7783,
      "ĠØ¥ÙĨØª": 7784,
      "ĤÙĬØ": 7785,
      "ĠØ§ÙĦØ¨ØŃØ±ÙĬØ©": 7786,
      "ĠÙĪØ§ÙĦØ³ÙĬØ§": 7787,
      "ĠØ¨ÙħØ": 7788,
      "ĠØ§ÙĦØ´Øª": 7789,
      "ĠØŃÙĬØ§ØªÙĩ": 7790,
      "Ø¬ÙĬÙĨ": 7791,
      "Ø´Ø¹Ø©": 7792,
      "âĢĿ.": 7793,
      "ĠØ£Ø³ÙħØ§Ø¡": 7794,
      "ĠÙĪÙĦÙĥÙĨÙĩ": 7795,
      "¹ÙĦÙĨØª": 7796,
      "ĠØ¥Ø¹ÙĦØ§ÙĨ": 7797,
      "ĠÙĪØ§ÙĬ": 7798,
      "ite": 7799,
      "ĠØ§ÙĦØ£Ø¯Ø§Ø¡": 7800,
      "¬Ø¯ÙĪÙĦ": 7801,
      "ack": 7802,
      "ÙĩØ¯Ø¯": 7803,
      "ĠÙĨØ³Ø¨": 7804,
      "ÙĬØ±Ø©": 7805,
      "Ø±ÙĬÙ": 7806,
      "ĠÙĬØ²": 7807,
      "ĠØ¬Ø§Ø¡Øª": 7808,
      "Ø¹Ø§Ø´": 7809,
      "ĠØ§Ùģ": 7810,
      "ĠØªÙĤÙĬÙĬÙ": 7811,
      "Ø·ÙĨØ§": 7812,
      "ĠØ§ÙĦØ¬ÙĪØ§": 7813,
      "ĠØ§ÙĦØºØ±Ø¨": 7814,
      "ĠØ§ÙĦÙĤØ±Ø§Ø¡Ø©": 7815,
      "ĠØªÙĤÙĬÙĬÙħ": 7816,
      "ĠÙĦÙĪØŃØ©": 7817,
      "iz": 7818,
      "Ø¨Ø§ÙĦÙĬ": 7819,
      "ver": 7820,
      "ĠÙĪØ§Ø¶ØŃ": 7821,
      "ĠÙĪØ§Ø¶ØŃØ©": 7822,
      "ĠØ§ÙĦØ¹Ø¯Ø¯": 7823,
      "ĠØ§ÙĦØµØ±Ø§Ø¹": 7824,
      "ĠØ§ÙĦÙĨØ§Ø¦Ø¨": 7825,
      "ĠØµÙĦØ§Ø©": 7826,
      "ħÙĦÙĬÙĨ": 7827,
      "Ø±ØªÙ": 7828,
      "ĠØ£Ø¨Ø": 7829,
      "Ġ03": 7830,
      "Ġ31": 7831,
      "ĠØªØ±Ùī": 7832,
      "Ø´Ø¨Ø§Ø¨": 7833,
      "ÙĩØ±ÙĬÙĨ": 7834,
      "£ØŃØ¯Ø§Ø«": 7835,
      "¨ÙĪÙĥ": 7836,
      "ĠØ§ÙĦÙģØ±Ø": 7837,
      "ĠØ£ÙĪØ³": 7838,
      "ĠØ§ÙĦØ«Ø§": 7839,
      "ĠØ§ÙĦØ¬Ø¨Ø³": 7840,
      "ĠØ§ÙĦÙĦØ¨ÙĨØ§ÙĨÙĬ": 7841,
      "ÙĦÙĥØ´Ùģ": 7842,
      "ĠÙĥÙĨØ¯Ø§": 7843,
      "ħÙĤØ§Øª": 7844,
      "¹ÙĪØ¯ÙĬ": 7845,
      "ħØ¦Ø§Øª": 7846,
      "Ø´Ø±ØŃ": 7847,
      "ĠØ§ÙĦÙħÙĦÙĥÙĬ": 7848,
      "ĠØ§ÙĦØ£ÙĦØ¹Ø§Ø¨": 7849,
      "Ġde": 7850,
      "Ø¬Ø±Ø§": 7851,
      "ĠØ§ÙĦØ¯ÙĬÙĨÙĬØ©": 7852,
      "ĠÙĩÙī": 7853,
      "ĠØ¯Ø§Ø¹Ø´": 7854,
      "ĠØ§ÙĦÙħÙĪØ§Ø±Ø¯": 7855,
      "ĠÙĪØµÙĦØª": 7856,
      "¨Ø§ÙĥØ³": 7857,
      "ĠØ§ÙĦÙħØ·Ø§ØŃÙĨ": 7858,
      "ĠØ¥ØµØ§Ø¨Ø©": 7859,
      "ĠØ§ÙĦØ¬ÙĨÙĪØ¨": 7860,
      "ĠÙħÙħÙĬØ²": 7861,
      "ĠØ§ÙĦÙĤØ¶Ø§ÙĬØ§": 7862,
      "ĠØ§ÙĦØªÙĤÙĨÙĬØ©": 7863,
      "ÙĪØ§Ùħ": 7864,
      "ĠÙħØ¹Ù": 7865,
      "ĠÙĬØ¨ØŃØ«": 7866,
      "ÙĦÙħÙĤØ¯Ø³": 7867,
      "ĠØ§ÙĦÙħÙĤØ¯ÙħØ©": 7868,
      "ĠØ¹Ø¯": 7869,
      "ÙĦÙħØ¯Ùī": 7870,
      "ĠØ§Ø¬ÙĦ": 7871,
      "§ÙĦÙħÙĤØ¯Ø³": 7872,
      "ĠØ£ÙĬÙĨ": 7873,
      "Ø§ÙĦÙħÙĤØ¯Ø³": 7874,
      "ĠÙħØªÙĪØ³Ø·": 7875,
      "§ÙĦÙĥØ´Ùģ": 7876,
      "§ÙĦÙħØ¯Ùī": 7877,
      "pl": 7878,
      "Ø§ÙĦÙħØ¯Ùī": 7879,
      "ĠØ§ÙĦØ¨ÙĨ": 7880,
      "ĠÙĬÙĪÙħÙĬ": 7881,
      "ÙħÙħÙĬØ²": 7882,
      "ÙĦÙħØ¯ÙĨÙĬØ©": 7883,
      "ĠÙĦÙĦØ´": 7884,
      "Ġht": 7885,
      "ĠØªØ¬ÙħØ¹": 7886,
      "Ø£ØŃØ¯Ø§Ø«": 7887,
      "§ÙĦÙħØ¯ÙĨÙĬØ©": 7888,
      "Ø§ÙĦÙħØ¯ÙĨÙĬØ©": 7889,
      "ĠÙĤØ±Ø¨": 7890,
      "ĠØ§ÙĦÙĪÙĤÙĪ": 7891,
      "Ø¯Ø§Ø±Ø§Øª": 7892,
      "ĠÙĨÙģØ³Ùĥ": 7893,
      "§ÙĬØ": 7894,
      "ĠØ¢Ø³ÙĬØ§": 7895,
      "ĠØºÙĬØ±Ùĩ": 7896,
      "ØªØ±Ø§ÙĦÙĬØ§": 7897,
      "ĠØ§ÙĦÙĦÙĤ": 7898,
      "Ø§ÙĦÙĥØ´Ùģ": 7899,
      "ĠØ§ÙĦÙĥØ§ÙħÙĦ": 7900,
      "ĠÙĬØ¨Ø¯Ø£": 7901,
      "ĠÙĦÙĦÙħØ": 7902,
      "ĠØ§ØŃÙħØ¯": 7903,
      "Ø®ÙĬÙĦ": 7904,
      "ĠÙĥØ¨Ø§Ø±": 7905,
      "ĠÙĩÙĪØ§": 7906,
      "Ø´Ø§ÙĩØ¯": 7907,
      "ĤØ§Ø·Ø¹": 7908,
      "§ÙĦÙĤÙ": 7909,
      "ĠØ§ÙĦØµØŃÙģÙĬ": 7910,
      "Ġ06": 7911,
      "¨ÙĤÙĬØ©": 7912,
      "Ø§ÙĦÙĤÙ": 7913,
      "ĠÙĤØµÙĬØ±Ø©": 7914,
      "Ø±ÙĬÙĪ": 7915,
      "ĠØ³Ø§ÙĨ": 7916,
      "ÙħÙĦÙĬÙĨ": 7917,
      "ĠÙĤÙĦÙĬÙĦØ§": 7918,
      "Ø¶Ø·Ø±": 7919,
      "ħØ¬ÙĦ": 7920,
      "ģØ©": 7921,
      "ĠÙĬØŃØ¨": 7922,
      "ĠØ§ÙĦØ£Ø³Ø±Ø©": 7923,
      "ĠØ§ÙĨÙĪØ§Ø¹": 7924,
      ".\"": 7925,
      "ĠØªÙħØ«ÙĦ": 7926,
      "ĠÙĦÙĦØ£Ø·ÙģØ§ÙĦ": 7927,
      "ØŃØ¬Ø±": 7928,
      "2017": 7929,
      "§Ø³Ø©": 7930,
      "ÙĦÙģØ§Øª": 7931,
      "Ø±ØªÙģØ§Ø¹": 7932,
      "ĠÙĨÙĪØ§": 7933,
      "Ø³ØªØ±": 7934,
      "ĠÙħØ¹ÙĩÙħ": 7935,
      "ĠØ§ÙĦÙħØ¯ÙĨÙĬØ©": 7936,
      "ĠÙĥØ§Ùģ": 7937,
      "ĠØ§ÙĦÙħØ¶": 7938,
      "ĠÙĪØ§ÙĦØ§Øª": 7939,
      "ĠØ£ÙĪØ±Ø": 7940,
      "ĠØ§ÙĦÙħÙĤØ¯Ø³": 7941,
      "¨Ø§ÙĦÙģ": 7942,
      "Ġïºį": 7943,
      "ÙĨØ³Ø§Ø¡": 7944,
      "ÙĤÙĦÙĬÙ": 7945,
      "ĠÙħØ³ØªØ´ÙģÙī": 7946,
      "Ø¨Ø§ÙĦÙģ": 7947,
      "Ø¯Ø§ÙħÙĩ": 7948,
      "ÙĤÙĦÙĬÙħ": 7949,
      "ĠÙĬØ¯Ø®ÙĦ": 7950,
      "ĠØ§ÙħØ±Ø£Ø©": 7951,
      "ÙĬÙĬ": 7952,
      "ĠØ§ÙĦØµØ§ÙĨØ¹": 7953,
      "ØŃÙĦÙĪÙĦ": 7954,
      "ĠØ§ÙĦÙħØªÙĪÙĤØ¹": 7955,
      "Ø¨Ø§ÙĥØ³": 7956,
      "ĠÙĪÙĦØ°ÙĦÙĥ": 7957,
      "ĠØ§ÙĦØ°ÙĩØ": 7958,
      "Ġ....": 7959,
      "ØºÙĦØ§ÙĦ": 7960,
      "ĠØ§ÙĦÙĩÙĦØ§ÙĦ": 7961,
      "ĠÙĦÙĦÙĬ": 7962,
      "ĠØ§ÙĦØªØ·ÙĪØ±": 7963,
      "ĠØ§ÙĦØ¢ÙĬØ©": 7964,
      "Ġ04": 7965,
      "ĠØ§ÙĦÙħØ¬Ø§ÙĦØ§Øª": 7966,
      "ĠØ§ÙĦØ§Ø³ØªØ«": 7967,
      "ÙģÙĬØ±ÙĪØ³": 7968,
      "¬ÙħØ§Øª": 7969,
      "ÙĦÙģØ²ÙĬÙĪÙĨ": 7970,
      "ÙĤØ¶": 7971,
      "nl": 7972,
      "ĠØ£Ø¨ÙĪØ¸Ø¨ÙĬ": 7973,
      "ĠØ·Ø±ØŃ": 7974,
      "ÙĥÙĦÙ": 7975,
      "ĠØ§ÙĦØªØŃÙĤÙĬÙĤ": 7976,
      "ith": 7977,
      "ĠÙĪØ£ÙĥØ«Ø±": 7978,
      "ĠØ¹ÙĪØ¯Ø©": 7979,
      "ĠØ¨Ø§ÙĦÙģ": 7980,
      "ĠÙģÙĪ": 7981,
      "ĠØ¨Ø¹Ø¯ÙĩØ§": 7982,
      "ĠØ¨ÙĬÙĨÙĩÙħØ§": 7983,
      "ĠØµÙĬØ§ÙĨØ©": 7984,
      "ĠØ§ÙĦÙħØ´ØªØ±ÙĥØ©": 7985,
      "ĠØ¹Ø§Øµ": 7986,
      "ĠØ§ÙĦØ§ÙģØª": 7987,
      "ÙħÙĤØ§Ø¨ÙĦ": 7988,
      "ĠØ³ÙĬØ§Ø³ÙĬ": 7989,
      "ÙħÙĬØ±Ø§": 7990,
      "ØŃÙĪØ§ÙĦ": 7991,
      "ĠÙħÙĦÙħÙĪØ³": 7992,
      "Ø¯Ø§ÙħØ©": 7993,
      "ĠÙħØ·Ø§Ø±": 7994,
      "¨Ø¯ÙĬ": 7995,
      "¹Ø¯Ùĩ": 7996,
      "ĠØ³ÙĩÙĦ": 7997,
      "ĠÙĨØµØ±": 7998,
      "ĠØªØ´ÙĥÙĦ": 7999,
      "ÙĪØªÙĬÙĨ": 8000,
      "ÙĦÙħÙĪÙĤÙģ": 8001,
      "44": 8002,
      "¨Ø³Ø§": 8003,
      "ĪÙĥÙĬÙģ": 8004,
      "ĠÙĪÙĥÙĬÙģ": 8005,
      "ĠØµØ±Ùģ": 8006,
      "ÙĦØ¹ÙĨ": 8007,
      "ĠØ§ÙĦÙĨØ¬Ø§ØŃ": 8008,
      "Ø§Ø¦ÙĩØ§": 8009,
      "ØŃØ§Ùħ": 8010,
      "ĠØ§ÙĦØ¹Ø§ÙħÙĦÙĬÙĨ": 8011,
      "ĠØ£Ø±Ø¨Ø¹": 8012,
      "Ġ35": 8013,
      "ĠØªÙĤÙĨÙĬØ©": 8014,
      "Ø²Ø§Ø²": 8015,
      "ÙĨÙĬÙ": 8016,
      "ĠØ§ÙĦÙģØ¹ÙĦ": 8017,
      "ĠØ§ÙĦÙĤØ³Ùħ": 8018,
      "Ø£ÙĦÙ": 8019,
      "ĠØ§ÙĦØ£Ø³Ø·ÙĪØ§ÙĨØ©": 8020,
      "ØºØ±Ø©": 8021,
      "ĠÙĪØ£ÙĨÙĩ": 8022,
      "ĠØ§ÙĦØ«ÙĦØ§Ø«Ø©": 8023,
      "Ø¦Ùĥ": 8024,
      "Ġ=": 8025,
      "ĠØ§ÙĦØ´Ù": 8026,
      "ĠØ§ÙĦØ±ÙĤÙħÙĬØ©": 8027,
      "ØŃØ°Ø±": 8028,
      "ÙĤÙĬØ¯": 8029,
      "ĠØ§ÙĦÙħØ¯Ùī": 8030,
      "ĠØ³ÙĥØ§ÙĨ": 8031,
      "ĠØ·ÙĦ": 8032,
      "ÙĥØ³Ø§Ø±Ø§Øª": 8033,
      "ĠÙĤÙĪÙĬ": 8034,
      "Ø£Ø¯Ø§Ø©": 8035,
      "ĠÙĦØºØ©": 8036,
      "§ÙĦÙħÙĪÙĤÙģ": 8037,
      "Ø·Ø§Ø¦": 8038,
      "ĠÙĬØ³ÙħÙī": 8039,
      "ĠÙĤÙĬØ§Ù": 8040,
      "Ø§ÙĦÙħÙĪÙĤÙģ": 8041,
      "ÙĨØ§Ø³": 8042,
      "Ø´Ø¬Ø": 8043,
      "ĠØ®Ø¨Ø±": 8044,
      "ÙĦÙĤØ±Ø§": 8045,
      "ĠÙĥÙĪØ¨": 8046,
      "ÙĭÙĳ": 8047,
      "ĠØ§ÙĦÙģÙĨØ¯ÙĤ": 8048,
      "ĠØ§ÙĦØ¨Ø§ÙĦØº": 8049,
      "ĠØ®Ø·ÙĪØ§Øª": 8050,
      "ĠØ¹ÙĩØ¯": 8051,
      "ĠØ´Ø¦": 8052,
      "ØªÙĬÙ": 8053,
      "Ø¬ØªÙħØ§Ø¹ÙĬØ©": 8054,
      "Ø¯ÙĪÙĬØ±": 8055,
      "ÙģØ±Ø¶": 8056,
      "ĠØ°ÙĬ": 8057,
      "ÙĤØ§Ø·Ø¹": 8058,
      "ĠØ§ÙĦØ¨ÙĦØ¯Ø§ÙĨ": 8059,
      "Ø®ÙħØ©": 8060,
      "ĠØŃØ²ÙĬØ±Ø§ÙĨ": 8061,
      "¹ÙĥØ³": 8062,
      "§ÙĦÙĤØ±Ø§": 8063,
      "ĠØ§ÙĦØ±Ø£Ø³": 8064,
      "ĠØ§ÙĦØ¹ÙĩØ¯": 8065,
      "ĠØ§ÙĦØ£Ø³ÙĨØ§ÙĨ": 8066,
      "ĠØ«Ø§ÙĨÙĬ": 8067,
      "ĠØ±ÙĪØ§ÙĬØ©": 8068,
      "ĠØ§ÙĦØ´ÙĥÙĦ": 8069,
      "ĠÙĪØ³ÙĪÙģ": 8070,
      "Ø§ÙĦÙĤØ±Ø§": 8071,
      "ĠÙĪØ§ÙĦØªÙĤ": 8072,
      "ĠÙĨÙģØ³ÙĬ": 8073,
      "ĠØ¨Ø¹Ø¶ÙĩØ§": 8074,
      "ĠØ³Ø¨ØŃØ§ÙĨÙĩ": 8075,
      "ÙĥØ§Ø": 8076,
      "ĠÙĪØ±Ø¯": 8077,
      "Ø·ÙĬÙģ": 8078,
      "ĠØ·ÙĪÙĬÙĦ": 8079,
      "ĠÙĤÙĬØ§Ùħ": 8080,
      "¨ØªØ¹": 8081,
      "ĠCh": 8082,
      "ÙħØ¬Ø±Ø¯": 8083,
      "ĠØªÙĪØ§Ø¬Ùĩ": 8084,
      "ØªØŃÙħÙĬÙĦ": 8085,
      "Get": 8086,
      "Ø¨ÙĪÙĥ": 8087,
      "ĠÙħØŃÙĥÙħØ©": 8088,
      "ĠØ§ÙĦØ¯Ø§Ø®ÙĦÙĬ": 8089,
      "¨ÙģØ¶ÙĦ": 8090,
      "ïºĶ": 8091,
      "ĠØªØµØ±ÙĬØŃ": 8092,
      "ØŃÙĬÙħ": 8093,
      "ÙħÙĥÙĪÙĨØ§Øª": 8094,
      "ĠØ¨ÙĤÙĬÙħØ©": 8095,
      "ĠØ§ÙĦØ±Ø£ÙĬ": 8096,
      "ĠÙĤØ¨": 8097,
      "Ø±ÙĬØŃ": 8098,
      "ÙĤØªÙĩØ§": 8099,
      "ÙħØ´Ø§Ø±ÙĥØ©": 8100,
      "ĠØ§ÙĦÙĨØ¨Ø§ØªØ§Øª": 8101,
      "ÙĦÙħÙĥØ±": 8102,
      "ĠÙĪØ¸ÙĬÙģØ©": 8103,
      "ħØ§ÙĨØ©": 8104,
      "ØªØ§ÙħÙĬÙĨ": 8105,
      "ĠØ§ÙĦØ§ØªØ¬Ø§Ùĩ": 8106,
      "ĠÙĪØ§ÙĦÙħÙĨØ§": 8107,
      "ĠÙħØŃØ¬Ø±": 8108,
      "Ø·Ø¨Ø©": 8109,
      "§ÙĦÙħÙĥØ±": 8110,
      "ĠØ¹Ø«ÙħØ§ÙĨ": 8111,
      "Ø´Ø¹Ø¨": 8112,
      "ÙĦØµØ±Ùģ": 8113,
      "¨Ø¹Ø«": 8114,
      "Ø§ÙĦÙħÙĥØ±": 8115,
      "ĠØ¬Ø³Ùħ": 8116,
      "ÙħØ±Ø§Øª": 8117,
      "¤ÙĪÙĦÙĬ": 8118,
      "ĪØ³ÙĦ": 8119,
      "ĠØµØ¨Ø§ØŃØ§": 8120,
      "ÙĩØ±Ø§ÙĨ": 8121,
      "ĠØ£ØŃØ¨": 8122,
      "Ø¨ØªØ±": 8123,
      "ħØ²ÙĬ": 8124,
      "§ÙĦØµØ±Ùģ": 8125,
      "Ø§ÙĦØµØ±Ùģ": 8126,
      "ĠÙĪÙĬØ±": 8127,
      "ÙģÙĬÙģØ©": 8128,
      "ĠØ§ÙĦØµØŃÙģ": 8129,
      "Ø³ÙĬØŃ": 8130,
      "Ø¨Ø¯ÙĦ": 8131,
      "ØµØ¹Ø": 8132,
      "ĠØ§ÙĦÙħØªØŃØ¯Ø«": 8133,
      "ĠÙĪØ±Ø": 8134,
      "Ø¨ÙģØ¶ÙĦ": 8135,
      "ĠØ§ÙĦØ³Øª": 8136,
      "ĠØ¯ÙĬÙĨØ§Ø±": 8137,
      "ĠØ§Ø³ØªØ®Ø±Ø§Ø¬": 8138,
      "ĠØ§ÙĦØ±Ø³ÙĪÙĦ": 8139,
      "Ø±Ø§ÙĨ": 8140,
      "ĠØ§Ø¨ÙĪ": 8141,
      "ĠØ¬ÙĨ": 8142,
      "ÙĨÙĬØª": 8143,
      "¹Ø§Ø¯ÙĦ": 8144,
      "ĠØŃÙģÙĦ": 8145,
      "ÙĥÙĦÙħ": 8146,
      "Ø²ÙĨØ©": 8147,
      "ĠÙĤÙĦÙĬÙĦ": 8148,
      "ĠØ§ÙĦØŃÙĦÙĤØ©": 8149,
      "ĠØ§ÙĦÙħØ·ÙĦÙĪØ¨Ø©": 8150,
      "ĠÙħØ±Ø¨Ø¹": 8151,
      "ĠØ§ÙĦØªØ´Ø": 8152,
      "ÙĪÙĬÙĪØ±Ùĥ": 8153,
      "ĠØ§ÙĦÙĬÙħÙĨÙĬ": 8154,
      "ĠÙĪØ³ÙĦ": 8155,
      "£Ø·ÙģØ§ÙĦ": 8156,
      "ÙĨØ¹Ùħ": 8157,
      "ĤØ¯Ø§Ø±": 8158,
      "ĠØ¹Ø±ÙĪØ¶": 8159,
      "Ø±Ø§Ø¦Ø¨": 8160,
      "ĪÙĤØ§ÙĦØª": 8161,
      "ĠÙĪÙĤØ§ÙĦØª": 8162,
      "ĠÙĪØ§ÙĦØªØ±": 8163,
      "ĠØªØ¹Ø¯ÙĬÙĦ": 8164,
      "ĠØ§ÙĦØŃØ±Ø©": 8165,
      "ĠÙħØªØ§Ø¨Ø¹Ø©": 8166,
      "ĠÙĩØ§Øª": 8167,
      "âĢĮ": 8168,
      "ĠÙĪØ§ÙĦØ´Ø±": 8169,
      "ĠÙĦØ´Ø±ÙĥØ©": 8170,
      "Ø«Ø§": 8171,
      "ĠØ·Ø¹": 8172,
      "Ø®Ø¨Ø§Ø±ÙĬØ©": 8173,
      "ĠØ®Ø·ÙĪØ·": 8174,
      "Ø¬ÙĩØª": 8175,
      "¨Ø¯ÙĪ": 8176,
      "ĠâĢª": 8177,
      "§ØŃØ«": 8178,
      "ØµØ¹Ø¨": 8179,
      "ĪÙħÙĨØ§": 8180,
      "ĠØ§ÙĦØªØ¬Ù": 8181,
      "ĠÙĪÙħÙĨØ§": 8182,
      "ĠØ§ÙĩØª": 8183,
      "Ø´Ø§ÙĨ": 8184,
      "¹ÙħØ§Ø±": 8185,
      "¹Ø§ÙĦÙħÙĬØ©": 8186,
      "Ø´ÙģÙĬØ§Øª": 8187,
      "Ø§Ø¬ÙĬ": 8188,
      "ĠØ³Ø±Ø¹Ø©": 8189,
      "32": 8190,
      "Ø´ÙģØª": 8191,
      "ĠØ§ÙĦÙĤÙĪÙħÙĬ": 8192,
      "eu": 8193,
      "Ø¹Ø§ÙĦÙħÙĬØ©": 8194,
      "ĠØºØ§": 8195,
      "ĠØ§ÙĦØªÙģÙĥÙĬØ±": 8196,
      "ĠØ§ÙĦØ¬ÙħÙĩÙĪØ±": 8197,
      "ĠØ¨ÙĬØ±ÙĪØª": 8198,
      "ÙĩÙĦÙ": 8199,
      "ide": 8200,
      "ĠØ§ÙĦØ¨ÙĬØ¶Ø§Ø¡": 8201,
      "ĠÙĬØŃÙĬÙī": 8202,
      "Ø¹ÙĨÙĬ": 8203,
      "ĠÙĪØ³ÙĬØ·": 8204,
      "ÙĦÙĤØ§Ø¹Ø¯Ø©": 8205,
      "ĠØ§ÙĦØ¢ÙĦØ§Øª": 8206,
      "ĠØ§ÙĦØ¬Ø±Ø§ÙĨÙĬØª": 8207,
      "ĠÙģÙģÙĬ": 8208,
      "ĠØ£ÙĨÙĬ": 8209,
      "Ø¯ÙĪØ©": 8210,
      "47": 8211,
      "ÙĤÙĬØ§Øª": 8212,
      "ĠÙĤØ±ÙĬØ©": 8213,
      "ĠØ¨Ø§ÙĥØ³": 8214,
      "ĠØ§ÙĦÙģØ§Ø¦": 8215,
      "ĠØ§ÙĦØŃØ¯ÙĬ": 8216,
      "ĠÙĦØ§ÙĬÙĨ": 8217,
      "ĠÙħØ¯Ø§": 8218,
      "ØºÙĬØ±Ø§Øª": 8219,
      "Ø¬Ø¯ÙĪÙĦ": 8220,
      "ĠÙĥØ§Øª": 8221,
      "ĠØ¯Ø±Ø¬Ø§Øª": 8222,
      "Ø³ÙĪÙĬØ©": 8223,
      "ĠÙħØ®Ø·Ø·": 8224,
      "§ÙħØ§Ùħ": 8225,
      "ÙĨØ§Ùĩ": 8226,
      "ÙĤÙĬØ§Ø³": 8227,
      "ĠØ§Ø³ØªØ®Ø¯Ø§ÙħÙĩØ§": 8228,
      "ĠØ§ÙĦÙħÙĥØ±": 8229,
      "Ø·Ø§ÙĤØ©": 8230,
      "ĠØ£Ø®Ø±": 8231,
      "ĠØ§ÙĦØ°ÙĥÙĬØ©": 8232,
      "¬ÙĪØ¬ÙĦ": 8233,
      "ĠÙħÙĨØªØµÙģ": 8234,
      "ast": 8235,
      "ØŃØªÙĩ": 8236,
      "ĠØ§ÙĦØ§ØªØµØ§ÙĦØ§Øª": 8237,
      "ĠØ³ÙĪØ±Ø©": 8238,
      "bab": 8239,
      "Ø§ÙħØ§Ùħ": 8240,
      "ĠØ§ÙĦØ¬ÙĨØ³ÙĬØ©": 8241,
      "Ø£ÙħÙĦ": 8242,
      "ĠÙĬØ¯ÙĦ": 8243,
      "ĠØ§ÙĦØ±Ø§Ø¨Ø¹Ø©": 8244,
      "Ø±Ø§ØŃ": 8245,
      "Ø¨Ø³Ø§": 8246,
      "Ù¨": 8247,
      "ÙĦØªÙĩØ§": 8248,
      "ĠÙĦÙĪÙĨ": 8249,
      "§ÙĦÙĤØ§Ø¹Ø¯Ø©": 8250,
      "Ø§ÙĦÙĤØ§Ø¹Ø¯Ø©": 8251,
      "Ø°Ø¬": 8252,
      "ÙħÙĨÙĪØ": 8253,
      "Ø¯Ø±Ø¬": 8254,
      "ĠÙħÙĦÙģØ§Øª": 8255,
      "ØµØ¯Ø±": 8256,
      "ØŃÙĪÙħ": 8257,
      "ÙĤØ¯Ø§Ø±": 8258,
      "ĠÙħØªØ¬Ø±": 8259,
      "ĠØ§ÙĦØŃÙĬÙĪØ§ÙĨØ§Øª": 8260,
      "ÙĥØ§Ø¨": 8261,
      "ŃØ¯ÙĬØ§Øª": 8262,
      "ÙĦÙĬØ¨": 8263,
      "Ġ2009": 8264,
      "ĩÙĬÙĦ": 8265,
      "Ġus": 8266,
      "ĠØ«ÙĨØ§Ø¦ÙĬ": 8267,
      "ĠØ¬ÙĦØ³Ø©": 8268,
      "ai": 8269,
      "ĠØ´ÙĩØ¯Øª": 8270,
      ",,": 8271,
      "ĠØ§ÙĦØ§ÙĩØªÙħØ§Ùħ": 8272,
      "ĠØ§ÙĦÙĤÙ": 8273,
      "ØŃØ§ÙĬØ": 8274,
      "Ø¯ÙģØ": 8275,
      "ĠØ§ØªØŃØ§Ø¯": 8276,
      "Ø¯ÙĬÙĦØ§Øª": 8277,
      "ĠÙĥÙĨØ§": 8278,
      "ĠØ¨Ø§Ø±ÙĬØ³": 8279,
      "ØŃØ§ÙĬØ§": 8280,
      "ĠØ§ÙĦØ¹Ø§ÙĦÙĬØ©": 8281,
      "ØŃØ§Ø±": 8282,
      "49": 8283,
      "¨Ø¹ÙĨÙĪØ§ÙĨ": 8284,
      "ĠØ¨Ø§ÙĦÙĬ": 8285,
      "Ø¨Ø¹ÙĨÙĪØ§ÙĨ": 8286,
      "ĠÙħØ³ØªØ¹ÙħÙĦØ©": 8287,
      "ÙĦÙĨÙĬØ§Ø¨Ø©": 8288,
      "ĠØ¹Ø§ÙĦÙħÙĬØ©": 8289,
      "ÙĤÙĬØ§Ù": 8290,
      "ÙĪØ³Ø¹": 8291,
      "ĠØ¬ÙĪÙĨ": 8292,
      "ĠØ§ÙĦØµØ±Ùģ": 8293,
      "¹Ø³ÙĥØ±ÙĬØ©": 8294,
      "¹ÙĤÙĪØ¯": 8295,
      "aw": 8296,
      "ĠØŃØ¶ÙĪØ±": 8297,
      "Ø¹Ø³ÙĥØ±ÙĬØ©": 8298,
      "ĠØ§ÙĦØ«Ø§ÙĨÙĪÙĬØ©": 8299,
      "ÙĨØ¸Ù": 8300,
      "Ø¨Ø§Ø·": 8301,
      "ÙģÙĨ": 8302,
      "gle": 8303,
      "¨ØŃØ¶ÙĪØ±": 8304,
      "ÙĪØ¹ÙĬØ©": 8305,
      "ĠØ§ÙĦØ£Ø³Ø¨Ø§Ø¨": 8306,
      "ÙģÙĬÙĤ": 8307,
      "§Ø³Ø¨": 8308,
      "§ÙĦÙĨÙĬØ§Ø¨Ø©": 8309,
      "Ø¨ØŃØ¶ÙĪØ±": 8310,
      "ĠØ±ØŃÙĦØ©": 8311,
      "ĠØªØ¨ÙĦØº": 8312,
      "ĠØ¯Ø±Ø¯Ø´Ø©": 8313,
      "ĠÙħÙĨØªØ¯Ùī": 8314,
      "§Ø¯Ùĩ": 8315,
      "ħØŃØ¨": 8316,
      "ĠØ§ÙĦØªØ®ÙĦØµ": 8317,
      "ÙĪÙĤØ©": 8318,
      "Ø£Ø°": 8319,
      "ĠSh": 8320,
      "www": 8321,
      "£Ø³ÙĦÙĪØ¨": 8322,
      "ĠÙĬØ´Ø¹Ø±": 8323,
      "ĠØ§ÙĦÙĥÙĦÙĬ": 8324,
      "ÙĨØ¸Ùħ": 8325,
      "ĠØ¨Ø±ÙĬØ·Ø§ÙĨÙĬØ§": 8326,
      "ÙĨØ¦": 8327,
      "ÙĤÙĬØ§Ùħ": 8328,
      "Ø±ØªØ²": 8329,
      "§Ø®Ø±Ùī": 8330,
      "ĠØ³ÙģÙĬ": 8331,
      "ĠØ§ÙĦØ²ÙħÙĨ": 8332,
      "ĠØ¬Ø³": 8333,
      "Ø§Ø®Ø±Ùī": 8334,
      "ĠÙģÙĦÙħØ§": 8335,
      "ÙĨØ§Ùħ": 8336,
      "ĠØ¹Ø³ÙĥØ±ÙĬØ©": 8337,
      "Ø³ÙĦØ§ÙħÙĬ": 8338,
      "ĠØ§ÙĦØµÙĨØ§Ø¹ÙĬ": 8339,
      "ĠØ§ÙħØ§Ùħ": 8340,
      "ĠØ¨Ø¹ÙĨÙĪØ§ÙĨ": 8341,
      "ÙĪØ§ÙĨÙĬ": 8342,
      "Ø§ÙĦÙĨÙĬØ§Ø¨Ø©": 8343,
      "ĠÙĤØ¶Ø§ÙĬØ§": 8344,
      "ĠÙĪØ§ÙĦØ¹Ø": 8345,
      "ĠØ§ÙĦØ¨ÙĨÙĪÙĥ": 8346,
      "ĠÙħÙħØªØ§Ø²": 8347,
      "ĠØ§ÙĦØ´Ø§Ø±Ø¹": 8348,
      "ï»Łï»": 8349,
      "Ø§Ø³Ø¨": 8350,
      "ÙĦÙĤÙĦÙ": 8351,
      "ÙĦÙĤØ¯ÙĬÙħ": 8352,
      "Ø¹ÙĤÙĪØ¯": 8353,
      "ĠÙħÙģØ±": 8354,
      "ØºØ±Ù": 8355,
      "ĠØ§ÙĦØ¹ØµØ±": 8356,
      "ÙĩØ¬": 8357,
      "ĠØ¨Ø§ÙĦØªØ¹Ø§ÙĪÙĨ": 8358,
      "ĠYouT": 8359,
      "¬Ø²ÙĬØ±Ø©": 8360,
      "ĠÙģØŃØµ": 8361,
      "ĠØ¨ØªØ±": 8362,
      "ĠØ¢Ø«Ø§Ø±": 8363,
      "§ÙĦÙĤØ¯ÙĬÙħ": 8364,
      "ĠØ§ÙĦØ³ÙĥØ§ÙĨ": 8365,
      "ĠØ§ÙĦØ®Ø±ÙĪØ¬": 8366,
      "ĠØªØ¬Ù": 8367,
      "Ø§ÙĦÙĤØ¯ÙĬÙħ": 8368,
      "ĠØ§ÙĦØªØ§Ø±ÙĬØ®ÙĬØ©": 8369,
      "Ø§Ø¹Ø¨": 8370,
      "ĠÙĬØ°ÙĥØ±": 8371,
      "ĠØªØ¯ÙģÙĤ": 8372,
      "46": 8373,
      "Ø¶ÙĪÙĨ": 8374,
      "ĠØ§ÙĦÙĤØ±Ø§": 8375,
      "ĠØ³Ø¨Ø": 8376,
      "ĠØ¨Ø¹Ø¶ÙĩÙħ": 8377,
      "Ø¯Ø®Ø§ÙĦ": 8378,
      "ÙħØ·": 8379,
      "ĠØ§ÙĦØŃÙĤÙĪÙĤ": 8380,
      "ĠØ§ÙĦØ¥ÙĬØ·Ø§": 8381,
      "ÙĪØ§ØŃ": 8382,
      "ĠÙģØ£Ø": 8383,
      "ÙĥÙī": 8384,
      "ÙĪØ§ÙģÙĤ": 8385,
      "ĠØ§ÙĦØ¬ÙĩÙĪØ¯": 8386,
      "Ø£Ø·ÙģØ§ÙĦ": 8387,
      "ĠØ¹ÙĦØ§ÙĤØ§Øª": 8388,
      "ØªØª": 8389,
      "ĠØ§ÙĦÙħÙĪÙĤÙģ": 8390,
      "ĠØ§Ø®Ø±Ùī": 8391,
      "§Ø·Ø¹Ø©": 8392,
      "ĠÙĪØ§Ø¹": 8393,
      "ħØ·Ø¹Ùħ": 8394,
      "Ø´Ø¤ÙĪÙĨ": 8395,
      "ĩÙĩ": 8396,
      "Ġ400": 8397,
      "ħØ®ØµØµØ©": 8398,
      "Ø·Ùĩ": 8399,
      "ĤÙĩÙĪØ©": 8400,
      "ÙĦÙĤÙĦ": 8401,
      "ÙĤÙĬÙĬÙ": 8402,
      "Ø§Ø·Ø¹Ø©": 8403,
      "ÙĤÙĬÙĬÙħ": 8404,
      "Ø¬Ø±Ø©": 8405,
      "ÙĤÙĩÙĪØ©": 8406,
      "Ø¬ÙĪØ¬ÙĦ": 8407,
      "§ÙĦÙĤÙĦÙ": 8408,
      "Ø¦ÙĪÙĦ": 8409,
      "ØŃØ¨Ùĩ": 8410,
      "ĠØ¹ÙĦØ§ÙħØ©": 8411,
      "ĤØ±Ø©": 8412,
      "Ø§ÙĦÙĤÙĦÙ": 8413,
      "§ÙĦØ¹ÙĨ": 8414,
      "ĠÙĬØµØ¨ØŃ": 8415,
      "ĤØ§Ø·Ø¹Ø©": 8416,
      "ÙĤØ§Ø·Ø¹Ø©": 8417,
      "Ø§ÙĦØ¹ÙĨ": 8418,
      "ĠØ¨ÙĥØ«ÙĬØ±": 8419,
      "ĠØ¥Øª": 8420,
      "ĠÙĪØ§ØŃØª": 8421,
      "ĠØ¨ÙĪØ§Ø¨Ø©": 8422,
      "ĠÙĦØ£Ø³": 8423,
      "ĠØ§ÙĦØªØ·Ø¨ÙĬÙĤØ§Øª": 8424,
      "ĠÙĬÙĦØª": 8425,
      "ĠÙĦØ¨Ø¹Ø¶": 8426,
      "ĠØ¶Ø¹Ùģ": 8427,
      "ĠÙĩÙĢ": 8428,
      "ĠØ¯Ø±ÙĩÙħ": 8429,
      "ĠÙĦÙħØ±": 8430,
      "ĠØªØ·Ø¨ÙĬÙĤØ§Øª": 8431,
      "ĠÙħØ±Ø§ØŃÙĦ": 8432,
      "ÙĦÙĤÙī": 8433,
      "ĠØ§ÙĦØ³ÙĦØ¹": 8434,
      "56": 8435,
      "ĠØ§ÙĦÙħØµØ§Ø¯Ø±": 8436,
      "ħÙĤØ¯Ø§Ø±": 8437,
      "ĠØ£ÙĦÙ": 8438,
      "ĠØºÙĬØ§Ø¨": 8439,
      "§Ø³Ø§": 8440,
      "§ÙĦÙĤÙĦ": 8441,
      "ĠØ§ÙĦØ³ÙĬØ³ÙĬ": 8442,
      "¨ØŃÙ": 8443,
      "ĠØ§ÙĦÙħÙĦÙģØ§Øª": 8444,
      "ĠÙģÙĪØ²": 8445,
      "Ø§ÙĦÙĤÙĦ": 8446,
      "ĠÙĨÙĤØµ": 8447,
      "ĠØªØ¹ØªÙħØ¯": 8448,
      "Ø³Ø¨Ø§Ù": 8449,
      "ĠØ§ÙĦÙĦØº": 8450,
      "ĪÙħØ±Ø§": 8451,
      "ĠØ§ÙĦØ¹ÙĤØ¯": 8452,
      "ĠØ£Ø´Ø®Ø§Øµ": 8453,
      "ĠÙĪÙħØ±Ø§": 8454,
      "ĠØ§ÙĦØ£ÙħÙĬÙĨ": 8455,
      "Ø¬ÙĨØ¨": 8456,
      "Ø¢Ø®Ø±": 8457,
      "ĠÙĪØ¥ÙĬ": 8458,
      "ĠØ§ÙĦÙĤØ¯ÙĬÙħ": 8459,
      "¹Ø¯ÙĨ": 8460,
      "ÙħØ§Ø": 8461,
      "ĠØ³ÙĩÙĦØ©": 8462,
      "ies": 8463,
      "ĠØ¨Ø±Ø´ÙĦÙĪÙĨØ©": 8464,
      "ĠØ§ÙĦØ§Ø³Ùħ": 8465,
      "ØŃØ§ÙĦØ©": 8466,
      "ĠÙģØ§Ø±": 8467,
      "ĠØ§ÙĦØªÙĤØ¯Ùħ": 8468,
      "ĠØ§ÙĦØ´ÙĬØ¡": 8469,
      "ĠØ§ÙĦØ£Ø·Ø±Ø§Ùģ": 8470,
      "ĠØ°ÙĪÙĬ": 8471,
      "ĠØ¨Ø§ÙĦÙĦÙĩ": 8472,
      "ĠØ¢Ø": 8473,
      "ĠØ§ÙĦÙħØ¹Ø±ÙĪÙģ": 8474,
      "ĥÙĪØ": 8475,
      "ear": 8476,
      "ħÙĤØ§ÙĦØ©": 8477,
      "ħØ²Ø§ÙĬØ": 8478,
      "ħØ²Ø§ÙĬØ§": 8479,
      "ĠØŃÙĦÙ": 8480,
      "ĠØ§ÙĦØ²ÙħØ§ÙĦÙĥ": 8481,
      "ĠØ§ÙĦÙģØ¹": 8482,
      "ĠÙģÙĥØ±": 8483,
      "ĠØ§ÙĦÙħÙĨØ§Ùħ": 8484,
      "ĠØ£Ø¯Ø§Ø©": 8485,
      "ĠØ´Ø±Ø·Ø©": 8486,
      "ÙĪØªÙĬÙĪØ¨": 8487,
      "ĠÙĨØ¬Ø¯": 8488,
      "ĠØ§ÙĦØ§ÙĨØªØ®Ø§": 8489,
      "ĠÙĦÙĨØ¯ÙĨ": 8490,
      "Ø·ÙĪØ±Ø©": 8491,
      "Ø¨ØŃÙ": 8492,
      "Ø§Ø¯Øª": 8493,
      "ĠØ§ÙĦØ³ÙĥØ": 8494,
      "ĠÙĦÙĦØ§Øª": 8495,
      "ĠØ¨ÙģØ¶ÙĦ": 8496,
      "ÙĥØ§Ø©": 8497,
      "ĠØ§ÙĦØŃÙħ": 8498,
      "ħÙĨÙĥ": 8499,
      "ÙĨÙħ": 8500,
      "ĠÙĪØ§ÙĦØ³Ø": 8501,
      "ÙĪÙĥÙĪÙĦ": 8502,
      "ĠØªØ¶Ùħ": 8503,
      "ĠØªØµØ¨ØŃ": 8504,
      "ÙħØ¯ÙĬ": 8505,
      "ĠÙĤØ§Ø¦Ø¯": 8506,
      "ÙĪØ¶Ø©": 8507,
      "ĠØ§ÙĦØ¨ÙĦØ¯ÙĬÙĨ": 8508,
      "ĠØ¬Ø¹": 8509,
      "58": 8510,
      "ome": 8511,
      "ĠÙĬÙģØ¹ÙĦ": 8512,
      "ĠÙħÙĪØ¶": 8513,
      "ĠØ¬ÙħÙĬÙĦ": 8514,
      "ĠØ§ÙĦØ¬Ø§ÙħØ¹Ø§Øª": 8515,
      "ØŃØ±Ø§Ø¡": 8516,
[...]
