{
  "version": "1.0",
  "truncation": null,
  "padding": null,
  "added_tokens": [
    {
      "id": 0,
      "content": "<unk>",
      "single_word": false,
      "lstrip": false,
      "rstrip": false,
      "normalized": false,
      "special": true
    }
  ],
  "normalizer": {
    "type": "NFKC"
  },
  "pre_tokenizer": {
    "type": "Metaspace",
    "replacement": "▁",
    "prepend_scheme": "always",
    "split": true
  },
  "post_processor": null,
  "decoder": {
    "type": "Metaspace",
    "replacement": "▁",
    "prepend_scheme": "always",
    "split": true
  },
  "model": {
    "type": "BPE",
    "dropout": null,
    "unk_token": "<unk>",
    "continuing_subword_prefix": null,
    "end_of_word_suffix": null,
    "fuse_unk": false,
    "byte_fallback": false,
    "ignore_merges": false,
    "vocab": {
      "<unk>": 0,
      "\t": 1,
      "\n": 2,
      "!": 3,
      "\"": 4,
      "#": 5,
      "$": 6,
      "%": 7,
      "&": 8,
      "'": 9,
      "(": 10,
      ")": 11,
      "*": 12,
      "+": 13,
      ",": 14,
      "-": 15,
      ".": 16,
      "/": 17,
      "0": 18,
      "1": 19,
      "2": 20,
      "3": 21,
      "4": 22,
      "5": 23,
      "6": 24,
      "7": 25,
      "8": 26,
      "9": 27,
      ":": 28,
      ";": 29,
      "<": 30,
      "=": 31,
      ">": 32,
      "?": 33,
      "@": 34,
      "A": 35,
      "B": 36,
      "C": 37,
      "D": 38,
      "E": 39,
      "F": 40,
      "G": 41,
      "H": 42,
      "I": 43,
      "J": 44,
      "K": 45,
      "L": 46,
      "M": 47,
      "N": 48,
      "O": 49,
      "P": 50,
      "Q": 51,
      "R": 52,
      "S": 53,
      "T": 54,
      "U": 55,
      "V": 56,
      "W": 57,
      "X": 58,
      "Y": 59,
      "Z": 60,
      "[": 61,
      "\\": 62,
      "]": 63,
      "^": 64,
      "_": 65,
      "`": 66,
      "a": 67,
      "b": 68,
      "c": 69,
      "d": 70,
      "e": 71,
      "f": 72,
      "g": 73,
      "h": 74,
      "i": 75,
      "j": 76,
      "k": 77,
      "l": 78,
      "m": 79,
      "n": 80,
      "o": 81,
      "p": 82,
      "q": 83,
      "r": 84,
      "s": 85,
      "t": 86,
      "u": 87,
      "v": 88,
      "w": 89,
      "x": 90,
      "y": 91,
      "z": 92,
      "{": 93,
      "|": 94,
      "}": 95,
      "~": 96,
      "¡": 97,
      "¢": 98,
      "£": 99,
      "¤": 100,
      "¥": 101,
      "¦": 102,
      "§": 103,
      "©": 104,
      "«": 105,
      "¬": 106,
      "­": 107,
      "®": 108,
      "°": 109,
      "±": 110,
      "¶": 111,
      "·": 112,
      "»": 113,
      "¿": 114,
      "À": 115,
      "Á": 116,
      "Â": 117,
      "Ã": 118,
      "Ä": 119,
      "Å": 120,
      "Ç": 121,
      "È": 122,
      "É": 123,
      "Ê": 124,
      "Í": 125,
      "Î": 126,
      "Ï": 127,
      "Ñ": 128,
      "Ó": 129,
      "Ö": 130,
      "×": 131,
      "Ø": 132,
      "Ù": 133,
      "Ú": 134,
      "Ü": 135,
      "Ý": 136,
      "ß": 137,
      "à": 138,
      "á": 139,
      "â": 140,
      "ã": 141,
      "ä": 142,
      "å": 143,
      "æ": 144,
      "ç": 145,
      "è": 146,
      "é": 147,
      "ê": 148,
      "ë": 149,
      "ì": 150,
      "í": 151,
      "î": 152,
      "ï": 153,
      "ð": 154,
      "ñ": 155,
      "ò": 156,
      "ó": 157,
      "ô": 158,
      "õ": 159,
      "ö": 160,
      "÷": 161,
      "ø": 162,
      "ù": 163,
      "ú": 164,
      "û": 165,
      "ü": 166,
      "ý": 167,
      "ÿ": 168,
      "ā": 169,
      "ă": 170,
      "ą": 171,
      "ć": 172,
      "Č": 173,
      "č": 174,
      "Đ": 175,
      "đ": 176,
      "ē": 177,
      "ę": 178,
      "ě": 179,
      "ğ": 180,
      "ī": 181,
      "İ": 182,
      "ı": 183,
      "Ł": 184,
      "ł": 185,
      "ń": 186,
      "ō": 187,
      "ő": 188,
      "Œ": 189,
      "œ": 190,
      "ř": 191,
      "ś": 192,
      "Ş": 193,
      "ş": 194,
      "Š": 195,
      "š": 196,
      "ţ": 197,
      "ū": 198,
      "ů": 199,
      "ų": 200,
      "ź": 201,
      "ż": 202,
      "ž": 203,
      "ƒ": 204,
      "ư": 205,
      "ș": 206,
      "ț": 207,
      "ɑ": 208,
      "ɔ": 209,
      "ə": 210,
      "ɛ": 211,
      "ɪ": 212,
      "ʃ": 213,
      "ʊ": 214,
      "ʻ": 215,
      "ˆ": 216,
      "ˈ": 217,
      "ː": 218,
      "̀": 219,
      "́": 220,
      "̃": 221,
      "̄": 222,
      "̅": 223,
      "̇": 224,
      "̈": 225,
      "̊": 226,
      "̧": 227,
      "̨": 228,
      "̯": 229,
      "̲": 230,
      "̶": 231,
      "̷": 232,
      "̿": 233,
      "͡": 234,
      "Α": 235,
      "Δ": 236,
      "Ε": 237,
      "Μ": 238,
      "Ξ": 239,
      "Σ": 240,
      "Φ": 241,
      "Ω": 242,
      "ά": 243,
      "έ": 244,
      "ή": 245,
      "ί": 246,
      "α": 247,
      "β": 248,
      "γ": 249,
      "δ": 250,
      "ε": 251,
      "η": 252,
      "θ": 253,
      "ι": 254,
      "κ": 255,
      "λ": 256,
      "μ": 257,
      "ν": 258,
      "ο": 259,
      "π": 260,
      "ρ": 261,
      "ς": 262,
      "σ": 263,
      "τ": 264,
      "υ": 265,
      "φ": 266,
      "χ": 267,
      "ω": 268,
      "ό": 269,
      "ύ": 270,
      "Ђ": 271,
      "Ѓ": 272,
      "Є": 273,
      "Ѕ": 274,
      "І": 275,
      "Ј": 276,
      "Љ": 277,
      "Њ": 278,
      "Ў": 279,
      "Џ": 280,
      "А": 281,
      "Б": 282,
      "В": 283,
      "Г": 284,
      "Д": 285,
      "Е": 286,
      "З": 287,
      "И": 288,
      "К": 289,
      "Л": 290,
      "М": 291,
      "Н": 292,
      "О": 293,
      "П": 294,
      "Р": 295,
      "С": 296,
      "Т": 297,
      "У": 298,
      "Ф": 299,
      "Х": 300,
      "Ч": 301,
      "Ш": 302,
      "Щ": 303,
      "Я": 304,
      "а": 305,
      "б": 306,
      "в": 307,
      "г": 308,
      "д": 309,
      "е": 310,
      "ж": 311,
      "з": 312,
      "и": 313,
      "й": 314,
      "к": 315,
      "л": 316,
      "м": 317,
      "н": 318,
      "о": 319,
      "п": 320,
      "р": 321,
      "с": 322,
      "т": 323,
      "у": 324,
      "ф": 325,
      "х": 326,
      "ц": 327,
      "ч": 328,
      "ш": 329,
      "щ": 330,
      "ъ": 331,
      "ы": 332,
      "ь": 333,
      "э": 334,
      "ю": 335,
      "я": 336,
      "ё": 337,
      "ђ": 338,
      "ѓ": 339,
      "є": 340,
      "ѕ": 341,
      "і": 342,
      "ї": 343,
      "ј": 344,
      "њ": 345,
      "ћ": 346,
      "ќ": 347,
      "ў": 348,
      "џ": 349,
      "Ґ": 350,
      "ґ": 351,
      "қ": 352,
      "Ү": 353,
      "ү": 354,
      "ա": 355,
      "ե": 356,
      "ն": 357,
      "ր": 358,
      "ְ": 359,
      "ִ": 360,
      "ַ": 361,
      "ָ": 362,
      "ּ": 363,
      "א": 364,
      "ב": 365,
      "ג": 366,
      "ד": 367,
      "ה": 368,
      "ו": 369,
      "ז": 370,
      "ח": 371,
      "ט": 372,
      "י": 373,
      "ך": 374,
      "כ": 375,
      "ל": 376,
      "ם": 377,
      "מ": 378,
      "ן": 379,
      "נ": 380,
      "ס": 381,
      "ע": 382,
      "פ": 383,
      "צ": 384,
      "ק": 385,
      "ר": 386,
      "ש": 387,
      "ת": 388,
      "؇": 389,
      "،": 390,
      "؏": 391,
      "؛": 392,
      "؜": 393,
      "؟": 394,
      "ء": 395,
      "آ": 396,
      "أ": 397,
      "ؤ": 398,
      "إ": 399,
      "ئ": 400,
      "ا": 401,
      "ب": 402,
      "ة": 403,
      "ت": 404,
      "ث": 405,
      "ج": 406,
      "ح": 407,
      "خ": 408,
      "د": 409,
      "ذ": 410,
      "ر": 411,
      "ز": 412,
      "س": 413,
      "ش": 414,
      "ص": 415,
      "ض": 416,
      "ط": 417,
      "ظ": 418,
      "ع": 419,
      "غ": 420,
      "ػ": 421,
      "ـ": 422,
      "ف": 423,
      "ق": 424,
      "ك": 425,
      "ل": 426,
      "م": 427,
      "ن": 428,
      "ه": 429,
      "و": 430,
      "ى": 431,
      "ي": 432,
      "ً": 433,
      "ٌ": 434,
      "ٍ": 435,
      "َ": 436,
      "ُ": 437,
      "ِ": 438,
      "ّ": 439,
      "ْ": 440,
      "ٓ": 441,
      "ٔ": 442,
      "ٕ": 443,
      "ٖ": 444,
      "ٗ": 445,
      "ٞ": 446,
      "٠": 447,
      "١": 448,
      "٢": 449,
      "٣": 450,
      "٤": 451,
      "٥": 452,
      "٦": 453,
      "٧": 454,
      "٨": 455,
      "٩": 456,
      "٪": 457,
      "٫": 458,
      "٬": 459,
      "٭": 460,
      "ٰ": 461,
      "ٱ": 462,
      "ٲ": 463,
      "ٳ": 464,
      "ٴ": 465,
      "ٹ": 466,
      "ٺ": 467,
      "ٻ": 468,
      "پ": 469,
      "ٿ": 470,
      "چ": 471,
      "ڈ": 472,
      "ڑ": 473,
      "ڕ": 474,
      "ژ": 475,
      "ڤ": 476,
      "ڨ": 477,
      "ک": 478,
      "ڪ": 479,
      "ڭ": 480,
      "گ": 481,
      "ڳ": 482,
      "ڵ": 483,
      "ڷ": 484,
      "ں": 485,
      "ھ": 486,
      "ہ": 487,
      "ۃ": 488,
      "ۆ": 489,
      "ۇ": 490,
      "ۈ": 491,
      "ی": 492,
      "ێ": 493,
      "ې": 494,
      "ے": 495,
      "۔": 496,
      "ە": 497,
      "ۖ": 498,
      "ۗ": 499,
      "ۚ": 500,
      "۝": 501,
      "۞": 502,
      "۟": 503,
      "ۡ": 504,
      "ۢ": 505,
      "ۤ": 506,
      "ۥ": 507,
      "ۦ": 508,
      "۩": 509,
      "۪": 510,
      "۫": 511,
      "۰": 512,
      "۱": 513,
      "۲": 514,
      "۳": 515,
      "۴": 516,
      "۵": 517,
      "۶": 518,
      "۷": 519,
      "۸": 520,
      "۹": 521,
      "ܐ": 522,
      "ܒ": 523,
      "ܓ": 524,
      "ܕ": 525,
      "ܗ": 526,
      "ܘ": 527,
      "ܚ": 528,
      "ܝ": 529,
      "ܟ": 530,
      "ܠ": 531,
      "ܡ": 532,
      "ܢ": 533,
      "ܥ": 534,
      "ܩ": 535,
      "ܪ": 536,
      "ܫ": 537,
      "ܬ": 538,
      "ܳ": 539,
      "ܵ": 540,
      "ं": 541,
      "क": 542,
      "ग": 543,
      "ज": 544,
      "ट": 545,
      "त": 546,
      "द": 547,
      "न": 548,
      "प": 549,
      "ब": 550,
      "भ": 551,
      "म": 552,
      "य": 553,
      "र": 554,
      "ल": 555,
      "व": 556,
      "स": 557,
      "ह": 558,
      "ा": 559,
      "ि": 560,
      "ी": 561,
      "ु": 562,
      "े": 563,
      "ो": 564,
      "्": 565,
      "।": 566,
      "ং": 567,
      "ব": 568,
      "র": 569,
      "ল": 570,
      "া": 571,
      "ি": 572,
      "ে": 573,
      "্": 574,
      "ஐ": 575,
      "ஜ": 576,
      "த": 577,
      "ம": 578,
      "ி": 579,
      "்": 580,
      "ක": 581,
      "න": 582,
      "ල": 583,
      "්": 584,
      "ි": 585,
      "ก": 586,
      "ข": 587,
      "ค": 588,
      "ง": 589,
      "จ": 590,
      "ช": 591,
      "ด": 592,
      "ต": 593,
      "ท": 594,
      "น": 595,
      "บ": 596,
      "ป": 597,
      "พ": 598,
      "ม": 599,
      "ย": 600,
      "ร": 601,
      "ล": 602,
      "ว": 603,
      "ส": 604,
      "ห": 605,
      "อ": 606,
      "ะ": 607,
      "ั": 608,
      "า": 609,
      "ิ": 610,
      "ี": 611,
      "ื": 612,
      "ุ": 613,
      "ู": 614,
      "เ": 615,
      "แ": 616,
      "โ": 617,
      "ไ": 618,
      "่": 619,
      "้": 620,
      "์": 621,
      "๑": 622,
      "ა": 623,
      "ი": 624,
      "რ": 625,
      "ღ": 626,
      "ᅠ": 627,
      "ḥ": 628,
      "ạ": 629,
      "ả": 630,
      "ế": 631,
      "ề": 632,
      "ệ": 633,
      "ị": 634,
      "ố": 635,
      "ộ": 636,
      "ợ": 637,
      "​": 638,
      "‌": 639,
      "‍": 640,
      "‎": 641,
      "‏": 642,
      "‐": 643,
      "–": 644,
      "—": 645,
      "‘": 646,
      "’": 647,
      "‚": 648,
      "“": 649,
      "”": 650,
      "„": 651,
      "†": 652,
      "‡": 653,
      "•": 654,
      "‪": 655,
      "‫": 656,
      "‬": 657,
      "‭": 658,
      "‮": 659,
      "‰": 660,
      "′": 661,
      "‹": 662,
      "›": 663,
      "⁃": 664,
      "⁄": 665,
      "⁠": 666,
      "⁣": 667,
      "⁦": 668,
      "⁧": 669,
      "⁩": 670,
      "₪": 671,
      "€": 672,
      "⃣": 673,
      "←": 674,
      "↑": 675,
      "→": 676,
      "↓": 677,
      "↩": 678,
      "↵": 679,
      "⇐": 680,
      "⇒": 681,
      "⇧": 682,
      "−": 683,
      "√": 684,
      "∞": 685,
      "∫": 686,
      "≈": 687,
      "≡": 688,
      "≤": 689,
      "≥": 690,
      "⋅": 691,
      "⋆": 692,
      "⏤": 693,
      "─": 694,
      "━": 695,
      "│": 696,
      "═": 697,
      "▁": 698,
      "█": 699,
      "░": 700,
      "▓": 701,
      "■": 702,
      "□": 703,
      "▪": 704,
      "▫": 705,
      "▬": 706,
      "▲": 707,
      "▶": 708,
      "▷": 709,
      "►": 710,
      "▼": 711,
      "◀": 712,
      "◄": 713,
      "◆": 714,
      "◉": 715,
      "◊": 716,
      "○": 717,
      "●": 718,
      "◔": 719,
      "◘": 720,
      "◦": 721,
      "☀": 722,
      "☄": 723,
      "★": 724,
      "☆": 725,
      "☎": 726,
      "☑": 727,
      "☕": 728,
      "☝": 729,
      "☺": 730,
      "☼": 731,
      "♀": 732,
      "♂": 733,
      "♛": 734,
      "♠": 735,
      "♡": 736,
      "♢": 737,
      "♣": 738,
      "♥": 739,
      "♦": 740,
      "♪": 741,
      "♫": 742,
      "⚠": 743,
      "⚡": 744,
      "⚽": 745,
      "⛔": 746,
      "✅": 747,
      "✌": 748,
      "✍": 749,
      "✓": 750,
      "✔": 751,
      "✨": 752,
      "✪": 753,
      "✿": 754,
      "❀": 755,
      "❇": 756,
      "❊": 757,
      "❖": 758,
      "❝": 759,
      "❞": 760,
      "❤": 761,
      "❰": 762,
      "❱": 763,
      "⠀": 764,
      "⦁": 765,
      "⬅": 766,
      "⬇": 767,
      "⭐": 768,
      "⭕": 769,
      "ⴰ": 770,
      "ⵉ": 771,
      "ⵍ": 772,
      "ⵎ": 773,
      "ⵏ": 774,
      "ⵓ": 775,
      "ⵙ": 776,
      "ⵜ": 777,
      "、": 778,
      "。": 779,
      "《": 780,
      "》": 781,
      "「": 782,
      "」": 783,
      "【": 784,
      "】": 785,
      "い": 786,
      "う": 787,
      "お": 788,
      "か": 789,
      "が": 790,
      "こ": 791,
      "し": 792,
      "す": 793,
      "た": 794,
      "っ": 795,
      "て": 796,
      "で": 797,
      "と": 798,
      "な": 799,
      "に": 800,
      "の": 801,
      "は": 802,
      "ま": 803,
      "ら": 804,
      "り": 805,
      "る": 806,
      "れ": 807,
      "を": 808,
      "ん": 809,
      "ア": 810,
      "イ": 811,
      "カ": 812,
      "ク": 813,
      "グ": 814,
      "コ": 815,
      "シ": 816,
      "ジ": 817,
      "ス": 818,
      "タ": 819,
      "ッ": 820,
      "ツ": 821,
      "テ": 822,
      "ト": 823,
      "ド": 824,
      "ビ": 825,
      "フ": 826,
      "プ": 827,
      "マ": 828,
      "ラ": 829,
      "リ": 830,
      "ル": 831,
      "レ": 832,
      "ロ": 833,
      "ン": 834,
      "・": 835,
      "ー": 836,
      "一": 837,
      "上": 838,
      "中": 839,
      "人": 840,
      "体": 841,
      "前": 842,
      "台": 843,
      "国": 844,
      "在": 845,
      "多": 846,
      "大": 847,
      "天": 848,
      "年": 849,
      "文": 850,
      "新": 851,
      "日": 852,
      "时": 853,
      "有": 854,
      "本": 855,
      "灣": 856,
      "现": 857,
      "用": 858,
      "的": 859,
      "简": 860,
      "繁": 861,
      "語": 862,
      "达": 863,
      "返": 864,
      "體": 865,
      "高": 866,
      "국": 867,
      "기": 868,
      "대": 869,
      "민": 870,
      "번": 871,
      "보": 872,
      "스": 873,
      "어": 874,
      "역": 875,
      "이": 876,
      "한": 877,
      "": 878,
      "": 879,
      "": 880,
      "": 881,
      "": 882,
      "": 883,
      "": 884,
      "": 885,
      "": 886,
      "": 887,
      "": 888,
      "": 889,
      "": 890,
      "": 891,
      "": 892,
      "": 893,
      "": 894,
      "": 895,
      "": 896,
      "": 897,
      "": 898,
      "": 899,
      "": 900,
      "": 901,
      "": 902,
      "": 903,
      "": 904,
      "": 905,
      "": 906,
      "﴾": 907,
      "﴿": 908,
      "︎": 909,
      "️": 910,
      "﻿": 911,
      "￼": 912,
      "�": 913,
      "🇦": 914,
      "🇧": 915,
      "🇩": 916,
      "🇪": 917,
      "🇬": 918,
      "🇮": 919,
      "🇰": 920,
      "🇱": 921,
      "🇲": 922,
      "🇳": 923,
      "🇴": 924,
      "🇵": 925,
      "🇶": 926,
      "🇷": 927,
      "🇸": 928,
      "🇹": 929,
      "🇺": 930,
      "🇿": 931,
      "🌟": 932,
      "🌷": 933,
      "🌸": 934,
      "🌹": 935,
      "🌺": 936,
      "🍃": 937,
      "🏆": 938,
      "🏻": 939,
      "🏼": 940,
      "👇": 941,
      "👈": 942,
      "👉": 943,
      "👌": 944,
      "👍": 945,
      "👏": 946,
      "👑": 947,
      "💎": 948,
      "💐": 949,
      "💔": 950,
      "💕": 951,
      "💖": 952,
      "💗": 953,
      "💙": 954,
      "💚": 955,
      "💛": 956,
      "💜": 957,
      "💡": 958,
      "💥": 959,
      "💪": 960,
      "💯": 961,
      "💻": 962,
      "📌": 963,
      "📍": 964,
      "📕": 965,
      "📖": 966,
      "📗": 967,
      "📘": 968,
      "📙": 969,
      "📚": 970,
      "🔔": 971,
      "🔥": 972,
      "🔴": 973,
      "🔵": 974,
      "🔸": 975,
      "🔹": 976,
      "🕔": 977,
      "🖤": 978,
      "😀": 979,
      "😁": 980,
      "😂": 981,
      "😅": 982,
      "😉": 983,
      "😊": 984,
      "😋": 985,
      "😍": 986,
      "😎": 987,
      "😘": 988,
      "😢": 989,
      "😭": 990,
      "😱": 991,
      "🙁": 992,
      "🙂": 993,
      "🙏": 994,
      "🤍": 995,
      "🤔": 996,
      "🤣": 997,
      "🤩": 998,
      "🥇": 999,
      "🥰": 1000,
      "▁ب": 1001,
      "▁ف": 1002,
      "▁أ": 1003,
      "▁ل": 1004,
      "▁ع": 1005,
      "وا": 1006,
      "▁ت": 1007,
      "ية": 1008,
      "من": 1009,
      "لا": 1010,
      "ات": 1011,
      "▁في": 1012,
      "ما": 1013,
      "▁من": 1014,
      "ار": 1015,
      "▁ي": 1016,
      "لت": 1017,
      "ان": 1018,
      "ين": 1019,
      "لى": 1020,
      "▁وا": 1021,
      "ها": 1022,
      "▁ك": 1023,
      "لي": 1024,
      "الت": 1025,
      "▁إ": 1026,
      "ير": 1027,
      "لأ": 1028,
      "▁الت": 1029,
      "را": 1030,
      "لع": 1031,
      "ون": 1032,
      "الأ": 1033,
      "ول": 1034,
      "▁الأ": 1035,
      "▁ح": 1036,
      "▁س": 1037,
      "ري": 1038,
      "ام": 1039,
      ".\n": 1040,
      "لس": 1041,
      "الع": 1042,
      "نا": 1043,
      "مع": 1044,
      "ست": 1045,
      "لك": 1046,
      "▁ق": 1047,
      "▁ه": 1048,
      "▁الع": 1049,
      "▁على": 1050,
      "لح": 1051,
      "لب": 1052,
      "ور": 1053,
      "دي": 1054,
      "الا": 1055,
      "▁ن": 1056,
      "لف": 1057,
      "اب": 1058,
      "لق": 1059,
      "▁أن": 1060,
      "الح": 1061,
      "▁ج": 1062,
      "الس": 1063,
      "وم": 1064,
      "▁الا": 1065,
      "▁الس": 1066,
      "▁الح": 1067,
      "يا": 1068,
      "دة": 1069,
      "لج": 1070,
      "دا": 1071,
      "لة": 1072,
      "▁ش": 1073,
      "وق": 1074,
      "▁خ": 1075,
      "الب": 1076,
      "مر": 1077,
      "هم": 1078,
      "لن": 1079,
      "لإ": 1080,
      "الج": 1081,
      "مت": 1082,
      "لد": 1083,
      "لش": 1084,
      "▁ر": 1085,
      "وي": 1086,
      "▁مع": 1087,
      "مح": 1088,
      "▁عن": 1089,
      "الف": 1090,
      "الق": 1091,
      "مي": 1092,
      "وت": 1093,
      "▁الب": 1094,
      "له": 1095,
      "▁الج": 1096,
      "الإ": 1097,
      "▁الق": 1098,
      "الش": 1099,
      "ذا": 1100,
      "بي": 1101,
      "▁الف": 1102,
      "▁د": 1103,
      "لص": 1104,
      "▁ص": 1105,
      "▁الش": 1106,
      "وع": 1107,
      "..": 1108,
      "▁،": 1109,
      "لخ": 1110,
      "الن": 1111,
      "▁الإ": 1112,
      "▁إلى": 1113,
      "وب": 1114,
      "اع": 1115,
      "الك": 1116,
      "رة": 1117,
      "لر": 1118,
      "▁2": 1119,
      "الد": 1120,
      "ائ": 1121,
      "اء": 1122,
      "▁ما": 1123,
      "اد": 1124,
      "مة": 1125,
      "اف": 1126,
      "وس": 1127,
      "مس": 1128,
      "▁الك": 1129,
      "▁الن": 1130,
      "الص": 1131,
      "الخ": 1132,
      "▁ط": 1133,
      "وف": 1134,
      "مد": 1135,
      "رب": 1136,
      "▁الد": 1137,
      "كن": 1138,
      "الر": 1139,
      "▁الخ": 1140,
      "▁الص": 1141,
      "ارة": 1142,
      "رك": 1143,
      "▁1": 1144,
      "مل": 1145,
      "▁الر": 1146,
      "وج": 1147,
      "ود": 1148,
      "لذ": 1149,
      "لط": 1150,
      "قة": 1151,
      "▁وت": 1152,
      "مج": 1153,
      "عد": 1154,
      "مص": 1155,
      "اح": 1156,
      "الذ": 1157,
      "▁\"": 1158,
      "الي": 1159,
      "لو": 1160,
      "▁(": 1161,
      "▁الذ": 1162,
      "▁التي": 1163,
      "▁مح": 1164,
      "اس": 1165,
      "عة": 1166,
      "يد": 1167,
      "▁ان": 1168,
      "مش": 1169,
      "نت": 1170,
      "ني": 1171,
      "بر": 1172,
      "▁أو": 1173,
      "▁لا": 1174,
      "وأ": 1175,
      "▁وال": 1176,
      "▁وأ": 1177,
      "يل": 1178,
      "قد": 1179,
      "يس": 1180,
      "▁20": 1181,
      "قي": 1182,
      "▁غ": 1183,
      "الط": 1184,
      "يف": 1185,
      "▁-": 1186,
      "وك": 1187,
      "▁ذ": 1188,
      "▁الط": 1189,
      "است": 1190,
      "رف": 1191,
      "▁تح": 1192,
      "سب": 1193,
      "لمن": 1194,
      "وه": 1195,
      "نة": 1196,
      "اص": 1197,
      "لغ": 1198,
      "خر": 1199,
      "لما": 1200,
      "ذه": 1201,
      "اج": 1202,
      "▁وق": 1203,
      "ًا": 1204,
      "مست": 1205,
      "لث": 1206,
      "المن": 1207,
      "▁تع": 1208,
      "مق": 1209,
      "▁علي": 1210,
      "لمت": 1211,
      "مط": 1212,
      "الث": 1213,
      "لية": 1214,
      "▁المن": 1215,
      "الو": 1216,
      "▁آ": 1217,
      "▁كان": 1218,
      "يت": 1219,
      "▁هذا": 1220,
      "▁است": 1221,
      "المت": 1222,
      "▁يت": 1223,
      "▁المت": 1224,
      "لله": 1225,
      "وز": 1226,
      "مك": 1227,
      "▁بن": 1228,
      "▁وي": 1229,
      "▁الو": 1230,
      "موا": 1231,
      "وح": 1232,
      "▁مص": 1233,
      "▁ث": 1234,
      "وض": 1235,
      "مب": 1236,
      "كر": 1237,
      "بة": 1238,
      "اه": 1239,
      "الله": 1240,
      "ولا": 1241,
      "اً": 1242,
      "▁وه": 1243,
      "▁الث": 1244,
      "خت": 1245,
      "لمع": 1246,
      "▁الي": 1247,
      "يع": 1248,
      "كل": 1249,
      "▁الله": 1250,
      "▁مت": 1251,
      "دم": 1252,
      "يرة": 1253,
      "▁وم": 1254,
      "لال": 1255,
      "حد": 1256,
      "المع": 1257,
      "▁أي": 1258,
      "اط": 1259,
      "▁ز": 1260,
      "▁مج": 1261,
      "مث": 1262,
      "▁ول": 1263,
      "▁هذه": 1264,
      "ية،": 1265,
      "اق": 1266,
      "كون": 1267,
      "مكن": 1268,
      "شر": 1269,
      "▁..": 1270,
      "▁الذي": 1271,
      "يات": 1272,
      "▁المع": 1273,
      "راء": 1274,
      "لمح": 1275,
      "▁كل": 1276,
      "▁إن": 1277,
      "▁بين": 1278,
      "سي": 1279,
      "مه": 1280,
      "ديد": 1281,
      "▁والت": 1282,
      "صل": 1283,
      "رض": 1284,
      "ارات": 1285,
      "بل": 1286,
      "المح": 1287,
      "أن": 1288,
      "اله": 1289,
      "▁وب": 1290,
      "▁.": 1291,
      "▁بعد": 1292,
      "▁مس": 1293,
      "▁لت": 1294,
      "لات": 1295,
      "ثر": 1296,
      "▁المح": 1297,
      "▁هو": 1298,
      "▁مر": 1299,
      "الما": 1300,
      "▁كس": 1301,
      "اني": 1302,
      "▁ض": 1303,
      "▁وك": 1304,
      "لام": 1305,
      "ته": 1306,
      "جر": 1307,
      "▁وف": 1308,
      "ند": 1309,
      "لمس": 1310,
      "▁أك": 1311,
      "▁وس": 1312,
      "لمر": 1313,
      "ة،": 1314,
      "عا": 1315,
      "ئيس": 1316,
      "▁الما": 1317,
      "▁يع": 1318,
      "لز": 1319,
      "▁اله": 1320,
      "▁لم": 1321,
      "الغ": 1322,
      "في": 1323,
      "00": 1324,
      "يم": 1325,
      "▁وع": 1326,
      "مؤ": 1327,
      "ركة": 1328,
      "حة": 1329,
      "▁مش": 1330,
      "هر": 1331,
      "▁بع": 1332,
      "▁ذلك": 1333,
      "▁تق": 1334,
      "ولة": 1335,
      "رات": 1336,
      "▁مط": 1337,
      "تب": 1338,
      "المس": 1339,
      "المر": 1340,
      "خص": 1341,
      "▁201": 1342,
      "طة": 1343,
      "رق": 1344,
      "فا": 1345,
      "بد": 1346,
      "وات": 1347,
      "▁المس": 1348,
      "ريق": 1349,
      "▁خلال": 1350,
      "▁قد": 1351,
      "وص": 1352,
      "حت": 1353,
      "عر": 1354,
      "▁المر": 1355,
      "سم": 1356,
      "كم": 1357,
      "▁وج": 1358,
      "▁كسارة": 1359,
      "رد": 1360,
      "فس": 1361,
      "اري": 1362,
      "▁با": 1363,
      "▁تت": 1364,
      "وط": 1365,
      "▁مد": 1366,
      "رج": 1367,
      "ورة": 1368,
      "▁الغ": 1369,
      "لمش": 1370,
      "يث": 1371,
      "▁أس": 1372,
      "▁الأس": 1373,
      "in": 1374,
      "ولي": 1375,
      "مال": 1376,
      "لمص": 1377,
      "سة": 1378,
      "فض": 1379,
      "نية": 1380,
      "▁3": 1381,
      "تي": 1382,
      "▁هي": 1383,
      "▁أع": 1384,
      "▁يمكن": 1385,
      "▁:": 1386,
      "الز": 1387,
      "لمست": 1388,
      "المص": 1389,
      "حن": 1390,
      "ــ": 1391,
      "▁كما": 1392,
      "▁الز": 1393,
      "ذلك": 1394,
      "▁المص": 1395,
      "▁فى": 1396,
      "قل": 1397,
      "وري": 1398,
      "كس": 1399,
      "▁وح": 1400,
      "وى": 1401,
      "از": 1402,
      "َّ": 1403,
      "المش": 1404,
      "عي": 1405,
      "افة": 1406,
      "الة": 1407,
      "لمج": 1408,
      "إن": 1409,
      "er": 1410,
      "▁المش": 1411,
      "▁العا": 1412,
      "لآ": 1413,
      "فع": 1414,
      "لنا": 1415,
      "الى": 1416,
      "▁له": 1417,
      "عب": 1418,
      "▁تج": 1419,
      "المست": 1420,
      "▁بت": 1421,
      "هد": 1422,
      "تى": 1423,
      "▁المست": 1424,
      "▁العام": 1425,
      "رائ": 1426,
      "مية": 1427,
      "نع": 1428,
      "دات": 1429,
      "▁بش": 1430,
      "خد": 1431,
      "زي": 1432,
      "اض": 1433,
      "لمد": 1434,
      "الآ": 1435,
      "وية": 1436,
      "▁مق": 1437,
      "▁مست": 1438,
      "▁حيث": 1439,
      "▁الآ": 1440,
      "المج": 1441,
      "▁تص": 1442,
      "▁تن": 1443,
      "ئة": 1444,
      "▁عند": 1445,
      "▁اليوم": 1446,
      "▁المج": 1447,
      "تما": 1448,
      "تها": 1449,
      "▁بد": 1450,
      "20": 1451,
      "ثير": 1452,
      "اش": 1453,
      "نس": 1454,
      "دد": 1455,
      "▁أب": 1456,
      "يب": 1457,
      "انية": 1458,
      "ينة": 1459,
      "▁ولا": 1460,
      "وقع": 1461,
      "لوا": 1462,
      "▁يق": 1463,
      "▁عام": 1464,
      "المد": 1465,
      "ميع": 1466,
      "تص": 1467,
      "▁قا": 1468,
      "مثل": 1469,
      "▁العال": 1470,
      "ومن": 1471,
      "▁الأم": 1472,
      "كت": 1473,
      "▁المد": 1474,
      "فت": 1475,
      "▁سي": 1476,
      "▁الاست": 1477,
      "▁مك": 1478,
      "▁مب": 1479,
      "وة": 1480,
      "رس": 1481,
      "▁عليه": 1482,
      "ناء": 1483,
      "مز": 1484,
      "▁بح": 1485,
      "▁ون": 1486,
      "▁.\n": 1487,
      "لمق": 1488,
      "▁غير": 1489,
      "▁قبل": 1490,
      "▁ومن": 1491,
      "حنة": 1492,
      "كي": 1493,
      "جه": 1494,
      "لموا": 1495,
      "مان": 1496,
      "رية": 1497,
      "▁دا": 1498,
      "حي": 1499,
      "an": 1500,
      "النا": 1501,
      "▁به": 1502,
      "بار": 1503,
      "▁قال": 1504,
      "▁يج": 1505,
      "رت": 1506,
      "عم": 1507,
      "ربية": 1508,
      "المق": 1509,
      "مو": 1510,
      "▁تش": 1511,
      "ملك": 1512,
      "▁النا": 1513,
      "▁حتى": 1514,
      "حدة": 1515,
      "▁المق": 1516,
      "▁تس": 1517,
      "ملي": 1518,
      "▁هنا": 1519,
      "▁وز": 1520,
      "on": 1521,
      "▁نا": 1522,
      "تر": 1523,
      "▁للت": 1524,
      "▁بعض": 1525,
      "اي": 1526,
      "خل": 1527,
      "▁مطحنة": 1528,
      "▁الى": 1529,
      "عل": 1530,
      "▁بر": 1531,
      "مين": 1532,
      "جل": 1533,
      "▁ور": 1534,
      "▁اح": 1535,
      "ملا": 1536,
      "▁للب": 1537,
      "بت": 1538,
      "▁«": 1539,
      "ارك": 1540,
      "لض": 1541,
      "مرا": 1542,
      "▁4": 1543,
      "▁اب": 1544,
      "قط": 1545,
      "وان": 1546,
      "زة": 1547,
      "▁لي": 1548,
      "▁أنه": 1549,
      "قا": 1550,
      "▁عمل": 1551,
      "الموا": 1552,
      "▁5": 1553,
      "در": 1554,
      "فر": 1555,
      "▁0": 1556,
      "صر": 1557,
      "ه،": 1558,
      "وإ": 1559,
      "▁الموا": 1560,
      "حق": 1561,
      "▁تم": 1562,
      "▁أكثر": 1563,
      "▁والأ": 1564,
      "▁وإ": 1565,
      "بح": 1566,
      "تج": 1567,
      "موع": 1568,
      "▁كب": 1569,
      "عية": 1570,
      "أس": 1571,
      "فضل": 1572,
      "يان": 1573,
      "لاق": 1574,
      "مام": 1575,
      "or": 1576,
      "صول": 1577,
      "▁إذا": 1578,
      "▁ات": 1579,
      "بع": 1580,
      "▁عا": 1581,
      "خرى": 1582,
      "مخ": 1583,
      "ابة": 1584,
      "▁اس": 1585,
      "مغ": 1586,
      "ضا": 1587,
      "▁أح": 1588,
      "مخت": 1589,
      "خدام": 1590,
      "ومة": 1591,
      "▁محمد": 1592,
      "اصة": 1593,
      "ضي": 1594,
      "ها،": 1595,
      "ظام": 1596,
      "▁مؤ": 1597,
      "كا": 1598,
      "▁وهو": 1599,
      "▁موا": 1600,
      "▁التع": 1601,
      "▁...\n": 1602,
      "▁A": 1603,
      "مات": 1604,
      "▁خط": 1605,
      "▁الرئيس": 1606,
      "غير": 1607,
      "▁يوم": 1608,
      "ar": 1609,
      "طم": 1610,
      "الض": 1611,
      "ين،": 1612,
      "ظر": 1613,
      "▁اع": 1614,
      "صة": 1615,
      "وش": 1616,
      "تح": 1617,
      "▁وفي": 1618,
      "موقع": 1619,
      "ديدة": 1620,
      "يج": 1621,
      "قيق": 1622,
      "▁الض": 1623,
      "▁كانت": 1624,
      "▁آلة": 1625,
      "▁تط": 1626,
      "طن": 1627,
      "عت": 1628,
      "لمط": 1629,
      "es": 1630,
      "▁يكون": 1631,
      "رار": 1632,
      "▁العمل": 1633,
      "▁لأ": 1634,
      "at": 1635,
      "بات": 1636,
      "خدم": 1637,
      "▁عبد": 1638,
      "▁رئيس": 1639,
      "لاث": 1640,
      "ديث": 1641,
      "ركات": 1642,
      "امل": 1643,
      "▁ولكن": 1644,
      "فق": 1645,
      "▁ست": 1646,
      "▁ثم": 1647,
      "▁وص": 1648,
      "كز": 1649,
      "يار": 1650,
      "▁|": 1651,
      "فة": 1652,
      "هب": 1653,
      "قدم": 1654,
      "ودة": 1655,
      "▁,": 1656,
      "▁–": 1657,
      "▁التج": 1658,
      "با": 1659,
      "▁الإس": 1660,
      "▁والا": 1661,
      "لمب": 1662,
      "▁تأ": 1663,
      "▁P": 1664,
      "عار": 1665,
      "وني": 1666,
      "وما": 1667,
      "المط": 1668,
      "▁العالم": 1669,
      "▁والع": 1670,
      "▁التح": 1671,
      "al": 1672,
      "لمؤ": 1673,
      "▁بشكل": 1674,
      "▁لأن": 1675,
      "▁المط": 1676,
      "▁S": 1677,
      "▁محطم": 1678,
      "en": 1679,
      "▁مثل": 1680,
      "مض": 1681,
      "▁الحجر": 1682,
      "▁فإن": 1683,
      "▁لكن": 1684,
      "▁السيا": 1685,
      "▁مصر": 1686,
      "كية": 1687,
      "ريد": 1688,
      "طقة": 1689,
      "عود": 1690,
      "▁بأ": 1691,
      "يط": 1692,
      "دى": 1693,
      "▁جميع": 1694,
      "▁تد": 1695,
      "▁حس": 1696,
      "▁طحن": 1697,
      "ليل": 1698,
      "راق": 1699,
      "▁فر": 1700,
      "ئية": 1701,
      "▁مي": 1702,
      "نب": 1703,
      "▁أص": 1704,
      "لوم": 1705,
      "اعة": 1706,
      "المب": 1707,
      "المؤ": 1708,
      "▁قط": 1709,
      "▁المب": 1710,
      "داد": 1711,
      "▁ار": 1712,
      "اك": 1713,
      "الات": 1714,
      "اريخ": 1715,
      "ليم": 1716,
      "لمك": 1717,
      "▁المؤ": 1718,
      "وير": 1719,
      "يش": 1720,
      "روع": 1721,
      "▁يتم": 1722,
      "▁C": 1723,
      "الوا": 1724,
      "▁وقد": 1725,
      "▁t": 1726,
      "▁نفس": 1727,
      "▁M": 1728,
      "▁بها": 1729,
      "▁هناك": 1730,
      "ربي": 1731,
      "رح": 1732,
      "▁بأن": 1733,
      "داول": 1734,
      "▁\n": 1735,
      "نان": 1736,
      "مار": 1737,
      "▁تست": 1738,
      "▁الانت": 1739,
      "\".\n": 1740,
      "▁أخ": 1741,
      "به": 1742,
      "▁تحت": 1743,
      "فاع": 1744,
      "▁حول": 1745,
      "▁...": 1746,
      "▁6": 1747,
      "شف": 1748,
      "داء": 1749,
      "▁البح": 1750,
      "ارج": 1751,
      "لوق": 1752,
      "▁كيف": 1753,
      "ميل": 1754,
      "▁19": 1755,
      "▁يح": 1756,
      "عات": 1757,
      "صف": 1758,
      "يني": 1759,
      "▁ظ": 1760,
      "▁أم": 1761,
      "وخ": 1762,
      "▁للبيع": 1763,
      "▁يس": 1764,
      "بط": 1765,
      "هي": 1766,
      "▁بالت": 1767,
      "اة": 1768,
      "▁يست": 1769,
      "▁شركة": 1770,
      "▁الوا": 1771,
      "لري": 1772,
      "▁بط": 1773,
      "▁أحد": 1774,
      "وث": 1775,
      "▁شي": 1776,
      "المك": 1777,
      "مختلف": 1778,
      "▁لك": 1779,
      "نى": 1780,
      "21": 1781,
      "قع": 1782,
      "ic": 1783,
      "نام": 1784,
      "▁أش": 1785,
      "▁المك": 1786,
      "▁دي": 1787,
      "سبة": 1788,
      "▁فيها": 1789,
      "▁عدد": 1790,
      "ينا": 1791,
      "▁للأ": 1792,
      "▁إلا": 1793,
      "ضاء": 1794,
      "اخت": 1795,
      "▁التن": 1796,
      "▁فيه": 1797,
      "▁عبر": 1798,
      "ئي": 1799,
      "يادة": 1800,
      "راج": 1801,
      "▁عب": 1802,
      "▁حد": 1803,
      "افظ": 1804,
      "تاب": 1805,
      "موس": 1806,
      "سبب": 1807,
      "اعد": 1808,
      "موض": 1809,
      "ونة": 1810,
      "هل": 1811,
      "▁/": 1812,
      "▁للا": 1813,
      "سات": 1814,
      "وار": 1815,
      "جم": 1816,
      "يارات": 1817,
      "▁الأخ": 1818,
      "▁p": 1819,
      "▁إلي": 1820,
      "▁نق": 1821,
      "▁اخت": 1822,
      "▁يد": 1823,
      "▁الحك": 1824,
      "لمي": 1825,
      "ورية": 1826,
      "انون": 1827,
      "▁سن": 1828,
      "الوق": 1829,
      "صد": 1830,
      "▁لن": 1831,
      "▁العربية": 1832,
      "رير": 1833,
      "▁الوق": 1834,
      "ريب": 1835,
      "عدين": 1836,
      "▁والس": 1837,
      "▁ملي": 1838,
      "لل": 1839,
      "بيق": 1840,
      "او": 1841,
      "▁الدول": 1842,
      "▁وقا": 1843,
      "واء": 1844,
      "▁والح": 1845,
      "لمغ": 1846,
      "موعة": 1847,
      "▁المتحدة": 1848,
      "▁انت": 1849,
      "▁بك": 1850,
      "ارية": 1851,
      "الري": 1852,
      "▁وقال": 1853,
      "اخ": 1854,
      "▁لها": 1855,
      "دارة": 1856,
      "▁يش": 1857,
      "▁رس": 1858,
      "ائل": 1859,
      "لرا": 1860,
      "▁8": 1861,
      "▁10": 1862,
      "it": 1863,
      "▁وكان": 1864,
      "لاح": 1865,
      "▁وض": 1866,
      "▁لإ": 1867,
      "▁الأول": 1868,
      "مف": 1869,
      "بق": 1870,
      "▁مصنع": 1871,
      "▁منذ": 1872,
      "ضافة": 1873,
      "▁دون": 1874,
      "▁تكون": 1875,
      "▁أفضل": 1876,
      "▁ام": 1877,
      "▁وش": 1878,
      "▁ري": 1879,
      "▁لح": 1880,
      "رى": 1881,
      "▁موقع": 1882,
      "▁الري": 1883,
      "جتما": 1884,
      "فل": 1885,
      "▁الأع": 1886,
      "▁بإ": 1887,
      "يه": 1888,
      "▁لع": 1889,
      "▁را": 1890,
      "نامج": 1891,
      "ريقة": 1892,
      "▁للح": 1893,
      "▁7": 1894,
      "▁تك": 1895,
      "▁حق": 1896,
      "▁وهي": 1897,
      "▁اق": 1898,
      "▁الذين": 1899,
      "▁الذهب": 1900,
      "رفة": 1901,
      "داً": 1902,
      "لمز": 1903,
      "▁فقط": 1904,
      "▁بس": 1905,
      "▁أف": 1906,
      "▁الكرة": 1907,
      "تمع": 1908,
      "الرا": 1909,
      "لاً": 1910,
      "المغ": 1911,
      "وَ": 1912,
      "▁فت": 1913,
      "\"،": 1914,
      "لمه": 1915,
      "▁آخر": 1916,
      "▁للع": 1917,
      "زل": 1918,
      "وظ": 1919,
      "▁التق": 1920,
      "يفة": 1921,
      "جة": 1922,
      "ديم": 1923,
      "لدا": 1924,
      "▁الصح": 1925,
      "جد": 1926,
      "ولى": 1927,
      "▁يجب": 1928,
      "▁الرا": 1929,
      "et": 1930,
      "ou": 1931,
      "▁المغ": 1932,
      "ضاف": 1933,
      "om": 1934,
      "سية": 1935,
      "▁بل": 1936,
      "لاد": 1937,
      "▁)": 1938,
      "لسط": 1939,
      "ابات": 1940,
      ":\n": 1941,
      "مما": 1942,
      "زا": 1943,
      "▁[": 1944,
      "▁بي": 1945,
      "انب": 1946,
      "▁بق": 1947,
      "▁الوز": 1948,
      "لاف": 1949,
      "▁ين": 1950,
      "غي": 1951,
      "▁أخرى": 1952,
      "مُ": 1953,
      "المز": 1954,
      "كد": 1955,
      "▁s": 1956,
      "عودية": 1957,
      "▁سعر": 1958,
      "is": 1959,
      "▁والب": 1960,
      "▁تف": 1961,
      "الدا": 1962,
      "▁اج": 1963,
      "▁تلك": 1964,
      "لان": 1965,
      "▁معدات": 1966,
      "▁الاس": 1967,
      "وذلك": 1968,
      "▁الاق": 1969,
      "▁الدا": 1970,
      "▁T": 1971,
      "ّة": 1972,
      "▁الوط": 1973,
      "▁والإ": 1974,
      "▁وذلك": 1975,
      "لاج": 1976,
      "▁لج": 1977,
      "▁خام": 1978,
      "فال": 1979,
      "يران": 1980,
      "▁والتي": 1981,
      "▁وط": 1982,
      "ضع": 1983,
      "▁استخدام": 1984,
      "وين": 1985,
      "▁ود": 1986,
      "هما": 1987,
      "وائ": 1988,
      "▁c": 1989,
      "▁القر": 1990,
      "نوب": 1991,
      "▁وخ": 1992,
      "يام": 1993,
      "لها": 1994,
      "كة": 1995,
      "▁الصين": 1996,
      "▁المز": 1997,
      "جا": 1998,
      "▁الجز": 1999,
      "ed": 2000,
      "▁عملية": 2001,
      "▁ترك": 2002,
      "اذ": 2003,
      "▁وأن": 2004,
      "▁كبير": 2005,
      "لومات": 2006,
      "...": 2007,
      "▁منها": 2008,
      "▁ذات": 2009,
      "▁ليس": 2010,
      "أة": 2011,
      "حدث": 2012,
      "؟\n": 2013,
      "تصاد": 2014,
      "موج": 2015,
      "▁وما": 2016,
      "يق": 2017,
      "شار": 2018,
      "ادر": 2019,
      "▁عليها": 2020,
      "نتاج": 2021,
      "مون": 2022,
      "بية": 2023,
      "راف": 2024,
      "ياة": 2025,
      "▁شخص": 2026,
      "قيقة": 2027,
      "▁البر": 2028,
      "▁او": 2029,
      "ظم": 2030,
      "▁مما": 2031,
      "ياً": 2032,
      "▁إس": 2033,
      "المه": 2034,
      "▁الخط": 2035,
      "مَ": 2036,
      "▁الشي": 2037,
      "▁لق": 2038,
      "لاء": 2039,
      "▁أق": 2040,
      "▁بال": 2041,
      "حم": 2042,
      "ية.": 2043,
      "as": 2044,
      "فاق": 2045,
      "ومع": 2046,
      "▁المه": 2047,
      "▁يُ": 2048,
      "▁m": 2049,
      "▁اف": 2050,
      "اقة": 2051,
      "▁G": 2052,
      "تم": 2053,
      "غم": 2054,
      "▁اي": 2055,
      "غط": 2056,
      "▁بالإ": 2057,
      "باب": 2058,
      "ائر": 2059,
      "▁الفر": 2060,
      "مارات": 2061,
      "▁بما": 2062,
      "▁عندما": 2063,
      "▁الوقت": 2064,
      "ضر": 2065,
      "▁ها": 2066,
      "▁نت": 2067,
      "حو": 2068,
      "ابق": 2069,
      "▁الهند": 2070,
      "▁ومع": 2071,
      "▁الان": 2072,
      "▁9": 2073,
      "▁أيض": 2074,
      "وسط": 2075,
      "▁السعودية": 2076,
      "▁قائ": 2077,
      "▁الأح": 2078,
      "▁الفك": 2079,
      "ويل": 2080,
      "▁طريق": 2081,
      "عادة": 2082,
      "ي،": 2083,
      "▁أد": 2084,
      "جراء": 2085,
      "ودي": 2086,
      "▁مرا": 2087,
      "مهم": 2088,
      "▁مخ": 2089,
      "▁أما": 2090,
      "▁تر": 2091,
      "دمات": 2092,
      "قال": 2093,
      "راض": 2094,
      "ياء": 2095,
      "▁والق": 2096,
      "le": 2097,
      "ظهر": 2098,
      "▁مختلف": 2099,
      "ورد": 2100,
      "▁مجلس": 2101,
      "▁الآن": 2102,
      "كان": 2103,
      "موضوع": 2104,
      "▁فقد": 2105,
      "ظيم": 2106,
      "▁أج": 2107,
      "▁الاجتما": 2108,
      "he": 2109,
      "وقف": 2110,
      "▁لدي": 2111,
      "يز": 2112,
      "▁والد": 2113,
      "▁مه": 2114,
      "▁العديد": 2115,
      "ميز": 2116,
      "▁أول": 2117,
      "للا": 2118,
      "فيذ": 2119,
      "لوب": 2120,
      "تك": 2121,
      "الية": 2122,
      "هاز": 2123,
      "▁الإع": 2124,
      "ولار": 2125,
      "منت": 2126,
      "امعة": 2127,
      "ملكة": 2128,
      "رها": 2129,
      "▁مجموعة": 2130,
      "▁ابن": 2131,
      "ac": 2132,
      "شة": 2133,
      "▁سحق": 2134,
      "▁صح": 2135,
      "▁الناس": 2136,
      "اللا": 2137,
      "▁هل": 2138,
      "▁كنت": 2139,
      "▁تخ": 2140,
      "قم": 2141,
      "▁الكثير": 2142,
      "201": 2143,
      "▁والف": 2144,
      "لكتر": 2145,
      "غيرة": 2146,
      "▁الأمري": 2147,
      "واع": 2148,
      "▁اللا": 2149,
      "ing": 2150,
      "ذكر": 2151,
      "▁الرياض": 2152,
      "ِّ": 2153,
      "ابع": 2154,
      "▁بالن": 2155,
      "▁لب": 2156,
      "رنت": 2157,
      "▁أبو": 2158,
      "يك": 2159,
      "وبي": 2160,
      "re": 2161,
      "هة": 2162,
      "▁لد": 2163,
      "ية.\n": 2164,
      "ونا": 2165,
      "وركس": 2166,
      "▁وَ": 2167,
      "▁والن": 2168,
      "▁12": 2169,
      "▁B": 2170,
      "▁الأط": 2171,
      "وله": 2172,
      "▁واست": 2173,
      "▁200": 2174,
      "امة": 2175,
      "لمخ": 2176,
      "▁القط": 2177,
      "▁الخاصة": 2178,
      "ملة": 2179,
      "زيز": 2180,
      "وجد": 2181,
      "▁جديدة": 2182,
      "اث": 2183,
      "▁بسبب": 2184,
      "يح": 2185,
      "▁والش": 2186,
      "نين": 2187,
      "▁ولي": 2188,
      "برا": 2189,
      "▁كبيرة": 2190,
      "مبر": 2191,
      "حلة": 2192,
      "▁عمر": 2193,
      "ل،": 2194,
      "▁وقت": 2195,
      "بس": 2196,
      "واصل": 2197,
      "▁أهم": 2198,
      "ــــ": 2199,
      "▁والج": 2200,
      "▁سيا": 2201,
      "احة": 2202,
      "ماء": 2203,
      "▁بج": 2204,
      "▁واحد": 2205,
      "ظمة": 2206,
      "▁تب": 2207,
      "▁الاحت": 2208,
      "عيد": 2209,
      "▁2021": 2210,
      "ميم": 2211,
      "لَ": 2212,
      "زب": 2213,
      "ات،": 2214,
      "▁البي": 2215,
      "▁الشر": 2216,
      "▁إع": 2217,
      "مملكة": 2218,
      "▁الإنس": 2219,
      "زمة": 2220,
      "▁ثلاث": 2221,
      "المخ": 2222,
      "▁نوع": 2223,
      "▁لما": 2224,
      "نج": 2225,
      "راد": 2226,
      "▁فه": 2227,
      "ضة": 2228,
      "▁الطبي": 2229,
      "سن": 2230,
      "▁العامة": 2231,
      "تبر": 2232,
      "ro": 2233,
      "مخر": 2234,
      "اعدة": 2235,
      "▁المخ": 2236,
      "▁أبي": 2237,
      "-1": 2238,
      "يين": 2239,
      "ياه": 2240,
      "دمة": 2241,
      "وجه": 2242,
      "ساء": 2243,
      "▁أنها": 2244,
      "بير": 2245,
      "الل": 2246,
      "▁فيما": 2247,
      "▁مث": 2248,
      "وفر": 2249,
      "▁2020": 2250,
      "am": 2251,
      "▁العق": 2252,
      "كثر": 2253,
      "▁السعر": 2254,
      "▁D": 2255,
      "ad": 2256,
      "▁يمكنك": 2257,
      "رام": 2258,
      "▁الأولى": 2259,
      "طر": 2260,
      "اركة": 2261,
      "▁الأمر": 2262,
      "▁أث": 2263,
      "▁عق": 2264,
      "▁داخل": 2265,
      "▁التط": 2266,
      "ناعة": 2267,
      "▁وهذا": 2268,
      "▁التص": 2269,
      "مقد": 2270,
      "▁11": 2271,
      "تجات": 2272,
      "▁عدم": 2273,
      "مري": 2274,
      "▁15": 2275,
      "خذ": 2276,
      "▁منه": 2277,
      "ريف": 2278,
      "▁الثاني": 2279,
      "▁احت": 2280,
      "▁نظ": 2281,
      "▁الفت": 2282,
      "وغ": 2283,
      "▁الولا": 2284,
      "▁أجل": 2285,
      "▁الدولة": 2286,
      "هم،": 2287,
      "▁F": 2288,
      "el": 2289,
      "▁مدينة": 2290,
      ")\n": 2291,
      "▁عل": 2292,
      "▁خاصة": 2293,
      "us": 2294,
      "لملك": 2295,
      "ion": 2296,
      "▁يا": 2297,
      "وء": 2298,
      "▁والذ": 2299,
      "▁قر": 2300,
      "▁والخ": 2301,
      "▁وسل": 2302,
      "▁بص": 2303,
      "▁بالا": 2304,
      "▁الخاص": 2305,
      "رائيل": 2306,
      "انة": 2307,
      "▁ضد": 2308,
      "كري": 2309,
      "▁H": 2310,
      "خب": 2311,
      "وإن": 2312,
      "▁نظام": 2313,
      "▁أحمد": 2314,
      "مها": 2315,
      "المي": 2316,
      "▁الأش": 2317,
      "مبي": 2318,
      "il": 2319,
      "▁R": 2320,
      "▁الرس": 2321,
      ")،": 2322,
      "▁التس": 2323,
      "▁التعدين": 2324,
      "كتور": 2325,
      "ربع": 2326,
      "م،": 2327,
      "▁سنة": 2328,
      "▁الشركة": 2329,
      "▁الل": 2330,
      "▁جز": 2331,
      "▁حين": 2332,
      "▁دائ": 2333,
      "▁مشروع": 2334,
      "▁أيضا": 2335,
      "▁ملا": 2336,
      "▁الخارج": 2337,
      "▁للس": 2338,
      "ربة": 2339,
      "▁برنامج": 2340,
      "▁باست": 2341,
      "▁للش": 2342,
      "▁واحدة": 2343,
      "▁حالة": 2344,
      "▁لل": 2345,
      "▁الحكومة": 2346,
      "▁الأمن": 2347,
      "▁وإن": 2348,
      "▁شر": 2349,
      "ادي": 2350,
      "▁الجمع": 2351,
      "الملك": 2352,
      "▁وجود": 2353,
      "وغير": 2354,
      "▁للق": 2355,
      "▁الحديد": 2356,
      "▁صف": 2357,
      "▁وزير": 2358,
      "▁وزارة": 2359,
      "▁يؤ": 2360,
      "22": 2361,
      "▁14": 2362,
      "▁وغير": 2363,
      "راً": 2364,
      "ماً": 2365,
      "راسة": 2366,
      "▁L": 2367,
      "▁والص": 2368,
      "▁نج": 2369,
      "▁مز": 2370,
      "سل": 2371,
      "▁وضع": 2372,
      "▁الماضي": 2373,
      "▁العراق": 2374,
      "▁الملك": 2375,
      "▁مض": 2376,
      "▁أمام": 2377,
      "تل": 2378,
      "▁المي": 2379,
      "لمان": 2380,
      "▁فع": 2381,
      "▁بالق": 2382,
      "وريا": 2383,
      "يري": 2384,
      "▁للج": 2385,
      "اول": 2386,
      "سين": 2387,
      "▁الإسلام": 2388,
      "اطق": 2389,
      "▁اش": 2390,
      "▁E": 2391,
      "▁يص": 2392,
      "▁بالع": 2393,
      "اهرة": 2394,
      "واب": 2395,
      "راتيج": 2396,
      "▁يحت": 2397,
      "هدف": 2398,
      "▁العم": 2399,
      "▁العربي": 2400,
      "▁صلى": 2401,
      "ديو": 2402,
      "▁بيع": 2403,
      "▁أط": 2404,
      "ده": 2405,
      "▁لس": 2406,
      "رجة": 2407,
      "▁دور": 2408,
      "ملف": 2409,
      "▁الشخص": 2410,
      "▁حجر": 2411,
      "ويت": 2412,
      "ية\n": 2413,
      "▁مليون": 2414,
      "▁I": 2415,
      "▁الثلاث": 2416,
      "شرة": 2417,
      "قر": 2418,
      "يمة": 2419,
      "فاء": 2420,
      "▁f": 2421,
      "لدي": 2422,
      "ولوج": 2423,
      "ضية": 2424,
      "لْ": 2425,
      "▁الدين": 2426,
      "▁الحصول": 2427,
      "▁جديد": 2428,
      "▁شيء": 2429,
      "▁تاريخ": 2430,
      "املة": 2431,
      "▁الفلسط": 2432,
      "باح": 2433,
      "▁نها": 2434,
      "▁كثير": 2435,
      "▁للإ": 2436,
      "▁ارت": 2437,
      "جيل": 2438,
      "هود": 2439,
      "شاء": 2440,
      "تحاد": 2441,
      "جب": 2442,
      "فط": 2443,
      "ؤول": 2444,
      "علق": 2445,
      "▁وسلم": 2446,
      "▁وتح": 2447,
      "▁ولم": 2448,
      "▁عرض": 2449,
      "▁h": 2450,
      "دل": 2451,
      "▁المجتمع": 2452,
      "▁نحو": 2453,
      "لمملكة": 2454,
      "لامي": 2455,
      "ليق": 2456,
      "المملكة": 2457,
      "▁يقول": 2458,
      "دت": 2459,
      "▁الفوركس": 2460,
      "ابل": 2461,
      "▁دولار": 2462,
      "...\n": 2463,
      "▁إط": 2464,
      "▁تطبيق": 2465,
      "▁d": 2466,
      "جز": 2467,
      "▁أغ": 2468,
      "هرب": 2469,
      "▁سب": 2470,
      "ضح": 2471,
      "لاب": 2472,
      "يلي": 2473,
      "▁التد": 2474,
      "▁#": 2475,
      "▁التش": 2476,
      "▁أكبر": 2477,
      "▁b": 2478,
      "مول": 2479,
      "▁منطقة": 2480,
      "ab": 2481,
      "دث": 2482,
      "▁المملكة": 2483,
      "ِن": 2484,
      "▁بالأ": 2485,
      "▁قام": 2486,
      "▁الشعب": 2487,
      "▁فأ": 2488,
      "▁ذكر": 2489,
      "▁النظام": 2490,
      "▁الرئيسية": 2491,
      "▁تنا": 2492,
      "▁كتاب": 2493,
      "ائق": 2494,
      "للي": 2495,
      "▁لش": 2496,
      "يدة": 2497,
      "▁والك": 2498,
      "▁ألف": 2499,
      "نف": 2500,
      "▁الشيخ": 2501,
      "▁السلط": 2502,
      "عى": 2503,
      "ابعة": 2504,
      "تين": 2505,
      "فظ": 2506,
      "▁نس": 2507,
      "▁عنه": 2508,
      "▁*": 2509,
      "رين": 2510,
      "وبا": 2511,
      "▁المنطقة": 2512,
      "ترا": 2513,
      "ان،": 2514,
      "نك": 2515,
      "وال": 2516,
      "▁عالية": 2517,
      "رعة": 2518,
      "كرة": 2519,
      "اللي": 2520,
      "دف": 2521,
      "▁بوا": 2522,
      "اهد": 2523,
      "افظة": 2524,
      "اهم": 2525,
      "▁الحر": 2526,
      "لحة": 2527,
      "▁مف": 2528,
      "نق": 2529,
      "عاون": 2530,
      "أت": 2531,
      "لمرا": 2532,
      "وبة": 2533,
      "المرا": 2534,
      "▁ضمن": 2535,
      "!\n": 2536,
      "حاب": 2537,
      "سبوع": 2538,
      "▁والر": 2539,
      "▁جد": 2540,
      "▁سوف": 2541,
      "▁الجديد": 2542,
      "▁كيفية": 2543,
      "بيل": 2544,
      "دق": 2545,
      "-0": 2546,
      "ot": 2547,
      "▁اللي": 2548,
      "▁البحث": 2549,
      "▁مرة": 2550,
      "مخروط": 2551,
      "▁المرا": 2552,
      "َا": 2553,
      "يارة": 2554,
      "▁الفحم": 2555,
      "اعات": 2556,
      "احونة": 2557,
      "لفة": 2558,
      "▁بيان": 2559,
      "قبل": 2560,
      "طلب": 2561,
      "▁الأرض": 2562,
      "حات": 2563,
      "▁الحديث": 2564,
      "▁18": 2565,
      "▁خص": 2566,
      "ريط": 2567,
      "▁الدولي": 2568,
      "▁الوطني": 2569,
      "ريقيا": 2570,
      "▁W": 2571,
      "▁الصف": 2572,
      "داف": 2573,
      "اراة": 2574,
      "and": 2575,
      "▁·": 2576,
      "▁2019": 2577,
      "▁التداول": 2578,
      "اتف": 2579,
      "▁الولايات": 2580,
      "غيير": 2581,
      "هور": 2582,
      "▁جنوب": 2583,
      "نيع": 2584,
      "اسبة": 2585,
      "مياه": 2586,
      "▁بدا": 2587,
      "▁نص": 2588,
      "▁2018": 2589,
      "يو": 2590,
      "راط": 2591,
      "دية": 2592,
      "▁مستوى": 2593,
      "▁شهر": 2594,
      "▁وعلى": 2595,
      "▁الاقتصاد": 2596,
      "▁مركز": 2597,
      "▁حل": 2598,
      "خط": 2599,
      "▁الأمير": 2600,
      "▁اخ": 2601,
      "جهزة": 2602,
      "اسم": 2603,
      "ائية": 2604,
      "يرا": 2605,
      "▁طريقة": 2606,
      "▁شركات": 2607,
      "▁إدارة": 2608,
      "▁المزيد": 2609,
      "▁إذ": 2610,
      "▁المنت": 2611,
      "خول": 2612,
      "انا": 2613,
      "▁الجديدة": 2614,
      "▁الأج": 2615,
      "ريم": 2616,
      "وعة": 2617,
      "▁لكل": 2618,
      "▁القد": 2619,
      "قب": 2620,
      "▁رقم": 2621,
      "▁العرب": 2622,
      "▁منت": 2623,
      "▁صور": 2624,
      "هُ": 2625,
      "▁التف": 2626,
      "▁أنا": 2627,
      "▁المالية": 2628,
      "▁قص": 2629,
      "▁حك": 2630,
      "مليات": 2631,
      "رش": 2632,
      "▁(1": 2633,
      "▁الاع": 2634,
      "لين": 2635,
      "▁اعت": 2636,
      "▁حساب": 2637,
      "▁w": 2638,
      "▁الشركات": 2639,
      "يص": 2640,
      "▁التى": 2641,
      "▁التأ": 2642,
      "ol": 2643,
      "▁الدكتور": 2644,
      "▁لذلك": 2645,
      "لمين": 2646,
      "ويات": 2647,
      "انيا": 2648,
      "تا": 2649,
      "جهة": 2650,
      "▁لهم": 2651,
      "▁بالف": 2652,
      "▁فريق": 2653,
      "ارب": 2654,
      "▁الاتحاد": 2655,
      "رع": 2656,
      "طيع": 2657,
      "▁السلام": 2658,
      "▁جاء": 2659,
      "ِي": 2660,
      "▁موس": 2661,
      "▁السوق": 2662,
      "وبر": 2663,
      "▁حدث": 2664,
      "▁القانون": 2665,
      "▁أَ": 2666,
      "▁عشر": 2667,
      "▁وأضاف": 2668,
      "ادرة": 2669,
      "50": 2670,
      "▁البط": 2671,
      "رر": 2672,
      "▁كسارات": 2673,
      "كار": 2674,
      "طاء": 2675,
      "حيح": 2676,
      "▁تستخدم": 2677,
      "▁طلب": 2678,
      "▁13": 2679,
      "▁نشر": 2680,
      "▁للد": 2681,
      "▁100": 2682,
      "سكر": 2683,
      "▁N": 2684,
      "احن": 2685,
      "اجة": 2686,
      "▁لتح": 2687,
      "▁الأن": 2688,
      "هن": 2689,
      "خاص": 2690,
      "راب": 2691,
      "▁مكان": 2692,
      "اسية": 2693,
      "ارس": 2694,
      "لعب": 2695,
      "▁للن": 2696,
      "▁لدى": 2697,
      "▁العل": 2698,
      "ولات": 2699,
      "الدي": 2700,
      "رامج": 2701,
      "▁اليمن": 2702,
      "▁الأد": 2703,
      "زام": 2704,
      "▁حا": 2705,
      "عودي": 2706,
      "▁سنوات": 2707,
      "روس": 2708,
      "▁تعالى": 2709,
      "▁طاحونة": 2710,
      "▁الترك": 2711,
      "▁أسعار": 2712,
      "▁المصري": 2713,
      "▁الحق": 2714,
      "روف": 2715,
      "▁جانب": 2716,
      "▁الأخرى": 2717,
      "▁لمن": 2718,
      "▁مدير": 2719,
      "ضل": 2720,
      "غيل": 2721,
      "حية": 2722,
      "ابقة": 2723,
      "نترنت": 2724,
      "ائف": 2725,
      "▁لو": 2726,
      "▁شب": 2727,
      "▁مغ": 2728,
      "▁تُ": 2729,
      "▁طبي": 2730,
      "اصيل": 2731,
      "ow": 2732,
      "▁30": 2733,
      "▁جدا": 2734,
      "▁البلد": 2735,
      "▁ني": 2736,
      "▁بناء": 2737,
      "ent": 2738,
      "ماية": 2739,
      "id": 2740,
      "ليا": 2741,
      "لامة": 2742,
      "▁والذي": 2743,
      "حب": 2744,
      "تمر": 2745,
      "لمث": 2746,
      "▁تداول": 2747,
      "المث": 2748,
      "▁الحياة": 2749,
      "ديل": 2750,
      "اتب": 2751,
      "انع": 2752,
      "▁الإلكتر": 2753,
      "▁دول": 2754,
      "▁وان": 2755,
      "ائج": 2756,
      "▁نش": 2757,
      "▁o": 2758,
      "ag": 2759,
      "▁عبدا": 2760,
      "▁المث": 2761,
      "▁لـ": 2762,
      "والي": 2763,
      "▁انه": 2764,
      "يئة": 2765,
      "مْ": 2766,
      "▁رب": 2767,
      "▁مخروط": 2768,
      "▁الإمارات": 2769,
      "▁الخام": 2770,
      "وتر": 2771,
      "▁الإنسان": 2772,
      "داع": 2773,
      "▁“": 2774,
      "▁رائ": 2775,
      "مود": 2776,
      "▁الدي": 2777,
      "▁الكس": 2778,
      "▁عال": 2779,
      "جي": 2780,
      "ادل": 2781,
      "اته": 2782,
      "عض": 2783,
      "▁اك": 2784,
      "وفير": 2785,
      "▁ينا": 2786,
      "▁الساعة": 2787,
      "▁»": 2788,
      "▁كور": 2789,
      "▁بالح": 2790,
      "▁للف": 2791,
      "▁بار": 2792,
      "▁بالس": 2793,
      "تيجة": 2794,
      "لملا": 2795,
      "▁بالإضافة": 2796,
      "ورا": 2797,
      "▁بـ": 2798,
      "جال": 2799,
      "الملا": 2800,
      "نائية": 2801,
      "▁أيضًا": 2802,
      "▁لص": 2803,
      "▁النق": 2804,
      "حل": 2805,
      "ينية": 2806,
      "▁وظ": 2807,
      "▁أنواع": 2808,
      ").\n": 2809,
      "▁الداخ": 2810,
      "▁فلا": 2811,
      "داث": 2812,
      "▁المركز": 2813,
      "جار": 2814,
      "زيد": 2815,
      "ينات": 2816,
      "خصص": 2817,
      "ليز": 2818,
      "▁تحميل": 2819,
      "▁وجه": 2820,
      "خرج": 2821,
      "كلة": 2822,
      "▁يعني": 2823,
      "▁الملا": 2824,
      "مير": 2825,
      "▁مجا": 2826,
      "▁الشع": 2827,
      "▁يأ": 2828,
      "احب": 2829,
      "▁تحقيق": 2830,
      "ec": 2831,
      "▁16": 2832,
      "▁الثالث": 2833,
      "▁الأف": 2834,
      "مورد": 2835,
      "اية": 2836,
      "▁أمر": 2837,
      "لسلة": 2838,
      "▁دولة": 2839,
      "▁تقدم": 2840,
      "وست": 2841,
      "ضمن": 2842,
      "ه.": 2843,
      "الها": 2844,
      "قاف": 2845,
      "▁المعلومات": 2846,
      "▁أعلن": 2847,
      "ظيف": 2848,
      "▁السن": 2849,
      "ها.\n": 2850,
      "لـ": 2851,
      "▁سيت": 2852,
      "e\n": 2853,
      "ى،": 2854,
      "ثمار": 2855,
      "▁لان": 2856,
      "ونية": 2857,
      "▁وتع": 2858,
      "▁حديث": 2859,
      "للج": 2860,
      "▁ماك": 2861,
      "▁جمع": 2862,
      "رقة": 2863,
      "ها.": 2864,
      "▁الشرق": 2865,
      "▁إنتاج": 2866,
      "▁يك": 2867,
      "راءة": 2868,
      "▁اص": 2869,
      "▁توا": 2870,
      "لموقع": 2871,
      "ُّ": 2872,
      "اللج": 2873,
      "الموقع": 2874,
      "لغة": 2875,
      "▁واس": 2876,
      "▁بلا": 2877,
      "▁ترا": 2878,
      "دود": 2879,
      "▁24": 2880,
      "ميس": 2881,
      "/1": 2882,
      "مفت": 2883,
      "هداف": 2884,
      "واج": 2885,
      "بدأ": 2886,
      "▁والمع": 2887,
      "▁عدة": 2888,
      "▁قائمة": 2889,
      "▁الموقع": 2890,
      "▁2017": 2891,
      "جاج": 2892,
      "▁صغيرة": 2893,
      "▁مجال": 2894,
      "اغ": 2895,
      "ين.": 2896,
      "هاب": 2897,
      "▁l": 2898,
      "لموس": 2899,
      "▁التاريخ": 2900,
      "▁وفق": 2901,
      "ونات": 2902,
      "▁اللج": 2903,
      "▁كتب": 2904,
      "لاقة": 2905,
      "جراءات": 2906,
      "لاة": 2907,
      "ارع": 2908,
      "▁الصنا": 2909,
      "▁بالنسبة": 2910,
      "▁السابق": 2911,
      "حص": 2912,
      "الموس": 2913,
      "زم": 2914,
      "▁مل": 2915,
      "واق": 2916,
      "▁وث": 2917,
      "ضم": 2918,
      "الجة": 2919,
      "▁قال:": 2920,
      "▁2016": 2921,
      "خور": 2922,
      "▁O": 2923,
      "قت": 2924,
      "▁in": 2925,
      "ه.\n": 2926,
      "--": 2927,
      "▁العالمية": 2928,
      "▁لقد": 2929,
      "oo": 2930,
      "▁السود": 2931,
      "زال": 2932,
      "▁خارج": 2933,
      "▁صنع": 2934,
      "▁الموس": 2935,
      "▁أثناء": 2936,
      "▁بيت": 2937,
      "▁للك": 2938,
      "صابة": 2939,
      "اسي": 2940,
      "خابات": 2941,
      "▁روا": 2942,
      "▁the": 2943,
      "اشرة": 2944,
      "▁حسب": 2945,
      "▁مُ": 2946,
      "آن": 2947,
      "▁دع": 2948,
      "سسة": 2949,
      "▁17": 2950,
      "▁الأعمال": 2951,
      "▁تقديم": 2952,
      "▁طن": 2953,
      "▁الفريق": 2954,
      "لظ": 2955,
      "▁إق": 2956,
      "▁المواطن": 2957,
      "▁رأ": 2958,
      "▁يقوم": 2959,
      "ومي": 2960,
      "▁بالك": 2961,
      "st": 2962,
      "▁رؤ": 2963,
      "ائي": 2964,
      "وحة": 2965,
      "▁الآخر": 2966,
      "▁البلاد": 2967,
      "▁للط": 2968,
      "▁المواد": 2969,
      "▁مو": 2970,
      "موت": 2971,
      "اشة": 2972,
      "▁عد": 2973,
      "لوس": 2974,
      "كنولوج": 2975,
      "ماع": 2976,
      "▁رأس": 2977,
      "ا،": 2978,
      "▁؟": 2979,
      "▁تقوم": 2980,
      "سسات": 2981,
      "▁نحن": 2982,
      "▁رسول": 2983,
      "ين.\n": 2984,
      "▁إنه": 2985,
      "▁تؤ": 2986,
      "لقة": 2987,
      "▁نف": 2988,
      "▁لنا": 2989,
      "▁وكذلك": 2990,
      "▁كافة": 2991,
      "سط": 2992,
      "سباب": 2993,
      "ناة": 2994,
      "ur": 2995,
      "▁اد": 2996,
      "▁ته": 2997,
      "لاقات": 2998,
      "الظ": 2999,
      "▁المجلس": 3000,
      "▁الإنترنت": 3001,
      "▁ـ": 3002,
      "ونس": 3003,
      "▁تعمل": 3004,
      "▁الوطنية": 3005,
      "ملت": 3006,
      "الـ": 3007,
      "نسي": 3008,
      "▁الأور": 3009,
      "▁بان": 3010,
      ").": 3011,
      "تهم": 3012,
      "▁حص": 3013,
      "▁استع": 3014,
      "الْ": 3015,
      "اسب": 3016,
      "▁بمن": 3017,
      "قول": 3018,
      "كمة": 3019,
      "طلق": 3020,
      "▁سواء": 3021,
      "عام": 3022,
      "▁البيان": 3023,
      "▁الأص": 3024,
      "بيع": 3025,
      "▁مهم": 3026,
      "▁الظ": 3027,
      "▁يخ": 3028,
      "رأ": 3029,
      "ورات": 3030,
      "▁تأثير": 3031,
      "غة": 3032,
      "▁والط": 3033,
      "خة": 3034,
      "قف": 3035,
      "▁الأمريكية": 3036,
      "▁الخيارات": 3037,
      "▁نفسه": 3038,
      "▁أيام": 3039,
      "▁خدمة": 3040,
      "000": 3041,
      "▁خاص": 3042,
      "ومية": 3043,
      "▁إد": 3044,
      "▁بكل": 3045,
      "طف": 3046,
      "لة،": 3047,
      "▁25": 3048,
      "▁الـ": 3049,
      "▁جني": 3050,
      "ترك": 3051,
      "ممت": 3052,
      "▁الحي": 3053,
      "لمف": 3054,
      "غب": 3055,
      "انات": 3056,
      "▁شراء": 3057,
      "ئب": 3058,
      "▁بالج": 3059,
      "▁بدون": 3060,
      "ay": 3061,
      "لموج": 3062,
      "المف": 3063,
      "▁يف": 3064,
      "▁المشروع": 3065,
      "الموج": 3066,
      "اء،": 3067,
      "▁الرح": 3068,
      "▁حر": 3069,
      "ظف": 3070,
      "▁الشباب": 3071,
      "▁سوق": 3072,
      "ذج": 3073,
      ".c": 3074,
      "راع": 3075,
      "▁يعمل": 3076,
      "▁التعليم": 3077,
      "▁الشعر": 3078,
      "▁أنّ": 3079,
      "....": 3080,
      "ئات": 3081,
      "▁الموج": 3082,
      "ولت": 3083,
      "ذر": 3084,
      "اسة": 3085,
      "▁فهو": 3086,
      "▁سوريا": 3087,
      "▁المدينة": 3088,
      "▁النفط": 3089,
      "تبار": 3090,
      "▁أمس": 3091,
      "▁صناعة": 3092,
      "▁ينت": 3093,
      "▁وليس": 3094,
      "▁ير": 3095,
      "يا،": 3096,
      "▁آلات": 3097,
      "▁المف": 3098,
      "للب": 3099,
      "▁نهاية": 3100,
      "▁بالب": 3101,
      "حوق": 3102,
      "▁الدرا": 3103,
      "▁نقل": 3104,
      "▁زوج": 3105,
      "هات": 3106,
      "▁رح": 3107,
      "شي": 3108,
      "▁فترة": 3109,
      "▁بغ": 3110,
      ":1": 3111,
      "مذ": 3112,
      "▁حيات": 3113,
      "▁جهاز": 3114,
      "▁فقال": 3115,
      "ضور": 3116,
      "▁لاع": 3117,
      "▁يوجد": 3118,
      "جع": 3119,
      "▁زيادة": 3120,
      "▁للر": 3121,
      "▁اض": 3122,
      "\".": 3123,
      "▁للغ": 3124,
      "لموضوع": 3125,
      "▁a": 3126,
      "مرار": 3127,
      "اكل": 3128,
      "▁ساعة": 3129,
      "▁مساء": 3130,
      "الموضوع": 3131,
      "▁الثانية": 3132,
      "▁تعرف": 3133,
      "▁موضوع": 3134,
      "ادة": 3135,
      "▁قطع": 3136,
      "هير": 3137,
      "تز": 3138,
      "▁الخلي": 3139,
      "جاز": 3140,
      "صى": 3141,
      "وصل": 3142,
      "ويد": 3143,
      "▁سلسلة": 3144,
      "▁تصنيع": 3145,
      "طي": 3146,
      "خدمة": 3147,
      "▁الها": 3148,
      "▁الموضوع": 3149,
      "30": 3150,
      "/0": 3151,
      "▁لاست": 3152,
      "▁أيضاً": 3153,
      "▁يكن": 3154,
      "▁شك": 3155,
      "▁عليك": 3156,
      "تنا": 3157,
      "ادات": 3158,
      "▁قرار": 3159,
      "▁وبعد": 3160,
      "اكت": 3161,
      "سر": 3162,
      "م\n": 3163,
      "▁الأخيرة": 3164,
      "▁الطاقة": 3165,
      "بدو": 3166,
      "▁موج": 3167,
      "اجر": 3168,
      "▁إليه": 3169,
      "▁اسم": 3170,
      "▁كث": 3171,
      "اللب": 3172,
      "فاظ": 3173,
      "وآ": 3174,
      "▁أور": 3175,
      "اولة": 3176,
      "▁لبنان": 3177,
      "وضح": 3178,
      "▁جامعة": 3179,
      "ملاء": 3180,
      "▁عقد": 3181,
      "يال": 3182,
      "▁لط": 3183,
      "صار": 3184,
      "كات": 3185,
      "ليف": 3186,
      "▁الفي": 3187,
      "خبار": 3188,
      "▁للص": 3189,
      "ri": 3190,
      "▁التواصل": 3191,
      "▁اللب": 3192,
      "▁g": 3193,
      "▁لمدة": 3194,
      "بول": 3195,
      "كو": 3196,
      "▁بينما": 3197,
      "▁الجمه": 3198,
      "ستان": 3199,
      "▁الاتص": 3200,
      "▁الأطفال": 3201,
      "▁ليست": 3202,
      "▁كورونا": 3203,
      "▁الخارجية": 3204,
      "▁الجما": 3205,
      "▁قانون": 3206,
      "▁دبي": 3207,
      "هار": 3208,
      "▁لف": 3209,
      "▁محطة": 3210,
      "▁حجم": 3211,
      "مم": 3212,
      "رط": 3213,
      "▁المحت": 3214,
      "▁إضافة": 3215,
      "▁الأربع": 3216,
      "اصمة": 3217,
      "▁المال": 3218,
      "دين": 3219,
      "باء": 3220,
      "▁الات": 3221,
      "▁السعودي": 3222,
      "▁الجيش": 3223,
      "▁الفترة": 3224,
      "ونيو": 3225,
      "▁تصميم": 3226,
      "▁جي": 3227,
      "▁أت": 3228,
      "▁المرأة": 3229,
      "▁وآ": 3230,
      "▁of": 3231,
      "اشر": 3232,
      "▁مقابل": 3233,
      "▁الرسم": 3234,
      "▁فتح": 3235,
      "▁السياسية": 3236,
      "▁الدولية": 3237,
      "▁والث": 3238,
      "▁الخميس": 3239,
      "▁الوزراء": 3240,
      "هِ": 3241,
      "▁والاست": 3242,
      "ch": 3243,
      "لمختلف": 3244,
      "المختلف": 3245,
      "ومات": 3246,
      "▁المختلف": 3247,
      "▁ذلك،": 3248,
      "▁عض": 3249,
      "بحث": 3250,
      "َر": 3251,
      "زن": 3252,
      "ثة": 3253,
      "▁باب": 3254,
      "▁كون": 3255,
      "▁يب": 3256,
      "هيم": 3257,
      "▁21": 3258,
      "▁2022": 3259,
      "▁الكهرب": 3260,
      "▁الحس": 3261,
      "▁الاجتماعي": 3262,
      "طلاق": 3263,
      "▁النبي": 3264,
      "▁{": 3265,
      "%D": 3266,
      "▁السوري": 3267,
      "▁منهم": 3268,
      "▁اه": 3269,
      "▁السب": 3270,
      "▁النها": 3271,
      "▁مختلفة": 3272,
      "صلاح": 3273,
      "▁بالش": 3274,
      "▁القائ": 3275,
      "ران": 3276,
      "ذية": 3277,
      "▁السياسي": 3278,
      "وبات": 3279,
      "موقف": 3280,
      "ضى": 3281,
      "زين": 3282,
      "قافة": 3283,
      "▁حال": 3284,
      "em": 3285,
      "▁صاحب": 3286,
      "▁لأنه": 3287,
      "جارة": 3288,
      "ناصر": 3289,
      "▁المقا": 3290,
      "un": 3291,
      "كسير": 3292,
      "▁خلف": 3293,
      "لمة": 3294,
      "▁الحرب": 3295,
      "ممكن": 3296,
      "لّ": 3297,
      "▁ارتفاع": 3298,
      "▁أفريقيا": 3299,
      "▁وين": 3300,
      "▁اكت": 3301,
      "▁ثلاثة": 3302,
      "▁أهل": 3303,
      "▁العملات": 3304,
      "▁لهذا": 3305,
      "▁كي": 3306,
      "ندق": 3307,
      "ريع": 3308,
      "▁تغ": 3309,
      "مالي": 3310,
      "ون،": 3311,
      "▁U": 3312,
      "يْ": 3313,
      "▁إش": 3314,
      "▁فوق": 3315,
      "▁لكم": 3316,
      "▁معلومات": 3317,
      "▁نسبة": 3318,
      "▁التجارية": 3319,
      "اريع": 3320,
      "▁and": 3321,
      "راتيجية": 3322,
      "▁مباشرة": 3323,
      "▁الصخور": 3324,
      "ظة": 3325,
      "▁الوطن": 3326,
      "فير": 3327,
      "بال": 3328,
      "▁الصحة": 3329,
      "▁كذلك": 3330,
      "▁هم": 3331,
      "▁بلد": 3332,
      "▁الإق": 3333,
      "▁إعادة": 3334,
      "▁المصرية": 3335,
      "▁كت": 3336,
      "منة": 3337,
      "ريل": 3338,
      "كيل": 3339,
      "روج": 3340,
      "▁أعمال": 3341,
      ".com": 3342,
      "▁اجتما": 3343,
      "▁أخبار": 3344,
      "▁القاد": 3345,
      "▁أمري": 3346,
      "اهدة": 3347,
      "▁يعد": 3348,
      "▁الاخت": 3349,
      "▁1.": 3350,
      ":4": 3351,
      "طاق": 3352,
      "▁الخدمات": 3353,
      "▁تعدين": 3354,
      "ثار": 3355,
      "▁باستخدام": 3356,
      "▁نتيجة": 3357,
      "تصادي": 3358,
      "\"\n": 3359,
      "▁التطبيق": 3360,
      "!!": 3361,
      "عرف": 3362,
      "ديق": 3363,
      "▁صباح": 3364,
      "▁بالد": 3365,
      "صب": 3366,
      "▁لله": 3367,
      "▁وتق": 3368,
      "حا": 3369,
      "▁شع": 3370,
      "▁السيد": 3371,
      "▁ويت": 3372,
      "▁تنفيذ": 3373,
      "▁الفلسطيني": 3374,
      "كام": 3375,
      "ياس": 3376,
      "▁وكانت": 3377,
      "▁وغ": 3378,
      "ريدة": 3379,
      "▁‏": 3380,
      "▁خدمات": 3381,
      "▁\"أ": 3382,
      "-2": 3383,
      "▁ملف": 3384,
      "ردشة": 3385,
      "تمام": 3386,
      "ذب": 3387,
      "▁الأق": 3388,
      "▁الكتاب": 3389,
      "▁الرق": 3390,
      "▁حقوق": 3391,
      "▁جما": 3392,
      "▁فلسط": 3393,
      "ًا،": 3394,
      "رسة": 3395,
      "]\n": 3396,
      "▁درجة": 3397,
      "ك،": 3398,
      "لور": 3399,
      "لمياه": 3400,
      "▁أعلى": 3401,
      "▁الْ": 3402,
      "▁أست": 3403,
      "المياه": 3404,
      "▁القدم": 3405,
      "وّ": 3406,
      "متع": 3407,
      "شن": 3408,
      "▁>": 3409,
      "▁اط": 3410,
      "ابت": 3411,
      "راز": 3412,
      "▁الإعلام": 3413,
      "هاء": 3414,
      "▁الماء": 3415,
      "▁عَ": 3416,
      "▁القاهرة": 3417,
      "جن": 3418,
      "▁بشأن": 3419,
      "▁الغذا": 3420,
      "دأ": 3421,
      "سام": 3422,
      "▁الداخلية": 3423,
      "شرين": 3424,
      "▁خمس": 3425,
      "▁عائ": 3426,
      "ia": 3427,
      "شد": 3428,
      "اهر": 3429,
      "روض": 3430,
      "▁دين": 3431,
      "▁المياه": 3432,
      "▁الدم": 3433,
      "خفض": 3434,
      "علم": 3435,
      "▁المعدات": 3436,
      "▁نمو": 3437,
      "عرض": 3438,
      "دع": 3439,
      "احث": 3440,
      "▁ظل": 3441,
      "▁بداية": 3442,
      "للق": 3443,
      "▁تقد": 3444,
      "عاية": 3445,
      "وهم": 3446,
      "▁دعم": 3447,
      "منا": 3448,
      "▁الدفاع": 3449,
      "ليات": 3450,
      "▁عالم": 3451,
      "▁للخ": 3452,
      "ؤا": 3453,
      "▁22": 3454,
      "ub": 3455,
      "كنولوجيا": 3456,
      "▁بلغ": 3457,
      "نسية": 3458,
      "نيا": 3459,
      "سطة": 3460,
      "▁جزء": 3461,
      "ادن": 3462,
      "اللق": 3463,
      "لماء": 3464,
      "▁باسم": 3465,
      "رز": 3466,
      "▁تنت": 3467,
      "▁أقل": 3468,
      "يرات": 3469,
      "▁القص": 3470,
      "جرة": 3471,
      "وضع": 3472,
      "▁علم": 3473,
      "لمو": 3474,
      "قاء": 3475,
      "▁السبت": 3476,
      "▁J": 3477,
      "ric": 3478,
      "▁قطاع": 3479,
      "▁الجسم": 3480,
      "▁إسرائيل": 3481,
      "▁المغرب": 3482,
      "برز": 3483,
      "▁الطب": 3484,
      "▁اختيار": 3485,
      "▁أكت": 3486,
      "فيف": 3487,
      "▁أساس": 3488,
      "▁اللجنة": 3489,
      "سا": 3490,
      "▁فض": 3491,
      "▁ويمكن": 3492,
      "▁عمليات": 3493,
      "تمد": 3494,
      "▁اللق": 3495,
      "نقلة": 3496,
      "▁مسحوق": 3497,
      "▁عنها": 3498,
      "▁وتش": 3499,
      "ارت": 3500,
      "ؤلاء": 3501,
      "شل": 3502,
      "▁الكويت": 3503,
      "▁روس": 3504,
      "▁حسن": 3505,
      "▁طب": 3506,
      "▁التك": 3507,
      "▁طوي": 3508,
      "شرات": 3509,
      "ملح": 3510,
      "▁بات": 3511,
      "▁الأكثر": 3512,
      "مور": 3513,
      "▁الخب": 3514,
      "▁مواقع": 3515,
      "يلة": 3516,
      "▁V": 3517,
      "▁الأسعار": 3518,
      "▁صورة": 3519,
      "سكرية": 3520,
      "اا": 3521,
      "ew": 3522,
      "وذ": 3523,
      "▁الإرها": 3524,
      "▁أشهر": 3525,
      "▁احصل": 3526,
      "ذهب": 3527,
      "لعاب": 3528,
      "▁:\n": 3529,
      "▁الأه": 3530,
      "▁مليار": 3531,
      "▁الأرد": 3532,
      ":0": 3533,
      "اطر": 3534,
      "▁صحيفة": 3535,
      "ريح": 3536,
      "مِن": 3537,
      "▁يعتبر": 3538,
      "▁رفع": 3539,
      "▁نوف": 3540,
      "لمقد": 3541,
      "طع": 3542,
      "tp": 3543,
      "المقد": 3544,
      "جوم": 3545,
      "ter": 3546,
      "▁والمن": 3547,
      "im": 3548,
      "▁وبالت": 3549,
      "▁إي": 3550,
      "▁تعد": 3551,
      "▁تقرير": 3552,
      "ناك": 3553,
      "حقق": 3554,
      "▁المصن": 3555,
      "▁الروس": 3556,
      "pp": 3557,
      "▁تطوير": 3558,
      "▁تما": 3559,
      "▁ومح": 3560,
      "▁بخ": 3561,
      "ثنين": 3562,
      "▁لمع": 3563,
      "▁المقد": 3564,
      "▁يناير": 3565,
      "طا": 3566,
      "راجع": 3567,
      "▁رغم": 3568,
      "▁العالمي": 3569,
      "المو": 3570,
      "ؤال": 3571,
      "ig": 3572,
      "▁الأحد": 3573,
      "▁معظم": 3574,
      "▁ضر": 3575,
      "حدى": 3576,
      "▁اث": 3577,
      "▁سبيل": 3578,
      "▁بالر": 3579,
      "▁علاج": 3580,
      "▁شكل": 3581,
      "▁وسط": 3582,
      "▁طالب": 3583,
      "»،": 3584,
      "▁الجمعة": 3585,
      "▁وبين": 3586,
      "▁عم": 3587,
      "▁قوات": 3588,
      "غل": 3589,
      "تَ": 3590,
      "▁كم": 3591,
      "▁قوله": 3592,
      "▁الصغيرة": 3593,
      "▁تركيا": 3594,
      "لبة": 3595,
      "▁للاست": 3596,
      "▁تنظيم": 3597,
      "لَّ": 3598,
      "▁السيارات": 3599,
      "▁المو": 3600,
      "رائيلي": 3601,
      "▁بير": 3602,
      "وائد": 3603,
      "▁يَ": 3604,
      "▁تلق": 3605,
      "لمهم": 3606,
      "▁البن": 3607,
      "▁النص": 3608,
      "ation": 3609,
      "▁التخ": 3610,
      "ه\n": 3611,
      "▁فن": 3612,
      ":3": 3613,
      "دون": 3614,
      "لوف": 3615,
      "▁القيام": 3616,
      "سمبر": 3617,
      "رم": 3618,
      "▁وصف": 3619,
      "قق": 3620,
      "▁الأمريكي": 3621,
      "▁23": 3622,
      "▁الثنائية": 3623,
      "صا": 3624,
      "▁اللاعب": 3625,
      "▁لجنة": 3626,
      "اتها": 3627,
      "▁مارس": 3628,
      "▁أمن": 3629,
      "فاض": 3630,
      "▁مقد": 3631,
      "مرة": 3632,
      "▁أكتوبر": 3633,
      "مقراط": 3634,
      "▁حركة": 3635,
      ":5": 3636,
      "▁K": 3637,
      "يوب": 3638,
      "طط": 3639,
      "▁بواسطة": 3640,
      "▁القرآن": 3641,
      "▁البحر": 3642,
      "ديات": 3643,
      "▁بنا": 3644,
      "▁تحديد": 3645,
      "مبيوتر": 3646,
      "▁شبكة": 3647,
      "▁n": 3648,
      "ياج": 3649,
      "ؤون": 3650,
      "▁النبات": 3651,
      "سكري": 3652,
      "ريبة": 3653,
      "▁كلمة": 3654,
      "ir": 3655,
      "▁تعليق": 3656,
      "▁الجهاز": 3657,
      "▁يعرف": 3658,
      "▁اللبن": 3659,
      "▁شعب": 3660,
      "▁الحالي": 3661,
      "▁فق": 3662,
      "▁مَ": 3663,
      "▁إج": 3664,
      "راضي": 3665,
      "لرائ": 3666,
      "ّا": 3667,
      "الرائ": 3668,
      "ظروف": 3669,
      "ليمية": 3670,
      "الوس": 3671,
      "دائ": 3672,
      "▁الواقع": 3673,
      "لاك": 3674,
      "▁إيران": 3675,
      "اً،": 3676,
      "اليا": 3677,
      "▁بمع": 3678,
      "▁البناء": 3679,
      "▁المرك": 3680,
      "▁50": 3681,
      "امي": 3682,
      "▁المنتجات": 3683,
      "▁الرائ": 3684,
      "▁الأسهم": 3685,
      "ut": 3686,
      "المهم": 3687,
      "▁تمت": 3688,
      "دة،": 3689,
      "▁المناطق": 3690,
      "وسف": 3691,
      "يته": 3692,
      "▁وسائل": 3693,
      "كور": 3694,
      "▁تحتاج": 3695,
      "بن": 3696,
      "ابية": 3697,
      "▁الشهر": 3698,
      "كيد": 3699,
      "▁سلط": 3700,
      "غا": 3701,
      "▁الوصول": 3702,
      "▁عز": 3703,
      "صور": 3704,
      "▁الأسبوع": 3705,
      "▁أكد": 3706,
      "ذة": 3707,
      "▁بحث": 3708,
      "▁الصور": 3709,
      "▁البشر": 3710,
      "▁رمض": 3711,
      "▁الشه": 3712,
      "طفال": 3713,
      "▁كامل": 3714,
      "▁رسم": 3715,
      "▁ريا": 3716,
      "ئاسة": 3717,
      "▁المختلفة": 3718,
      "▁البرنامج": 3719,
      "▁وأكد": 3720,
      "عمل": 3721,
      "▁لعبة": 3722,
      "نْ": 3723,
      "▁دراسة": 3724,
      "▁المهم": 3725,
      "ميد": 3726,
      "▁خلا": 3727,
      "▁سير": 3728,
      "▁دفع": 3729,
      "▁حزب": 3730,
      "▁سيكون": 3731,
      "▁التعاون": 3732,
      "▁الوس": 3733,
      "خراج": 3734,
      "▁قيمة": 3735,
      "فسير": 3736,
      "مة،": 3737,
      "▁مباراة": 3738,
      "▁بذلك": 3739,
      "ضايا": 3740,
      "▁بالص": 3741,
      "يانة": 3742,
      "موال": 3743,
      "تبة": 3744,
      "▁to": 3745,
      "▁القطاع": 3746,
      "▁التجارة": 3747,
      "زات": 3748,
      "▁والمت": 3749,
      "ul": 3750,
      "▁وتن": 3751,
      "▁حب": 3752,
      "▁التنفيذ": 3753,
      "▁الأز": 3754,
      "ريس": 3755,
      "▁الحل": 3756,
      "▁الاش": 3757,
      "للغة": 3758,
      "لوك": 3759,
      "▁الانترنت": 3760,
      "اللغة": 3761,
      "▁صالح": 3762,
      "ديا": 3763,
      "▁وأع": 3764,
      "ريك": 3765,
      "▁المسلمين": 3766,
      "▁v": 3767,
      "تقد": 3768,
      "▁العد": 3769,
      "▁الرغم": 3770,
      "وليو": 3771,
      "-201": 3772,
      "ختلف": 3773,
      "▁العب": 3774,
      "كَ": 3775,
      "▁الحكم": 3776,
      "ين\n": 3777,
      "▁مصادر": 3778,
      "لمُ": 3779,
      "لسل": 3780,
      "▁معالجة": 3781,
      "▁لاح": 3782,
      "▁الكبير": 3783,
      "▁(أ": 3784,
      "qu": 3785,
      "▁الحا": 3786,
      "جاح": 3787,
      "▁بنسبة": 3788,
      "ماس": 3789,
      "▁الجميع": 3790,
      "▁الجزائر": 3791,
      "▁قدم": 3792,
      "▁سبت": 3793,
      "▁المنتج": 3794,
      "اعر": 3795,
      "حاس": 3796,
      "▁المقبل": 3797,
      "▁نوفمبر": 3798,
      "▁إبرا": 3799,
      "▁تريد": 3800,
      "▁البيت": 3801,
      "▁والمس": 3802,
      "▁تناول": 3803,
      "مالية": 3804,
      "وها": 3805,
      "▁افضل": 3806,
      "▁السنة": 3807,
      "▁جيد": 3808,
      "▁المنزل": 3809,
      "لمض": 3810,
      "▁2015": 3811,
      "المض": 3812,
      "▁اللغة": 3813,
      "المُ": 3814,
      "▁قسم": 3815,
      "طب": 3816,
      "بيب": 3817,
      "▁الفنان": 3818,
      "▁يونيو": 3819,
      "▁أنت": 3820,
      "▁تكلفة": 3821,
      "iv": 3822,
      "لاع": 3823,
      "ئلة": 3824,
      "▁المحلية": 3825,
      "▁وأشار": 3826,
      "▁عليهم": 3827,
      "قرار": 3828,
      "▁بهذا": 3829,
      "فاف": 3830,
      "لوج": 3831,
      "▁للمر": 3832,
      "▁أرب": 3833,
      "▁المض": 3834,
      "▁تغيير": 3835,
      "ندي": 3836,
      "▁رد": 3837,
      "مكان": 3838,
      "اما": 3839,
      "بو": 3840,
      "شفى": 3841,
      "▁الرجل": 3842,
      "▁النساء": 3843,
      "▁إطار": 3844,
      "▁الطريق": 3845,
      "لبية": 3846,
      "10": 3847,
      "ّر": 3848,
      "قييم": 3849,
      "▁بف": 3850,
      "▁ديسمبر": 3851,
      "▁المُ": 3852,
      "ياد": 3853,
      "▁الجيري": 3854,
      "ليه": 3855,
      "اذا": 3856,
      "▁هيئة": 3857,
      "رة،": 3858,
      "▁البعض": 3859,
      "▁بسي": 3860,
      "عتبر": 3861,
      "▁فهي": 3862,
      "▁مصدر": 3863,
      "▁السعر\n": 3864,
      "صدار": 3865,
      "▁أهمية": 3866,
      "مظ": 3867,
      "▁صوت": 3868,
      "مأ": 3869,
      "ers": 3870,
      "▁أرض": 3871,
      "▁الجانب": 3872,
      "ارنة": 3873,
      "▁تعتبر": 3874,
      "افي": 3875,
      "▁المسؤول": 3876,
      "افحة": 3877,
      "حث": 3878,
      "طوير": 3879,
      "شطة": 3880,
      "▁سبتمبر": 3881,
      "▁وتت": 3882,
      "فتح": 3883,
      "ائدة": 3884,
      "▁حوالي": 3885,
      "نيف": 3886,
      "ندوق": 3887,
      "▁الذى": 3888,
      "لِ": 3889,
      "سان": 3890,
      "لمورد": 3891,
      "▁توفير": 3892,
      "راقي": 3893,
      "ريعة": 3894,
      "▁يط": 3895,
      "▁ظهر": 3896,
      "هولة": 3897,
      "ثمر": 3898,
      "▁نقطة": 3899,
      "▁ريال": 3900,
      "▁والتع": 3901,
      "▁منتجات": 3902,
      "▁العلاج": 3903,
      "▁26": 3904,
      "▁يقدم": 3905,
      "▁حي": 3906,
      "براير": 3907,
      "▁رجل": 3908,
      "▁المجا": 3909,
      "▁الحب": 3910,
      "▁المرحلة": 3911,
      "مولة": 3912,
      "المورد": 3913,
      "للح": 3914,
      "▁ضع": 3915,
      "فعل": 3916,
      "▁هؤلاء": 3917,
      "طح": 3918,
      "▁سعيد": 3919,
      "مى": 3920,
      "▁الثلاثاء": 3921,
      "زاء": 3922,
      "▁تعرض": 3923,
      "▁١": 3924,
      "..\n": 3925,
      "▁الجام": 3926,
      "▁قلب": 3927,
      "▁وحدة": 3928,
      "تاح": 3929,
      "▁بالط": 3930,
      "▁إست": 3931,
      "▁الإد": 3932,
      "قيم": 3933,
      "بقى": 3934,
      "/201": 3935,
      "كب": 3936,
      "8%": 3937,
      "▁فَ": 3938,
      "▁الطفل": 3939,
      "ائع": 3940,
      "▁مِن": 3941,
      "▁الفق": 3942,
      "▁تز": 3943,
      "▁الإسلامية": 3944,
      "▁لمس": 3945,
      "▁بالخ": 3946,
      "وجيه": 3947,
      "▁قطر": 3948,
      "▁المورد": 3949,
      "جاب": 3950,
      "▁فان": 3951,
      "نائي": 3952,
      "▁يريد": 3953,
      "وزيع": 3954,
      "▁الخص": 3955,
      "ريمة": 3956,
      "راعة": 3957,
      "ميزة": 3958,
      "▁طرق": 3959,
      "اللح": 3960,
      "▁المشاركة": 3961,
      "▁كر": 3962,
      "ارق": 3963,
      "ra": 3964,
      "▁الكب": 3965,
      "ww": 3966,
      "طق": 3967,
      "▁دقيقة": 3968,
      "▁للو": 3969,
      "ادت": 3970,
      "▁نتائج": 3971,
      "▁نز": 3972,
      "ضيف": 3973,
      "▁الجنوب": 3974,
      "▁2014": 3975,
      "كير": 3976,
      "eb": 3977,
      "ليب": 3978,
      "▁الشمس": 3979,
      "▁النظر": 3980,
      "▁كن": 3981,
      "▁وعن": 3982,
      "▁مايو": 3983,
      "▁رمضان": 3984,
      "▁الإنج": 3985,
      "▁الاسمنت": 3986,
      "و\"": 3987,
      "▁٢": 3988,
      "▁اللح": 3989,
      "عال": 3990,
      "ريات": 3991,
      "▁اتفاق": 3992,
      "▁النس": 3993,
      "وو": 3994,
      "تق": 3995,
      "▁دليل": 3996,
      "ارف": 3997,
      "▁الاتصا": 3998,
      "▁العلم": 3999,
      "▁خالد": 4000,
      "▁زيت": 4001,
      "▁الاقتصادية": 4002,
      "�\n": 4003,
      "▁محت": 4004,
      "▁لدينا": 4005,
      "▁27": 4006,
      "▁عش": 4007,
      "▁(2": 4008,
      "▁؛": 4009,
      "▁صغير": 4010,
      "▁قوة": 4011,
      "▁شه": 4012,
      "▁كلا": 4013,
      "▁الخليج": 4014,
      "▁بث": 4015,
      "رص": 4016,
      "جاه": 4017,
      "▁الصحية": 4018,
      "▁هدف": 4019,
      "ويس": 4020,
      "يوم": 4021,
      "▁يحدث": 4022,
      "الور": 4023,
      "▁القوات": 4024,
      "اريات": 4025,
      "ن،": 4026,
      "حين": 4027,
      "▁الإلكتروني": 4028,
      "▁والو": 4029,
      "».\n": 4030,
      "اون": 4031,
      "▁الطرق": 4032,
      "▁قناة": 4033,
      "▁حياة": 4034,
      "تماد": 4035,
      "▁'": 4036,
      "َب": 4037,
      "▁الرمل": 4038,
      "▁إحدى": 4039,
      "os": 4040,
      "▁درا": 4041,
      "ادث": 4042,
      "▁أمير": 4043,
      "▁الأشخاص": 4044,
      "▁الدوري": 4045,
      "▁مناطق": 4046,
      "▁الإير": 4047,
      "خاذ": 4048,
      "فقة": 4049,
      "▁الاتصال": 4050,
      "▁وتس": 4051,
      "▁Y": 4052,
      "▁إنشاء": 4053,
      "▁واله": 4054,
      "▁28": 4055,
      "▁جعل": 4056,
      "▁السف": 4057,
      "خام": 4058,
      "شاف": 4059,
      "▁ليب": 4060,
      "▁وهم": 4061,
      "▁كانوا": 4062,
      "▁المصنعة": 4063,
      "▁البيانات": 4064,
      "//": 4065,
      "ساب": 4066,
      "ine": 4067,
      "لمات": 4068,
      "▁الإدارة": 4069,
      ":2": 4070,
      "▁قالت": 4071,
      "▁Al": 4072,
      "▁در": 4073,
      "▁نطاق": 4074,
      "▁بني": 4075,
      "▁هاتف": 4076,
      "بعة": 4077,
      "▁•": 4078,
      "لملف": 4079,
      "▁النفس": 4080,
      "▁برامج": 4081,
      "مدا": 4082,
      "الملف": 4083,
      "▁سين": 4084,
      "سطس": 4085,
      "واعد": 4086,
      "▁الور": 4087,
      "▁مكتب": 4088,
      "▁أصحاب": 4089,
      "مميز": 4090,
      "▁مدى": 4091,
      "▁السلطة": 4092,
      "▁شهد": 4093,
      "▁الاجتماعية": 4094,
      "▁إح": 4095,
      "▁آل": 4096,
      "▁الثقاف": 4097,
      "مدة": 4098,
      "حاد": 4099,
      "▁وتم": 4100,
      "▁أوروبا": 4101,
      "▁جع": 4102,
      "برى": 4103,
      "▁للحصول": 4104,
      "▁بأنه": 4105,
      "▁زيارة": 4106,
      "يسي": 4107,
      "▁إبراهيم": 4108,
      "▁العملية": 4109,
      "▁الهيئة": 4110,
      "عَ": 4111,
      "▁الملف": 4112,
      "طات": 4113,
      "▁نادي": 4114,
      "▁الاحتلال": 4115,
      "د،": 4116,
      "▁قدر": 4117,
      "▁جهة": 4118,
      "▁يأتي": 4119,
      "زالة": 4120,
      "ess": 4121,
      "راك": 4122,
      "▁الجامعة": 4123,
      "▁الروا": 4124,
      "▁ولاية": 4125,
      "▁وقالت": 4126,
      "▁السودان": 4127,
      "غر": 4128,
      "▁الإنتاج": 4129,
      "خصصة": 4130,
      "ttp": 4131,
      "سمى": 4132,
      "▁صحيح": 4133,
      "▁النوع": 4134,
      "▁تسجيل": 4135,
      "▁وبالتالي": 4136,
      "ابي": 4137,
      "مارسة": 4138,
      "طور": 4139,
      "▁أصبح": 4140,
      "▁اغ": 4141,
      "▁سمع": 4142,
      "▁القرار": 4143,
      "▁عبدالله": 4144,
      "▁الصحي": 4145,
      "▁مسؤول": 4146,
      "▁إيج": 4147,
      "▁المستخدمة": 4148,
      "بيض": 4149,
      "▁بور": 4150,
      "▁الرمال": 4151,
      "لمخت": 4152,
      "▁صد": 4153,
      "▁سبب": 4154,
      "المخت": 4155,
      "طاع": 4156,
      "▁عص": 4157,
      "▁العاصمة": 4158,
      "▁حكم": 4159,
      "فعة": 4160,
      "▁يوليو": 4161,
      "▁فمن": 4162,
      "▁العمر": 4163,
      "ind": 4164,
      "▁بلاد": 4165,
      "▁محافظة": 4166,
      "▁فبراير": 4167,
      "ائزة": 4168,
      "فيد": 4169,
      "وقات": 4170,
      "خيص": 4171,
      "▁القرن": 4172,
      "ct": 4173,
      "▁وحتى": 4174,
      "▁بدأت": 4175,
      "▁والغ": 4176,
      "يون": 4177,
      "▁معه": 4178,
      "▁الطعام": 4179,
      "▁تحديث": 4180,
      "امين": 4181,
      "فية": 4182,
      "إذا": 4183,
      "▁المخت": 4184,
      "▁متر": 4185,
      "▁In": 4186,
      "hat": 4187,
      "▁لهذه": 4188,
      "▁اخبار": 4189,
      "ويتر": 4190,
      "▁e": 4191,
      "م.": 4192,
      "▁2013": 4193,
      "▁الانتخابات": 4194,
      "▁غس": 4195,
      "عمة": 4196,
      "كُ": 4197,
      "▁بأس": 4198,
      "▁وير": 4199,
      "um": 4200,
      "▁يتعلق": 4201,
      "▁فهم": 4202,
      "▁قلي": 4203,
      "▁باع": 4204,
      "يتها": 4205,
      "لته": 4206,
      "▁النحاس": 4207,
      "صبح": 4208,
      "▁الصفحة": 4209,
      "▁الإش": 4210,
      "▁الخبر": 4211,
      "▁الاستثمار": 4212,
      "▁إليها": 4213,
      "▁المستخدم": 4214,
      "موح": 4215,
      "▁للمن": 4216,
      "▁لر": 4217,
      "▁وست": 4218,
      "حاء": 4219,
      "ائد": 4220,
      "ريت": 4221,
      "▁الكريم": 4222,
      "▁العلاقات": 4223,
      "بين": 4224,
      "▁الأربعاء": 4225,
      "سارة": 4226,
      "▁يستخدم": 4227,
      "▁الثان": 4228,
      "نبية": 4229,
      "دير": 4230,
      "▁رفض": 4231,
      "▁متن": 4232,
      "▁وانت": 4233,
      "▁المحمول": 4234,
      "▁إطلاق": 4235,
      "يدر": 4236,
      "قيقي": 4237,
      "▁فك": 4238,
      "▁التر": 4239,
      "▁الدع": 4240,
      "▁الإج": 4241,
      "▁والمح": 4242,
      "▁وكل": 4243,
      "▁الأما": 4244,
      "▁تحدث": 4245,
      "▁نصف": 4246,
      "لسة": 4247,
      "://": 4248,
      "▁مفت": 4249,
      "▁البريط": 4250,
      "▁يحتاج": 4251,
      "▁تصل": 4252,
      "الوف": 4253,
      "▁خيارات": 4254,
      "موز": 4255,
      "ائح": 4256,
      "▁اذا": 4257,
      "▁طويلة": 4258,
      "▁عبارة": 4259,
      "▁قب": 4260,
      "ساد": 4261,
      "لوان": 4262,
      "▁كأس": 4263,
      "▁عما": 4264,
      "نادق": 4265,
      "99": 4266,
      "▁خب": 4267,
      "▁الدور": 4268,
      "ديمة": 4269,
      "ـــ": 4270,
      "▁سيد": 4271,
      "▁بدأ": 4272,
      "هادة": 4273,
      "وفي": 4274,
      "▁+": 4275,
      "▁الخدمة": 4276,
      "ستر": 4277,
      "▁موض": 4278,
      "كال": 4279,
      "نون": 4280,
      "▁فيديو": 4281,
      "ليد": 4282,
      "▁أعلنت": 4283,
      "َة": 4284,
      "قى": 4285,
      "▁رسالة": 4286,
      "▁بهدف": 4287,
      "ضب": 4288,
      "ناع": 4289,
      "ارض": 4290,
      "▁الأوسط": 4291,
      "فادة": 4292,
      "est": 4293,
      "▁فإنه": 4294,
      "نات": 4295,
      "▁روسيا": 4296,
      "▁الأمور": 4297,
      "▁بهذه": 4298,
      "▁متعد": 4299,
      "▁سا": 4300,
      "صح": 4301,
      "هج": 4302,
      "▁القلب": 4303,
      "▁وغيرها": 4304,
      "▁النار": 4305,
      "▁ذا": 4306,
      "▁خطة": 4307,
      "▁الأمم": 4308,
      "▁يصل": 4309,
      "▁2.": 4310,
      "فاوض": 4311,
      "انه": 4312,
      "▁وكالة": 4313,
      "ابلة": 4314,
      "▁شيئ": 4315,
      "لون": 4316,
      "▁الفيديو": 4317,
      "▁زا": 4318,
      "▁معد": 4319,
      "نائ": 4320,
      "صاص": 4321,
      "▁حكومة": 4322,
      "عين": 4323,
      "▁الوضع": 4324,
      "▁البنك": 4325,
      "▁كثيرة": 4326,
      "▁وإذا": 4327,
      "و،": 4328,
      "▁شمال": 4329,
      "▁إجراء": 4330,
      "▁تساعد": 4331,
      "▁رج": 4332,
      "▁بِ": 4333,
      "▁المطلوب": 4334,
      "▁جودة": 4335,
      "▁السابقة": 4336,
      "▁لماذا": 4337,
      "صفات": 4338,
      "oc": 4339,
      "▁يساعد": 4340,
      "صلة": 4341,
      "▁معرفة": 4342,
      "▁بب": 4343,
      "▁البار": 4344,
      "op": 4345,
      "رفع": 4346,
      "▁المدير": 4347,
      "هه": 4348,
      "▁الهاتف": 4349,
      "نز": 4350,
      "▁يجعل": 4351,
      "▁لمح": 4352,
      "قيلة": 4353,
      "بعض": 4354,
      "▁تجاه": 4355,
      "عاد": 4356,
      "▁سيتم": 4357,
      "▁الوف": 4358,
      "أي": 4359,
      "▁القدس": 4360,
      "▁المواطنين": 4361,
      "مته": 4362,
      "▁&": 4363,
      "▁الطلب": 4364,
      "▁الأوروبي": 4365,
      "ويق": 4366,
      "▁تشغيل": 4367,
      "هيل": 4368,
      "▁رؤية": 4369,
      "▁جمي": 4370,
      "▁..\n": 4371,
      "خفاض": 4372,
      "شا": 4373,
      "▁بدء": 4374,
      "طوا": 4375,
      "▁الدعم": 4376,
      "▁يؤدي": 4377,
      "▁الاعت": 4378,
      "▁افت": 4379,
      "▁طرف": 4380,
      "▁جيدة": 4381,
      "كبر": 4382,
      "11": 4383,
      "▁الوزارة": 4384,
      "▁مطاحن": 4385,
      "▁بقي": 4386,
      "اره": 4387,
      "▁مباشر": 4388,
      "▁نائب": 4389,
      "▁إث": 4390,
      "▁المادة": 4391,
      "ناه": 4392,
      "▁وعدم": 4393,
      "▁مشكلة": 4394,
      "▁البد": 4395,
      "كذا": 4396,
      "▁العملاء": 4397,
      "رّ": 4398,
      "▁تكسير": 4399,
      "▁الاتفاق": 4400,
      "▁عيد": 4401,
      "▁المدني": 4402,
      "▁ولو": 4403,
      "▁النت": 4404,
      "▁المعد": 4405,
      "▁خير": 4406,
      "ة.": 4407,
      "▁الإسلامي": 4408,
      "ندس": 4409,
      "▁الحد": 4410,
      "ore": 4411,
      "وامل": 4412,
      "▁جنيه": 4413,
      "▁المستوى": 4414,
      "her": 4415,
      "▁كار": 4416,
      "▁الديمقراط": 4417,
      "▁لاب": 4418,
      "▁العراقي": 4419,
      "▁الكر": 4420,
      "▁المطرقة": 4421,
      "عمال": 4422,
      "▁التعامل": 4423,
      "مفر": 4424,
      "▁تنظيف": 4425,
      "▁نيوز": 4426,
      "▁الاه": 4427,
      "▁العث": 4428,
      "▁المعادن": 4429,
      "▁يبدو": 4430,
      "▁وتأ": 4431,
      "__": 4432,
      "▁تض": 4433,
      "▁29": 4434,
      "▁وات": 4435,
      "لامية": 4436,
      "سد": 4437,
      "▁ترامب": 4438,
      "▁الأب": 4439,
      "▁مرحلة": 4440,
      "▁الكسارات": 4441,
      "▁لذا": 4442,
      "وبية": 4443,
      "جلة": 4444,
      "▁ممت": 4445,
      "▁الدست": 4446,
      "نسا": 4447,
      "▁تفاصيل": 4448,
      "▁سابق": 4449,
      "▁ربما": 4450,
      "▁المؤتمر": 4451,
      "ريحات": 4452,
      "▁لغ": 4453,
      "ته،": 4454,
      "ياب": 4455,
      "▁نظر": 4456,
      "نه": 4457,
      "▁40": 4458,
      "ّل": 4459,
      "▁الأساسية": 4460,
      "موعد": 4461,
      "▁الفني": 4462,
      "▁بحيث": 4463,
      "▁بمح": 4464,
      "▁يزيد": 4465,
      "▁on": 4466,
      "▁الزوج": 4467,
      "وراء": 4468,
      "اربة": 4469,
      "تيب": 4470,
      "قائق": 4471,
      "▁موقف": 4472,
      "▁ساعات": 4473,
      "▁ملك": 4474,
      "▁لتق": 4475,
      "▁توفر": 4476,
      "بحت": 4477,
      "▁جداً": 4478,
      "▁الحدود": 4479,
      "▁بنفس": 4480,
      "all": 4481,
      "▁حرب": 4482,
      "▁شعر": 4483,
      "▁مخت": 4484,
      "▁الاقتصادي": 4485,
      "40": 4486,
      "بيت": 4487,
      "▁أعضاء": 4488,
      "▁قول": 4489,
      "▁بمج": 4490,
      "▁فرصة": 4491,
      "▁الدخول": 4492,
      "ليزية": 4493,
      "ظار": 4494,
      "▁المباراة": 4495,
      "▁قامت": 4496,
      "▁يمن": 4497,
      "▁الدائ": 4498,
      "▁يحتوي": 4499,
      "▁محمود": 4500,
      "▁صع": 4501,
      "لمانيا": 4502,
      "ارضة": 4503,
      "▁خصوص": 4504,
      "بدا": 4505,
      "عيم": 4506,
      "▁y": 4507,
      "▁لديك": 4508,
      "▁ماذا": 4509,
      "▁رياض": 4510,
      "▁فيل": 4511,
      "راث": 4512,
      "لول": 4513,
      "ير،": 4514,
      "فاءة": 4515,
      "▁التالي": 4516,
      "▁لتن": 4517,
      "ليس": 4518,
      "وْ": 4519,
      "▁الصورة": 4520,
      "حيان": 4521,
      "افر": 4522,
      "▁تَ": 4523,
      "اليات": 4524,
      "▁ماكينة": 4525,
      "ريا": 4526,
      "▁إنها": 4527,
      "▁السورية": 4528,
      "▁مصانع": 4529,
      "▁الشرطة": 4530,
      "▁PM": 4531,
      "▁التالية": 4532,
      "▁الحالة": 4533,
      "يروس": 4534,
      "▁غالب": 4535,
      "▁الطبية": 4536,
      "▁المصنع": 4537,
      "▁الجن": 4538,
      "مبيعات": 4539,
      "▁وعند": 4540,
      "▁وهذه": 4541,
      "حر": 4542,
      "▁بذ": 4543,
      "/2": 4544,
      "▁مشاهدة": 4545,
      "▁تحمل": 4546,
      "▁الجودة": 4547,
      "لمذ": 4548,
      "▁قراءة": 4549,
      "▁للمس": 4550,
      "صال": 4551,
      "لمانية": 4552,
      "▁التربية": 4553,
      "▁بمد": 4554,
      "هاد": 4555,
      "▁\"ت": 4556,
      "▁منظمة": 4557,
      "▁الطائ": 4558,
      "▁أغسطس": 4559,
      "▁المقب": 4560,
      "▁للمش": 4561,
      "▁الصلاة": 4562,
      "ات.": 4563,
      "فى": 4564,
      "9%": 4565,
      "▁تفسير": 4566,
      "▁أحدث": 4567,
      "▁محافظ": 4568,
      "▁المثا": 4569,
      "يبة": 4570,
      "ات\n": 4571,
      "▁حماية": 4572,
      "▁القب": 4573,
      "▁الأغ": 4574,
      "▁العض": 4575,
      "ناول": 4576,
      "▁أخذ": 4577,
      "▁بحسب": 4578,
      "▁اكثر": 4579,
      "▁دار": 4580,
      "▁وكيف": 4581,
      "▁الفلسطينية": 4582,
      "▁فعل": 4583,
      "▁النمو": 4584,
      "متها": 4585,
      "يّ": 4586,
      "▁مواد": 4587,
      "شاط": 4588,
      "▁عاما": 4589,
      "▁إف": 4590,
      "▁وأس": 4591,
      "60": 4592,
      "وانين": 4593,
      "لالة": 4594,
      "المذ": 4595,
      "▁مجموع": 4596,
      "▁مؤسسة": 4597,
      "َّة": 4598,
      "▁عادة": 4599,
      "▁أبرز": 4600,
      "جح": 4601,
      "▁كاملة": 4602,
      "▁بنت": 4603,
      "▁أجهزة": 4604,
      "▁كرة": 4605,
      "ناية": 4606,
      "رجان": 4607,
      "اور": 4608,
      "▁معا": 4609,
      "%D8%": 4610,
      "▁مؤك": 4611,
      "▁ومس": 4612,
      "▁مهمة": 4613,
      "▁سوى": 4614,
      "هذا": 4615,
      "▁علينا": 4616,
      "لمها": 4617,
      "▁سلي": 4618,
      "قدر": 4619,
      "▁خلق": 4620,
      "▁غرب": 4621,
      "لمفت": 4622,
      "▁كشف": 4623,
      "ضيع": 4624,
      "المفت": 4625,
      "▁199": 4626,
      "شب": 4627,
      "▁المصدر": 4628,
      "▁فلسطين": 4629,
      "▁امت": 4630,
      "خرة": 4631,
      "▁المذ": 4632,
      "▁الشاشة": 4633,
      "اقات": 4634,
      "▁المنتخب": 4635,
      "ك.": 4636,
      "▁الحركة": 4637,
      "ُوا": 4638,
      "▁الرحمن": 4639,
      "▁يغ": 4640,
      "جير": 4641,
      "الوج": 4642,
      "▁المنش": 4643,
      "عش": 4644,
      "لهم": 4645,
      "▁ومت": 4646,
      "انت": 4647,
      "نا،": 4648,
      "▁توق": 4649,
      "▁ألا": 4650,
      "▁العسكرية": 4651,
      "ورت": 4652,
      "ادية": 4653,
      "▁متنقلة": 4654,
      "▁صلاح": 4655,
      "ئين": 4656,
      "▁المفت": 4657,
      "▁تحتوي": 4658,
      "▁لموا": 4659,
      "▁عرف": 4660,
      "▁انتها": 4661,
      "▁الطريقة": 4662,
      "َد": 4663,
      "▁الجزء": 4664,
      "▁الأخبار": 4665,
      "▁أنهم": 4666,
      "ak": 4667,
      "▁الانس": 4668,
      "ابر": 4669,
      "▁http": 4670,
      "▁التنمية": 4671,
      "▁بطريقة": 4672,
      "حف": 4673,
      "ارير": 4674,
      "▁الياب": 4675,
      "ْر": 4676,
      "ــــــــ": 4677,
      "▁لكي": 4678,
      "ي.": 4679,
      "▁خلي": 4680,
      "نيات": 4681,
      "قية": 4682,
      "ممن": 4683,
      "▁تمكن": 4684,
      "▁البلا": 4685,
      "▁الإسرائيلي": 4686,
      "ib": 4687,
      "▁والمش": 4688,
      "هلة": 4689,
      "▁ضرورة": 4690,
      "▁يوسف": 4691,
      "رسا": 4692,
      "فقات": 4693,
      "ار،": 4694,
      "▁وأوضح": 4695,
      "▁أر": 4696,
      "▁وصل": 4697,
      "▁للمع": 4698,
      "خوان": 4699,
      "▁مؤشر": 4700,
      "وذكر": 4701,
      "▁مواجهة": 4702,
      "▁أهداف": 4703,
      "▁الكسارة": 4704,
      "ّه": 4705,
      "هم.\n": 4706,
      "▁شأن": 4707,
      "our": 4708,
      "▁الشخصية": 4709,
      "▁الأست": 4710,
      "▁الابت": 4711,
      "مراض": 4712,
      "▁الطلاب": 4713,
      "اخر": 4714,
      "زع": 4715,
      "▁الصناعية": 4716,
      "▁فيروس": 4717,
      "رجمة": 4718,
      "ممارسة": 4719,
      "▁تعل": 4720,
      "ي\n": 4721,
      "▁الكبيرة": 4722,
      "▁دخول": 4723,
      "▁2011": 4724,
      "للع": 4725,
      "▁عضو": 4726,
      "داة": 4727,
      "ov": 4728,
      "▁اجتماع": 4729,
      "▁جن": 4730,
      "▁الحزب": 4731,
      "▁سيارة": 4732,
      "▁2012": 4733,
      "▁بشر": 4734,
      "طبيق": 4735,
      "▁العزيز": 4736,
      "rus": 4737,
      "▁الفرق": 4738,
      "نوان": 4739,
      "▁فيلم": 4740,
      "لفزي": 4741,
      "واتف": 4742,
      "▁01": 4743,
      "▁الوج": 4744,
      "▁المحلي": 4745,
      "▁أبريل": 4746,
      "▁تكن": 4747,
      "▁ظهور": 4748,
      "؟؟": 4749,
      "▁الذات": 4750,
      "▁أسباب": 4751,
      "▁الكت": 4752,
      "▁المحمولة": 4753,
      "▁نجاح": 4754,
      "خصوص": 4755,
      "▁أنحاء": 4756,
      "ap": 4757,
      "▁والله": 4758,
      "▁محد": 4759,
      "▁وذكر": 4760,
      "اني،": 4761,
      "سيا": 4762,
      "تجاه": 4763,
      "▁تعزيز": 4764,
      "▁الرسمي": 4765,
      "▁توجد": 4766,
      "ill": 4767,
      "▁الخيار": 4768,
      "▁طائ": 4769,
      "▁العليا": 4770,
      "هم.": 4771,
      "e.": 4772,
      "▁النقد": 4773,
      "▁د.": 4774,
      "▁منع": 4775,
      "▁لاف": 4776,
      "▁وراء": 4777,
      "عملة": 4778,
      "▁و\"": 4779,
      "▁ينب": 4780,
      "▁لقاء": 4781,
      "▁الأخير": 4782,
      "واجه": 4783,
      "لوسط": 4784,
      "مثلة": 4785,
      "الوسط": 4786,
      "▁مري": 4787,
      "اللع": 4788,
      "دي،": 4789,
      "ألة": 4790,
      "▁Get": 4791,
      "ماني": 4792,
      "▁معنى": 4793,
      "▁فما": 4794,
      "▁الباب": 4795,
      "▁الأسمنت": 4796,
      "ذن": 4797,
      "▁الاستع": 4798,
      "▁اما": 4799,
      "▁لَ": 4800,
      "▁الساد": 4801,
      "▁شرق": 4802,
      "12": 4803,
      "▁م\n": 4804,
      "لمري": 4805,
      "▁مات": 4806,
      "▁العرض": 4807,
      "▁الني": 4808,
      "علقة": 4809,
      "▁الزمن": 4810,
      "▁بيانات": 4811,
      "المري": 4812,
      "ينما": 4813,
      "▁عمان": 4814,
      "▁فرض": 4815,
      "اليف": 4816,
      "▁الوسط": 4817,
      "لامات": 4818,
      "▁اللع": 4819,
      "▁حدثنا": 4820,
      "▁تث": 4821,
      "▁الهواء": 4822,
      "▁سج": 4823,
      "▁الالت": 4824,
      "▁الحمل": 4825,
      "ook": 4826,
      "▁السبب": 4827,
      "▁لمج": 4828,
      "▁تظهر": 4829,
      "▁مقارنة": 4830,
      "▁صحة": 4831,
      "ستخدم": 4832,
      ".5": 4833,
      "▁بتح": 4834,
      "▁مرت": 4835,
      "▁الدراسة": 4836,
      "▁الأيام": 4837,
      "▁اللازمة": 4838,
      "▁مناف": 4839,
      "▁وهناك": 4840,
      "▁عنوان": 4841,
      "قص": 4842,
      "▁ممكن": 4843,
      "▁قصة": 4844,
      "▁الاص": 4845,
      "▁بالفعل": 4846,
      "فذ": 4847,
      "▁لتع": 4848,
      "▁أسبوع": 4849,
      "▁إعلان": 4850,
      "▁كش": 4851,
      "▁قدرة": 4852,
      "▁ونحن": 4853,
      "▁دائما": 4854,
      "▁المري": 4855,
      "ياجات": 4856,
      "▁أداء": 4857,
      "▁لاعب": 4858,
      "رانيت": 4859,
      "▁قضية": 4860,
      "▁از": 4861,
      "اصل": 4862,
      "زاب": 4863,
      "▁انا": 4864,
      "نَ": 4865,
      "ري،": 4866,
      "ونَ": 4867,
      "▁بالمن": 4868,
      "▁لز": 4869,
      "▁المؤسسات": 4870,
      "▁والموا": 4871,
      "تد": 4872,
      "▁العص": 4873,
      "▁للغاية": 4874,
      "▁النقل": 4875,
      "▁غرفة": 4876,
      "رسانة": 4877,
      "ّد": 4878,
      "▁تونس": 4879,
      "▁لأنها": 4880,
      "▁علاقة": 4881,
      "▁لخ": 4882,
      "▁منصة": 4883,
      "▁أز": 4884,
      "▁الموسم": 4885,
      "▁تقول": 4886,
      "▁فكرة": 4887,
      "جاوز": 4888,
      "▁والي": 4889,
      "ريج": 4890,
      "▁الإعلان": 4891,
      "▁سبق": 4892,
      "▁والز": 4893,
      "▁المكان": 4894,
      "▁نموذج": 4895,
      "▁المعروف": 4896,
      "th": 4897,
      "▁آلاف": 4898,
      "▁السلطات": 4899,
      "▁الخير": 4900,
      "▁بالض": 4901,
      "▁مقا": 4902,
      "عامل": 4903,
      "▁المجال": 4904,
      "▁إِ": 4905,
      "▁كام": 4906,
      "▁سف": 4907,
      "نوات": 4908,
      "▁بكر": 4909,
      "وام": 4910,
      "▁تجربة": 4911,
      "▁وظائف": 4912,
      "▁فس": 4913,
      "▁خيار": 4914,
      "▁الاح": 4915,
      "▁المستقبل": 4916,
      "▁الدورة": 4917,
      "▁محاولة": 4918,
      "▁حالات": 4919,
      "اوز": 4920,
      "▁الده": 4921,
      "يطرة": 4922,
      "▁اللقاء": 4923,
      "▁يستطيع": 4924,
      "▁طف": 4925,
      "مئة": 4926,
      "▁القول": 4927,
      "ليزي": 4928,
      "ِين": 4929,
      "▁الطبيعي": 4930,
      "قوم": 4931,
      "هوم": 4932,
      "▁الغاز": 4933,
      "تري": 4934,
      "▁الجمهورية": 4935,
      "ايير": 4936,
      "▁مجتمع": 4937,
      "ئل": 4938,
      "▁الكمبيوتر": 4939,
      "راحة": 4940,
      "وكس": 4941,
      "▁الموجودة": 4942,
      "▁العالم،": 4943,
      "ميات": 4944,
      "▁حز": 4945,
      "▁لجميع": 4946,
      "ويا": 4947,
      "▁الضغط": 4948,
      "▁انتشار": 4949,
      "زيل": 4950,
      "▁اقرأ": 4951,
      "▁اليد": 4952,
      "▁مرض": 4953,
      "ضير": 4954,
      "▁سأ": 4955,
      "▁الحسن": 4956,
      "▁العسكري": 4957,
      "▁التابعة": 4958,
      "▁سعد": 4959,
      "▁فصل": 4960,
      "▁الأبيض": 4961,
      "▁أصبحت": 4962,
      "تبع": 4963,
      "جعة": 4964,
      "ايا": 4965,
      "▁تجارة": 4966,
      "▁قم": 4967,
      "ip": 4968,
      "▁عين": 4969,
      "▁مشاكل": 4970,
      "▁منح": 4971,
      "▁زمن": 4972,
      "▁المجموعة": 4973,
      "ونه": 4974,
      "▁لات": 4975,
      "▁وتج": 4976,
      "▁العائ": 4977,
      "▁for": 4978,
      "ملعب": 4979,
      "▁مؤتمر": 4980,
      "وانات": 4981,
      "خير": 4982,
      "اطة": 4983,
      "80": 4984,
      "▁انها": 4985,
      "ik": 4986,
      "▁الوح": 4987,
      "ذار": 4988,
      "▁والتن": 4989,
      "▁الأهلي": 4990,
      "حسب": 4991,
      "يريا": 4992,
      "حول": 4993,
      "▁استق": 4994,
      "لوجه": 4995,
      "▁الطبيعية": 4996,
      "روب": 4997,
      "ويض": 4998,
      "▁مادة": 4999,
      "قه": 5000,
      "ويج": 5001,
      "الوجه": 5002,
      "▁واضح": 5003,
      "▁الإمام": 5004,
      "▁Pric": 5005,
      "▁فوائد": 5006,
      "وافق": 5007,
      "▁المواقع": 5008,
      "▁التب": 5009,
      "▁الهدف": 5010,
      "▁الشب": 5011,
      "▁كاف": 5012,
      "▁اتصل": 5013,
      "▁ابت": 5014,
      "ورو": 5015,
      "▁ألمانيا": 5016,
      "▁واق": 5017,
      "ًا.": 5018,
      "▁الإن": 5019,
      "غلاق": 5020,
      "شنطن": 5021,
      "قبة": 5022,
      "▁المركزي": 5023,
      "▁St": 5024,
      "od": 5025,
      "▁مجانية": 5026,
      "▁الإست": 5027,
      "▁r": 5028,
      "هلك": 5029,
      "رسال": 5030,
      "ر،": 5031,
      "▁اللَّ": 5032,
      "▁نعم": 5033,
      "ويم": 5034,
      "▁رجال": 5035,
      "▁النواب": 5036,
      "▁قتل": 5037,
      "سون": 5038,
      "▁حدود": 5039,
      "▁القضاء": 5040,
      "▁السفر": 5041,
      "▁انته": 5042,
      "▁الفرنسي": 5043,
      "▁الوجه": 5044,
      "ang": 5045,
      "▁ولد": 5046,
      "▁الاثنين": 5047,
      "▁is": 5048,
      "▁النظ": 5049,
      "▁بنك": 5050,
      "▁الجلد": 5051,
      "▁إضاف": 5052,
      "▁يوما": 5053,
      "▁مصن": 5054,
      "▁الله،": 5055,
      "رجات": 5056,
      ":00": 5057,
      "▁لتحقيق": 5058,
      "▁التفاصيل": 5059,
      "▁نفسها": 5060,
      "▁خبر": 5061,
      "▁الماضي،": 5062,
      "▁السيارة": 5063,
      "▁غزة": 5064,
      "▁تشكيل": 5065,
      "▁الخلا": 5066,
      "▁وخاصة": 5067,
      "▁فإذا": 5068,
      "ور،": 5069,
      "▁الأحمر": 5070,
      "المها": 5071,
      "▁لفت": 5072,
      "وراق": 5073,
      "▁الصوت": 5074,
      "▁يلي": 5075,
      "▁منظ": 5076,
      "▁الزيت": 5077,
      "▁أُ": 5078,
      "▁تعلم": 5079,
      "امن": 5080,
      "▁الأقل": 5081,
      "▁ليت": 5082,
      "ديقة": 5083,
      "▁مها": 5084,
      "▁الحقيقة": 5085,
      "▁سيارات": 5086,
      "▁شرح": 5087,
      "ذي": 5088,
      "▁التحقيق": 5089,
      "دان": 5090,
      "تُ": 5091,
      "▁منز": 5092,
      "▁توص": 5093,
      "▁مشاركة": 5094,
      "وتين": 5095,
      "▁الأجهزة": 5096,
      "▁لإن": 5097,
      "▁الإجراءات": 5098,
      "ردد": 5099,
      "▁حصل": 5100,
      "▁تجد": 5101,
      "▁بالغ": 5102,
      "▁60": 5103,
      "▁الفصل": 5104,
      "اطع": 5105,
      "▁لكرة": 5106,
      "og": 5107,
      "▁التدريب": 5108,
      "▁جه": 5109,
      "▁عناصر": 5110,
      "▁منزل": 5111,
      "▁الثورة": 5112,
      "▁نشاط": 5113,
      "رقام": 5114,
      "▁الاجتماع": 5115,
      "▁نقاط": 5116,
      "▁يرج": 5117,
      "▁تأس": 5118,
      "تبط": 5119,
      "ائب": 5120,
      "ليك": 5121,
      "if": 5122,
      "▁(3": 5123,
      "▁بدور": 5124,
      "▁الجاري": 5125,
      "▁التجار": 5126,
      "▁اقتصاد": 5127,
      ".0": 5128,
      "▁بسرعة": 5129,
      "▁أض": 5130,
      "▁أطلق": 5131,
      "ملات": 5132,
      "يض": 5133,
      "▁الاول": 5134,
      "صات": 5135,
      "صاب": 5136,
      "9%8": 5137,
      "▁خلالها": 5138,
      "▁للموا": 5139,
      "25": 5140,
      "▁وقف": 5141,
      "▁المحكمة": 5142,
      "سس": 5143,
      "▁السنوات": 5144,
      "عْ": 5145,
      "▁البرامج": 5146,
      "▁الأسواق": 5147,
      "▁موعد": 5148,
      "▁المها": 5149,
      "▁يمت": 5150,
      "ليمي": 5151,
      "▁استراتيجية": 5152,
      "مكانية": 5153,
      "تركة": 5154,
      "▁قلت": 5155,
      "اضي": 5156,
      "داية": 5157,
      "خا": 5158,
      "▁لمش": 5159,
      "زان": 5160,
      "▁الفنية": 5161,
      "▁برا": 5162,
      "▁بطولة": 5163,
      "▁الأعلى": 5164,
      "▁ضغط": 5165,
      "لماني": 5166,
      "▁الأجنبية": 5167,
      "▁ستكون": 5168,
      "أَ": 5169,
      "▁معدل": 5170,
      "▁قي": 5171,
      "▁والمج": 5172,
      "▁الغربية": 5173,
      "▁شرك": 5174,
      "▁عشرة": 5175,
      "▁التشغيل": 5176,
      "▁سنت": 5177,
      "مشق": 5178,
      "▁فرص": 5179,
      "وسع": 5180,
      "▁دوري": 5181,
      "▁لكنه": 5182,
      "▁نب": 5183,
      "▁بالذ": 5184,
      "▁جمه": 5185,
      "▁استث": 5186,
      "▁الجهات": 5187,
      "خم": 5188,
      "▁امر": 5189,
      "آت": 5190,
      "▁القدرة": 5191,
      "راح": 5192,
      "▁القائمة": 5193,
      "▁رضي": 5194,
      "بهة": 5195,
      "▁ويش": 5196,
      "ازل": 5197,
      "قلة": 5198,
      "شط": 5199,
      "▁القديمة": 5200,
      "ort": 5201,
      "طفى": 5202,
      "▁لمص": 5203,
      "▁k": 5204,
      "وجود": 5205,
      "ورك": 5206,
      "▁والتح": 5207,
      "واري": 5208,
      "لوع": 5209,
      "ادم": 5210,
      "▁حقيقة": 5211,
      "▁الاستث": 5212,
      "▁Re": 5213,
      "▁تبدأ": 5214,
      "ودا": 5215,
      "▁مجرد": 5216,
      "▁نسب": 5217,
      "▁روح": 5218,
      "طوانة": 5219,
      "▁العين": 5220,
      "▁للمست": 5221,
      "▁ليبيا": 5222,
      "▁؟\n": 5223,
      "▁الطرف": 5224,
      "رامة": 5225,
      "▁الإرهاب": 5226,
      "▁بعدما": 5227,
      "للوا": 5228,
      "وعية": 5229,
      "▁العلمي": 5230,
      "▁لديه": 5231,
      "▁أه": 5232,
      "▁الحالية": 5233,
      "يره": 5234,
      "▁الشريف": 5235,
      "▁شاهد": 5236,
      "غبة": 5237,
      "اوي": 5238,
      "▁الكبرى": 5239,
      "منى": 5240,
      "▁ماكينات": 5241,
      "▁الجزائ": 5242,
      "▁لديها": 5243,
      "▁تعريف": 5244,
      "لية،": 5245,
      "مانية": 5246,
      "▁الحج": 5247,
      "ce": 5248,
      "▁النادي": 5249,
      "▁أرد": 5250,
      "▁الأزمة": 5251,
      "▁الثالثة": 5252,
      "لموت": 5253,
      "على": 5254,
      "▁عربي": 5255,
      "يقة": 5256,
      "ظل": 5257,
      "▁بز": 5258,
      "▁الحالات": 5259,
      "▁يه": 5260,
      "▁الوزن": 5261,
      "واد": 5262,
      "▁القيا": 5263,
      "▁تقع": 5264,
      "يميا": 5265,
      "الموت": 5266,
      "av": 5267,
      "مالك": 5268,
      "▁اللعبة": 5269,
      "▁عقب": 5270,
      "▁المناف": 5271,
      ".1": 5272,
      "▁إما": 5273,
      "▁سم": 5274,
      "▁حفظ": 5275,
      "فص": 5276,
      "▁اسعار": 5277,
      "▁ويس": 5278,
      "▁مسلسل": 5279,
      "▁الحكومية": 5280,
      "▁(ب": 5281,
      "▁يذكر": 5282,
      "▁وأح": 5283,
      "اللوا": 5284,
      "▁لض": 5285,
      "▁رائعة": 5286,
      "▁يقع": 5287,
      "▁أمريكا": 5288,
      "▁القيادة": 5289,
      "▁النو": 5290,
      "▁أبناء": 5291,
      "▁أجزاء": 5292,
      "▁الحرارة": 5293,
      "لممكن": 5294,
      "الممكن": 5295,
      "بيه": 5296,
      "▁الممكن": 5297,
      "ئنا": 5298,
      "▁31": 5299,
      "رطان": 5300,
      "▁واسع": 5301,
      "مميزة": 5302,
      "▁قوية": 5303,
      "▁مستويات": 5304,
      "▁التقرير": 5305,
      "▁عباس": 5306,
      "لمون": 5307,
      "ها\n": 5308,
      "**": 5309,
      "▁يعيش": 5310,
      "▁البريد": 5311,
      "/20": 5312,
      "▁العلماء": 5313,
      "art": 5314,
      "▁فيت": 5315,
      "▁كوب": 5316,
      "▁ينبغي": 5317,
      "باط": 5318,
      "▁المحافظ": 5319,
      "يلم": 5320,
      "nd": 5321,
      "▁تحسين": 5322,
      "▁واسعة": 5323,
      "طال": 5324,
      "دار": 5325,
      "▁صنا": 5326,
      "▁حوا": 5327,
      "▁أربعة": 5328,
      "عو": 5329,
      "▁AM": 5330,
      "▁05": 5331,
      "▁النز": 5332,
      "▁1-": 5333,
      "▁بتق": 5334,
      "▁تمر": 5335,
      "▁يحمل": 5336,
      "▁عامة": 5337,
      "طار": 5338,
      "▁الأميركي": 5339,
      "مخد": 5340,
      "▁أخبر": 5341,
      "▁باك": 5342,
      "▁الحض": 5343,
      "▁الغذائية": 5344,
      "▁النف": 5345,
      "سف": 5346,
      "▁متعددة": 5347,
      "▁الغرب": 5348,
      "▁أدوات": 5349,
      "▁صفحة": 5350,
      "ريبا": 5351,
      "▁09": 5352,
      "▁ضبط": 5353,
      "▁فرنسا": 5354,
      "▁يظهر": 5355,
      "▁الرئيسي": 5356,
      "ذف": 5357,
      "▁دائم": 5358,
      "▁اللوا": 5359,
      "▁المكتب": 5360,
      "▁ممن": 5361,
      "▁الرأس": 5362,
      "▁يحي": 5363,
      "ائص": 5364,
      "▁القوة": 5365,
      "out": 5366,
      "one": 5367,
      "▁فل": 5368,
      "▁الكاتب": 5369,
      "ارقة": 5370,
      "▁النتائج": 5371,
      "ممثل": 5372,
      "٠٠": 5373,
      "▁صار": 5374,
      "▁بحق": 5375,
      "▁بتاريخ": 5376,
      "▁مخطط": 5377,
      "▁الموت": 5378,
      "▁بمش": 5379,
      "قات": 5380,
      "▁منا": 5381,
      "مِ": 5382,
      "▁الأمنية": 5383,
      "▁حسين": 5384,
      "▁ومست": 5385,
      "▁خرج": 5386,
      "▁حدوث": 5387,
      "▁معرض": 5388,
      "دخل": 5389,
      "▁التعب": 5390,
      "▁عليكم": 5391,
      "▁مكافحة": 5392,
      "▁بمس": 5393,
      "▁التجاري": 5394,
      "▁تأتي": 5395,
      "وقيت": 5396,
      "▁الإصابة": 5397,
      "▁البرلمان": 5398,
      "أل": 5399,
      "▁وبي": 5400,
      "▁الموظف": 5401,
      "لي،": 5402,
      "▁!": 5403,
      "▁المؤمن": 5404,
      "ارا": 5405,
      "▁يعود": 5406,
      "ثمان": 5407,
      "▁وجد": 5408,
      "ont": 5409,
      "فز": 5410,
      "▁المشكلة": 5411,
      "ماعيل": 5412,
      "▁إجراءات": 5413,
      "▁وتص": 5414,
      "ews": 5415,
      "▁\"إ": 5416,
      "▁واض": 5417,
      "▁المتعلقة": 5418,
      "هام": 5419,
      "▁الرابع": 5420,
      "▁ايضا": 5421,
      "▁مين": 5422,
      "▁وإنما": 5423,
      "▁للعمل": 5424,
      "واز": 5425,
      "▁أنك": 5426,
      "▁بغداد": 5427,
      "▁جمال": 5428,
      "▁الباحث": 5429,
      "▁ماي": 5430,
      "▁احد": 5431,
      "▁الأفضل": 5432,
      "َيْ": 5433,
      "▁العلاقة": 5434,
      "▁سياسة": 5435,
      "▁مالك": 5436,
      "▁عبدالع": 5437,
      "فات": 5438,
      "ابه": 5439,
      "▁سكان": 5440,
      "▁ملح": 5441,
      "▁تمام": 5442,
      "ادرات": 5443,
      "▁قت": 5444,
      "يمان": 5445,
      "▁يز": 5446,
      "▁الشعبي": 5447,
      "كومة": 5448,
      "▁500": 5449,
      "▁الالكتر": 5450,
      "▁الأردن": 5451,
      "▁الماضية": 5452,
      "▁التعليق": 5453,
      "▁لعب": 5454,
      "▁ذهب": 5455,
      "وزارة": 5456,
      "باع": 5457,
      "س،": 5458,
      "▁التنظيم": 5459,
      "▁العلمية": 5460,
      "▁تستطيع": 5461,
      "▁المشارك": 5462,
      "▁للمح": 5463,
      "ونغ": 5464,
      "▁سام": 5465,
      "%D9%8": 5466,
      "▁قاعدة": 5467,
      "▁الطحن": 5468,
      "▁عهد": 5469,
      "لوي": 5470,
      "▁تجهي": 5471,
      "▁الحفاظ": 5472,
      "▁الجمعية": 5473,
      "كلات": 5474,
      "▁الرؤ": 5475,
      "▁قيام": 5476,
      "▁السكر": 5477,
      "▁i": 5478,
      "▁كلية": 5479,
      "ail": 5480,
      "خلص": 5481,
      "▁جهود": 5482,
      "ّم": 5483,
      "▁بهم": 5484,
      "▁النوم": 5485,
      "▁اليوم،": 5486,
      "▁بوك": 5487,
      "▁السج": 5488,
      "▁يزال": 5489,
      "▁جاه": 5490,
      "قوط": 5491,
      "▁بالما": 5492,
      "لبي": 5493,
      "▁مساحة": 5494,
      "▁تهتز": 5495,
      "▁إعداد": 5496,
      "▁بمر": 5497,
      "موق": 5498,
      "▁والمر": 5499,
      "قام": 5500,
      "▁The": 5501,
      "له،": 5502,
      "▁2010": 5503,
      "▁طول": 5504,
      "▁st": 5505,
      "لتها": 5506,
      "▁الدقيقة": 5507,
      "▁وفقا": 5508,
      "▁قيا": 5509,
      "▁واح": 5510,
      "▁مدار": 5511,
      "ach": 5512,
      "هوة": 5513,
      "▁حالي": 5514,
      "▁شباب": 5515,
      "▁مطالب": 5516,
      "▁المتوسط": 5517,
      "▁الفوز": 5518,
      "▁البيئة": 5519,
      "ابون": 5520,
      "▁الحال": 5521,
      "▁استمرار": 5522,
      "▁لعد": 5523,
      "▁نست": 5524,
      "▁برج": 5525,
      "فرة": 5526,
      "▁ومش": 5527,
      "▁تقييم": 5528,
      "▁الرجال": 5529,
      "روة": 5530,
      "قيقية": 5531,
      "▁توقع": 5532,
      "▁وأنا": 5533,
      "▁نح": 5534,
      "ة.\n": 5535,
      "طلاع": 5536,
      "▁كلمات": 5537,
      "pt": 5538,
      "▁اتخاذ": 5539,
      "▁فندق": 5540,
      "▁الدولار": 5541,
      "ندية": 5542,
      "▁التغ": 5543,
      "▁يجوز": 5544,
      "▁الأساس": 5545,
      "وظبي": 5546,
      "لغاء": 5547,
      "▁القوى": 5548,
      "ندر": 5549,
      "▁دقائق": 5550,
      "▁والآ": 5551,
      "▁الرسمية": 5552,
      "▁مجلة": 5553,
      "▁الحوث": 5554,
      "are": 5555,
      "سك": 5556,
      "▁الدنيا": 5557,
      "▁أربع": 5558,
      "▁الزرا": 5559,
      "▁تحويل": 5560,
      "كسارة": 5561,
      "▁خمسة": 5562,
      "▁الكتب": 5563,
      "لُ": 5564,
      "حرك": 5565,
      "▁سان": 5566,
      "تراك": 5567,
      "▁وقع": 5568,
      "خي": 5569,
      "ant": 5570,
      "ائه": 5571,
      "▁شارك": 5572,
      "▁الحوار": 5573,
      "▁جان": 5574,
      "▁‪": 5575,
      "▁بريط": 5576,
      "▁شخصية": 5577,
      "ماد": 5578,
      "دالة": 5579,
      "▁عمرو": 5580,
      "سَ": 5581,
      "يفا": 5582,
      "▁مقر": 5583,
      "▁الوظ": 5584,
      "▁واشنطن": 5585,
      "ob": 5586,
      "▁والمص": 5587,
      "▁الاتجاه": 5588,
      "▁أعرف": 5589,
      "▁الأميركية": 5590,
      "▁مجانا": 5591,
      "▁الضر": 5592,
      "▁المناسبة": 5593,
      "▁الإلكترونية": 5594,
      "▁الثقافة": 5595,
      "▁بصورة": 5596,
      "▁قض": 5597,
      "غال": 5598,
      "▁المقال": 5599,
      "سيم": 5600,
      "▁اللون": 5601,
      "▁الكلام": 5602,
      "بلو": 5603,
      "▁الأموال": 5604,
      "يي": 5605,
      "▁محا": 5606,
      "▁طرح": 5607,
      "▁08": 5608,
      "24": 5609,
      "▁مظ": 5610,
      "▁تصريحات": 5611,
      "ate": 5612,
      "▁المشاريع": 5613,
      "زون": 5614,
      "▁يوفر": 5615,
      "▁أخرى،": 5616,
      "▁الملابس": 5617,
      "▁المؤسسة": 5618,
      "▁استش": 5619,
      "▁ريمون": 5620,
      "ht": 5621,
      "لمل": 5622,
      "▁مميز": 5623,
      "▁بينهم": 5624,
      "▁نور": 5625,
      "▁أثر": 5626,
      "راه": 5627,
      "----": 5628,
      "▁حملة": 5629,
      "▁العلوم": 5630,
      "▁02": 5631,
      "▁03": 5632,
      "▁صندوق": 5633,
      "▁القادمة": 5634,
      "▁الحقيقي": 5635,
      "▁سطح": 5636,
      "▁\"ب": 5637,
      "واجد": 5638,
      "ائن": 5639,
      "▁عربية": 5640,
      "▁ويتم": 5641,
      "▁حاجة": 5642,
      "▁تشمل": 5643,
      "▁والمست": 5644,
      "▁ويست": 5645,
      "▁الرياضية": 5646,
      "▁أزمة": 5647,
      "▁عبدالعزيز": 5648,
      "طلبات": 5649,
      "▁يبلغ": 5650,
      "ياط": 5651,
      "امت": 5652,
      "▁pro": 5653,
      "▁‫": 5654,
      "جابة": 5655,
      "▁مشاريع": 5656,
      "▁لأي": 5657,
      "15": 5658,
      "▁دخ": 5659,
      "▁اخر": 5660,
      "▁المدارس": 5661,
      "راليا": 5662,
      "▁العاب": 5663,
      "ِينَ": 5664,
      "غان": 5665,
      "▁Ar": 5666,
      "▁مكت": 5667,
      "▁رائع": 5668,
      "▁الفكر": 5669,
      "▁التون": 5670,
      "احات": 5671,
      "واني": 5672,
      "قاط": 5673,
      "▁الجنس": 5674,
      "▁الطالب": 5675,
      "مزي": 5676,
      "▁البحرين": 5677,
      "وسطة": 5678,
      "راتيجيات": 5679,
      "▁العودة": 5680,
      "▁2-": 5681,
      "ختيار": 5682,
      "▁انخفاض": 5683,
      "▁الأستاذ": 5684,
      "ملية": 5685,
      "املات": 5686,
      "▁شاشة": 5687,
      "المل": 5688,
      "▁الأشياء": 5689,
      "شح": 5690,
      "الوع": 5691,
      "▁المنظ": 5692,
      "▁بطاقة": 5693,
      "▁أنفس": 5694,
      "▁تشرين": 5695,
      "▁الجزيرة": 5696,
      "▁منتخب": 5697,
      "▁سبح": 5698,
      "▁سليمان": 5699,
      "▁مياه": 5700,
      "خطيط": 5701,
      "▁فوز": 5702,
      "▁ومنها": 5703,
      "▁198": 5704,
      "▁شروط": 5705,
      "رائم": 5706,
      "▁المدن": 5707,
      "▁نسخة": 5708,
      "▁07": 5709,
      "▁الفن": 5710,
      "▁ثانية": 5711,
      "قاد": 5712,
      "▁والمؤ": 5713,
      "ment": 5714,
      "▁البيع": 5715,
      "▁السياسة": 5716,
      "▁الكهرباء": 5717,
      "ادئ": 5718,
      "لممت": 5719,
      "▁السي": 5720,
      "▁ملايين": 5721,
      "▁الاخ": 5722,
      "▁الحديثة": 5723,
      "ات.\n": 5724,
      "▁الصيف": 5725,
      "▁البشرة": 5726,
      "▁تغير": 5727,
      "▁المحافظة": 5728,
      "مفاوض": 5729,
      "▁يمثل": 5730,
      "▁ضرب": 5731,
      "▁اللبناني": 5732,
      "▁الأرب": 5733,
      "بخ": 5734,
      "رفض": 5735,
      "▁مناسبة": 5736,
      "الممت": 5737,
      "▁معها": 5738,
      "نش": 5739,
      "▁X": 5740,
      "▁فج": 5741,
      "▁سلمان": 5742,
      "19": 5743,
      "▁عط": 5744,
      "▁الدراسات": 5745,
      "▁المثال": 5746,
      "▁لون": 5747,
      "صيد": 5748,
      "▁المل": 5749,
      "▁إصدار": 5750,
      "▁المنظمة": 5751,
      "بَ": 5752,
      "ost": 5753,
      "▁الوزير": 5754,
      "▁العمليات": 5755,
      "▁لديهم": 5756,
      "▁المدرسة": 5757,
      "▁جريدة": 5758,
      "يدا": 5759,
      "▁الكوا": 5760,
      "▁يحصل": 5761,
      "▁القض": 5762,
      "▁قيادة": 5763,
      "▁عديدة": 5764,
      "▁بينها": 5765,
      "▁الممت": 5766,
      "هـ": 5767,
      "▁وترك": 5768,
      "▁فكان": 5769,
      "▁الإف": 5770,
      "▁فهذا": 5771,
      "▁ممارسة": 5772,
      "ًا.\n": 5773,
      "ولية": 5774,
      "▁المسلحة": 5775,
      "يدي": 5776,
      "يراً": 5777,
      "▁اختبار": 5778,
      "مويل": 5779,
      "▁ولن": 5780,
      "ud": 5781,
      "▁ثابت": 5782,
      "▁منتج": 5783,
      "▁كهرب": 5784,
      "▁الوحيد": 5785,
      "▁الصحيح": 5786,
      "▁مدة": 5787,
      "df": 5788,
      "▁عاد": 5789,
      "اتهم": 5790,
      "▁القضية": 5791,
      "حتاج": 5792,
      "▁تركيب": 5793,
      "▁يرى": 5794,
      "▁ملاح": 5795,
      "▁المحد": 5796,
      "بعاد": 5797,
      "▁إب": 5798,
      "▁المنز": 5799,
      "ّن": 5800,
      "▁دمشق": 5801,
      "وجة": 5802,
      "▁ففي": 5803,
      "▁أفراد": 5804,
      "▁الوع": 5805,
      "▁لين": 5806,
      "▁الأمراض": 5807,
      "ي.\n": 5808,
      "نص": 5809,
      "▁الحقوق": 5810,
      "▁التحكم": 5811,
      "أكيد": 5812,
      "▁وفاة": 5813,
      "ويه": 5814,
      "▁تحرير": 5815,
      "▁US": 5816,
      "وي،": 5817,
      "▁تجهيز": 5818,
      "▁لوح": 5819,
      "ex": 5820,
      "اقشة": 5821,
      "▁معروف": 5822,
      "▁مدريد": 5823,
      "act": 5824,
      "▁كمية": 5825,
      "▁وصول": 5826,
      "▁السؤال": 5827,
      "ist": 5828,
      "▁تسبب": 5829,
      "رائيلية": 5830,
      "ah": 5831,
      "▁التسجيل": 5832,
      "▁re": 5833,
      "▁النات": 5834,
      "▁كثيرا": 5835,
      "▁المرض": 5836,
      "سى": 5837,
      "▁ويح": 5838,
      "43": 5839,
      "▁والتعليم": 5840,
      "▁انتاج": 5841,
      "▁التركية": 5842,
      "▁فرق": 5843,
      "▁مؤخ": 5844,
      "▁أين": 5845,
      "▁دورة": 5846,
      "▁توزيع": 5847,
      "ِر": 5848,
      "▁وبعض": 5849,
      "▁تحليل": 5850,
      "▁الحجم": 5851,
      "طلع": 5852,
      "ديه": 5853,
      "▁تماما": 5854,
      "▁القيمة": 5855,
      "▁العالي": 5856,
      "▁ومص": 5857,
      "▁قاد": 5858,
      "▁موسى": 5859,
      "▁الواحد": 5860,
      "%D8%A": 5861,
      "عداد": 5862,
      "تش": 5863,
      "▁المحجر": 5864,
      "▁التكنولوجيا": 5865,
      "▁الحجارة": 5866,
      "▁والم": 5867,
      "▁لتس": 5868,
      "▁تدريب": 5869,
      "مَّ": 5870,
      "عون": 5871,
      "▁تجمع": 5872,
      "▁شبه": 5873,
      "▁شهادة": 5874,
      "اعم": 5875,
      "▁كلام": 5876,
      "عة،": 5877,
      "70": 5878,
      "ئك": 5879,
      "روا": 5880,
      "▁يسمح": 5881,
      "جين": 5882,
      "▁باعتبار": 5883,
      "▁بض": 5884,
      "▁الرئ": 5885,
      "▁سك": 5886,
      "▁06": 5887,
      "▁سورية": 5888,
      "▁المقبلة": 5889,
      "▁والمق": 5890,
      "▁بعيد": 5891,
      "▁الفرد": 5892,
      "▁العثور": 5893,
      "كوين": 5894,
      "▁تجاوز": 5895,
      "تال": 5896,
      "▁الخض": 5897,
      "ره": 5898,
      "▁عروض": 5899,
      "▁نقدم": 5900,
      "▁داخ": 5901,
      "▁المالي": 5902,
      "للو": 5903,
      "دادات": 5904,
      "▁دائرة": 5905,
      "تة": 5906,
      "▁ند": 5907,
      "▁عَلَ": 5908,
      "▁منش": 5909,
      "▁كريم": 5910,
      "▁جام": 5911,
      "وائل": 5912,
      "▁مباريات": 5913,
      "▁أننا": 5914,
      "▁الطبيب": 5915,
      "يء": 5916,
      "ثرة": 5917,
      "▁المشترك": 5918,
      "▁كري": 5919,
      "▁المهندس": 5920,
      "-20": 5921,
      "وظيف": 5922,
      "تباط": 5923,
      "غطية": 5924,
      "▁المستثمر": 5925,
      "▁لعام": 5926,
      "▁04": 5927,
      "ظات": 5928,
      "▁التقلي": 5929,
      "▁البشرية": 5930,
      "فيض": 5931,
      "▁المناسب": 5932,
      "▁معينة": 5933,
      "▁الجوية": 5934,
      "▁حاليا": 5935,
      "▁فلم": 5936,
      "▁خطر": 5937,
      "قرة": 5938,
      "▁مرور": 5939,
      "ارد": 5940,
      "▁الخرسانة": 5941,
      "لقى": 5942,
      "▁إمكانية": 5943,
      "▁وأما": 5944,
      "كمال": 5945,
      "▁فكية": 5946,
      "▁تمن": 5947,
      "هلاك": 5948,
      "16": 5949,
      "▁والأس": 5950,
      "▁ومج": 5951,
      "▁سياسية": 5952,
      "▁كتابة": 5953,
      "واة": 5954,
      "▁انف": 5955,
      "▁التغيير": 5956,
      "▁للز": 5957,
      "▁حمد": 5958,
      "▁استغ": 5959,
      "▁مخروطية": 5960,
      "انس": 5961,
      "▁You": 5962,
      "▁دخل": 5963,
      "▁الخامس": 5964,
      "▁تواجه": 5965,
      "▁مأ": 5966,
      "▁الحسين": 5967,
      "▁يبدأ": 5968,
      "▁اعتبار": 5969,
      "▁اللواء": 5970,
      "▁3.": 5971,
      "▁والمد": 5972,
      "▁الأراضي": 5973,
      "▁حض": 5974,
      "كادي": 5975,
      "▁خطوة": 5976,
      "ودية": 5977,
      "▁رمز": 5978,
      "▁مصطفى": 5979,
      "انى": 5980,
      "▁واحت": 5981,
      "▁الحاجة": 5982,
      "▁كانون": 5983,
      "يخ": 5984,
      "▁اللاعبين": 5985,
      "▁إزالة": 5986,
      "▁التعليمية": 5987,
      "▁الدفع": 5988,
      "ليزيا": 5989,
      "▁بوص": 5990,
      "▁متوسط": 5991,
      "ect": 5992,
      "جهيز": 5993,
      "▁الأسود": 5994,
      "▁تحقق": 5995,
      "▁سما": 5996,
      "لظروف": 5997,
      "▁بمق": 5998,
      "▁بأنها": 5999,
      "ph": 6000,
      "▁مول": 6001,
      "ver": 6002,
      "▁أدى": 6003,
      "▁الإنسانية": 6004,
      "اللو": 6005,
      "الظروف": 6006,
      "▁التنا": 6007,
      "تصف": 6008,
      "كند": 6009,
      "▁المهنية": 6010,
      "ass": 6011,
      "▁قطعة": 6012,
      "▁العدد": 6013,
      "▁الوحدة": 6014,
      "فعيل": 6015,
      "▁وسيط": 6016,
      "▁غسل": 6017,
      "قطاع": 6018,
      "يقى": 6019,
      "بيد": 6020,
      "▁سجل": 6021,
      "▁جمعية": 6022,
      "▁ورد": 6023,
      "▁السابع": 6024,
      "م.\n": 6025,
      "▁وذ": 6026,
      "ائحة": 6027,
      "كاء": 6028,
      "▁تدخل": 6029,
      "بلوما": 6030,
      "▁لأول": 6031,
      "قاذ": 6032,
      "▁وجاء": 6033,
      "▁المسجد": 6034,
      "13": 6035,
      "▁المسيح": 6036,
      "▁شاء": 6037,
      "▁الفندق": 6038,
      "طرة": 6039,
      "▁فوركس": 6040,
      "فن": 6041,
      "▁الظروف": 6042,
      "▁عج": 6043,
      "▁أسماء": 6044,
      "23": 6045,
      "▁يقل": 6046,
      "▁منخفض": 6047,
      "▁تبحث": 6048,
      "▁تزال": 6049,
      "▁بالو": 6050,
      "▁بول": 6051,
      "▁انتهاء": 6052,
      "▁طوال": 6053,
      "لليل": 6054,
      "▁الحوا": 6055,
      "▁الاستخدام": 6056,
      "فاعل": 6057,
      "الليل": 6058,
      "▁المشاكل": 6059,
      "ئة،": 6060,
      "سائر": 6061,
      "▁الزواج": 6062,
      "وارع": 6063,
      "▁النجاح": 6064,
      "▁الضوء": 6065,
      "▁يحب": 6066,
      "▁th": 6067,
      "▁ليلة": 6068,
      "هى": 6069,
      "▁السياحة": 6070,
      "▁الشمالية": 6071,
      "▁الجمهور": 6072,
      "▁نجد": 6073,
      "▁اللو": 6074,
      "▁مسؤ": 6075,
      "▁العراقية": 6076,
      "▁المغربي": 6077,
      "هو": 6078,
      "▁الصلب": 6079,
      "لقي": 6080,
      "▁بلغت": 6081,
      "▁شن": 6082,
      "▁مِنْ": 6083,
      "▁رش": 6084,
      "يسى": 6085,
      "▁ومؤ": 6086,
      "▁المطاحن": 6087,
      "▁المعدنية": 6088,
      "▁انواع": 6089,
      "ب،": 6090,
      "▁بالكامل": 6091,
      "▁قريب": 6092,
      "وداء": 6093,
      "▁النائب": 6094,
      "▁البش": 6095,
      "ذيب": 6096,
      "▁الصناعة": 6097,
      "▁الجولة": 6098,
      "14": 6099,
      "▁معين": 6100,
      "▁ولذلك": 6101,
      "▁الساح": 6102,
      "▁بحاجة": 6103,
      "▁تصريح": 6104,
      "▁الرج": 6105,
      "▁إنما": 6106,
      "▁جاءت": 6107,
      "تها،": 6108,
      "▁والاق": 6109,
      ".com/": 6110,
      "▁الليل": 6111,
      "▁بمدينة": 6112,
      "▁للتح": 6113,
      "ity": 6114,
      "عبة": 6115,
      "▁)\n": 6116,
      "s://": 6117,
      "▁السلع": 6118,
      "▁الرياضة": 6119,
      "▁النب": 6120,
      "بعد": 6121,
      "▁سؤال": 6122,
      "▁مدرسة": 6123,
      "▁لوحة": 6124,
      "▁الاسم": 6125,
      "▁وأف": 6126,
      "▁السير": 6127,
      "ابيع": 6128,
      "▁بسهولة": 6129,
      "▁والعمل": 6130,
      "ريقي": 6131,
      "▁ثالث": 6132,
      "فَ": 6133,
      "▁الامت": 6134,
      "▁ورب": 6135,
      "▁المقاومة": 6136,
      "▁للمت": 6137,
      "▁تجعل": 6138,
      "▁صب": 6139,
      "▁ضعف": 6140,
      "▁الجبس": 6141,
      "▁الأمة": 6142,
      "▁الحص": 6143,
      "▁جماعة": 6144,
      "▁المعارضة": 6145,
      "خال": 6146,
      "▁احمد": 6147,
      "▁فا": 6148,
      "▁المخاطر": 6149,
      "▁الأنب": 6150,
      "▁الشعبية": 6151,
      "▁الثقيلة": 6152,
      "▁اتجاه": 6153,
      "▁%": 6154,
      "▁الأحداث": 6155,
      "▁رك": 6156,
      "▁خطوات": 6157,
      "▁عاماً": 6158,
      "▁صيانة": 6159,
      "▁مشيرا": 6160,
      "▁البص": 6161,
      "▁35": 6162,
      "مراء": 6163,
      "▁300": 6164,
      "▁زين": 6165,
      "▁مجاني": 6166,
      "▁إلكتر": 6167,
      "▁الفع": 6168,
      "▁مساءً": 6169,
      "▁إقامة": 6170,
      "▁ياس": 6171,
      "مخرج": 6172,
      "▁هر": 6173,
      "همية": 6174,
      "▁السما": 6175,
      "▁ذو": 6176,
      "▁الخلف": 6177,
      "وية،": 6178,
      "ريبي": 6179,
      "▁لكنها": 6180,
      "▁فص": 6181,
      "زق": 6182,
      "أكد": 6183,
      "لطة": 6184,
      "▁معنا": 6185,
      "▁حلول": 6186,
      "▁العنف": 6187,
      "▁لتش": 6188,
      "▁باس": 6189,
      "▁صرف": 6190,
      "▁الواق": 6191,
      "وهات": 6192,
      "▁الجد": 6193,
      "رافي": 6194,
      "▁الاد": 6195,
      "▁مراكز": 6196,
      "▁محجر": 6197,
      "▁للمج": 6198,
      "▁القسم": 6199,
      "طلح": 6200,
      "▁يبحث": 6201,
      "▁الشرقية": 6202,
      "رتفاع": 6203,
      "▁حاج": 6204,
      "زز": 6205,
      "▁وصلت": 6206,
      "▁الأكبر": 6207,
      "▁النهائي": 6208,
      "▁قرب": 6209,
      "▁كف": 6210,
      "▁ترى": 6211,
      "مارية": 6212,
      "▁الفساد": 6213,
      "▁\"ح": 6214,
      "▁أوا": 6215,
      "▁متنوعة": 6216,
      "▁الصينية": 6217,
      "اليب": 6218,
      "75": 6219,
      "▁إصابة": 6220,
      "▁العناصر": 6221,
      "▁الإيراني": 6222,
      "▁عودة": 6223,
      "▁=": 6224,
      "▁تراجع": 6225,
      "▁اتحاد": 6226,
      "رخ": 6227,
      "▁(ع": 6228,
      "سيق": 6229,
      "▁مسل": 6230,
      "▁كبار": 6231,
      "▁أون": 6232,
      "▁السينما": 6233,
      "▁اليهود": 6234,
      "للغ": 6235,
      "لملح": 6236,
      "▁تكر": 6237,
      "▁الدردشة": 6238,
      "رفي": 6239,
      "▁عرب": 6240,
      "رسل": 6241,
      "pl": 6242,
      "ختار": 6243,
      "جمات": 6244,
      "▁Sh": 6245,
      "الملح": 6246,
      "▁وسوف": 6247,
      "▁لند": 6248,
      "▁ماليزيا": 6249,
      "▁كندا": 6250,
      "iz": 6251,
      "▁داعش": 6252,
      "▁الإسب": 6253,
      "▁الأداء": 6254,
      "اهمة": 6255,
      "18": 6256,
      "▁بالقرب": 6257,
      "ard": 6258,
      "▁والسيا": 6259,
      "▁الفض": 6260,
      "ك.\n": 6261,
      "▁الوث": 6262,
      "▁بوابة": 6263,
      "▁مرات": 6264,
      "مثيل": 6265,
      "اللغ": 6266,
      "▁لآ": 6267,
      "امية": 6268,
      "▁الته": 6269,
      "▁ولكنه": 6270,
      "▁النشاط": 6271,
      "▁صلاة": 6272,
      "مـ": 6273,
      "▁الهلال": 6274,
      "أتي": 6275,
      "▁كنا": 6276,
      "▁زي": 6277,
      "▁الأساسي": 6278,
      "▁الموارد": 6279,
      "▁التاس": 6280,
      "لفزيون": 6281,
      "درة": 6282,
      "▁هى": 6283,
      "▁الفرنسية": 6284,
      "شت": 6285,
      "ورج": 6286,
      "▁تعتمد": 6287,
      "▁أبوظبي": 6288,
      "▁مذ": 6289,
      "قطع": 6290,
      "ًّا": 6291,
      "▁مستشفى": 6292,
      "▁متابعة": 6293,
      "▁الألعاب": 6294,
      "▁رق": 6295,
      "▁تمثل": 6296,
      "▁مشارك": 6297,
      "65": 6298,
      "▁مكة": 6299,
      "▁إخ": 6300,
      "▁بري": 6301,
      "▁الكهربائية": 6302,
      "▁تقنية": 6303,
      "▁Price\n": 6304,
      "▁الأسد": 6305,
      "▁مهما": 6306,
      "▁غرف": 6307,
      "ack": 6308,
      "▁الماض": 6309,
      "▁مخالف": 6310,
      "▁رواية": 6311,
      "▁السيطرة": 6312,
      "▁بيد": 6313,
      "▁للتن": 6314,
      "▁الصانع": 6315,
      "قلت": 6316,
      "▁الملح": 6317,
      "▁اللغ": 6318,
      "▁‎": 6319,
      "جمة": 6320,
      "▁يرت": 6321,
      "شاب": 6322,
      "▁محل": 6323,
      "▁سر": 6324,
      "▁الاف": 6325,
      "▁اون": 6326,
      "▁وتابع": 6327,
      "▁ليف": 6328,
      "▁الاج": 6329,
      "ive": 6330,
      "▁عاج": 6331,
      "▁بسيطة": 6332,
      "▁استخراج": 6333,
      "اشات": 6334,
      "لمفر": 6335,
      "همة": 6336,
      "ملع": 6337,
      "▁الأسطوانة": 6338,
      "▁دردشة": 6339,
      "هول": 6340,
      "▁جس": 6341,
      "Tub": 6342,
      "▁جدة": 6343,
      "▁التنفيذي": 6344,
      "▁البطولة": 6345,
      "▁de": 6346,
      "▁أحب": 6347,
      "▁الدستور": 6348,
      "▁80": 6349,
      "▁ملموس": 6350,
      "▁خلاف": 6351,
      "وجل": 6352,
      "▁وسي": 6353,
      "المفر": 6354,
      "▁يعتمد": 6355,
      "▁حفل": 6356,
      "انوني": 6357,
      "▁Ch": 6358,
      "▁منتدى": 6359,
      "ولد": 6360,
      "▁يقا": 6361,
      "رتز": 6362,
      "▁الخمس": 6363,
      "▁ناحية": 6364,
      "▁مبدأ": 6365,
      "▁(4": 6366,
      "▁لحق": 6367,
      "▁فحص": 6368,
      "نها": 6369,
      "▁البداية": 6370,
      "▁الشت": 6371,
      "ترح": 6372,
      "▁العقد": 6373,
      "▁المعت": 6374,
      "▁المتنقلة": 6375,
      "▁الروح": 6376,
      "▁والات": 6377,
      "▁تخص": 6378,
      "▁فلما": 6379,
      "▁الفائ": 6380,
      "▁التركي": 6381,
      "▁لمر": 6382,
      "▁وأكثر": 6383,
      "▁قصيرة": 6384,
      "▁الصحفي": 6385,
      "▁طبق": 6386,
      "▁المفر": 6387,
      "▁محكمة": 6388,
      "▁سورة": 6389,
      "▁آثار": 6390,
      "فيدة": 6391,
      "▁أخر": 6392,
      "▁يصبح": 6393,
      "لرياض": 6394,
      "▁للأطفال": 6395,
      "▁عملا": 6396,
      "▁خطوط": 6397,
      "وائية": 6398,
      "▁ملابس": 6399,
      "▁بيروت": 6400,
      "اجم": 6401,
      "وضاع": 6402,
      "ووف": 6403,
      "زاز": 6404,
      "▁ويقول": 6405,
      "▁الرقم": 6406,
      "▁جذ": 6407,
      "▁نقص": 6408,
      "▁صدر": 6409,
      "▁مطار": 6410,
      "نَّ": 6411,
      "ندا": 6412,
      "فف": 6413,
      "ينغ": 6414,
      "▁الافت": 6415,
      "قيب": 6416,
      "▁بتن": 6417,
      "▁المتوقع": 6418,
      "▁وظيفة": 6419,
      "ئت": 6420,
      "▁مون": 6421,
      "ادق": 6422,
      "راكة": 6423,
      "▁باريس": 6424,
      "▁سياسي": 6425,
      "▁التحالف": 6426,
      "▁الجرانيت": 6427,
      "▁المجالات": 6428,
      "▁تعديل": 6429,
      "▁علا": 6430,
      "زر": 6431,
      "▁ثاني": 6432,
      "يَ": 6433,
      "▁لصالح": 6434,
      "▁قائد": 6435,
      "▁زيد": 6436,
      "▁أراد": 6437,
      "نبي": 6438,
      "nl": 6439,
      "▁العهد": 6440,
      "▁مالية": 6441,
      "▁أصل": 6442,
      "▁مواطن": 6443,
      "▁واع": 6444,
      "▁الصباح": 6445,
      "▁كلها": 6446,
      "▁لغة": 6447,
      "▁وكأن": 6448,
      "ضاع": 6449,
      "ith": 6450,
      "▁عثمان": 6451,
      "▁بينهما": 6452,
      "ليمات": 6453,
      "▁سريع": 6454,
      "▁اند": 6455,
      "▁مربع": 6456,
      "▁يسمى": 6457,
      "▁فور": 6458,
      "▁المزيد\n": 6459,
      "▁الارد": 6460,
      "▁سرعة": 6461,
      "نيسة": 6462,
      "▁المعرفة": 6463,
      "ّي": 6464,
      "قة،": 6465,
      "▁يدخل": 6466,
      "▁القراءة": 6467,
      "▁الآلات": 6468,
      "▁تصنيف": 6469,
      "▁ثان": 6470,
      "▁2009": 6471,
      "▁قواعد": 6472,
      "▁رحلة": 6473,
      "▁صديق": 6474,
      "▁توجيه": 6475,
      "▁ويع": 6476,
      "▁المتحدث": 6477,
      "▁الهي": 6478,
      "ُر": 6479,
      "▁الأسنان": 6480,
      "▁الحلقة": 6481,
      "قَ": 6482,
      "▁ممتاز": 6483,
      "▁البالغ": 6484,
      "▁الإيج": 6485,
      "▁المقدمة": 6486,
      "اااا": 6487,
      "▁بالله": 6488,
      "▁ده": 6489,
      "▁إنت": 6490,
      "▁حزيران": 6491,
      "▁اهم": 6492,
      "مارس": 6493,
      "▁اول": 6494,
      "عه": 6495,
      "▁القانونية": 6496,
      "▁ضمان": 6497,
      "▁القضايا": 6498,
      "▁كَ": 6499,
      "قس": 6500,
      "▁طويل": 6501,
      "ولأ": 6502,
      "▁كله": 6503,
      "راس": 6504,
      "ئه": 6505,
      "▁قادر": 6506,
      "ماك": 6507,
      "▁الفيروس": 6508,
      "▁استمر": 6509,
      "▁تشير": 6510,
      "▁قليل": 6511,
      "▁ترغب": 6512,
      "▁وتد": 6513,
      "هالي": 6514,
      "كبة": 6515,
      "▁مساعد": 6516,
      "▁ملفات": 6517,
      "ِنَّ": 6518,
      "▁الكامل": 6519,
      "▁0.": 6520,
      "▁وأنه": 6521,
      "▁امرأة": 6522,
      "▁3-": 6523,
      "▁صحي": 6524,
      "بارات": 6525,
      "رفية": 6526,
      "▁تي": 6527,
      "مفاوضات": 6528,
      "ينيا": 6529,
      "▁التفكير": 6530,
      "▁بقيمة": 6531,
      "لموقف": 6532,
      "▁اللبنانية": 6533,
      "▁برشل": 6534,
      "▁غز": 6535,
      "▁تدفق": 6536,
      "▁تبلغ": 6537,
      "▁مسب": 6538,
      "▁حضور": 6539,
      "▁كأ": 6540,
      "35": 6541,
      "وراً": 6542,
      "جيع": 6543,
      "▁الفيلم": 6544,
      "▁بأي": 6545,
      "سْ": 6546,
      "يراد": 6547,
      "زايد": 6548,
      "حك": 6549,
      "▁افتتاح": 6550,
      "▁غياب": 6551,
      "».": 6552,
      "▁وهل": 6553,
      "وقة": 6554,
      "eu": 6555,
      "▁تتم": 6556,
      "▁بها،": 6557,
      "▁تنزيل": 6558,
      "▁مقتل": 6559,
      "▁يؤكد": 6560,
      "▁—": 6561,
      "▁التقنية": 6562,
      "▁مستعملة": 6563,
      "▁قرية": 6564,
      "▁بالمع": 6565,
      "الموقف": 6566,
      "▁العاملين": 6567,
      "▁التوا": 6568,
      "▁وموا": 6569,
      "▁أولا": 6570,
      "يقاف": 6571,
      "▁متجر": 6572,
      "):": 6573,
      "اعدات": 6574,
      "▁ووف": 6575,
      "كُمْ": 6576,
      "▁فعا": 6577,
      "ore\n": 6578,
      "▁التخلص": 6579,
      "▁الروسية": 6580,
      "شى": 6581,
      "▁أشخاص": 6582,
      "▁بريطانيا": 6583,
      "يفون": 6584,
      "صابات": 6585,
      "▁وأش": 6586,
      "▁يلت": 6587,
      "▁الشكل": 6588,
      "▁الاخبار": 6589,
      "▁الغس": 6590,
      "▁الرسول": 6591,
      "▁الكشف": 6592,
      "age": 6593,
      "▁فِي": 6594,
      "▁روب": 6595,
      "▁السكان": 6596,
      "▁لشركة": 6597,
      "▁النه": 6598,
      "▁\"س": 6599,
      "▁تعالى:": 6600,
      "وم،": 6601,
      "▁احتج": 6602,
      "▁الاتصالات": 6603,
      "يتي": 6604,
      "شفيات": 6605,
      "▁العصر": 6606,
      "▁السادس": 6607,
      "▁البيضاء": 6608,
      "▁الأسباب": 6609,
      "▁جلسة": 6610,
      "▁عصر": 6611,
      "▁الرابعة": 6612,
      "▁هكذا": 6613,
      "▁والتق": 6614,
      "▁البحرية": 6615,
      "ل\n": 6616,
      "كية،": 6617,
      "ريطة": 6618,
      "▁التحرير": 6619,
      "تبطة": 6620,
      "ساس": 6621,
      "▁كيلو": 6622,
      "▁الامارات": 6623,
      "▁البخ": 6624,
      "نيين": 6625,
      "▁موت": 6626,
      "▁قضايا": 6627,
      "▁الموقف": 6628,
      "▁ولأ": 6629,
      "▁الرد": 6630,
      "ندات": 6631,
      "▁حقق": 6632,
      "▁منتصف": 6633,
      "▁نع": 6634,
      "▁us": 6635,
      "مئات": 6636,
      "▁Q": 6637,
      "معة": 6638,
      "▁الصرف": 6639,
      "▁فقط،": 6640,
      "وفيق": 6641,
      "▁الشارع": 6642,
      "▁تعود": 6643,
      "▁حف": 6644,
      "دو": 6645,
      "▁المدى": 6646,
      "▁علامة": 6647,
      "غوط": 6648,
      "ast": 6649,
      "▁تضم": 6650,
      "▁الزمالك": 6651,
      "▁طبيعي": 6652,
      "▁بعدها": 6653,
      "▁الأحيان": 6654,
      "ies": 6655,
      "حَ": 6656,
      "▁تويتر": 6657,
      "▁((": 6658,
      "طنا": 6659,
      "▁سيف": 6660,
      "▁نه": 6661,
      "90": 6662,
      "▁البنوك": 6663,
      "▁البريطانية": 6664,
      "حاق": 6665,
      "of": 6666,
      "▁يض": 6667,
      "كما": 6668,
      "▁الرخام": 6669,
      "▁تشهد": 6670,
      "-10": 6671,
      "▁الرأي": 6672,
      "▁الشيء": 6673,
      "▁المغربية": 6674,
      "▁تتضمن": 6675,
      "▁بالتعاون": 6676,
      "مَا": 6677,
      "▁ظروف": 6678,
      "▁فاع": 6679,
      "▁نفسي": 6680,
      "▁بعنوان": 6681,
      "▁حمل": 6682,
      "8\n": 6683,
      "▁أحداث": 6684,
      "▁400": 6685,
      "▁الخروج": 6686,
      "قامة": 6687,
      "▁الاهتمام": 6688,
      "▁المصادر": 6689,
      "▁واقع": 6690,
      "▁أداة": 6691,
      "44": 6692,
      "▁الآخرين": 6693,
      "ome": 6694,
      "▁ابو": 6695,
      "▁درجات": 6696,
      "مسك": 6697,
      "▁واضحة": 6698,
      "▁بفضل": 6699,
      "ردة": 6700,
      "▁4.": 6701,
      "▁جميل": 6702,
      "▁تابع": 6703,
      ",,": 6704,
      "▁تقريب": 6705,
      "gle": 6706,
      "▁يشعر": 6707,
      "s.": 6708,
      "aw": 6709,
      "▁j": 6710,
      "▁YouTub": 6711,
      "▁فكر": 6712,
      "▁تزيد": 6713,
      "ووا": 6714,
      "▁تصبح": 6715,
      "▁الاث": 6716,
      "ُونَ": 6717,
      "▁البع": 6718,
      "▁اللهم": 6719,
      "▁المنام": 6720,
      "علام": 6721,
      "▁البلدان": 6722,
      "▁الرسوم": 6723,
      "▁مفهوم": 6724,
      "▁70": 6725,
      "1\n": 6726,
      "▁الصناعي": 6727,
      "▁بحضور": 6728,
      "▁الإيط": 6729,
      "▁بالي": 6730,
      "ناق": 6731,
      "يسيا": 6732,
      "▁وعدد": 6733,
      "▁الشرعية": 6734,
      "▁حما": 6735,
      "▁٢٠": 6736,
      "▁مدرب": 6737,
      "كندرية": 6738,
      "ديلات": 6739,
      "▁تعيين": 6740,
      "17": 6741,
      "بوط": 6742,
      "▁(1)": 6743,
      "▁هـ": 6744,
      "اخرى": 6745,
      "▁ثنائي": 6746,
      "واريخ": 6747,
      "▁الأسرة": 6748,
      "رافية": 6749,
      "per": 6750,
      "▁الجهود": 6751,
      "اطئ": 6752,
      "ووضع": 6753,
      "▁للات": 6754,
      "امام": 6755,
      "▁by": 6756,
      "w.": 6757,
      "▁السكن": 6758,
      "aba": 6759,
      "▁إصلاح": 6760,
      "▁ارتفع": 6761,
      "▁الروسي": 6762,
      "▁اخرى": 6763,
      "▁شرطة": 6764,
      "▁وعندما": 6765,
      "▁تطبيقات": 6766,
      "وانب": 6767,
      "شكل": 6768,
      "▁الموردين": 6769,
      "▁أعراض": 6770,
      "▁ويُ": 6771,
      "▁بكثير": 6772,
      "▁المهمة": 6773,
      "▁مصالح": 6774,
      "▁كأن": 6775,
      "تان": 6776,
      "▁سبحانه": 6777,
      "▁تا": 6778,
      "▁عاش": 6779,
      "▁لابد": 6780,
      "▁انس": 6781,
      "▁تحصل": 6782,
      "▁لبعض": 6783,
      "▁تطور": 6784,
      "▁المتهم": 6785,
      "▁Pro": 6786,
      "راغ": 6787,
      "▁المصاب": 6788,
      "▁ووضع": 6789,
      "▁الربح": 6790,
      "▁امام": 6791,
      "فه": 6792,
      "رائب": 6793,
      "▁الخطوة": 6794,
      "▁32": 6795,
      "▁به،": 6796,
      "▁للنا": 6797,
      "يحي": 6798,
      "▁الأطراف": 6799,
      "▁الخصوص": 6800,
      "▁العقود": 6801,
      "مكين": 6802,
      "▁لفة": 6803,
      "ai": 6804,
      "▁الأمين": 6805,
      "▁مراجعة": 6806,
      "▁الطيران": 6807,
      "▁يحيى": 6808,
      "▁اجل": 6809,
      "ك\n": 6810,
      "▁الجامعات": 6811,
      "▁فات": 6812,
      "▁القديم": 6813,
      "نسيق": 6814,
      "قيات": 6815,
      "قدمة": 6816,
      "ide": 6817,
      "▁أمين": 6818,
      "▁\"الت": 6819,
      "▁وأخ": 6820,
      "▁التركيز": 6821,
      "وتيوب": 6822,
      "▁الانتخ": 6823,
      "▁عقود": 6824,
      "ear": 6825,
      "▁النباتات": 6826,
      "▁وأص": 6827,
      "▁ماء": 6828,
      "لة.": 6829,
      "▁يقال": 6830,
      "▁المباشر": 6831,
      "▁التصميم": 6832,
      "▁تعليم": 6833,
      "▁الآية": 6834,
      "طورة": 6835,
      "▁فار": 6836,
      "ديدا": 6837,
      "▁بالمر": 6838,
      "كلم": 6839,
      "▁آسيا": 6840,
      "طى": 6841,
      "▁وأي": 6842,
      "عاة": 6843,
      "▁بمص": 6844,
      "▁مبلغ": 6845,
      "▁كشفت": 6846,
      "▁بعضها": 6847,
      "▁لِ": 6848,
      "▁له،": 6849,
      "▁للتع": 6850,
      "▁المقرر": 6851,
      "▁المدنية": 6852,
      "▁250": 6853,
      "ite": 6854,
      "▁إجمالي": 6855,
      "ماذج": 6856,
      "▁الحرة": 6857,
      "▁الجنوبية": 6858,
      "▁إنجاز": 6859,
      "هرة": 6860,
      "▁سعود": 6861,
      "▁الرقمية": 6862,
      "▁ورئيس": 6863,
      "▁شهدت": 6864,
      "▁تشكل": 6865,
      "ّى": 6866,
      "▁الأصل": 6867,
      "▁إرسال": 6868,
      "▁النشر": 6869,
      "افية": 6870,
      "▁بسيط": 6871,
      "▁حضر": 6872,
      "يرية": 6873,
      "▁ومد": 6874,
      "▁رسوم": 6875,
      "▁برئاسة": 6876,
      "▁فقال:": 6877,
      "فايات": 6878,
      "▁https://": 6879,
      "للاج": 6880,
      "مخصصة": 6881,
      "▁هش": 6882,
      "▁لتج": 6883,
      "ماغ": 6884,
      "▁لتص": 6885,
      "▁الكلمات": 6886,
      "▁توجه": 6887,
      "لمخد": 6888,
      "▁متى": 6889,
      "▁وربما": 6890,
      "حدد": 6891,
      "▁ذوي": 6892,
      "مئ": 6893,
      "اللاج": 6894,
      "وحيد": 6895,
      "المخد": 6896,
      "45": 6897,
      "▁ذي": 6898,
      "▁الساخ": 6899,
      "▁المشتركة": 6900,
      "▁الاستق": 6901,
      "ق،": 6902,
      "▁التقدم": 6903,
      "▁العملة": 6904,
      "▁الإعلامي": 6905,
      "▁ملع": 6906,
      "▁دينار": 6907,
      "▁سيما": 6908,
      "▁أمريكي": 6909,
      "▁}": 6910,
      "▁المدرب": 6911,
      "▁شعار": 6912,
      "▁الداخلي": 6913,
      "▁توقف": 6914,
      "▁تؤدي": 6915,
      "▁وتف": 6916,
      "▁الصهي": 6917,
      "▁الثانوية": 6918,
      "▁ستة": 6919,
      "▁لمواجهة": 6920,
      "▁جدًا": 6921,
      "▁الأوراق": 6922,
      "خمة": 6923,
      "▁al": 6924,
      "▁الكيميا": 6925,
      "▁بتع": 6926,
      "ish": 6927,
      "▁الحصى": 6928,
      "▁قوي": 6929,
      "▁ملعب": 6930,
      "▁العش": 6931,
      "▁جائزة": 6932,
      "▁الاستفادة": 6933,
      "▁يعاني": 6934,
      "علان": 6935,
      "▁والض": 6936,
      "▁المنتدى": 6937,
      "▁بعضهم": 6938,
      "واك": 6939,
      "هُمْ": 6940,
      "▁بتوقيت": 6941,
      "▁المخد": 6942,
      "تْ": 6943,
      "ولع": 6944,
      "رهاب": 6945,
      "حه": 6946,
      "▁نفسك": 6947,
      "راوح": 6948,
      "▁الزراعة": 6949,
      "ناً": 6950,
      "اطعة": 6951,
      "▁وكيل": 6952,
      "ستي": 6953,
      "6\n": 6954,
      "▁وفى": 6955,
      "▁اللاج": 6956,
      "▁مبارك": 6957,
      "ون.": 6958,
      "▁الهجرة": 6959,
      "مطار": 6960,
      "و.": 6961,
      "2\n": 6962,
      "▁سهلة": 6963,
      "لاند": 6964,
      "▁والاجتما": 6965,
      "▁أى": 6966,
      "ة\n": 6967,
      "▁ثنا": 6968,
      "ord": 6969,
      "▁تولي": 6970,
      "▁الإخوان": 6971,
      "▁(ي": 6972,
      "hats": 6973,
      "▁لدعم": 6974,
      "▁الملكي": 6975,
      "-19": 6976,
      "7\n": 6977,
      "▁pdf": 6978,
      "▁الديمقراطية": 6979,
      "▁الدكت": 6980,
      "▁ويجب": 6981,
      "▁حاول": 6982,
      "▁الزجاج": 6983,
      "▁للي": 6984,
      "بحاث": 6985,
      "▁تختلف": 6986,
      "▁مزيد": 6987,
      "▁دقيق": 6988,
      "▁اليون": 6989,
      "3\n": 6990,
      "▁واخت": 6991,
      "ly": 6992,
      "ترب": 6993,
      "▁نيج": 6994,
      "▁الحيوانات": 6995,
      "▁الأعضاء": 6996,
      "نيه": 6997,
      "ينه": 6998,
      "لايات": 6999,
      "▁علاقات": 7000,
      "▁مسلم": 7001,
      "▁45": 7002,
      "ry": 7003,
      "▁ترت": 7004,
      "▁إفريقيا": 7005,
      "▁برشلونة": 7006,
      "▁يجري": 7007,
      "▁محرك": 7008,
      "سلام": 7009,
      "▁قرارات": 7010,
      "▁مؤسسات": 7011,
      "▁الرئيسية/": 7012,
      "ain": 7013,
      "▁عالمية": 7014,
      "▁الكاملة": 7015,
      "▁crus": 7016,
      "▁تأسيس": 7017,
      "تصر": 7018,
      "اظ": 7019,
      "ادلة": 7020,
      "▁أستراليا": 7021,
      "صيل": 7022,
      "▁رحمه": 7023,
      "▁كُ": 7024,
      "ibaba": 7025,
      "▁يملك": 7026,
      "اكمة": 7027,
      "▁مجالات": 7028,
      "▁عُ": 7029,
      "▁;": 7030,
      "▁شيخ": 7031,
      "وضيح": 7032,
      "▁حج": 7033,
      "ناط": 7034,
      "يطان": 7035,
      "▁منصور": 7036,
      "pr": 7037,
      "▁يشير": 7038,
      "▁الثلاثة": 7039,
      "وره": 7040,
      "▁أنظمة": 7041,
      "▁الإسرائيلية": 7042,
      "▁مقدمة": 7043,
      "▁فعاليات": 7044,
      "عدام": 7045,
      "▁أماكن": 7046,
      "▁فوري": 7047,
      "▁طفل": 7048,
      "▁يعتقد": 7049,
      "▁السعود": 7050,
      "▁$": 7051,
      "▁الانق": 7052,
      "▁تجار": 7053,
      "▁الثقة": 7054,
      "▁وجدت": 7055,
      "/3": 7056,
      "وشر": 7057,
      "▁الوظائف": 7058,
      "▁ضوء": 7059,
      "اضر": 7060,
      "بة،": 7061,
      "▁الإثنين": 7062,
      "▁أظهر": 7063,
      "▁النصر": 7064,
      "غار": 7065,
      "ائها": 7066,
      "▁وبد": 7067,
      "يما": 7068,
      "رقية": 7069,
      "▁التطبيقات": 7070,
      "▁جدول": 7071,
      "▁مصر،": 7072,
      "سيد": 7073,
      "▁لمد": 7074,
      "▁ووا": 7075,
      "▁الترب": 7076,
      "▁بسعر": 7077,
      "▁\"ف": 7078,
      "o.": 7079,
      "▁الامن": 7080,
      "▁مارك": 7081,
      "دوز": 7082,
      "▁عليه،": 7083,
      "▁\"إن": 7084,
      "▁المساعدة": 7085,
      "ت،": 7086,
      "▁لفترة": 7087,
      "▁تسمح": 7088,
      "ضامن": 7089,
      "▁جلس": 7090,
      "▁الرطب": 7091,
      "ثناء": 7092,
      "▁Z": 7093,
      "▁المريض": 7094,
      "oogle": 7095,
      "▁الأوروبية": 7096,
      "▁197": 7097,
      "▁شارع": 7098,
      "▁وهنا": 7099,
      "لاص": 7100,
      "www.": 7101,
      "▁للذ": 7102,
      "▁اكتشاف": 7103,
      "حْ": 7104,
      "ترف": 7105,
      "واه": 7106,
      "شيات": 7107,
      "▁شديد": 7108,
      "▁بتص": 7109,
      "▁أطفال": 7110,
      "▁وجل": 7111,
      "نين،": 7112,
      "▁شاب": 7113,
      "▁المحتوى": 7114,
      "ِهِ": 7115,
      "▁المتحدة،": 7116,
      "▁يتطلب": 7117,
      "▁أولاً": 7118,
      "▁فرع": 7119,
      "▁يتحدث": 7120,
      "ريقية": 7121,
      "▁العظيم": 7122,
      "▁التكسير": 7123,
      "▁انق": 7124,
      "▁الصالح": 7125,
      "عتقد": 7126,
      "▁النهاية": 7127,
      "▁العقل": 7128,
      "▁الصراع": 7129,
      "يرة،": 7130,
      "az": 7131,
      "▁بعدم": 7132,
      "لمأ": 7133,
      "▁الكرب": 7134,
      "ندرويد": 7135,
      "ريحة": 7136,
      "▁الذكية": 7137,
      "........": 7138,
      "▁ولكنها": 7139,
      "يل،": 7140,
      "▁الشام": 7141,
      "end": 7142,
      "▁غذا": 7143,
      "وته": 7144,
      "▁ورقة": 7145,
      "عن": 7146,
      "اؤ": 7147,
      "لعة": 7148,
      "▁العالية": 7149,
      "وفرة": 7150,
      "▁المرور": 7151,
      "▁مسألة": 7152,
      "▁الداخل": 7153,
      "▁الملفات": 7154,
      "المأ": 7155,
      "▁​": 7156,
      "▁أجر": 7157,
      "ياً،": 7158,
      "▁قياس": 7159,
      "67": 7160,
      "▁السماء": 7161,
      "▁فئة": 7162,
      "▁حسابات": 7163,
      "▁وتب": 7164,
      "نة،": 7165,
      "▁مساعدة": 7166,
      "▁لمك": 7167,
      "▁ملت": 7168,
      "▁2008": 7169,
      "▁مورد": 7170,
      "▁بقوة": 7171,
      "▁البرت": 7172,
      "▁مدا": 7173,
      "▁ومق": 7174,
      "▁اعتبر": 7175,
      "▁الأدوية": 7176,
      "▁أسهم": 7177,
      "▁بموج": 7178,
      "▁جون": 7179,
      "مذه": 7180,
      "▁وابن": 7181,
      "▁بمث": 7182,
      "▁اليومية": 7183,
      "▁عسكرية": 7184,
      "▁الدينية": 7185,
      "دَ": 7186,
      "▁كلما": 7187,
      "▁90": 7188,
      "اتل": 7189,
      "▁استخدامها": 7190,
      "▁سلامة": 7191,
      "▁ولع": 7192,
      "بادة": 7193,
      "سير": 7194,
      "دونيسيا": 7195,
      "▁ص\n": 7196,
      "صي": 7197,
      "▁الرابط": 7198,
      "ارئ": 7199,
      "▁نصر": 7200,
      "▁يدل": 7201,
      "▁باكستان": 7202,
      "هان": 7203,
      "▁أوس": 7204,
      "▁شيئا": 7205,
      "▁رأي": 7206,
      "▁للض": 7207,
      "▁المصالح": 7208,
      "للعب": 7209,
      "▁لندن": 7210,
      "▁أنَّ": 7211,
      "▁الحرية": 7212,
      "▁(5": 7213,
      "▁المأ": 7214,
      "▁التأمين": 7215,
      "▁إشارة": 7216,
      "▁تقارير": 7217,
      "▁القاعدة": 7218,
      "اكس": 7219,
      "▁سقوط": 7220,
      "دمير": 7221,
      "اللعب": 7222,
      "▁مراحل": 7223,
      "▁عكس": 7224,
      "4\n": 7225,
      "مضي": 7226,
      "▁مستقبل": 7227,
      "▁فرد": 7228,
      "-12": 7229,
      "▁الذكر": 7230,
      "▁تواصل": 7231,
      "بداع": 7232,
      "▁تصوير": 7233,
      "ونها": 7234,
      "▁at": 7235,
      "ياز": 7236,
      "ّع": 7237,
      "لمظ": 7238,
      "▁150": 7239,
      "ميلة": 7240,
      "▁بتس": 7241,
      "ستيك": 7242,
      "▁اسمه": 7243,
      "زيارة": 7244,
      "▁عنا": 7245,
      "”.\n": 7246,
      "ذاب": 7247,
      "▁تسعى": 7248,
      "▁منك": 7249,
      "▁أكثر\n": 7250,
      "ني،": 7251,
      "▁العما": 7252,
      "▁الأماكن": 7253,
      "▁المسرح": 7254,
      "حايا": 7255,
      "▁ألعاب": 7256,
      "▁حظ": 7257,
      "▁العمال": 7258,
      "▁البياني": 7259,
      "▁المكر": 7260,
      "و\n": 7261,
      "▁لاين": 7262,
      "▁الإصلاح": 7263,
      "▁المحيط": 7264,
      "▁الغرفة": 7265,
      "▁البور": 7266,
      "▁السريع": 7267,
      "ثبت": 7268,
      "9\n": 7269,
      "▁جوجل": 7270,
      "▁الفور": 7271,
      "بيعة": 7272,
      "▁وإلى": 7273,
      "▁القومي": 7274,
      "▁اذ": 7275,
      "شية": 7276,
      "▁بالمد": 7277,
      "موم": 7278,
      "المظ": 7279,
      "▁الموافق": 7280,
      "▁نيوي": 7281,
      "▁الانسان": 7282,
      "َرَ": 7283,
      "مييز": 7284,
      "صفح": 7285,
      "ولاً": 7286,
      "ضون": 7287,
      "▁علماء": 7288,
      "▁ويج": 7289,
      "دام": 7290,
      "▁فهل": 7291,
      "▁PM\n": 7292,
      "▁كوم": 7293,
      "▁يوميا": 7294,
      "▁الامري": 7295,
      "▁ترتيب": 7296,
      "▁اللعب": 7297,
      "هَ": 7298,
      "▁وتر": 7299,
      "▁وحد": 7300,
      "▁عامل": 7301,
      "دامة": 7302,
      "▁يضع": 7303,
      "▁الحكوم": 7304,
      "▁يشكل": 7305,
      "▁بمناسبة": 7306,
      "ust": 7307,
      "▁ولما": 7308,
      "لملي": 7309,
      "▁لمت": 7310,
      "▁ثقافة": 7311,
      "▁سكن": 7312,
      "▁أكدت": 7313,
      "▁@": 7314,
      "▁قائلا": 7315,
      "▁المالك": 7316,
      "▁تكنولوجيا": 7317,
      "▁يحاول": 7318,
      "▁يجد": 7319,
      "▁لـ\"": 7320,
      "لقاء": 7321,
      "▁لضمان": 7322,
      "يّة": 7323,
      "يغة": 7324,
      "▁الهجوم": 7325,
      "▁الأرج": 7326,
      "خصة": 7327,
      "بي،": 7328,
      "▁لتقديم": 7329,
      "▁مور": 7330,
      "▁القهوة": 7331,
      "كاة": 7332,
      "▁أغلب": 7333,
      "▁مسار": 7334,
      "▁ويب": 7335,
      "▁مهرجان": 7336,
      ".‏": 7337,
      "الملي": 7338,
      "▁ناصر": 7339,
      "ئمة": 7340,
      "▁اعتماد": 7341,
      "▁تتميز": 7342,
      "▁برس": 7343,
      "▁باله": 7344,
      "▁الحاج": 7345,
      "وعات": 7346,
      "▁أولى": 7347,
      "▁المستشار": 7348,
      "▁كلّ": 7349,
      "▁اتفاقية": 7350,
      "لندا": 7351,
      "▁الأخضر": 7352,
      "▁إيط": 7353,
      "▁سري": 7354,
      "▁الشاب": 7355,
      "▁(ت": 7356,
      "▁المظ": 7357,
      "▁آب": 7358,
      "▁الدهون": 7359,
      "▁شئ": 7360,
      "▁أبطال": 7361,
      "ركان": 7362,
      "▁إنّ": 7363,
      "▁لسنة": 7364,
      "▁القبض": 7365,
      "▁المجموع": 7366,
      "▁يعل": 7367,
      "▁>>": 7368,
      "▁السوداني": 7369,
      "▁حرارة": 7370,
      "▁انطلاق": 7371,
      "▁تور": 7372,
      "▁الغربي": 7373,
      "▁السمو": 7374,
      "وائز": 7375,
      "▁الحمد": 7376,
      "رفيه": 7377,
      "▁وأضافت": 7378,
      "▁الكالس": 7379,
      "▁مبر": 7380,
      "▁\"ع": 7381,
      "قين": 7382,
      "ran": 7383,
      "فيفة": 7384,
      "▁الموجود": 7385,
      "▁تؤثر": 7386,
      "دوات": 7387,
      "وسيع": 7388,
      "▁والمرا": 7389,
      "▁الصيد": 7390,
      "▁زايد": 7391,
      "▁غيار": 7392,
      "▁استطاع": 7393,
      "هَا": 7394,
      "▁تعيش": 7395,
      "▁خطأ": 7396,
      "▁والسلام": 7397,
      "▁الألمانية": 7398,
      "▁دعا": 7399,
      "رادة": 7400,
      "يتم": 7401,
      "▁يومي": 7402,
      "▁الخطوات": 7403,
      "▁نهائي": 7404,
      "كمل": 7405,
      "▁صفوف": 7406,
      "ول،": 7407,
      "▁الآثار": 7408,
      "غني": 7409,
      "ولين": 7410,
      "▁ترب": 7411,
      "▁com": 7412,
      "بوب": 7413,
      "▁السيسي": 7414,
      "▁مطلوب": 7415,
      "▁الشاعر": 7416,
      "▁حصلت": 7417,
      "اتي": 7418,
      "▁موجود": 7419,
      "▁النيابة": 7420,
      "▁الرعاية": 7421,
      "▁غسيل": 7422,
      "▁الملي": 7423,
      "/10": 7424,
      "ريبات": 7425,
      "-200": 7426,
      "▁التهاب": 7427,
      "راص": 7428,
      "3.": 7429,
      "▁جوز": 7430,
      "بطة": 7431,
      "▁السويس": 7432,
      "▁الملكية": 7433,
      "ظاه": 7434,
      "▁معهم": 7435,
      "▁سعودي": 7436,
      "تام": 7437,
      "سرائيل": 7438,
      "▁عسكري": 7439,
      "▁لمعرفة": 7440,
      "ينو": 7441,
      "▁العلامة": 7442,
      "البة": 7443,
      "▁وتخ": 7444,
      "▁أفكار": 7445,
      "كاني": 7446,
      "ell": 7447,
      "الَّ": 7448,
      "▁جميلة": 7449,
      "بوك": 7450,
      "▁المتح": 7451,
      "▁انتخابات": 7452,
      "▁وشر": 7453,
      "App": 7454,
      "▁تذ": 7455,
      "▁الإدارية": 7456,
      "نَا": 7457,
      "▁يفت": 7458,
      "صالات": 7459,
      "▁خطاب": 7460,
      "▁وتطوير": 7461,
      "ائط": 7462,
      "لقت": 7463,
      "قدير": 7464,
      "▁تهدف": 7465,
      "▁والري": 7466,
      "▁لوك": 7467,
      "▁كفاءة": 7468,
      "▁نقوم": 7469,
      "▁مم": 7470,
      "▁....": 7471,
      "▁وجهة": 7472,
      "▁حرص": 7473,
      "مفيدة": 7474,
      "▁الصحافة": 7475,
      "▁الرسالة": 7476,
      "▁يخرج": 7477,
      "▁معرف": 7478,
      "▁آن": 7479,
      "▁محطات": 7480,
      "▁مسئ": 7481,
      "▁العج": 7482,
      "لالات": 7483,
      "▁الخطاب": 7484,
      "▁التابع": 7485,
      "▁تبقى": 7486,
      "▁أشار": 7487,
      "▁بجانب": 7488,
      "\":": 7489,
      "سبق": 7490,
      "▁«أ": 7491,
      "▁إير": 7492,
      "ّة،": 7493,
      "روح": 7494,
      "▁الخلاف": 7495,
      "▁فضلا": 7496,
      "وميت": 7497,
      "▁بخصوص": 7498,
      "▁لأس": 7499,
      "زنة": 7500,
      "▁تكوين": 7501,
      "▁نيس": 7502,
      "عاقد": 7503,
      "الته": 7504,
      "▁باللغة": 7505,
      "▁بمنطقة": 7506,
      "▁ويكي": 7507,
      "▁1000": 7508,
      "اعي": 7509,
      "▁يدفع": 7510,
      "▁المحاجر": 7511,
      "▁حلم": 7512,
      "▁المحا": 7513,
      "▁المناخ": 7514,
      "▁الفائدة": 7515,
      "▁يواجه": 7516,
      "1.": 7517,
      "▁الصغير": 7518,
      "لفات": 7519,
      "موري": 7520,
      "▁العدل": 7521,
      "▁نظرة": 7522,
      "كين": 7523,
      "ie": 7524,
      "▁التخطيط": 7525,
      "▁الإث": 7526,
      "▁Mar": 7527,
      "▁إلغاء": 7528,
      "▁ملموسة": 7529,
      "▁ثورة": 7530,
      "▁حياته": 7531,
      "▁لها،": 7532,
      "شرت": 7533,
      "▁نن": 7534,
      "ريض": 7535,
      "org": 7536,
      "▁لعلاج": 7537,
      "▁\"ن": 7538,
      "▁السياحية": 7539,
      "▁الالتزام": 7540,
      "ارى": 7541,
      "مخصص": 7542,
      "▁التسويق": 7543,
      "▁شار": 7544,
      "الوي": 7545,
      "▁تام": 7546,
      "se": 7547,
      "▁وتست": 7548,
      "▁الشعور": 7549,
      "▁الحساب": 7550,
      "▁تعلن": 7551,
      "▁وحدات": 7552,
      "زيمة": 7553,
      "رث": 7554,
      "▁عمو": 7555,
      "▁ورا": 7556,
      "▁رف": 7557,
      "▁يعلم": 7558,
      "▁الجنسية": 7559,
      "rom": 7560,
      "▁توقيع": 7561,
      "▁عالي": 7562,
      "تس": 7563,
      "48": 7564,
      "َالَ": 7565,
      "▁الإطلاق": 7566,
      "حمل": 7567,
      "تبه": 7568,
      "▁ومحمد": 7569,
      "▁نوعية": 7570,
      "-11": 7571,
      "28": 7572,
      "▁الاولى": 7573,
      "▁الكام": 7574,
      "ows": 7575,
      "▁قالوا": 7576,
      "»\n": 7577,
      "يدرولي": 7578,
      "▁المتاحة": 7579,
      "▁وأنت": 7580,
      "▁الفلس": 7581,
      "▁نيجيريا": 7582,
      "▁ذلك.": 7583,
      "2.": 7584,
      "،\n": 7585,
      "▁إسماعيل": 7586,
      "▁تتعلق": 7587,
      "▁قيل": 7588,
      "▁الصيني": 7589,
      "▁رأى": 7590,
      "قوق": 7591,
      "▁هوا": 7592,
      "▁-\n": 7593,
      "▁السيلي": 7594,
      "▁مبادرة": 7595,
      "▁تصف": 7596,
      "▁يرغب": 7597,
      "لمبيعات": 7598,
      "▁نجوم": 7599,
      "▁More\n": 7600,
      "▁لحظة": 7601,
      "▁عمي": 7602,
      "▁اثنين": 7603,
      "27": 7604,
      "▁بقيادة": 7605,
      "▁علما": 7606,
      "▁رابط": 7607,
      "▁أبا": 7608,
      "▁سل": 7609,
      "المبيعات": 7610,
      "يور": 7611,
      "▁دعوة": 7612,
      "▁تتبع": 7613,
      "ضط": 7614,
      "▁يبقى": 7615,
      "▁وفقًا": 7616,
      "▁ساع": 7617,
      "▁العام،": 7618,
      "▁وهكذا": 7619,
      "▁الميلاد": 7620,
      "▁اكبر": 7621,
      "▁نبات": 7622,
      "▁إغلاق": 7623,
      "راسات": 7624,
      "▁خطط": 7625,
      "لاحظ": 7626,
      "▁اليه": 7627,
      "▁نصائح": 7628,
      "▁سيع": 7629,
      "▁التزام": 7630,
      "▁والمه": 7631,
      "▁كيل": 7632,
      "▁طبيب": 7633,
      "▁الشبكة": 7634,
      "▁الجزائري": 7635,
      "▁الذهاب": 7636,
      "▁المبيعات": 7637,
      "▁الشؤون": 7638,
      "▁الأفراد": 7639,
      "▁بإن": 7640,
      "▁خليفة": 7641,
      "▁مكونات": 7642,
      "▁موسم": 7643,
      "▁Alibaba": 7644,
      "▁الثقافية": 7645,
      "▁دوا": 7646,
      "▁تعاني": 7647,
      "▁am": 7648,
      "▁النسخة": 7649,
      "▁سمعت": 7650,
      "▁الوي": 7651,
      "برة": 7652,
      "ركز": 7653,
      "66": 7654,
      "▁الناقل": 7655,
      "▁للمب": 7656,
      "▁خروج": 7657,
      "▁حماس": 7658,
      "ه:": 7659,
      "دريب": 7660,
      "▁مجد": 7661,
      "▁أل": 7662,
      "▁الأهداف": 7663,
      "دس": 7664,
      "▁الانتاج": 7665,
      "▁جرى": 7666,
      "▁التاريخية": 7667,
      "5\n": 7668,
      "▁العربية،": 7669,
      "ضمام": 7670,
      "▁المعنية": 7671,
      "صدق": 7672,
      "▁مناسب": 7673,
      "▁العاملة": 7674,
      "▁جيدا": 7675,
      "▁وكذا": 7676,
      "ؤكد": 7677,
      "▁الزراعية": 7678,
      "▁2021\n": 7679,
      "ان.": 7680,
      "هتمام": 7681,
      "▁يطلق": 7682,
      "▁الفرصة": 7683,
      "▁بمب": 7684,
      "▁بالرياض": 7685,
      "▁قليلة": 7686,
      "▁ثمن": 7687,
      "▁البتر": 7688,
      "33": 7689,
      "▁للغا": 7690,
      "كِ": 7691,
      "▁للمد": 7692,
      "▁هد": 7693,
      "ان\n": 7694,
      "▁ثقاف": 7695,
      "▁واج": 7696,
      "▁بالصور": 7697,
      "▁العميل": 7698,
      "▁سحب": 7699,
      "▁مقالات": 7700,
      "▁_": 7701,
      "▁دائماً": 7702,
      "▁المائة": 7703,
      "▁أية": 7704,
      "▁الدقيق": 7705,
      "▁شكر": 7706,
      "▁المطلوبة": 7707,
      "ائعة": 7708,
      "ادثة": 7709,
      "▁بخط": 7710,
      "▁احتياجات": 7711,
      "▁علامات": 7712,
      "▁\"ج": 7713,
      "▁الاستراتيجية": 7714,
      "▁الامر": 7715,
      "▁الشرك": 7716,
      "▁مدن": 7717,
      "▁الوك": 7718,
      "ناد": 7719,
      "▁مير": 7720,
      "▁بَ": 7721,
      "سوم": 7722,
      "▁تذكر": 7723,
      "▁دولي": 7724,
      "▁المبارك": 7725,
      "▁يكفي": 7726,
      "▁الصعب": 7727,
      "▁بالمح": 7728,
      "▁العوامل": 7729,
      "▁مسرح": 7730,
      "▁المصنعين": 7731,
      "ومان": 7732,
      "▁قمة": 7733,
      "▁ذكرت": 7734,
      "▁القادم": 7735,
      "▁هند": 7736,
      "▁مؤكدا": 7737,
      "▁خلفية": 7738,
      "▁رسمي": 7739,
      "▁بمثابة": 7740,
      "▁الحدث": 7741,
      "ليلة": 7742,
      "طل": 7743,
      "اوف": 7744,
      "ا.": 7745,
      "سيط": 7746,
      "▁مصلحة": 7747,
      "▁التونسي": 7748,
      "▁طبيعة": 7749,
      "▁إثر": 7750,
      "ebook": 7751,
      "▁شعبية": 7752,
      "مثا": 7753,
      "▁ببعض": 7754,
      "حداث": 7755,
      "▁المعرض": 7756,
      "▁المرة": 7757,
      "▁رسائل": 7758,
      "▁انع": 7759,
      "▁الشراء": 7760,
      "▁في\n": 7761,
      "▁اتصال": 7762,
      "▁النووي": 7763,
      "▁حدد": 7764,
      "▁المركزية": 7765,
      "▁بوت": 7766,
      "▁يسبب": 7767,
      "▁تنمية": 7768,
      "▁كول": 7769,
      "▁العالم.": 7770,
      "▁سع": 7771,
      "▁سال": 7772,
      "▁جبل": 7773,
      "▁!!": 7774,
      "▁الحملة": 7775,
      "▁بمك": 7776,
      "ber": 7777,
      "▁ظهرت": 7778,
      "عالى": 7779,
      "قدام": 7780,
      "وكر": 7781,
      "▁عشرات": 7782,
      "▁الأنشطة": 7783,
      "مقي": 7784,
      "▁تبدو": 7785,
      "ذاكرة": 7786,
      "▁الانتهاء": 7787,
      "▁جمهورية": 7788,
      "▁لنفس": 7789,
      "▁الحرير": 7790,
      "▁جعفر": 7791,
      "▁جميعا": 7792,
      "داب": 7793,
      "▁يؤثر": 7794,
      "▁باقي": 7795,
      "▁أقرب": 7796,
      "▁غيره": 7797,
      "▁٣": 7798,
      "▁المستمر": 7799,
      "▁أموال": 7800,
      "▁الدراسي": 7801,
      "▁الكلمة": 7802,
      "▁العدالة": 7803,
      "▁اضط": 7804,
      "وكن": 7805,
      "▁عمود": 7806,
      "▁السوداء": 7807,
      "▁السلاح": 7808,
      "▁استراتيجيات": 7809,
      "▁الموظفين": 7810,
      "غرق": 7811,
      "▁تحول": 7812,
      "وفة": 7813,
      "▁أشكال": 7814,
      "▁بمعنى": 7815,
      "▁الأدوات": 7816,
      "وفيد": 7817,
      "▁يمكننا": 7818,
      "▁مزد": 7819,
      "▁مميزة": 7820,
      "▁الشمال": 7821,
      "موه": 7822,
      "▁جنب": 7823,
      "▁الاكت": 7824,
      "▁الجي": 7825,
      "▁بيئة": 7826,
      "▁حصول": 7827,
      "▁عادل": 7828,
      "ش،": 7829,
      "كى": 7830,
      "▁الأصول": 7831,
      "▁وسيلة": 7832,
      "ل.": 7833,
      "فو": 7834,
      "▁الإشارة": 7835,
      "▁جراء": 7836,
      "▁بدلاً": 7837,
      "▁عائلة": 7838,
      "ff": 7839,
      "▁سلطان": 7840,
      "▁الشديد": 7841,
      "▁فقدان": 7842,
      "▁أذ": 7843,
      "hatsApp": 7844,
      "▁أرج": 7845,
      "▁تقريبا": 7846,
      "▁ويكون": 7847,
      "تزاز": 7848,
      "▁تجارية": 7849,
      "▁قرر": 7850,
      "هدد": 7851,
      "▁قررت": 7852,
      "مله": 7853,
      "سع": 7854,
      "ز،": 7855,
      "▁التأثير": 7856,
      "▁الشروط": 7857,
      "▁بتقديم": 7858,
      "هادات": 7859,
      "▁الخبرة": 7860,
      "▁فب": 7861,
      "▁التعليقات": 7862,
      "▁00": 7863,
      "____": 7864,
      "▁مخاطر": 7865,
      "▁\"لا": 7866,
      "رون": 7867,
      "▁أسواق": 7868,
      "ee": 7869,
      "▁البريطاني": 7870,
      "وائر": 7871,
      "وبايل": 7872,
      "▁صحية": 7873,
      "▁الثقافي": 7874,
      "▁طلاب": 7875,
      "مارين": 7876,
      "▁الفنادق": 7877,
      "▁ولهذا": 7878,
      "▁أمراض": 7879,
      "▁الفعل": 7880,
      "▁الحماية": 7881,
      "▁الترا": 7882,
      "26": 7883,
      "▁الذه": 7884,
      "تصادية": 7885,
      "خيل": 7886,
      "بب": 7887,
      "▁كثيراً": 7888,
      "▁فاز": 7889,
      "لزم": 7890,
      "▁أجمل": 7891,
      "صرف": 7892,
      "▁أوضح": 7893,
      "▁الرش": 7894,
      "حض": 7895,
      "▁بموا": 7896,
      "▁شكرا": 7897,
      "▁لطحن": 7898,
      "رابات": 7899,
      "▁متأ": 7900,
      "▁ساب": 7901,
      "▁نُ": 7902,
      "▁لتر": 7903,
      "▁ترج": 7904,
      "▁المؤمنين": 7905,
      "▁الشحن": 7906,
      "مظهر": 7907,
      "▁المصرى": 7908,
      "▁طبيعية": 7909,
      "▁اليوم\n": 7910,
      "▁مبيعات": 7911,
      "يات،": 7912,
      "▁للجميع": 7913,
      "▁خلاله": 7914,
      "▁موظف": 7915,
      "▁أصدق": 7916,
      "▁القناة": 7917,
      "▁ورغم": 7918,
      "▁الكوارتز": 7919,
      "▁تجنب": 7920,
      "▁بالذكر": 7921,
      "▁يأخذ": 7922,
      "▁القاضي": 7923,
      "مقدم": 7924,
      "▁غاز": 7925,
      "95": 7926,
      "▁في,": 7927,
      "ian": 7928,
      "▁زاد": 7929,
      "▁الأفكار": 7930,
      "ون\n": 7931,
      "▁يمتلك": 7932,
      "▁والمط": 7933,
      "▁\"ك": 7934,
      "▁جب": 7935,
      "▁سهل": 7936,
      "▁(ص": 7937,
      "▁كوريا": 7938,
      "مفض": 7939,
      "▁المستشفى": 7940,
      "▁لعدم": 7941,
      "▁سوء": 7942,
      "▁وتقديم": 7943,
      "▁موجودة": 7944,
      "▁وقيل": 7945,
      "▁الإيمان": 7946,
      "▁الخبراء": 7947,
      "otel": 7948,
      "ary": 7949,
      "نِ": 7950,
      "▁ممثل": 7951,
      "▁واي": 7952,
      "▁كبيرا": 7953,
      "لظهر": 7954,
      "▁المرضى": 7955,
      "▁الرك": 7956,
      "▁ريموند": 7957,
      "▁هجوم": 7958,
      "الظهر": 7959,
      "▁تمتلك": 7960,
      "▁دائمًا": 7961,
      "▁استخدم": 7962,
      "ّب": 7963,
      "▁الهواتف": 7964,
      "▁الأسئلة": 7965,
      "▁اليس": 7966,
      "فازات": 7967,
      "oad": 7968,
      "▁جزيرة": 7969,
      "▁الفلسطينيين": 7970,
      "▁بدلا": 7971,
      "▁العيد": 7972,
      "وجب": 7973,
      "▁مفاج": 7974,
      "▁بالتأكيد": 7975,
      "▁قمت": 7976,
      "▁عيسى": 7977,
      "▁يمنع": 7978,
      "acebook": 7979,
      "▁أساسي": 7980,
      "▁ظاهرة": 7981,
      "▁pm": 7982,
      "▁طيب": 7983,
      "▁الوحي": 7984,
      "وغان": 7985,
      "▁قادرة": 7986,
      "▁محددة": 7987,
      "▁قدرات": 7988,
      "▁الجنة": 7989,
      "▁أقول": 7990,
      "لمميز": 7991,
      "ug": 7992,
      "▁الكتابة": 7993,
      "▁يضم": 7994,
      "▁السفير": 7995,
      "38": 7996,
      "▁بمجرد": 7997,
      "المميز": 7998,
      "▁أيار": 7999,
      "sp": 8000,
      "du": 8001,
      "▁التحليل": 8002,
      "لسي": 8003,
      "▁قوا": 8004,
      "▁qu": 8005,
      "▁عملي": 8006,
      "▁\"الأ": 8007,
      "sh": 8008,
      "▁والتنمية": 8009,
      "▁خصوصا": 8010,
      "امنة": 8011,
      "▁كوك": 8012,
      "مدي": 8013,
      "▁x": 8014,
      "▁الظهر": 8015,
      "▁Pl": 8016,
      "9.": 8017,
      "▁السعودية،": 8018,
      "▁بكم": 8019,
      "▁نشرت": 8020,
      "▁ثقيلة": 8021,
      "▁الطف": 8022,
      "ئناف": 8023,
      "فذة": 8024,
      "▁خصم": 8025,
      "▁والتى": 8026,
      "▁المميز": 8027,
      "▁رعاية": 8028,
      "▁استعمال": 8029,
      "▁جيش": 8030,
      "▁المكونات": 8031,
      "رَ": 8032,
      "▁الفنانة": 8033,
      "▁أوراق": 8034,
      "طبق": 8035,
      "▁تدوير": 8036,
      "ا\n": 8037,
      "▁سبع": 8038,
      "رشيف": 8039,
      "▁ليكون": 8040,
      "▁مصنعي": 8041,
      "لني": 8042,
      "▁منتديات": 8043,
      "▁نوا": 8044,
      "▁روى": 8045,
      "▁الدعوة": 8046,
      "جام": 8047,
      "▁أخبرنا": 8048,
      "▁ذاته": 8049,
      "41": 8050,
      "ويتي": 8051,
      "▁مستمر": 8052,
      "غيرات": 8053,
      "4.": 8054,
      "▁لشراء": 8055,
      "▁(إ": 8056,
      "▁ورفع": 8057,
      "▁بموجب": 8058,
      "مجة": 8059,
      "▁الخطوط": 8060,
      "▁]": 8061,
      "▁البراز": 8062,
      "▁بدي": 8063,
      "▁الخلايا": 8064,
      "▁سلطة": 8065,
      "▁آمن": 8066,
      "▁والخدمات": 8067,
      "▁للمؤ": 8068,
      "▁أعل": 8069,
      "▁ar": 8070,
      "s\n": 8071,
      "وارئ": 8072,
      "▁المسؤولين": 8073,
      "▁وفقاً": 8074,
      "▁الفضاء": 8075,
      "ووص": 8076,
      "ئها": 8077,
      "▁القيم": 8078,
      "ial": 8079,
      "▁الدخل": 8080,
      "▁المستهلك": 8081,
      "▁تثبيت": 8082,
      "▁لمست": 8083,
      "مّ": 8084,
      "▁الأث": 8085,
      "▁بأفضل": 8086,
      "▁متك": 8087,
      "▁أنني": 8088,
      "▁التعرف": 8089,
      "▁فش": 8090,
      "▁الأطعمة": 8091,
      "▁الفلب": 8092,
      "▁الطائرة": 8093,
      "رسات": 8094,
      "جهات": 8095,
      "▁تخط": 8096,
      "▁بـ\"": 8097,
      "▁بمحافظة": 8098,
      "▁جورج": 8099,
      "مي،": 8100,
      "▁التمويل": 8101,
      "▁الدار": 8102,
      "▁حلب": 8103,
      "ظاهر": 8104,
      "▁الابتدا": 8105,
      "▁نرى": 8106,
      "▁تلا": 8107,
      "▁واعت": 8108,
      "▁عمله": 8109,
      "غرة": 8110,
      "▁ارتك": 8111,
      "▁العقوبات": 8112,
      "▁المبادرة": 8113,
      "▁الحزام": 8114,
      "▁محف": 8115,
      "▁الطلبة": 8116,
      "▁إضافية": 8117,
      "▁Google": 8118,
      "▁جنا": 8119,
      "▁وله": 8120,
      "وعي": 8121,
      "▁فيها،": 8122,
      "▁مفر": 8123,
      "موبايل": 8124,
      "▁Com": 8125,
      "لمما": 8126,
      "▁صحفي": 8127,
      "▁كاب": 8128,
      "▁التمر": 8129,
      "▁تضع": 8130,
      "▁التشري": 8131,
      "▁المقر": 8132,
      "▁الصناعات": 8133,
      "كرر": 8134,
      "▁الانف": 8135,
      "▁لاحق": 8136,
      "▁طهر": 8137,
      "▁الأصلي": 8138,
      "▁الرائدة": 8139,
      "▁مثلا": 8140,
      "المما": 8141,
      "▁يخص": 8142,
      "▁التخصص": 8143,
      "▁رَ": 8144,
      "الاً": 8145,
      "درا": 8146,
      "لقات": 8147,
      "▁السرعة": 8148,
      "▁ووص": 8149,
      "▁http://": 8150,
      "▁نَ": 8151,
      "ـة": 8152,
      "▁لعم": 8153,
      "حمة": 8154,
      "▁أوت": 8155,
      "▁الغذائي": 8156,
      "▁يحقق": 8157,
      "▁لحماية": 8158,
      "دب": 8159,
      "▁قدمت": 8160,
      "▁صاح": 8161,
      "▁القرارات": 8162,
      "ّف": 8163,
      "indows": 8164,
      "▁للث": 8165,
      "▁الرياضي": 8166,
      "صدقاء": 8167,
      "▁اتباع": 8168,
      "كرون": 8169,
      "▁وطالب": 8170,
      "▁821": 8171,
      "▁مواصفات": 8172,
      "ld": 8173,
      "▁الكون": 8174,
      "▁أقصى": 8175,
      "▁الثلاثاء،": 8176,
      "كنة": 8177,
      "ery": 8178,
      "▁منهما": 8179,
      "فار": 8180,
      "▁تعبير": 8181,
      "▁الست": 8182,
      "▁مزي": 8183,
      "▁تشعر": 8184,
      "▁والمك": 8185,
      "ice": 8186,
      "▁ولفت": 8187,
      "▁معدلات": 8188,
      "▁الحبوب": 8189,
      "▁الخز": 8190,
      "▁تحضير": 8191,
      "▁شرائ": 8192,
      "اير": 8193,
      "▁الحاكم": 8194,
      "ech": 8195,
      "▁الجماعة": 8196,
      "▁وقال:": 8197,
      "▁قبول": 8198,
      "▁النتيجة": 8199,
      "▁الأدنى": 8200,
      "قش": 8201,
      "▁سريعة": 8202,
      "▁المما": 8203,
      "يلول": 8204,
      "▁أوب": 8205,
      "▁للأس": 8206,
      "▁تاي": 8207,
      "▁التراث": 8208,
      "شين": 8209,
      "▁التوالي": 8210,
      "200": 8211,
      "ّق": 8212,
      "▁2000": 8213,
      "▁حزام": 8214,
      "▁القمر": 8215,
      "ng": 8216,
      "▁بعمل": 8217,
      "▁للمرة": 8218,
      "▁4-": 8219,
      "▁أبد": 8220,
      "▁مجموعات": 8221,
      "▁ثقة": 8222,
      "▁سيس": 8223,
      "▁لإعادة": 8224,
      "▁تسليم": 8225,
      "حيل": 8226,
      "سبانيا": 8227,
      "▁قصر": 8228,
      "▁فهد": 8229,
      "▁اقترا": 8230,
      "▁خفض": 8231,
      "▁sh": 8232,
      "غطي": 8233,
      "معية": 8234,
      "▁نجم": 8235,
      "▁مراقبة": 8236,
      "▁المتط": 8237,
      "ile": 8238,
      "a.": 8239,
      "بيا": 8240,
      "▁النقاط": 8241,
      "▁حوار": 8242,
      "▁تؤكد": 8243,
      "▁للوصول": 8244,
      "▁السيدة": 8245,
      "▁لحقوق": 8246,
      "▁التعبير": 8247,
      "▁الغير": 8248,
      "▁يختلف": 8249,
      "اصر": 8250,
      "▁مرح": 8251,
      "▁النج": 8252,
      "▁يخت": 8253,
      "▁بالز": 8254,
      "▁خبراء": 8255,
      "▁تضمن": 8256,
      "▁يتضمن": 8257,
      "▁الجماهير": 8258,
      "▁مواقف": 8259,
      "ظى": 8260,
      "▁وتك": 8261,
      "▁قوم": 8262,
      "َرْ": 8263,
      "▁أسفل": 8264,
      "▁مشترك": 8265,
      "عيش": 8266,
      "▁النهائية": 8267,
      "▁قلوب": 8268,
      "▁المرت": 8269,
      "▁وكن": 8270,
      "كوم": 8271,
      "باق": 8272,
      "▁شحن": 8273,
      "▁مكاف": 8274,
      "].\n": 8275,
      "▁بمست": 8276,
      "تباك": 8277,
      "▁للانت": 8278,
      "▁أحكام": 8279,
      "مخل": 8280,
      "▁الواقعة": 8281,
      "▁195": 8282,
      "▁البدء": 8283,
      "تِ": 8284,
      "متاع": 8285,
      "ميا": 8286,
      "▁الاستش": 8287,
      "▁سفر": 8288,
      "▁يمر": 8289,
      "▁محلية": 8290,
      "▁حتي": 8291,
      "بيين": 8292,
      "▁استعداد": 8293,
      "▁تأمين": 8294,
      "▁بلاده": 8295,
      "▁تأخذ": 8296,
      "▁الخامسة": 8297,
      "▁التحت": 8298,
      "▁نهر": 8299,
      "ود،": 8300,
      "▁المحدودة": 8301,
      "▁السع": 8302,
      "▁مجان": 8303,
      "▁وزيادة": 8304,
      "زوج": 8305,
      "رن": 8306,
      "▁سياق": 8307,
      "شأ": 8308,
      "▁متطلبات": 8309,
      "▁المعل": 8310,
      "▁ستج": 8311,
      "▁العروض": 8312,
      "▁الصحف": 8313,
      "▁\"الع": 8314,
      "▁منجم": 8315,
      "اطف": 8316,
      "▁رغ": 8317,
      "قيه": 8318,
      "عله": 8319,
      "▁تخرج": 8320,
      "▁سلب": 8321,
      "▁درهم": 8322,
      "▁وهى": 8323,
      "▁المشهد": 8324,
      "لمئة": 8325,
      "▁فائ": 8326,
      "▁جوه": 8327,
      "المئة": 8328,
      "▁خصائص": 8329,
      "رابلس": 8330,
      "▁مؤخرا": 8331,
      "صدير": 8332,
      "سوا": 8333,
      "▁المئة": 8334,
      "▁وقعت": 8335,
      "ويف": 8336,
      "▁اليابان": 8337,
      "▁رئاسة": 8338,
      "▁متخصص": 8339,
      "▁تقدير": 8340,
      "▁الكلية": 8341,
      "▁الإلكترون": 8342,
      "▁مسؤولية": 8343,
      "اناة": 8344,
      "▁ربط": 8345,
      "▁جوا": 8346,
      "مضا": 8347,
      "رية،": 8348,
      "▁الهند.": 8349,
      "للذ": 8350,
      "▁سعي": 8351,
      "▁القصة": 8352,
      "▁الدرجة": 8353,
      "▁الَّ": 8354,
      "▁الخميس،": 8355,
      "▁اتخذ": 8356,
      "▁وبحسب": 8357,
      "▁يورو": 8358,
      "▁صعوبة": 8359,
      "▁5.": 8360,
      "▁اللاجئين": 8361,
      "▁الجاه": 8362,
      "▁وكما": 8363,
      "▁الأقصى": 8364,
      "▁الحرمين": 8365,
      "▁سلا": 8366,
      "▁الأسلحة": 8367,
      "▁العناية": 8368,
      "▁مهارات": 8369,
      "▁الطويل": 8370,
      "▁يقول:": 8371,
      "▁باستمرار": 8372,
      "▁يطلب": 8373,
      "عية،": 8374,
      "▁دم": 8375,
      "▁pric": 8376,
      "▁لإنتاج": 8377,
      "وقيع": 8378,
      "▁كوا": 8379,
      "▁مسيرة": 8380,
      "▁يتميز": 8381,
      "جان": 8382,
      "▁الربيع": 8383,
      "▁وقبل": 8384,
      "-3": 8385,
      "خين": 8386,
      "▁ذلك.\n": 8387,
      "ناسب": 8388,
      "▁فيصل": 8389,
      "واط": 8390,
      "ورى": 8391,
      "▁فشل": 8392,
      "▁يرجى": 8393,
      "▁أسلوب": 8394,
      "▁ومث": 8395,
      "▁(2)": 8396,
      "▁يستحق": 8397,
      "▁فضل": 8398,
      "▁طارق": 8399,
      "▁المسؤولية": 8400,
      "طنبول": 8401,
      "▁تصدر": 8402,
      "▁الأطباء": 8403,
      "▁نيويورك": 8404,
      "موص": 8405,
      "▁مال": 8406,
      "زانية": 8407,
      "▁معق": 8408,
      "اللذ": 8409,
      "▁فلو": 8410,
      "▁الصحيفة": 8411,
      "▁بجميع": 8412,
      "ram": 8413,
      "▁فيسب": 8414,
      "▁القوانين": 8415,
      "▁طائرة": 8416,
      "▁Ad": 8417,
      "▁الكري": 8418,
      "▁نار": 8419,
      "▁يكشف": 8420,
      "6.": 8421,
      "▁المستخدمين": 8422,
      "▁والنا": 8423,
      "▁الأكادي": 8424,
      "▁»\n": 8425,
      "▁قيد": 8426,
      "▁سلاح": 8427,
      "قلم": 8428,
      "▁طبية": 8429,
      "▁عبدالر": 8430,
      "▁أقوى": 8431,
      "▁قادة": 8432,
      "▁حرف": 8433,
      "▁راشد": 8434,
      "▁غيرها": 8435,
      "نياه": 8436,
      "▁زراعة": 8437,
      "يسبوك": 8438,
      "▁لاي": 8439,
      "ذور": 8440,
      "▁\"من": 8441,
      "▁هشام": 8442,
      "▁2022\n": 8443,
      "▁رصد": 8444,
      "▁أرباح": 8445,
      "▁الشعوب": 8446,
      "اتم": 8447,
      ":‏": 8448,
      "▁الغرف": 8449,
      "▁حَ": 8450,
      "▁الحار": 8451,
      "▁يسعى": 8452,
      "▁الأرباح": 8453,
      "اً.": 8454,
      "▁النيل": 8455,
      "▁انقر": 8456,
      "▁حرية": 8457,
      "▁خز": 8458,
      "▁واستخدام": 8459,
      "▁نمط": 8460,
      "▁والتج": 8461,
      "▁اللذ": 8462,
      "▁وبناء": 8463,
      "▁المدرس": 8464,
      "▁مئات": 8465,
      "حان": 8466,
      "▁بنات": 8467,
      "▁يتمتع": 8468,
      "▁تأكيد": 8469,
      "▁تخصص": 8470,
      "▁قصص": 8471,
      "▁عليها،": 8472,
      "▁العن": 8473,
      "▁الجهة": 8474,
      "▁الأحزاب": 8475,
      "▁وأبو": 8476,
      "▁أصدر": 8477,
      "af": 8478,
      "▁الألماني": 8479,
      "▁إثراء": 8480,
      "▁حام": 8481,
      "▁صخرة": 8482,
      "▁وآخر": 8483,
      "▁شؤون": 8484,
      "▁أسرع": 8485,
      "7.": 8486,
      "▁بالاست": 8487,
      "▁التقليدية": 8488,
      "▁مقاومة": 8489,
      "اسبات": 8490,
      "صوص": 8491,
      "▁كتلة": 8492,
      "ذل": 8493,
      "▁تواجد": 8494,
      "▁فح": 8495,
      "خدمات": 8496,
      "▁معهد": 8497,
      "▁موضوع:": 8498,
      "▁with": 8499,
      "rad": 8500,
      "MT": 8501,
      "▁الكلي": 8502,
      "جَ": 8503,
      "زامن": 8504,
      "انغ": 8505,
      "▁المصريين": 8506,
      "ديداً": 8507,
      "▁الطبيعة": 8508,
      "سيج": 8509,
      "▁الامير": 8510,
      "▁كلي": 8511,
      "▁مقت": 8512,
      "▁انتهى": 8513,
      "ينة،": 8514,
      "▁الارض": 8515,
      "امرة": 8516,
      "▁معركة": 8517,
      "▁فاي": 8518,
      "▁ميلاد": 8519,
      "كك": 8520,
      "اقم": 8521,
      "قُ": 8522,
      "▁الخشب": 8523,
      "▁التنظيف": 8524,
      "▁بالطبع": 8525,
      "▁يعانون": 8526,
      "▁ذه": 8527,
      "حدات": 8528,
      "▁دولا": 8529,
      "▁مني": 8530,
      "وضحت": 8531,
      "▁المخالف": 8532,
      "▁الرب": 8533,
      "فاه": 8534,
      "▁الجيل": 8535,
      "▁لمب": 8536,
      "88": 8537,
      "▁الاستقرار": 8538,
      "ink": 8539,
      "▁شاه": 8540,
      "▁الحمراء": 8541,
      "ure": 8542,
      "ممث": 8543,
      "ستير": 8544,
      "▁متح": 8545,
      "اريو": 8546,
      "▁إليك": 8547,
      "▁غسالة": 8548,
      "▁تعب": 8549,
      "▁آلية": 8550,
      "نسان": 8551,
      "رطوم": 8552,
      "ذاء": 8553,
      "كيم": 8554,
      "قوب": 8555,
      "▁القوم": 8556,
      "▁ودعم": 8557,
      "▁الشخصي": 8558,
      "اكر": 8559,
      "ممثلة": 8560,
      "▁المخدرات": 8561,
      "▁يفعل": 8562,
      "وزير": 8563,
      "▁مصنعين": 8564,
      "▁بإمكان": 8565,
      "▁وطن": 8566,
      "▁بقية": 8567,
      "رجم": 8568,
      "▁كسر": 8569,
      "▁وتحقيق": 8570,
      "▁الار": 8571,
      "▁تفعيل": 8572,
      "▁فيسبوك": 8573,
      "▁صلة": 8574,
      "▁منس": 8575,
      "▁الضع": 8576,
      "▁الإيرانية": 8577,
      "زية": 8578,
      "▁عنهم": 8579,
      "▁موث": 8580,
      "روبات": 8581,
      "▁ادارة": 8582,
      "لملت": 8583,
      "▁زوجها": 8584,
      "▁لتكون": 8585,
      "▁سقط": 8586,
      "▁وكيفية": 8587,
      "▁قُ": 8588,
      "▁سلوك": 8589,
      "كورة": 8590,
      "▁التجربة": 8591,
      "▁تموز": 8592,
      "مثال": 8593,
      "▁ويكيبي": 8594,
      ".[": 8595,
      "يوف": 8596,
      "▁أمل": 8597,
      "▁فإنها": 8598,
      "الملت": 8599,
      "▁المقالة": 8600,
      "عيين": 8601,
      "▁تعاون": 8602,
      "▁مسؤولي": 8603,
      "ابا": 8604,
      "▁بريد": 8605,
      "▁للمواطن": 8606,
      "▁الأربعاء،": 8607,
      "▁يتيح": 8608,
      "▁يتمكن": 8609,
      "▁تماماً": 8610,
      "خيصة": 8611,
      "▁ترجمة": 8612,
      "لاغ": 8613,
      "▁دير": 8614,
      "▁والعا": 8615,
      "▁الالكتروني": 8616,
      "▁والتص": 8617,
      "▁أريد": 8618,
      "وسائل": 8619,
      "▁رمل": 8620,
      "ين:": 8621,
      "▁يدي": 8622,
      "ظي": 8623,
      "▁نعرف": 8624,
      "▁أسابيع": 8625,
      "كرا": 8626,
      "برنامج": 8627,
      "▁تتطلب": 8628,
      "يتام": 8629,
      "▁وسطاء": 8630,
      "اند": 8631,
      "▁حديد": 8632,
      "▁المسل": 8633,
      "وسي": 8634,
      "▁\"الح": 8635,
      "▁مطلع": 8636,
      "▁مصري": 8637,
      "▁شرط": 8638,
      "▁(ف": 8639,
      "▁البيض": 8640,
      "▁الحمام": 8641,
      "شير": 8642,
      "▁الجلسة": 8643,
      "/أ": 8644,
      "▁الإرهابية": 8645,
      "▁المعارض": 8646,
      "اوية": 8647,
      "▁ملعقة": 8648,
      "ادثات": 8649,
      "▁منصب": 8650,
      "eg": 8651,
      "▁موسكو": 8652,
      "▁اختلاف": 8653,
      "ؤية": 8654,
      "ign": 8655,
      "▁النفسي": 8656,
      "▁أصول": 8657,
      "دران": 8658,
      "▁الضروري": 8659,
      "▁فنادق": 8660,
      "▁عنصر": 8661,
      "▁صفقة": 8662,
      "▁الأوضاع": 8663,
      "ؤها": 8664,
      "▁أنفسهم": 8665,
      "لفل": 8666,
      "▁التكلفة": 8667,
      "▁قوى": 8668,
      "▁الاعتماد": 8669,
      "▁النفسية": 8670,
      "▁كفر": 8671,
      "▁السجن": 8672,
      "▁نقول": 8673,
      "s,": 8674,
      "▁الرؤية": 8675,
      "▁الإنت": 8676,
      "ـي": 8677,
      "خدمي": 8678,
      "▁سلام": 8679,
      "ندما": 8680,
      "▁تغذية": 8681,
      "▁الأعراض": 8682,
      "▁المنازل": 8683,
      "▁سمي": 8684,
      "▁دب": 8685,
      "▁إل": 8686,
      "▁والعال": 8687,
      "▁رواه": 8688,
      "▁المعنى": 8689,
      "داعش": 8690,
      "رارية": 8691,
      "ورها": 8692,
      "▁أرس": 8693,
      "▁نظرا": 8694,
      "ما،": 8695,
      "تباع": 8696,
      "▁قابلة": 8697,
      "▁المنزلية": 8698,
      "▁600": 8699,
      "▁جسم": 8700,
      "▁كرا": 8701,
      "▁ab": 8702,
      "ورية،": 8703,
      "لاس": 8704,
      "▁بوجود": 8705,
      "▁جملة": 8706,
      "▁كرب": 8707,
      "▁وأب": 8708,
      "▁لقب": 8709,
      "▁مشيراً": 8710,
      "▁إت": 8711,
      "▁صعب": 8712,
      "▁لمنع": 8713,
      "▁والدي": 8714,
      "راءات": 8715,
      "▁لام": 8716,
      "▁نخ": 8717,
      "▁ساهم": 8718,
      "��": 8719,
      "اجد": 8720,
      "▁الممتاز": 8721,
      "▁وتعالى": 8722,
      "ايران": 8723,
      "▁جدوى": 8724,
      "▁لمق": 8725,
      "ضرورة": 8726,
      "▁الملت": 8727,
      "▁القطاعات": 8728,
      "▁أدنى": 8729,
      "▁وزراء": 8730,
      "▁الصحراء": 8731,
      "ئاب": 8732,
      "▁نيسان": 8733,
      "▁<": 8734,
      "اين": 8735,
      "اميك": 8736,
      "▁بدل": 8737,
      "▁النهار": 8738,
      "هههه": 8739,
      "▁ميزة": 8740,
      "▁الصندوق": 8741,
      "▁مالي": 8742,
      "▁تملك": 8743,
      "29": 8744,
      "▁للعام": 8745,
      "▁ستت": 8746,
      "▁الناتج": 8747,
      "▁يرد": 8748,
      "▁الفرص": 8749,
      "▁إيجاد": 8750,
      "▁مديرية": 8751,
      "بيلة": 8752,
      "واص": 8753,
      "▁::": 8754,
      "▁شريك": 8755,
      "▁تكشف": 8756,
      "▁وجميع": 8757,
      "”،": 8758,
      "ماعة": 8759,
      "ظيمة": 8760,
      "يفية": 8761,
      "▁التلق": 8762,
      "دّ": 8763,
      "▁والأح": 8764,
      "▁فخ": 8765,
      "▁حقيقية": 8766,
      "▁يشمل": 8767,
      "▁زر": 8768,
      "▁باق": 8769,
      "حمن": 8770,
      "▁سالم": 8771,
      "▁يشهد": 8772,
      "▁هما": 8773,
      "الهم": 8774,
      "▁فيه،": 8775,
      "▁المستثمرين": 8776,
      "▁خوف": 8777,
      "▁يكت": 8778,
      "oin": 8779,
      "ong": 8780,
      "▁احتجاج": 8781,
      "▁اشت": 8782,
      "▁المنافسة": 8783,
      "▁إنسان": 8784,
      "▁بالمس": 8785,
      "▁الأك": 8786,
      "▁لتطوير": 8787,
      "▁يتعرض": 8788,
      "▁الويب": 8789,
      "▁حالياً": 8790,
      "▁And": 8791,
      "لوث": 8792,
      "▁تجرب": 8793,
      "▁مجمع": 8794,
      "▁زوجته": 8795,
      "▁العائلة": 8796,
      "▁آخر،": 8797,
      "net": 8798,
      "▁زيار": 8799,
      "راهيم": 8800,
      "▁عوامل": 8801,
      "يديو": 8802,
      "▁الرواية": 8803,
      "تباس": 8804,
      "▁تعني": 8805,
      "▁ربع": 8806,
      "▁بتش": 8807,
      "▁يعرض": 8808,
      "لموض": 8809,
      "عي،": 8810,
      "فيروس": 8811,
      "▁إله": 8812,
      "▁خبرة": 8813,
      "▁اهتما": 8814,
      "68": 8815,
      "▁واش": 8816,
      "ؤه": 8817,
      "ru": 8818,
      "▁تعليقات": 8819,
      "▁أقدم": 8820,
      "▁الصعيد": 8821,
      "يتا": 8822,
      "الموض": 8823,
      "▁عبيد": 8824,
      "▁يشارك": 8825,
      "▁فيتامين": 8826,
      "▁الحيوية": 8827,
      "▁خادم": 8828,
      "لا،": 8829,
      "دعاء": 8830,
      "▁والتش": 8831,
      "▁تجديد": 8832,
      "▁أمور": 8833,
      "‬\n": 8834,
      "ئون": 8835,
      "io": 8836,
      "▁بلدان": 8837,
      "▁يعطي": 8838,
      "فطار": 8839,
      "▁محتوى": 8840,
      "▁نكون": 8841,
      "▁بجامعة": 8842,
      "▁تقليل": 8843,
      "▁المتن": 8844,
      "▁لتأ": 8845,
      "يد\n": 8846,
      "▁الكث": 8847,
      "▁قس": 8848,
      "▁ينتظر": 8849,
      "باه": 8850,
      "▁الاعتبار": 8851,
      "▁يقود": 8852,
      "▁يكتب": 8853,
      "▁ألم": 8854,
      "▁ايران": 8855,
      "سمية": 8856,
      "▁غضون": 8857,
      "▁تكاليف": 8858,
      "▁غاية": 8859,
      "abic": 8860,
      "ev": 8861,
      "▁ومك": 8862,
      "▁وتعزيز": 8863,
      "▁للحفاظ": 8864,
      "▁حقيقي": 8865,
      "▁وفد": 8866,
      "▁الدماغ": 8867,
      "افات": 8868,
      "▁والتس": 8869,
      "▁شديدة": 8870,
      "▁الولادة": 8871,
      "▁الغسيل": 8872,
      "▁الإط": 8873,
      "▁ونت": 8874,
      "▁الثابت": 8875,
      "37": 8876,
      "▁المسئ": 8877,
      "▁حجز": 8878,
      "▁وفيما": 8879,
      "▁روما": 8880,
      "▁الأثر": 8881,
      "▁الشارقة": 8882,
      "▁le": 8883,
      "▁مسابقة": 8884,
      "▁للمص": 8885,
      "ولاد": 8886,
      "▁يجمع": 8887,
      "قود": 8888,
      "ِيَ": 8889,
      "خلاص": 8890,
      "قبال": 8891,
      "▁الجه": 8892,
      "ماله": 8893,
      "▁48": 8894,
      "▁الشأن": 8895,
      "جية": 8896,
      "for": 8897,
      "▁وتوفير": 8898,
      "▁منظومة": 8899,
      "▁التحديات": 8900,
      "▁مكتبة": 8901,
      "▁التاسع": 8902,
      "تيش": 8903,
      "▁دولية": 8904,
      "▁بلدة": 8905,
      "▁القنوات": 8906,
      "▁أراضي": 8907,
      "▁^": 8908,
      "‏:‏": 8909,
      "▁شمس": 8910,
      "▁معايير": 8911,
      "▁آذار": 8912,
      "▁وعد": 8913,
      "▁المحتمل": 8914,
      "▁استهلاك": 8915,
      "▁البوا": 8916,
      "▁إيطاليا": 8917,
      "هزة": 8918,
      "▁المستقب": 8919,
      "▁أمب": 8920,
      "▁للمشاركة": 8921,
      "▁ينظر": 8922,
      "▁الموض": 8923,
      "▁والمب": 8924,
      "ax": 8925,
      "▁an": 8926,
      "بلوماسية": 8927,
      "▁رأيت": 8928,
      "▁الرسائل": 8929,
      "▁خلط": 8930,
      "نتين": 8931,
      "▁الوسيط": 8932,
      "▁بقدر": 8933,
      "▁الغذاء": 8934,
      "▁be": 8935,
      "‏.‏": 8936,
      "▁يقف": 8937,
      "▁75": 8938,
      "قاب": 8939,
      "▁الجملة": 8940,
      "ظهار": 8941,
      "زو": 8942,
      "زه": 8943,
      "▁سليم": 8944,
      "▁المتداول": 8945,
      "▁وعلي": 8946,
      "▁استخدامه": 8947,
      "ارته": 8948,
      "▁حلقة": 8949,
      "احت": 8950,
      "▁بلدية": 8951,
      "▁اليمين": 8952,
      "▁pl": 8953,
      "حوا": 8954,
      "▁للآ": 8955,
      "مضادة": 8956,
      "▁المؤلف": 8957,
      "▁خارجية": 8958,
      "▁الفلسطين": 8959,
      "▁الاعلام": 8960,
      "▁صدق": 8961,
      "▁Windows": 8962,
      "▁يلعب": 8963,
      "▁غريب": 8964,
      "6)": 8965,
      "▁وافق": 8966,
      "▁السلامة": 8967,
      "▁الحلول": 8968,
      "▁القمح": 8969,
      "▁الأفلام": 8970,
      "▁اقتصادية": 8971,
      "وخصوص": 8972,
      "لفت": 8973,
      "▁الطائف": 8974,
      "▁اقتصادي": 8975,
      "▁مستقب": 8976,
      "▁تري": 8977,
      "ower": 8978,
      "ضرار": 8979,
      "▁الحقيقية": 8980,
      "▁تل": 8981,
      "كسر": 8982,
      "بطا": 8983,
      "▁المعدة": 8984,
      "ئتما": 8985,
      "▁حادث": 8986,
      "▁الألوان": 8987,
      "ديس": 8988,
      "شات": 8989,
      "▁لاستخدام": 8990,
      "وابط": 8991,
      "جلت": 8992,
      "باك": 8993,
      "▁اليمني": 8994,
      "▁مؤشرات": 8995,
      "يادات": 8996,
      "▁الاصطنا": 8997,
      "ؤدي": 8998,
      "▁البخاري": 8999,
      "اقي": 9000,
      "▁تاجر": 9001,
      "/12": 9002,
      "لقد": 9003,
      "▁الإنجليزية": 9004,
      "▁تخت": 9005,
      "▁لافت": 9006,
      "▁أبواب": 9007,
      "مارة": 9008,
      "▁Bl": 9009,
      "▁إذن": 9010,
      "وانية": 9011,
      "▁الربع": 9012,
      "يمات": 9013,
      "▁تمويل": 9014,
      "▁كتابه": 9015,
      "وتي": 9016,
      "▁البقاء": 9017,
      "وريد": 9018,
      "▁شاملة": 9019,
      "مارك": 9020,
      "▁وأشارت": 9021,
      "وووو": 9022,
      "▁دفاع": 9023,
      "مذهب": 9024,
      "▁الأولية": 9025,
      "▁فضلاً": 9026,
      "▁تبادل": 9027,
      "▁التصنيع": 9028,
      "39": 9029,
      "▁أستاذ": 9030,
      "▁قلق": 9031,
      "▁داود": 9032,
      ",000": 9033,
      "▁السكري": 9034,
      "▁النفايات": 9035,
      "▁حينما": 9036,
      "▁منها،": 9037,
      "▁العمل،": 9038,
      "▁شرب": 9039,
      "▁ورس": 9040,
      "▁كا": 9041,
      "▁المشاركين": 9042,
      "....\n": 9043,
      "▁مواضيع": 9044,
      "عدد": 9045,
      "▁الشهيد": 9046,
      "▁وخصوص": 9047,
      "▁ذكره": 9048,
      "▁الآن،": 9049,
      "اده": 9050,
      "▁يدعم": 9051,
      "▁الزيارة": 9052,
      "▁تقل": 9053,
      "▁بانت": 9054,
      "لياف": 9055,
      "▁!\n": 9056,
      "▁وأعلن": 9057,
      "▁الجب": 9058,
      "اصرة": 9059,
      "▁بنظام": 9060,
      "ى\n": 9061,
      "▁التصوير": 9062,
      "شق": 9063,
      "▁أعتقد": 9064,
      "▁وطنية": 9065,
      "▁الجمعة،": 9066,
      "▁الخوف": 9067,
      "▁والمغ": 9068,
      "▁الشخصيات": 9069,
      "▁طعام": 9070,
      "▁وها": 9071,
      "جرين": 9072,
      "▁توف": 9073,
      "▁حلو": 9074,
      "▁البلدين": 9075,
      "▁ورق": 9076,
      "wit": 9077,
      "▁الإعلامية": 9078,
      "▁ويعتبر": 9079,
      "▁Sp": 9080,
      "▁بغير": 9081,
      "▁you": 9082,
      "▁AM\n": 9083,
      "هذه": 9084,
      "▁أسئلة": 9085,
      "▁تخصيص": 9086,
      "▁أثبت": 9087,
      "▁الرائعة": 9088,
      "ى.": 9089,
      "▁بوضع": 9090,
      "▁القت": 9091,
      "▁الأحد،": 9092,
      "مامة": 9093,
      "سُ": 9094,
      "▁النَّ": 9095,
      "ماط": 9096,
      "▁ونصف": 9097,
      "رفين": 9098,
      "أمل": 9099,
      "لتي": 9100,
      "ليون": 9101,
      "▁المراكز": 9102,
      "-\n": 9103,
      "▁الاغ": 9104,
      "▁النموذج": 9105,
      "▁فني": 9106,
      "▁التيار": 9107,
      "▁لنقل": 9108,
      "▁وقوع": 9109,
      "ودان": 9110,
      "▁حار": 9111,
      "▁الصادر": 9112,
      "دايا": 9113,
      "▁حبيب": 9114,
      "لجي": 9115,
      "ورة،": 9116,
      "اهيم": 9117,
      "فيز": 9118,
      "▁كميات": 9119,
      "دائق": 9120,
      "▁الزيتون": 9121,
      "▁36": 9122,
      "▁المسار": 9123,
      "سيطر": 9124,
      "▁الأل": 9125,
      "▁مطعم": 9126,
      "قيبة": 9127,
      "ينت": 9128,
      "▁المذكور": 9129,
      "▁as": 9130,
      "ماري": 9131,
      "▁البرا": 9132,
      "▁وخلال": 9133,
      "▁النجم": 9134,
      "يداً": 9135,
      "▁بمشاركة": 9136,
      "لخص": 9137,
      "▁جهد": 9138,
      "▁سُ": 9139,
      "▁بحر": 9140,
      "▁الجميلة": 9141,
      "▁الهندسة": 9142,
      "يمون": 9143,
      "▁بدر": 9144,
      "ابرات": 9145,
      "▁السلطان": 9146,
      "▁الانتقال": 9147,
      "▁النصف": 9148,
      "رابة": 9149,
      "شخاص": 9150,
      "▁يعلن": 9151,
      "▁طاقة": 9152,
      "يرًا": 9153,
      "▁الوعي": 9154,
      "ربول": 9155,
      "▁عنده": 9156,
      "▁لبناء": 9157,
      "▁ونقل": 9158,
      "▁ممث": 9159,
      "▁انتخ": 9160,
      "▁الجنوبي": 9161,
      "▁سمو": 9162,
      "▁سيب": 9163,
      "▁الدواء": 9164,
      "رورة": 9165,
      "▁أنشطة": 9166,
      "▁منف": 9167,
      "▁الانج": 9168,
      "ire": 9169,
      "ark": 9170,
      "ناعات": 9171,
      "▁تسع": 9172,
      "▁المسا": 9173,
      "لغام": 9174,
      "▁تتمتع": 9175,
      "▁ex": 9176,
      "▁المبلغ": 9177,
      "▁الإنجليزي": 9178,
      "تمدة": 9179,
      "▁يدعو": 9180,
      "▁اسب": 9181,
      "!!\n": 9182,
      "▁سهم": 9183,
      "كشاف": 9184,
      "وضة": 9185,
      "فتاء": 9186,
      "▁تفا": 9187,
      "▁نوم": 9188,
      "▁فيس": 9189,
      "▁تحاول": 9190,
      "▁حقا": 9191,
      "تن": 9192,
      "▁تصرف": 9193,
      "يجار": 9194,
      "▁المطبخ": 9195,
      "▁موضع": 9196,
      "▁صفحات": 9197,
      "▁ولت": 9198,
      "▁حمام": 9199,
      "▁الإح": 9200,
      "▁نظم": 9201,
      "nt": 9202,
      "▁الباط": 9203,
      "▁وحسب": 9204,
      "▁الكوك": 9205,
      "سه": 9206,
      "▁الوسائل": 9207,
      "▁الوكالة": 9208,
      "▁وإعادة": 9209,
      "▁كمال": 9210,
      "لمخروط": 9211,
      "▁وادي": 9212,
      "▁تخزين": 9213,
      "▁المنظمات": 9214,
      "▁العالم.\n": 9215,
      "▁وحده": 9216,
      "▁هواتف": 9217,
      "المخروط": 9218,
      "▁اسرائيل": 9219,
      "▁الدائرة": 9220,
      "▁اهتمام": 9221,
      "▁توقعات": 9222,
      "▁بفيروس": 9223,
      "▁دست": 9224,
      "▁ببس": 9225,
      "▁الفئة": 9226,
      "▁الجوي": 9227,
      "لاه": 9228,
      "▁جو": 9229,
      "▁صدور": 9230,
      "جحة": 9231,
      "▁الضفة": 9232,
      "))": 9233,
      "▁والرياض": 9234,
      "▁this": 9235,
      "▁شرف": 9236,
      "▁ابراهيم": 9237,
      "▁وفر": 9238,
      "▁فحسب": 9239,
      "▁جل": 9240,
      "▁انطلق": 9241,
      "نا.": 9242,
      "▁2007": 9243,
      "▁جرا": 9244,
      "▁المخروط": 9245,
      "ِب": 9246,
      "ممر": 9247,
      "▁اضافة": 9248,
      "اً.\n": 9249,
      "▁بحلول": 9250,
      "▁وضعت": 9251,
      "'s": 9252,
      "▁عامًا": 9253,
      "▁ترح": 9254,
      "ية:": 9255,
      "▁دونالد": 9256,
      "▁وزن": 9257,
      "لاط": 9258,
      "▁مَا": 9259,
      "ثبيت": 9260,
      "▁الصهيوني": 9261,
      "▁فلي": 9262,
      "ريش": 9263,
      "▁تتمكن": 9264,
      "▁وزيرة": 9265,
      "▁ساحة": 9266,
      "▁الشهير": 9267,
      "▁الذرة": 9268,
      "▁فيهم": 9269,
      "▁الخطأ": 9270,
      "▁امس": 9271,
      "▁إرها": 9272,
      "▁بالتح": 9273,
      "▁القائد": 9274,
      "▁فتاة": 9275,
      "لمفض": 9276,
      "▁تخفيض": 9277,
      "▁آخرين": 9278,
      "▁Read": 9279,
      "المفض": 9280,
      "▁أسر": 9281,
      "وتا": 9282,
      "▁إعلام": 9283,
      "▁كيلوم": 9284,
      "▁جولة": 9285,
      "▁الاردن": 9286,
      "▁كونه": 9287,
      "ح،": 9288,
      "▁الخطة": 9289,
      "▁الثنائي": 9290,
      "▁الساحة": 9291,
      "▁الأخرى،": 9292,
      "▁كسب": 9293,
      "▁نك": 9294,
      "▁تقلي": 9295,
      "▁المتخصصة": 9296,
      "▁مانش": 9297,
      "ديان": 9298,
      "▁الكيميائية": 9299,
      "▁العقاري": 9300,
      "▁الغيار": 9301,
      "▁120": 9302,
      "▁منه،": 9303,
      "▁السيليكا": 9304,
      "▁الحادث": 9305,
      "▁مصر\n": 9306,
      "▁أيها": 9307,
      "▁الاسلام": 9308,
      "▁الأنظمة": 9309,
      "ction": 9310,
      "ep": 9311,
      "▁تلت": 9312,
      "▁عود": 9313,
      "لمميزة": 9314,
      "▁إدخال": 9315,
      "▁ويندوز": 9316,
      "المميزة": 9317,
      "▁مدارس": 9318,
      "▁حت": 9319,
      "ئذ": 9320,
      "▁الإجتما": 9321,
      "▁باط": 9322,
      "▁جير": 9323,
      "▁طوا": 9324,
      "صدر": 9325,
      "▁أخي": 9326,
      "فوق": 9327,
      "▁تشي": 9328,
      "▁المميزة": 9329,
      "▁الفار": 9330,
      "▁لتعزيز": 9331,
      "وباما": 9332,
      "▁العشر": 9333,
      "▁2020\n": 9334,
      "▁ولقد": 9335,
      "▁الخضراء": 9336,
      "▁قضاء": 9337,
      "▁السل": 9338,
      "كاس": 9339,
      "▁Th": 9340,
      "ظن": 9341,
      "ويترز": 9342,
      "درت": 9343,
      "▁تتراوح": 9344,
      "▁عالمي": 9345,
      "▁موظ": 9346,
      "roid": 9347,
      "▁تدعم": 9348,
      "▁تركيز": 9349,
      "▁تبين": 9350,
      "▁المشروعات": 9351,
      "فلت": 9352,
      "▁القمة": 9353,
      "▁استقرار": 9354,
      "طالب": 9355,
      "ف،": 9356,
      "▁والأمن": 9357,
      "▁السهل": 9358,
      "نجليزية": 9359,
      "▁الوقود": 9360,
      "▁البنية": 9361,
      "اولت": 9362,
      "▁مسجد": 9363,
      "▁فوريكس": 9364,
      "▁سابقة": 9365,
      "▁الوص": 9366,
      "▁للتس": 9367,
      "▁المسلم": 9368,
      "ماش": 9369,
      "▁التدخل": 9370,
      "▁زالت": 9371,
      "فين": 9372,
      "▁سيتي": 9373,
      "▁الصدر": 9374,
      "▁عَلَيْ": 9375,
      "▁إنس": 9376,
      "▁جر": 9377,
      "▁الهم": 9378,
      "47": 9379,
      "▁كذا": 9380,
      "▁والانت": 9381,
      "▁ألب": 9382,
      "▁القلق": 9383,
      "▁تدا": 9384,
      "8.": 9385,
      "▁زال": 9386,
      "▁البطن": 9387,
      "▁المفض": 9388,
      "enc": 9389,
      "▁وأوضحت": 9390,
      "▁النحو": 9391,
      "▁الجمال": 9392,
      "▁تكت": 9393,
      "▁بدعم": 9394,
      "انَ": 9395,
      "ائم": 9396,
      "الوب": 9397,
      "لومن": 9398,
      "▁الشتاء": 9399,
      "▁الهندي": 9400,
      "▁نفسه،": 9401,
      "▁ملاحظة": 9402,
      "▁الطائرات": 9403,
      "▁سَ": 9404,
      "▁Facebook": 9405,
      "▁نهائ": 9406,
      "▁المنطقة،": 9407,
      "▁موز": 9408,
      "OS": 9409,
      "▁الحضور": 9410,
      "فْ": 9411,
      "بدال": 9412,
      "ولاية": 9413,
      "▁المرج": 9414,
      "▁القطع": 9415,
      "▁التحتية": 9416,
      "▁GMT": 9417,
      "▁إقليم": 9418,
      "▁لتنفيذ": 9419,
      "▁نتنياه": 9420,
      "▁السبت،": 9421,
      "▁تبر": 9422,
      "▁علوم": 9423,
      "36": 9424,
      "▁لتحديد": 9425,
      "عدة": 9426,
      "طيل": 9427,
      "ِد": 9428,
      "▁مـ": 9429,
      "صود": 9430,
      "▁منخفضة": 9431,
      "▁السر": 9432,
      "▁0\n": 9433,
      "▁الكنيسة": 9434,
      "رال": 9435,
      "مكانيات": 9436,
      "▁تدفع": 9437,
      "▁يوف": 9438,
      "شرح": 9439,
      "▁طرابلس": 9440,
      "▁للبيع.": 9441,
      "▁82": 9442,
      "▁رصيد": 9443,
      "▁المرتبطة": 9444,
      "▁رحلات": 9445,
      "▁رسمية": 9446,
      "▁توك": 9447,
      "▁دراسات": 9448,
      "▁مفتوح": 9449,
      "▁النوا": 9450,
      "▁الجغ": 9451,
      "▁وآله": 9452,
      "▁حبوب": 9453,
      "▁واعتبر": 9454,
      "▁العدو": 9455,
      "عوة": 9456,
      "▁قل": 9457,
      "▁الاختيار": 9458,
      "▁حذف": 9459,
      "▁الذاتية": 9460,
      "▁جريمة": 9461,
      "مطحنة": 9462,
      "▁تسمى": 9463,
      "وبوت": 9464,
      "ذير": 9465,
      "▁وشدد": 9466,
      "▁الأولي": 9467,
      "للون": 9468,
      "▁ساح": 9469,
      "▁بالمج": 9470,
      "▁والاحت": 9471,
      "لوات": 9472,
      "▁مماث": 9473,
      "▁ونظ": 9474,
      "وضى": 9475,
      "▁العط": 9476,
      "▁”": 9477,
      "▁الكالسيوم": 9478,
      "فيق": 9479,
      "▁بلو": 9480,
      "▁تمامًا": 9481,
      "▁استقبال": 9482,
      "▁شريط": 9483,
      "▁لمجلس": 9484,
      "▁يوتيوب": 9485,
      "▁تابعة": 9486,
      "▁رون": 9487,
      "▁النهضة": 9488,
      "▁الأرز": 9489,
      "▁مثا": 9490,
      "▁تبع": 9491,
      "بوت": 9492,
      "▁يقبل": 9493,
      "ابط": 9494,
      "لكم": 9495,
      "ابير": 9496,
      "▁إشارات": 9497,
      "▁قنوات": 9498,
      "لة.\n": 9499,
      "▁واضاف": 9500,
      "▁55": 9501,
      "زت": 9502,
      "▁بالعمل": 9503,
      "▁اليمنية": 9504,
      "▁عاص": 9505,
      "▁وطلب": 9506,
      "لسلات": 9507,
      "▁التغذية": 9508,
      "▁السياق": 9509,
      "▁والمجتمع": 9510,
      "شارة": 9511,
      "▁العبد": 9512,
      "▁يهدف": 9513,
      "▁والإس": 9514,
      "▁التنسيق": 9515,
      "▁البلاد،": 9516,
      "هاي": 9517,
      "▁انتص": 9518,
      "▁عددا": 9519,
      "▁الَّذ": 9520,
      "49": 9521,
      "▁الصفقات": 9522,
      "درويد": 9523,
      "ذاكر": 9524,
      "▁الإقامة": 9525,
      "▁وأكدت": 9526,
      "▁ad": 9527,
      "▁السلوك": 9528,
      "▁مضيف": 9529,
      "▁الفكرة": 9530,
      "▁البرازيل": 9531,
      "اهدات": 9532,
      "▁اكتشف": 9533,
      "▁More": 9534,
      "eng": 9535,
      "▁استغلال": 9536,
      "سلم": 9537,
      "▁فاس": 9538,
      "▁لزيادة": 9539,
      "▁الأجنبي": 9540,
      "ربت": 9541,
      "مان،": 9542,
      "للات": 9543,
      "▁الكرد": 9544,
      "▁قوانين": 9545,
      "▁نريد": 9546,
      "▁مستشار": 9547,
      "▁الإخبار": 9548,
      "▁هامش": 9549,
      "▁ربح": 9550,
      "▁دخلت": 9551,
      "ائك": 9552,
      "▁خسارة": 9553,
      "ree": 9554,
      "سي،": 9555,
      "▁الدجاج": 9556,
      "فسية": 9557,
      "▁علمية": 9558,
      "ّت": 9559,
      "غلال": 9560,
      "▁للأمم": 9561,
      "▁العيش": 9562,
      "▁أنس": 9563,
      "42": 9564,
      "▁الأسماء": 9565,
      "اطي": 9566,
      "تهما": 9567,
      "▁يفضل": 9568,
      "▁ch": 9569,
      "▁وأيضا": 9570,
      "▁الأنباء": 9571,
      "▁الانتق": 9572,
      "▁قائلاً": 9573,
      "▁وذكرت": 9574,
      "▁إيقاف": 9575,
      "▁كرات": 9576,
      "▁الضرائب": 9577,
      "▁\".\n": 9578,
      "▁سبعة": 9579,
      "/11": 9580,
      "▁التطور": 9581,
      "▁للبر": 9582,
      "ros": 9583,
      "▁الآلي": 9584,
      "يغ": 9585,
      "▁المكسي": 9586,
      "▁الراحة": 9587,
      "▁عف": 9588,
      "قرأ": 9589,
      "▁الشريعة": 9590,
      "▁يرا": 9591,
      "▁عيني": 9592,
      "يتهم": 9593,
      "▁الأدب": 9594,
      "td": 9595,
      "▁الشرقي": 9596,
      "كوك": 9597,
      "▁الاستثمارات": 9598,
      "▁المقبل،": 9599,
      "▁Ex": 9600,
      "▁مطرقة": 9601,
      "▁للدولة": 9602,
      "▁الوب": 9603,
      "▁مذه": 9604,
      "▁مار": 9605,
      "▁الأزهر": 9606,
      "▁جرائم": 9607,
      "▁النور": 9608,
      "▁التوص": 9609,
      "85": 9610,
      "وة،": 9611,
      "▁الحكومي": 9612,
      "hatsApp\n": 9613,
      "▁أعداد": 9614,
      "▁للقيام": 9615,
      "▁الغالب": 9616,
      "▁الدكتورة": 9617,
      "▁والوق": 9618,
      "▁مفتوحة": 9619,
      "▁خش": 9620,
      "▁ساعد": 9621,
      "▁توفي": 9622,
      "طول": 9623,
      "▁لأكثر": 9624,
      "▁انتهت": 9625,
      "▁لأحد": 9626,
      "▁ودي": 9627,
      "▁جنس": 9628,
      "rou": 9629,
      "▁اللجوء": 9630,
      "▁أولئك": 9631,
      "▁تتجاوز": 9632,
      "▁المباريات": 9633,
      "▁وتكون": 9634,
      "▁القائم": 9635,
      "▁بآ": 9636,
      "▁هار": 9637,
      "▁والان": 9638,
      "فد": 9639,
      "▁استثمار": 9640,
      "لومنيوم": 9641,
      "▁يتجاوز": 9642,
      "▁ناقل": 9643,
      "لجأ": 9644,
      "▁خسائر": 9645,
      "▁تصاد": 9646,
      "▁المسيحي": 9647,
      "▁الواحدة": 9648,
      "▁قاب": 9649,
      "▁اور": 9650,
      "▁مبنى": 9651,
      "▁شجرة": 9652,
      "▁الصحيحة": 9653,
      "▁ليع": 9654,
      "▁طهران": 9655,
      "لمول": 9656,
      "▁التعلم": 9657,
      "▁متوا": 9658,
      "▁الشمالي": 9659,
      "▁(ما": 9660,
      "oft": 9661,
      "▁يتأ": 9662,
      "▁المساعدات": 9663,
      "غلب": 9664,
      "▁الدولة،": 9665,
      "▁القاسم": 9666,
      "▁تلقى": 9667,
      "▁أعد": 9668,
      "شيا": 9669,
      "جستير": 9670,
      "▁بالمئة": 9671,
      "حة،": 9672,
      "▁فريد": 9673,
      "▁للمط": 9674,
      "▁بدقة": 9675,
      "▁عاصمة": 9676,
      "جون": 9677,
      "▁أحيان": 9678,
      "▁للوق": 9679,
      "▁الخبز": 9680,
      "▁ناس": 9681,
      "ريبية": 9682,
      "▁from": 9683,
      "▁صباحاً": 9684,
      "قض": 9685,
      "▁الثامن": 9686,
      "المول": 9687,
      "زالت": 9688,
      "▁العلامات": 9689,
      "سيطة": 9690,
      "▁السلف": 9691,
      "▁1,": 9692,
      "▁ربيع": 9693,
      "▁كبرى": 9694,
      "اقط": 9695,
      "▁الناحية": 9696,
      "نته": 9697,
      "▁or": 9698,
      "▁فول": 9699,
      "▁شامل": 9700,
      "▁اضغط": 9701,
      "▁أخت": 9702,
      "▁التعريف": 9703,
      "▁يضمن": 9704,
      "▁وقام": 9705,
      ".\"\n": 9706,
      "▁معالي": 9707,
      "▁الحشرات": 9708,
      "ائز": 9709,
      "▁فاط": 9710,
      "▁الاير": 9711,
      "وسيا": 9712,
      "▁،\n": 9713,
      "▁بأسعار": 9714,
      "▁الديني": 9715,
      "▁الصادرة": 9716,
      "▁الطوب": 9717,
      "مبراط": 9718,
      "اللات": 9719,
      "ئم": 9720,
      "▁تأجير": 9721,
      "▁تخطيط": 9722,
      "▁الماضية،": 9723,
      "▁يترك": 9724,
      "▁موق": 9725,
      "▁الأنا": 9726,
      "▁الوحيدة": 9727,
      "▁يوماً": 9728,
      "صلت": 9729,
      "▁للمق": 9730,
      "▁وبح": 9731,
      "لليم": 9732,
      "▁البورصة": 9733,
      "▁لمكافحة": 9734,
      "▁امري": 9735,
      "▁القواعد": 9736,
      "▁الشوط": 9737,
      "▁تنتج": 9738,
      "▁الاطفال": 9739,
      "▁ملحوظ": 9740,
      "▁لاس": 9741,
      "ox": 9742,
      "vi": 9743,
      "▁المكرمة": 9744,
      "▁pm\n": 9745,
      "▁مناقشة": 9746,
      "اديث": 9747,
      "▁مفيدة": 9748,
      "▁يرجع": 9749,
      "▁لاحظ": 9750,
      "▁والده": 9751,
      "ميه": 9752,
      "▁أيدي": 9753,
      "▁البول": 9754,
      "▁السمك": 9755,
      "▁الإطار": 9756,
      "%D8%B": 9757,
      "▁المغناط": 9758,
      "▁كات": 9759,
      "▁منافسات": 9760,
      "نية،": 9761,
      "▁الموسيقى": 9762,
      "تيال": 9763,
      "▁العمودية": 9764,
      "▁المطحنة": 9765,
      "وائم": 9766,
      "▁إِلَ": 9767,
      "▁البلاستيك": 9768,
      "▁نفذ": 9769,
      "ْرَ": 9770,
      "▁المخطط": 9771,
      "▁علاق": 9772,
      "▁سكر": 9773,
      "حيانا": 9774,
      "▁منطق": 9775,
      "▁بالمق": 9776,
      "ناها": 9777,
      "منذ": 9778,
      "ok": 9779,
      "▁المتقدمة": 9780,
      "▁نقد": 9781,
      "ock": 9782,
      "حصاء": 9783,
      "▁مثال": 9784,
      "▁فنية": 9785,
      "صحاب": 9786,
      "الليم": 9787,
      "▁(في": 9788,
      "▁وإلا": 9789,
      "▁سنوات،": 9790,
      "▁المجتمعات": 9791,
      "لاعب": 9792,
      "▁33": 9793,
      "▁والأن": 9794,
      "▁محدودة": 9795,
      "▁الشامل": 9796,
      "▁ميت": 9797,
      "▁زواج": 9798,
      "▁جابر": 9799,
      "▁الزي": 9800,
      "▁بالمش": 9801,
      "▁لبيع": 9802,
      "▁تفعل": 9803,
      "لقب": 9804,
      "▁وكتب": 9805,
      "▁عدن": 9806,
      "▁الدراسية": 9807,
      "▁وتحت": 9808,
      "▁تتيح": 9809,
      "77": 9810,
      "▁الاز": 9811,
      "▁قوله:": 9812,
      "ِ،": 9813,
      "▁عبدالرحمن": 9814,
      "▁مانشستر": 9815,
      "▁إسحاق": 9816,
      "▁اللات": 9817,
      "ash": 9818,
      "▁وصفة": 9819,
      "▁أنّه": 9820,
      "فاد": 9821,
      "صورة": 9822,
      "▁بعيدا": 9823,
      "▁خطيرة": 9824,
      "▁الوفد": 9825,
      "مني": 9826,
      "▁الائتما": 9827,
      "▁باخت": 9828,
      "ستها": 9829,
      "▁الكفاءة": 9830,
      "▁العربي،": 9831,
      "▁للتجارة": 9832,
      "▁الأردنية": 9833,
      "▁اقت": 9834,
      "▁حذ": 9835,
      "▁ونشر": 9836,
      "ْتَ": 9837,
      "▁الواضح": 9838,
      "▁مناجم": 9839,
      "▁الألب": 9840,
      "▁والبحث": 9841,
      "▁تشكي": 9842,
      "▁العنوان": 9843,
      "▁فإ": 9844,
      "▁الشهيرة": 9845,
      "اهج": 9846,
      "▁المول": 9847,
      "▁البق": 9848,
      "▁الليم": 9849,
      "▁معل": 9850,
      "▁أولي": 9851,
      "▁المهرجان": 9852,
      "▁الحليب": 9853,
      "اضرة": 9854,
      "▁فلن": 9855,
      "▁التصنيف": 9856,
      "▁\"الب": 9857,
      "▁تمكنت": 9858,
      "▁وعرض": 9859,
      "▁التوتر": 9860,
      "▁المواقف": 9861,
      "▁محفوظ": 9862,
      "ربات": 9863,
      "▁منصات": 9864,
      "▁شف": 9865,
      "▁Qu": 9866,
      "▁التحقق": 9867,
      "▁الراحل": 9868,
      "▁رغبة": 9869,
      "▁استعراض": 9870,
      "▁انظر": 9871,
      "▁الهامة": 9872,
      "افلة": 9873,
      "ne": 9874,
      "▁ببط": 9875,
      "▁الفرا": 9876,
      "▁بقوله": 9877,
      "▁لث": 9878,
      "كره": 9879,
      "جزاء": 9880,
      "▁المتع": 9881,
      "▁الإيطالي": 9882,
      "▁\"الق": 9883,
      "لمفاوضات": 9884,
      "▁باتجاه": 9885,
      "▁من\n": 9886,
      "▁العظام": 9887,
      "▁بنحو": 9888,
      "راعات": 9889,
      "▁وأج": 9890,
      "▁بعين": 9891,
      "خبارات": 9892,
      "▁القانوني": 9893,
      "IN": 9894,
      "▁واجه": 9895,
      "▁انك": 9896,
      "▁سوا": 9897,
      "▁الديمقراطي": 9898,
      "المفاوضات": 9899,
[...]
