{
  "version": "1.0",
  "truncation": null,
  "padding": null,
  "added_tokens": [
    {
      "id": 0,
      "content": "<unk>",
      "single_word": false,
      "lstrip": false,
      "rstrip": false,
      "normalized": false,
      "special": true
    }
  ],
  "normalizer": {
    "type": "NFKC"
  },
  "pre_tokenizer": {
    "type": "Metaspace",
    "replacement": "▁",
    "add_prefix_space": true
  },
  "post_processor": null,
  "decoder": {
    "type": "Metaspace",
    "replacement": "▁",
    "add_prefix_space": true
  },
  "model": {
    "type": "BPE",
    "dropout": null,
    "unk_token": "<unk>",
    "continuing_subword_prefix": null,
    "end_of_word_suffix": null,
    "fuse_unk": false,
    "byte_fallback": false,
    "vocab": {
      "<unk>": 0,
      "\n": 1,
      "!": 2,
      "\"": 3,
      "#": 4,
      "$": 5,
      "%": 6,
      "'": 7,
      "(": 8,
      ")": 9,
      "*": 10,
      "+": 11,
      ",": 12,
      "-": 13,
      ".": 14,
      "0": 15,
      "1": 16,
      "2": 17,
      "3": 18,
      "4": 19,
      "5": 20,
      "6": 21,
      "7": 22,
      "8": 23,
      "9": 24,
      ":": 25,
      ";": 26,
      "<": 27,
      "=": 28,
      ">": 29,
      "?": 30,
      "@": 31,
      "A": 32,
      "B": 33,
      "C": 34,
      "D": 35,
      "E": 36,
      "F": 37,
      "G": 38,
      "H": 39,
      "I": 40,
      "J": 41,
      "K": 42,
      "L": 43,
      "M": 44,
      "N": 45,
      "O": 46,
      "P": 47,
      "Q": 48,
      "R": 49,
      "S": 50,
      "T": 51,
      "U": 52,
      "V": 53,
      "W": 54,
      "X": 55,
      "Y": 56,
      "Z": 57,
      "[": 58,
      "\\": 59,
      "]": 60,
      "^": 61,
      "_": 62,
      "`": 63,
      "a": 64,
      "b": 65,
      "c": 66,
      "d": 67,
      "e": 68,
      "f": 69,
      "g": 70,
      "h": 71,
      "i": 72,
      "j": 73,
      "k": 74,
      "l": 75,
      "m": 76,
      "n": 77,
      "o": 78,
      "p": 79,
      "q": 80,
      "r": 81,
      "s": 82,
      "t": 83,
      "u": 84,
      "v": 85,
      "w": 86,
      "x": 87,
      "y": 88,
      "z": 89,
      "{": 90,
      "|": 91,
      "}": 92,
      "~": 93,
      "«": 94,
      "·": 95,
      "»": 96,
      "،": 97,
      "؛": 98,
      "؟": 99,
      "ء": 100,
      "آ": 101,
      "أ": 102,
      "ؤ": 103,
      "إ": 104,
      "ئ": 105,
      "ا": 106,
      "ب": 107,
      "ة": 108,
      "ت": 109,
      "ث": 110,
      "ج": 111,
      "ح": 112,
      "خ": 113,
      "د": 114,
      "ذ": 115,
      "ر": 116,
      "ز": 117,
      "س": 118,
      "ش": 119,
      "ص": 120,
      "ض": 121,
      "ط": 122,
      "ظ": 123,
      "ع": 124,
      "غ": 125,
      "ف": 126,
      "ق": 127,
      "ك": 128,
      "ل": 129,
      "م": 130,
      "ن": 131,
      "ه": 132,
      "و": 133,
      "ى": 134,
      "ي": 135,
      "ٓ": 136,
      "ٔ": 137,
      "ٕ": 138,
      "ٖ": 139,
      "ٗ": 140,
      "٘": 141,
      "ٙ": 142,
      "ٚ": 143,
      "ٛ": 144,
      "ٜ": 145,
      "ٝ": 146,
      "ٞ": 147,
      "ٟ": 148,
      "٠": 149,
      "١": 150,
      "٢": 151,
      "٣": 152,
      "٤": 153,
      "٥": 154,
      "٦": 155,
      "٧": 156,
      "٨": 157,
      "٩": 158,
      "٪": 159,
      "٫": 160,
      "٬": 161,
      "ٱ": 162,
      "ٲ": 163,
      "ٳ": 164,
      "ٴ": 165,
      "ۚ": 166,
      "୍": 167,
      "–": 168,
      "—": 169,
      "‘": 170,
      "’": 171,
      "“": 172,
      "”": 173,
      "▁": 174,
      "▁و": 175,
      "ال": 176,
      "▁م": 177,
      "▁ب": 178,
      "▁أ": 179,
      "▁ف": 180,
      "▁ل": 181,
      "الم": 182,
      "▁ع": 183,
      "▁،": 184,
      "ية": 185,
      "▁الم": 186,
      "▁ت": 187,
      "▁.": 188,
      "ات": 189,
      "ان": 190,
      "▁في": 191,
      "▁من": 192,
      "ار": 193,
      "▁ي": 194,
      "▁ال": 195,
      "ين": 196,
      "ها": 197,
      "لى": 198,
      "ام": 199,
      "▁إ": 200,
      "▁.\n": 201,
      "▁ك": 202,
      "ير": 203,
      "▁الت": 204,
      "ول": 205,
      "▁ح": 206,
      "را": 207,
      "▁الأ": 208,
      "▁وال": 209,
      "نا": 210,
      "ست": 211,
      "▁ا": 212,
      "▁ه": 213,
      "ون": 214,
      "لا": 215,
      "ما": 216,
      "ري": 217,
      "▁ق": 218,
      "▁الع": 219,
      "▁على": 220,
      "لي": 221,
      "▁س": 222,
      "▁أن": 223,
      "وا": 224,
      "▁ن": 225,
      "دي": 226,
      "يا": 227,
      "ور": 228,
      "▁لل": 229,
      "▁ج": 230,
      "اب": 231,
      "▁الس": 232,
      "هم": 233,
      "دة": 234,
      "▁الح": 235,
      "▁\"": 236,
      "دا": 237,
      "▁خ": 238,
      "▁ش": 239,
      "▁ر": 240,
      "لك": 241,
      "وم": 242,
      "▁عن": 243,
      "ذا": 244,
      "▁الق": 245,
      "▁بال": 246,
      "▁مع": 247,
      "▁الب": 248,
      "▁الا": 249,
      "رب": 250,
      "▁الج": 251,
      "▁د": 252,
      "▁إلى": 253,
      "▁الش": 254,
      "▁الإ": 255,
      "ائ": 256,
      "يل": 257,
      "اد": 258,
      "اء": 259,
      "رة": 260,
      "عد": 261,
      "عة": 262,
      "▁ص": 263,
      "▁الف": 264,
      "▁الد": 265,
      "اف": 266,
      "من": 267,
      "▁:": 268,
      "رك": 269,
      "▁الن": 270,
      "▁وت": 271,
      "مل": 272,
      "لم": 273,
      "قد": 274,
      "▁لا": 275,
      "وق": 276,
      "▁ان": 277,
      "قة": 278,
      "مة": 279,
      "بي": 280,
      "▁الل": 281,
      "▁التي": 282,
      "▁ما": 283,
      "▁الخ": 284,
      "▁وأ": 285,
      "يد": 286,
      "▁الذ": 287,
      "▁الك": 288,
      "ود": 289,
      "سب": 290,
      "تم": 291,
      "كن": 292,
      "يس": 293,
      "▁1": 294,
      "▁الص": 295,
      "عل": 296,
      "بر": 297,
      "▁أو": 298,
      "▁ط": 299,
      "رو": 300,
      "لة": 301,
      "▁)": 302,
      "▁(": 303,
      "في": 304,
      "قي": 305,
      "ذه": 306,
      "▁2": 307,
      "فا": 308,
      "حت": 309,
      "ذلك": 310,
      "▁لم": 311,
      "▁الر": 312,
      "▁الو": 313,
      "سي": 314,
      "ته": 315,
      "ني": 316,
      "▁علي": 317,
      "▁وا": 318,
      "حد": 319,
      "▁غ": 320,
      "رف": 321,
      "ارة": 322,
      "با": 323,
      "بل": 324,
      "▁كان": 325,
      "▁هذا": 326,
      "يع": 327,
      "▁وم": 328,
      "نت": 329,
      "▁الط": 330,
      "عت": 331,
      "كل": 332,
      "وي": 333,
      "خر": 334,
      "▁مح": 335,
      "عا": 336,
      "مر": 337,
      "بة": 338,
      "تي": 339,
      "لال": 340,
      "يم": 341,
      "سا": 342,
      "▁الله": 343,
      "جل": 344,
      "حة": 345,
      "كر": 346,
      "▁الذي": 347,
      "▁وه": 348,
      "صل": 349,
      "قت": 350,
      "▁هذه": 351,
      "▁المت": 352,
      "▁كل": 353,
      "سل": 354,
      "وج": 355,
      "▁است": 356,
      "▁إن": 357,
      "▁والم": 358,
      "كون": 359,
      "أن": 360,
      "يف": 361,
      "▁ث": 362,
      "▁تع": 363,
      "رض": 364,
      "▁,": 365,
      "جم": 366,
      "▁بين": 367,
      "صر": 368,
      "▁-": 369,
      "دم": 370,
      "▁الث": 371,
      "شر": 372,
      "▁بعد": 373,
      "هر": 374,
      "بد": 375,
      "اني": 376,
      "قا": 377,
      "عم": 378,
      "▁أي": 379,
      "اص": 380,
      "لف": 381,
      "▁بن": 382,
      "سة": 383,
      "هد": 384,
      "▁وي": 385,
      "وف": 386,
      "مد": 387,
      "▁تح": 388,
      "يات": 389,
      "يرة": 390,
      "▁وب": 391,
      "عب": 392,
      "كت": 393,
      "▁ض": 394,
      "▁الي": 395,
      "▁وق": 396,
      "وس": 397,
      "راء": 398,
      "كم": 399,
      "نة": 400,
      "▁ز": 401,
      "▁مت": 402,
      "وب": 403,
      "وع": 404,
      "جا": 405,
      "خت": 406,
      "كان": 407,
      "▁يت": 408,
      "قل": 409,
      "▁لت": 410,
      "عض": 411,
      "▁هو": 412,
      "▁ذلك": 413,
      "▁أم": 414,
      "ارات": 415,
      "ثر": 416,
      "سم": 417,
      "ولة": 418,
      "جه": 419,
      "ئيس": 420,
      "▁20": 421,
      "▁تم": 422,
      "طة": 423,
      "▁؟": 424,
      "خل": 425,
      "عي": 426,
      "▁خلال": 427,
      "در": 428,
      "شار": 429,
      "وض": 430,
      "لب": 431,
      "تها": 432,
      "يز": 433,
      "▁آ": 434,
      "فس": 435,
      "ورة": 436,
      "خص": 437,
      "ديد": 438,
      "اع": 439,
      "▁والت": 440,
      "الي": 441,
      "▁يم": 442,
      "اض": 443,
      "وات": 444,
      "يث": 445,
      "▁كما": 446,
      "بار": 447,
      "▁بم": 448,
      "▁الأم": 449,
      "اري": 450,
      "▁له": 451,
      "▁العام": 452,
      "ريق": 453,
      "▁تق": 454,
      "▁أك": 455,
      "وز": 456,
      "▁فى": 457,
      "انية": 458,
      "▁المن": 459,
      "▁وع": 460,
      "رق": 461,
      "▁وس": 462,
      "الة": 463,
      "▁مش": 464,
      "ركة": 465,
      "اج": 466,
      "▁مد": 467,
      "يت": 468,
      "▁وإ": 469,
      "▁المح": 470,
      "▁يع": 471,
      "رد": 472,
      "▁عام": 473,
      "وت": 474,
      "▁الى": 475,
      "▁»": 476,
      "ضا": 477,
      "وى": 478,
      "افة": 479,
      "▁قد": 480,
      "▁تت": 481,
      "▁”": 482,
      "▁ولا": 483,
      "طن": 484,
      "▁الغ": 485,
      "▁بت": 486,
      "▁للم": 487,
      "ثل": 488,
      "تى": 489,
      "▁3": 490,
      "▁ول": 491,
      "رائ": 492,
      "▁«": 493,
      "▁جم": 494,
      "▁مس": 495,
      "رح": 496,
      "وية": 497,
      "▁حيث": 498,
      "عية": 499,
      "▁تن": 500,
      "فت": 501,
      "▁سي": 502,
      "▁هي": 503,
      "▁عليه": 504,
      "▁الز": 505,
      "ند": 506,
      "وري": 507,
      "▁الان": 508,
      "رت": 509,
      "الية": 510,
      "سية": 511,
      "▁مست": 512,
      "▁قال": 513,
      "▁قبل": 514,
      "▁ذ": 515,
      "▁بل": 516,
      "حي": 517,
      "▁العرب": 518,
      "▁الآ": 519,
      "▁المست": 520,
      "ئة": 521,
      "▁ومن": 522,
      "▁النا": 523,
      "جد": 524,
      "فض": 525,
      "▁عند": 526,
      "▁با": 527,
      "▁غير": 528,
      "▁به": 529,
      "▁بح": 530,
      "▁المس": 531,
      "رج": 532,
      "▁بش": 533,
      "▁اله": 534,
      "▁بد": 535,
      "▁وح": 536,
      "قر": 537,
      "▁حتى": 538,
      "▁المع": 539,
      "فع": 540,
      "طل": 541,
      "ينة": 542,
      "ليم": 543,
      "قط": 544,
      "ثير": 545,
      "▁يمكن": 546,
      "▁لي": 547,
      "▁الاست": 548,
      "وان": 549,
      "اح": 550,
      "▁دا": 551,
      "▁اليوم": 552,
      "▁“": 553,
      "وة": 554,
      "▁أنه": 555,
      "ناء": 556,
      "▁وز": 557,
      "▁يق": 558,
      "▁بعض": 559,
      "بن": 560,
      "▁المد": 561,
      "وقع": 562,
      "▁ون": 563,
      "رن": 564,
      "فة": 565,
      "▁وك": 566,
      "▁!": 567,
      "بح": 568,
      "▁العالم": 569,
      "دد": 570,
      "▁هنا": 571,
      "كي": 572,
      "بت": 573,
      "لام": 574,
      "إن": 575,
      "▁عبد": 576,
      "ومة": 577,
      "▁الدول": 578,
      "▁بالم": 579,
      "قدم": 580,
      "▁المش": 581,
      "نية": 582,
      "▁أس": 583,
      "حدة": 584,
      "▁وج": 585,
      "▁ست": 586,
      "صف": 587,
      "به": 588,
      "رات": 589,
      "قات": 590,
      "▁وفي": 591,
      "خرى": 592,
      "▁4": 593,
      "امل": 594,
      "سط": 595,
      "▁محمد": 596,
      "▁كانت": 597,
      "▁يج": 598,
      "سلام": 599,
      "▁201": 600,
      "▁العمل": 601,
      "كة": 602,
      "▁ثم": 603,
      "▁نا": 604,
      "أس": 605,
      "▁تش": 606,
      "▁5": 607,
      "له": 608,
      "جلس": 609,
      "▁مؤ": 610,
      "حا": 611,
      "سبة": 612,
      "▁وهو": 613,
      "▁أب": 614,
      "▁المص": 615,
      "اصة": 616,
      "قب": 617,
      "▁مج": 618,
      "اط": 619,
      "▁ولك": 620,
      "وك": 621,
      "▁رئيس": 622,
      "▁للت": 623,
      "▁السيا": 624,
      "زة": 625,
      "▁أح": 626,
      "▁الجم": 627,
      "▁وقال": 628,
      "جة": 629,
      "تما": 630,
      "وار": 631,
      "واق": 632,
      "▁يوم": 633,
      "ضع": 634,
      "ديم": 635,
      "▁كب": 636,
      "▁بأن": 637,
      "▁ات": 638,
      "عات": 639,
      "اه": 640,
      "▁عمل": 641,
      "صول": 642,
      "بط": 643,
      "▁وف": 644,
      "بية": 645,
      "▁لكن": 646,
      "▁لأ": 647,
      "▁ام": 648,
      "▁مص": 649,
      "طقة": 650,
      "▁تص": 651,
      "00": 652,
      "▁والأ": 653,
      "▁التع": 654,
      "▁يكون": 655,
      "▁ولكن": 656,
      "▁ين": 657,
      "غير": 658,
      "ارت": 659,
      "ثة": 660,
      "▁بها": 661,
      "يب": 662,
      "رام": 663,
      "▁أكثر": 664,
      "▁الات": 665,
      "سات": 666,
      "▁التح": 667,
      "زي": 668,
      "فر": 669,
      "▁إذا": 670,
      "▁لأن": 671,
      "▁وقد": 672,
      "▁نظ": 673,
      "▁المج": 674,
      "▁فيها": 675,
      "▁؛": 676,
      "ديدة": 677,
      "هل": 678,
      "▁عم": 679,
      "بات": 680,
      "صة": 681,
      "خد": 682,
      "ابة": 683,
      "▁إلا": 684,
      "▁الأس": 685,
      "ولا": 686,
      "يان": 687,
      "▁بأ": 688,
      "قيق": 689,
      "دى": 690,
      "▁فإن": 691,
      "رم": 692,
      "راق": 693,
      "يج": 694,
      "▁مثل": 695,
      "▁المؤ": 696,
      "▁فت": 697,
      "▁ظ": 698,
      "طر": 699,
      "▁الض": 700,
      "▁نفس": 701,
      "داد": 702,
      "حو": 703,
      "بع": 704,
      "▁تس": 705,
      "عر": 706,
      "حدث": 707,
      "▁فيه": 708,
      "▁يح": 709,
      "كا": 710,
      "▁جميع": 711,
      "انون": 712,
      "لت": 713,
      "ختلف": 714,
      "جتما": 715,
      "ارج": 716,
      "لاح": 717,
      "▁تج": 718,
      "▁أع": 719,
      "▁تأ": 720,
      "ورية": 721,
      "▁الرئيس": 722,
      "▁أص": 723,
      "ركز": 724,
      "▁يتم": 725,
      "▁19": 726,
      "▁الموا": 727,
      "يني": 728,
      "▁هناك": 729,
      "الات": 730,
      "▁الحك": 731,
      "كس": 732,
      "ضي": 733,
      "اريخ": 734,
      "لق": 735,
      "افظ": 736,
      "داء": 737,
      "يلة": 738,
      "▁وكان": 739,
      "يرا": 740,
      "ينا": 741,
      "▁لها": 742,
      "قتص": 743,
      "عمال": 744,
      "يش": 745,
      "ودة": 746,
      "▁الإن": 747,
      "سان": 748,
      "ريد": 749,
      "▁لن": 750,
      "▁بشكل": 751,
      "ائل": 752,
      "هما": 753,
      "وعة": 754,
      "فل": 755,
      "▁مق": 756,
      "▁يست": 757,
      "▁أيضا": 758,
      "▁بالت": 759,
      "▁تحت": 760,
      "▁6": 761,
      "فضل": 762,
      "▁إلي": 763,
      "▁تد": 764,
      "دارة": 765,
      "ضاف": 766,
      "▁دول": 767,
      "▁تط": 768,
      "رية": 769,
      "▁حول": 770,
      "▁العربية": 771,
      "▁بإ": 772,
      "راف": 773,
      "خدم": 774,
      "ارية": 775,
      "▁السع": 776,
      "مو": 777,
      "▁انت": 778,
      "▁؟\n": 779,
      "سبب": 780,
      "▁المنا": 781,
      "كد": 782,
      "▁عدد": 783,
      "كية": 784,
      "▁والع": 785,
      "هي": 786,
      "▁خط": 787,
      "▁ملي": 788,
      "سن": 789,
      "واء": 790,
      "▁الذين": 791,
      "رى": 792,
      "صد": 793,
      "▁البح": 794,
      "سرائ": 795,
      "▁دون": 796,
      "وص": 797,
      "▁وأن": 798,
      "▁لح": 799,
      "▁الأخ": 800,
      "رار": 801,
      "شف": 802,
      "▁المم": 803,
      "يادة": 804,
      "▁مصر": 805,
      "▁التن": 806,
      "راج": 807,
      "▁سن": 808,
      "ظر": 809,
      "▁كت": 810,
      "خدام": 811,
      "▁سب": 812,
      "▁شي": 813,
      "▁تكون": 814,
      "▁يد": 815,
      "ليل": 816,
      "از": 817,
      "▁منذ": 818,
      "ثم": 819,
      "لاق": 820,
      "حية": 821,
      "طف": 822,
      "تر": 823,
      "▁تلك": 824,
      "▁لك": 825,
      "لاء": 826,
      "▁أحد": 827,
      "ئية": 828,
      "ديث": 829,
      "▁عليها": 830,
      "▁الوق": 831,
      "ظم": 832,
      "وال": 833,
      "ولى": 834,
      "▁الام": 835,
      "▁الأول": 836,
      "طي": 837,
      "لسط": 838,
      "طا": 839,
      "ضافة": 840,
      "▁حق": 841,
      "▁حد": 842,
      "▁او": 843,
      "▁الوز": 844,
      "▁الماض": 845,
      "▁التج": 846,
      "ركات": 847,
      "▁منها": 848,
      "قبل": 849,
      "▁بع": 850,
      "▁أخ": 851,
      "▁لإ": 852,
      "رش": 853,
      "ودية": 854,
      "▁عبر": 855,
      "زل": 856,
      "قال": 857,
      "▁وهي": 858,
      "▁وش": 859,
      "ابات": 860,
      "▁ود": 861,
      "فاق": 862,
      "▁7": 863,
      "رس": 864,
      "▁موا": 865,
      "▁%": 866,
      "▁مم": 867,
      "يه": 868,
      "▁وذلك": 869,
      "علام": 870,
      "▁العم": 871,
      "▁والح": 872,
      "عار": 873,
      "▁يش": 874,
      "▁أش": 875,
      "▁السل": 876,
      "▁فقط": 877,
      "ذكر": 878,
      "امج": 879,
      "الت": 880,
      "روع": 881,
      "اة": 882,
      "غم": 883,
      "امة": 884,
      "ياة": 885,
      "▁وان": 886,
      "طار": 887,
      "حن": 888,
      "▁أخرى": 889,
      "ربية": 890,
      "قاء": 891,
      "يين": 892,
      "ومات": 893,
      "لاف": 894,
      "زم": 895,
      "▁الإسلام": 896,
      "جر": 897,
      "▁ليس": 898,
      "لاد": 899,
      "▁المتحدة": 900,
      "▁اعت": 901,
      "يفة": 902,
      "▁تست": 903,
      "رياض": 904,
      "الب": 905,
      "▁8": 906,
      "▁المنت": 907,
      "▁والا": 908,
      "قول": 909,
      "انب": 910,
      "حاد": 911,
      "وني": 912,
      "ظام": 913,
      "▁آخر": 914,
      "طاع": 915,
      "جن": 916,
      "ظيم": 917,
      "وير": 918,
      "▁الرا": 919,
      "▁للأ": 920,
      "هدف": 921,
      "▁الدا": 922,
      "سين": 923,
      "وه": 924,
      "رأ": 925,
      "▁الشي": 926,
      "ضم": 927,
      "▁والإ": 928,
      "تمع": 929,
      "ينية": 930,
      "وح": 931,
      "▁مجلس": 932,
      "▁نت": 933,
      "وط": 934,
      "فق": 935,
      "▁اللا": 936,
      "▁والتي": 937,
      "ادر": 938,
      "رفة": 939,
      "فاع": 940,
      "الح": 941,
      "▁وما": 942,
      "▁وخ": 943,
      "▁حال": 944,
      "جموعة": 945,
      "واقع": 946,
      "اته": 947,
      "▁شخص": 948,
      "نى": 949,
      "غي": 950,
      "عادة": 951,
      "▁فقد": 952,
      "قتصاد": 953,
      "ذي": 954,
      "يران": 955,
      "▁أول": 956,
      "ضر": 957,
      "شرة": 958,
      "▁الساب": 959,
      "ارس": 960,
      "▁بك": 961,
      "▁يجب": 962,
      "لاث": 963,
      "▁الانت": 964,
      "▁مما": 965,
      "ورو": 966,
      "يام": 967,
      "جنة": 968,
      "▁رس": 969,
      "وقف": 970,
      "▁بما": 971,
      "▁الناس": 972,
      "غة": 973,
      "باب": 974,
      "▁فر": 975,
      "مية": 976,
      "جراء": 977,
      "▁الدولة": 978,
      "باد": 979,
      "▁بي": 980,
      "سر": 981,
      "ماء": 982,
      "زيد": 983,
      "وظ": 984,
      "ؤول": 985,
      "▁!\n": 986,
      "ادة": 987,
      "ئي": 988,
      "▁لع": 989,
      "قيقة": 990,
      "راد": 991,
      "زب": 992,
      "▁ولي": 993,
      "▁الاجتما": 994,
      "▁واست": 995,
      "ئا": 996,
      "راض": 997,
      "▁فيما": 998,
      "▁يا": 999,
      "▁موقع": 1000,
      "▁الوقت": 1001,
      "▁[": 1002,
      "زيز": 1003,
      "▁للح": 1004,
      "ضة": 1005,
      "▁أمام": 1006,
      "▁الوطن": 1007,
      "لات": 1008,
      "▁0": 1009,
      "▁العامة": 1010,
      "نان": 1011,
      "خب": 1012,
      "▁أما": 1013,
      "الى": 1014,
      "خذ": 1015,
      "سك": 1016,
      "راك": 1017,
      "▁وقت": 1018,
      "▁الحكومة": 1019,
      "▁هل": 1020,
      "▁والد": 1021,
      "▁بط": 1022,
      "▁عندما": 1023,
      "▁بالإ": 1024,
      "رنامج": 1025,
      "سرائيل": 1026,
      "سع": 1027,
      "لية": 1028,
      "▁منه": 1029,
      "ياء": 1030,
      "ائف": 1031,
      "▁فه": 1032,
      "قى": 1033,
      "▁9": 1034,
      "امعة": 1035,
      "جز": 1036,
      "وث": 1037,
      "▁أف": 1038,
      "ليات": 1039,
      "▁الآن": 1040,
      "▁شركة": 1041,
      "▁منت": 1042,
      "ريب": 1043,
      "ظهر": 1044,
      "▁وص": 1045,
      "شت": 1046,
      "كثر": 1047,
      "رير": 1048,
      "▁سيا": 1049,
      "اعة": 1050,
      "اذ": 1051,
      "▁خاصة": 1052,
      "▁الأمر": 1053,
      "لد": 1054,
      "▁دي": 1055,
      "مت": 1056,
      "▁جه": 1057,
      "لكة": 1058,
      "▁أنها": 1059,
      "▁بالن": 1060,
      "▁ولم": 1061,
      "▁حين": 1062,
      "▁بسبب": 1063,
      "▁200": 1064,
      "▁تف": 1065,
      "▁المغ": 1066,
      "وائ": 1067,
      "▁للا": 1068,
      "ساعد": 1069,
      "ساء": 1070,
      "واصل": 1071,
      "▁الأمن": 1072,
      "شي": 1073,
      "▁وإن": 1074,
      "▁داخل": 1075,
      "▁احت": 1076,
      "▁الفت": 1077,
      "ودي": 1078,
      "▁السي": 1079,
      "▁الشعب": 1080,
      "▁الصح": 1081,
      "طان": 1082,
      "▁عل": 1083,
      "▁را": 1084,
      "عتبر": 1085,
      "وما": 1086,
      "▁عدم": 1087,
      "▁صلى": 1088,
      "▁السعودية": 1089,
      "▁لما": 1090,
      "▁ضد": 1091,
      "▁لو": 1092,
      "بلغ": 1093,
      "زمة": 1094,
      "ائر": 1095,
      "▁وهذا": 1096,
      "▁الجن": 1097,
      "▁الفلسط": 1098,
      "لاب": 1099,
      "▁بق": 1100,
      "▁قائ": 1101,
      "▁نق": 1102,
      "ابع": 1103,
      "ضاء": 1104,
      "كتور": 1105,
      "هور": 1106,
      "حات": 1107,
      "▁والن": 1108,
      "▁لدي": 1109,
      "▁الجز": 1110,
      "ظمة": 1111,
      "▁طريق": 1112,
      "ملة": 1113,
      "▁10": 1114,
      "▁ور": 1115,
      "برا": 1116,
      "▁اي": 1117,
      "▁الأمري": 1118,
      "جات": 1119,
      "▁سل": 1120,
      "▁جدا": 1121,
      "▁'": 1122,
      "▁أد": 1123,
      "▁ارت": 1124,
      "▁وظ": 1125,
      "▁الاحت": 1126,
      "▁المخ": 1127,
      "عاون": 1128,
      "▁الشر": 1129,
      "▁وسلم": 1130,
      "جيل": 1131,
      "وضوع": 1132,
      "فيذ": 1133,
      "▁ها": 1134,
      "▁العلم": 1135,
      "▁أجل": 1136,
      "▁مختلف": 1137,
      "روف": 1138,
      "شة": 1139,
      "▁الماضي": 1140,
      "▁مر": 1141,
      "▁الخط": 1142,
      "ريقة": 1143,
      "▁جن": 1144,
      "▁ذات": 1145,
      "طني": 1146,
      "مين": 1147,
      "▁للع": 1148,
      "▁الإم": 1149,
      "وجه": 1150,
      "طق": 1151,
      "طلب": 1152,
      "▁الأولى": 1153,
      "ياه": 1154,
      "▁الأح": 1155,
      "افظة": 1156,
      "ربع": 1157,
      "▁لد": 1158,
      "وجد": 1159,
      "▁بص": 1160,
      "▁تك": 1161,
      "▁وجود": 1162,
      "▁الكثير": 1163,
      "▁نحو": 1164,
      "▁عبدال": 1165,
      "ريم": 1166,
      "▁كبير": 1167,
      "▁الخاصة": 1168,
      "شاركة": 1169,
      "▁–": 1170,
      "▁بر": 1171,
      "▁وأضاف": 1172,
      "ريف": 1173,
      "▁مخ": 1174,
      "طب": 1175,
      "▁أث": 1176,
      "قم": 1177,
      "مال": 1178,
      "ساب": 1179,
      "▁العلا": 1180,
      "▁الملك": 1181,
      "▁ترك": 1182,
      "زا": 1183,
      "▁قام": 1184,
      "رها": 1185,
      "▁مدينة": 1186,
      "كرة": 1187,
      "▁المنطقة": 1188,
      "▁كثير": 1189,
      "▁كيف": 1190,
      "سيا": 1191,
      "▁مليون": 1192,
      "وء": 1193,
      "▁الأن": 1194,
      "▁وزارة": 1195,
      "▁وغير": 1196,
      "▁وعلى": 1197,
      "▁الخارج": 1198,
      "اما": 1199,
      "ولي": 1200,
      "▁وزير": 1201,
      "▁العراق": 1202,
      "جب": 1203,
      "علان": 1204,
      "ابل": 1205,
      "▁سنة": 1206,
      "▁حالة": 1207,
      "▁لهم": 1208,
      "واب": 1209,
      "بدأ": 1210,
      "▁القانون": 1211,
      "▁يؤ": 1212,
      "▁اخت": 1213,
      "ويل": 1214,
      "حق": 1215,
      "▁وجه": 1216,
      "▁ابن": 1217,
      "▁كنت": 1218,
      "▁واحد": 1219,
      "▁الكت": 1220,
      "▁الثاني": 1221,
      "▁يس": 1222,
      "▁الوا": 1223,
      "▁أهم": 1224,
      "▁العديد": 1225,
      "▁كبيرة": 1226,
      "نع": 1227,
      "غط": 1228,
      "▁التى": 1229,
      "دية": 1230,
      "ربة": 1231,
      "▁تخ": 1232,
      "▁الرياض": 1233,
      "طع": 1234,
      "▁صح": 1235,
      "بير": 1236,
      "▁تر": 1237,
      "جي": 1238,
      "▁المه": 1239,
      "▁فع": 1240,
      "▁التص": 1241,
      "ادي": 1242,
      "كات": 1243,
      "وريا": 1244,
      "كتب": 1245,
      "▁التق": 1246,
      "انا": 1247,
      "▁فال": 1248,
      "طفال": 1249,
      "▁منطقة": 1250,
      "▁عنه": 1251,
      "همة": 1252,
      "▁علا": 1253,
      "وسط": 1254,
      "كمة": 1255,
      "جمع": 1256,
      "وبة": 1257,
      "▁وتح": 1258,
      "راسة": 1259,
      "صح": 1260,
      "داول": 1261,
      "▁نها": 1262,
      "▁فأ": 1263,
      "عيد": 1264,
      "▁دور": 1265,
      "▁دائ": 1266,
      "▁العربي": 1267,
      "▁صف": 1268,
      "▁أحمد": 1269,
      "لمة": 1270,
      "▁جديدة": 1271,
      "▁اح": 1272,
      "▁الدكتور": 1273,
      "▁تب": 1274,
      "قص": 1275,
      "▁ومع": 1276,
      "بيق": 1277,
      "يلي": 1278,
      "▁عملية": 1279,
      "▁مجموعة": 1280,
      "جاه": 1281,
      "طلاق": 1282,
      "▁الرو": 1283,
      "▁والش": 1284,
      "سكر": 1285,
      "▁النظام": 1286,
      "▁مل": 1287,
      "▁رح": 1288,
      "باراة": 1289,
      "▁ري": 1290,
      "▁السلام": 1291,
      "ويت": 1292,
      "▁الولا": 1293,
      "▁استخدام": 1294,
      "▁يقول": 1295,
      "▁باست": 1296,
      "▁وضع": 1297,
      "▁دولار": 1298,
      "▁جاء": 1299,
      "▁رأ": 1300,
      "▁العق": 1301,
      "نين": 1302,
      "انة": 1303,
      "▁منا": 1304,
      "دمة": 1305,
      "ائية": 1306,
      "ابعة": 1307,
      "▁ضمن": 1308,
      "لمين": 1309,
      "▁أفضل": 1310,
      "قاف": 1311,
      "▁حل": 1312,
      "▁الأمير": 1313,
      "الف": 1314,
      "فظ": 1315,
      "مس": 1316,
      "خرج": 1317,
      "علن": 1318,
      "▁بج": 1319,
      "▁15": 1320,
      "هاز": 1321,
      "▁مرة": 1322,
      "▁12": 1323,
      "▁ار": 1324,
      "عضاء": 1325,
      "▁وتع": 1326,
      "غل": 1327,
      "املة": 1328,
      "دمات": 1329,
      "طيع": 1330,
      "▁الطبي": 1331,
      "رأة": 1332,
      "تهم": 1333,
      "▁الوطني": 1334,
      "▁الشيخ": 1335,
      "هن": 1336,
      "▁يص": 1337,
      "▁الحق": 1338,
      "▁التد": 1339,
      "▁القر": 1340,
      "▁شيء": 1341,
      "▁إذ": 1342,
      "▁تاريخ": 1343,
      "▁بس": 1344,
      "▁التعليم": 1345,
      "▁جز": 1346,
      "داف": 1347,
      "▁مكان": 1348,
      "تين": 1349,
      "▁الاتحاد": 1350,
      "▁انه": 1351,
      "▁الدين": 1352,
      "عداد": 1353,
      "▁اخ": 1354,
      "▁نفسه": 1355,
      "ضية": 1356,
      "▁المجتمع": 1357,
      "سبوع": 1358,
      "هام": 1359,
      "▁ذكر": 1360,
      "▁نشر": 1361,
      "▁مستوى": 1362,
      "ائق": 1363,
      "▁مدير": 1364,
      "صال": 1365,
      "تك": 1366,
      "رحلة": 1367,
      "▁الدولي": 1368,
      "▁الشخص": 1369,
      "▁الظ": 1370,
      "▁عشر": 1371,
      "خول": 1372,
      "صرية": 1373,
      "علق": 1374,
      "ونة": 1375,
      "طات": 1376,
      "هتم": 1377,
      "▁الإنسان": 1378,
      "دات": 1379,
      "▁نف": 1380,
      "▁بدا": 1381,
      "▁*": 1382,
      "ضح": 1383,
      "▁إدارة": 1384,
      "▁الأش": 1385,
      "▁الاقتصاد": 1386,
      "ارك": 1387,
      "▁الجديدة": 1388,
      "صار": 1389,
      "▁الشركة": 1390,
      "▁شهر": 1391,
      "صوص": 1392,
      "▁الشرق": 1393,
      "▁الحياة": 1394,
      "▁التط": 1395,
      "▁عمر": 1396,
      "▁يف": 1397,
      "▁أبو": 1398,
      "طلق": 1399,
      "طال": 1400,
      "▁البلد": 1401,
      "▁يحت": 1402,
      "▁علم": 1403,
      "▁البي": 1404,
      "جهة": 1405,
      "▁ألف": 1406,
      "▁المق": 1407,
      "انيا": 1408,
      "▁سنوات": 1409,
      "اهرة": 1410,
      "بحث": 1411,
      "▁لدى": 1412,
      "▁كم": 1413,
      "رص": 1414,
      "▁المملكة": 1415,
      "يمة": 1416,
      "▁بالأ": 1417,
      "قاط": 1418,
      "▁تنا": 1419,
      "▁الآخر": 1420,
      "▁واحدة": 1421,
      "▁14": 1422,
      "لاثة": 1423,
      "▁تعالى": 1424,
      "▁اللي": 1425,
      "شا": 1426,
      "غا": 1427,
      "ارب": 1428,
      "▁عرض": 1429,
      "▁فا": 1430,
      "ضمن": 1431,
      "تمر": 1432,
      "▁البحث": 1433,
      "باح": 1434,
      "▁الصف": 1435,
      "▁يأ": 1436,
      "▁التأ": 1437,
      "▁فل": 1438,
      "زال": 1439,
      "▁جديد": 1440,
      "ومية": 1441,
      "يك": 1442,
      "جهزة": 1443,
      "▁سوف": 1444,
      "ائج": 1445,
      "▁الحد": 1446,
      "▁11": 1447,
      "▁حك": 1448,
      "▁شر": 1449,
      "▁تقدم": 1450,
      "▁والذي": 1451,
      "جال": 1452,
      "اهر": 1453,
      "ورا": 1454,
      "حل": 1455,
      "▁الفريق": 1456,
      "▁أج": 1457,
      "وفر": 1458,
      "▁بدأ": 1459,
      "زام": 1460,
      "▁المواطن": 1461,
      "▁محا": 1462,
      "▁للش": 1463,
      "▁أغ": 1464,
      "▁وعد": 1465,
      "فاء": 1466,
      "▁المصري": 1467,
      "▁اليمن": 1468,
      "انت": 1469,
      "▁قدم": 1470,
      "▁والص": 1471,
      "غيير": 1472,
      "▁المركز": 1473,
      "▁جي": 1474,
      "ده": 1475,
      "▁أق": 1476,
      "▁رب": 1477,
      "▁فريق": 1478,
      "قليم": 1479,
      "مي": 1480,
      "▁مو": 1481,
      "▁العد": 1482,
      "▁الجه": 1483,
      "ربي": 1484,
      "مان": 1485,
      "جاز": 1486,
      "▁الجديد": 1487,
      "▁نظام": 1488,
      "يار": 1489,
      "▁دولة": 1490,
      "▁والف": 1491,
      "▁لكل": 1492,
      "▁لش": 1493,
      "▁النف": 1494,
      "▁فلا": 1495,
      "▁السياسية": 1496,
      "▁فض": 1497,
      "▁أكد": 1498,
      "▁الأرض": 1499,
      "نتاج": 1500,
      "علومات": 1501,
      "▁بالع": 1502,
      "▁للإ": 1503,
      "اجة": 1504,
      "▁برنامج": 1505,
      "▁أكبر": 1506,
      "▁بيان": 1507,
      "الد": 1508,
      "▁المجلس": 1509,
      "▁أبي": 1510,
      "▁قر": 1511,
      "هداف": 1512,
      "خابات": 1513,
      "داث": 1514,
      "▁الخاص": 1515,
      "▁الدولية": 1516,
      "▁مك": 1517,
      "▁الإعلام": 1518,
      "عى": 1519,
      "ساس": 1520,
      "▁اب": 1521,
      "عدة": 1522,
      "تا": 1523,
      "▁السابق": 1524,
      "▁الولايات": 1525,
      "قية": 1526,
      "سسات": 1527,
      "كو": 1528,
      "جان": 1529,
      "▁مجال": 1530,
      "صب": 1531,
      "ماية": 1532,
      "جراءات": 1533,
      "ونية": 1534,
      "▁الوطنية": 1535,
      "▁جانب": 1536,
      "▁سا": 1537,
      "▁مسا": 1538,
      "▁أمس": 1539,
      "كلة": 1540,
      "▁مركز": 1541,
      "جميع": 1542,
      "▁مث": 1543,
      "▁مبا": 1544,
      "▁نحن": 1545,
      "▁ويت": 1546,
      "▁كافة": 1547,
      "▁أنا": 1548,
      "قرار": 1549,
      "▁حا": 1550,
      "وله": 1551,
      "▁عد": 1552,
      "لاة": 1553,
      "طاء": 1554,
      "▁إليه": 1555,
      "راتيج": 1556,
      "▁المالية": 1557,
      "▁أل": 1558,
      "▁والخ": 1559,
      "▁يقوم": 1560,
      "▁البلاد": 1561,
      "شارك": 1562,
      "▁التش": 1563,
      "▁عاما": 1564,
      "▁الثال": 1565,
      "اتها": 1566,
      "▁هم": 1567,
      "شاء": 1568,
      "▁للد": 1569,
      "▁كتاب": 1570,
      "▁قدر": 1571,
      "▁عدة": 1572,
      "ليا": 1573,
      "▁والق": 1574,
      "▁الار": 1575,
      "رين": 1576,
      "▁والس": 1577,
      "▁إنه": 1578,
      "طية": 1579,
      "ئب": 1580,
      "▁تل": 1581,
      "▁البن": 1582,
      "▁لبن": 1583,
      "تيجة": 1584,
      "▁نش": 1585,
      "ثمار": 1586,
      "▁القد": 1587,
      "▁يمكنك": 1588,
      "فك": 1589,
      "▁وليس": 1590,
      "ابت": 1591,
      "▁عالم": 1592,
      "▁التس": 1593,
      "احب": 1594,
      "▁تحقيق": 1595,
      "ذهب": 1596,
      "▁بكل": 1597,
      "▁أمر": 1598,
      "صيل": 1599,
      "▁لنا": 1600,
      "قه": 1601,
      "▁وبعد": 1602,
      "▁منهم": 1603,
      "▁الترك": 1604,
      "ياب": 1605,
      "وضع": 1606,
      "خصص": 1607,
      "▁لذلك": 1608,
      "▁للن": 1609,
      "▁السن": 1610,
      "▁الشباب": 1611,
      "▁نقل": 1612,
      "رع": 1613,
      "▁وط": 1614,
      "سسة": 1615,
      "▁الأخرى": 1616,
      "ضور": 1617,
      "وفير": 1618,
      "▁لقد": 1619,
      "راب": 1620,
      "▁وكذلك": 1621,
      "▁اس": 1622,
      "▁حسب": 1623,
      "تيار": 1624,
      "▁المدينة": 1625,
      "▁الداخل": 1626,
      "▁25": 1627,
      "▁الرس": 1628,
      "وضح": 1629,
      "▁طلب": 1630,
      "حيح": 1631,
      "▁الاخ": 1632,
      "ويات": 1633,
      "▁ويع": 1634,
      "▁لمن": 1635,
      "رامج": 1636,
      "▁نوع": 1637,
      "▁توا": 1638,
      "▁الاعت": 1639,
      "▁الخارجية": 1640,
      "جاح": 1641,
      "▁بالإضافة": 1642,
      "▁الرح": 1643,
      "▁بناء": 1644,
      "ولوج": 1645,
      "▁الثلاث": 1646,
      "▁لتح": 1647,
      "سخ": 1648,
      "▁قرار": 1649,
      "قرا": 1650,
      "▁أهل": 1651,
      "▁وتم": 1652,
      "▁يعني": 1653,
      "▁يخ": 1654,
      "▁رم": 1655,
      "▁عض": 1656,
      "ومي": 1657,
      "▁مشروع": 1658,
      "▁الوظ": 1659,
      "▁طبي": 1660,
      "▁مرت": 1661,
      "آن": 1662,
      "▁عق": 1663,
      "خاص": 1664,
      "▁الجيش": 1665,
      "▁الأد": 1666,
      "▁بالنسبة": 1667,
      "▁بالح": 1668,
      "حاب": 1669,
      "▁تقديم": 1670,
      "اتف": 1671,
      "▁العالمية": 1672,
      "▁أت": 1673,
      "هرب": 1674,
      "▁سواء": 1675,
      "سكرية": 1676,
      "▁بينما": 1677,
      "▁الهي": 1678,
      "▁المحت": 1679,
      "▁والث": 1680,
      "▁القاد": 1681,
      "▁الشع": 1682,
      "فريق": 1683,
      "▁التاريخ": 1684,
      "▁رسول": 1685,
      "سلحة": 1686,
      "▁المال": 1687,
      "راع": 1688,
      "▁الفترة": 1689,
      "▁اع": 1690,
      "▁الثانية": 1691,
      "▁قانون": 1692,
      "▁وكانت": 1693,
      "▁السياسي": 1694,
      "▁الشركات": 1695,
      "▁18": 1696,
      "وفي": 1697,
      "▁أثناء": 1698,
      "▁الأع": 1699,
      "▁الخلي": 1700,
      "▁وأكد": 1701,
      "يزة": 1702,
      "▁خارج": 1703,
      "▁تقوم": 1704,
      "▁الوزراء": 1705,
      "▁العل": 1706,
      "▁اللجنة": 1707,
      "جاوز": 1708,
      "▁إم": 1709,
      "▁تؤ": 1710,
      "▁القائ": 1711,
      "هير": 1712,
      "▁فهو": 1713,
      "▁القطاع": 1714,
      "ولات": 1715,
      "ذر": 1716,
      "▁الفلسطيني": 1717,
      "er": 1718,
      "▁لق": 1719,
      "اهد": 1720,
      "▁حدث": 1721,
      "▁حيات": 1722,
      "▁وصل": 1723,
      "▁الموقع": 1724,
      "▁المعلومات": 1725,
      "خي": 1726,
      "▁إسرائيل": 1727,
      "▁المر": 1728,
      "روج": 1729,
      "▁سوريا": 1730,
      "▁?": 1731,
      "▁بلغ": 1732,
      "▁فقال": 1733,
      "▁ساب": 1734,
      "▁وسي": 1735,
      "▁16": 1736,
      "▁المصرية": 1737,
      "▁الأمريكية": 1738,
      "▁مب": 1739,
      "وبية": 1740,
      "رجة": 1741,
      "▁30": 1742,
      "▁مف": 1743,
      "▁A": 1744,
      "▁أعمال": 1745,
      "▁وث": 1746,
      "هيم": 1747,
      "سباب": 1748,
      "▁عقد": 1749,
      "لمان": 1750,
      "▁وبين": 1751,
      "▁أيام": 1752,
      "▁فترة": 1753,
      "▁يكن": 1754,
      "جوم": 1755,
      "▁عنها": 1756,
      "سام": 1757,
      "ميل": 1758,
      "بكة": 1759,
      "ئات": 1760,
      "▁السوري": 1761,
      "▁رؤ": 1762,
      "▁تتم": 1763,
      "دين": 1764,
      "واع": 1765,
      "▁رغم": 1766,
      "▁ليست": 1767,
      "ديل": 1768,
      "▁مسؤول": 1769,
      "▁نهاية": 1770,
      "▁13": 1771,
      "لبية": 1772,
      "واج": 1773,
      "بدو": 1774,
      "▁الحل": 1775,
      "▁الخم": 1776,
      "باط": 1777,
      "والي": 1778,
      "▁عب": 1779,
      "▁لان": 1780,
      "▁والج": 1781,
      "▁لمدة": 1782,
      "▁لب": 1783,
      "▁هد": 1784,
      "▁سم": 1785,
      "▁الأخيرة": 1786,
      "▁معا": 1787,
      "ؤلاء": 1788,
      "قق": 1789,
      "ارع": 1790,
      "▁قطاع": 1791,
      "▁الإسلامية": 1792,
      "ثنين": 1793,
      "يارات": 1794,
      "▁مه": 1795,
      "▁كث": 1796,
      "ميم": 1797,
      "▁جني": 1798,
      "▁الأعمال": 1799,
      "وسي": 1800,
      "مرار": 1801,
      "ائي": 1802,
      "ريط": 1803,
      "▁فعل": 1804,
      "لكتر": 1805,
      "▁الأرد": 1806,
      "قيم": 1807,
      "يط": 1808,
      "عبة": 1809,
      "▁S": 1810,
      "اعات": 1811,
      "▁مقابل": 1812,
      "▁السود": 1813,
      "▁المرأة": 1814,
      "ورات": 1815,
      "▁وكل": 1816,
      "هب": 1817,
      "تمد": 1818,
      "صابة": 1819,
      "▁الطرف": 1820,
      "▁زوج": 1821,
      "يق": 1822,
      "الك": 1823,
      "▁حزب": 1824,
      "▁عليك": 1825,
      "▁يوجد": 1826,
      "▁الحرب": 1827,
      "▁المسا": 1828,
      "غب": 1829,
      "ظة": 1830,
      "غيرة": 1831,
      "▁دع": 1832,
      "▁قص": 1833,
      "هورية": 1834,
      "▁السوق": 1835,
      "▁وتن": 1836,
      "ريح": 1837,
      "▁اجتما": 1838,
      "▁وأشار": 1839,
      "▁إد": 1840,
      "▁البر": 1841,
      "▁قب": 1842,
      "▁الفرن": 1843,
      "▁للق": 1844,
      "تنا": 1845,
      "▁المسلمين": 1846,
      "▁والاست": 1847,
      "▁دعم": 1848,
      "عه": 1849,
      "▁السعودي": 1850,
      "▁بغ": 1851,
      "ماد": 1852,
      "▁حقوق": 1853,
      "▁نص": 1854,
      "▁إضافة": 1855,
      "ناعة": 1856,
      "قامة": 1857,
      "▁النها": 1858,
      "▁بلا": 1859,
      "راءة": 1860,
      "▁يب": 1861,
      "اقة": 1862,
      "▁رأس": 1863,
      "قافة": 1864,
      "▁الساعة": 1865,
      "▁ظل": 1866,
      "▁حاليا": 1867,
      "▁مط": 1868,
      "▁لاست": 1869,
      "وجود": 1870,
      "كيل": 1871,
      "▁الحديث": 1872,
      "▁لهذا": 1873,
      "▁دين": 1874,
      "فاظ": 1875,
      "▁الحكم": 1876,
      "حدى": 1877,
      "▁تنظيم": 1878,
      "ديمقرا": 1879,
      "▁الدم": 1880,
      "امي": 1881,
      "▁كذلك": 1882,
      "قتصادي": 1883,
      "اس": 1884,
      "▁سع": 1885,
      "سرائيلي": 1886,
      "▁بيت": 1887,
      "▁الرب": 1888,
      "ذك": 1889,
      "▁اللاعب": 1890,
      "زن": 1891,
      "▁نع": 1892,
      "▁ويم": 1893,
      "▁حديث": 1894,
      "▁معل": 1895,
      "▁بات": 1896,
      "راجع": 1897,
      "شاريع": 1898,
      "▁نتيجة": 1899,
      "ناة": 1900,
      "▁جل": 1901,
      "▁حسن": 1902,
      "صلاح": 1903,
      "هاب": 1904,
      "▁لس": 1905,
      "ديو": 1906,
      "نيا": 1907,
      "▁النبي": 1908,
      "▁لجنة": 1909,
      "▁عليهم": 1910,
      "▁حم": 1911,
      "▁الإرها": 1912,
      "▁طب": 1913,
      "▁قوات": 1914,
      "▁ثلاث": 1915,
      "▁بار": 1916,
      "واد": 1917,
      "▁لأنه": 1918,
      "▁وآ": 1919,
      "ضايا": 1920,
      "▁لص": 1921,
      "بيع": 1922,
      "يجاب": 1923,
      "كام": 1924,
      "ئاسة": 1925,
      "وظف": 1926,
      "▁ثلاثة": 1927,
      "نف": 1928,
      "▁لبنان": 1929,
      "▁يعمل": 1930,
      "رابط": 1931,
      "▁بخ": 1932,
      "▁كثيرا": 1933,
      "▁صاحب": 1934,
      "▁السيد": 1935,
      "اتب": 1936,
      "▁رقم": 1937,
      "لين": 1938,
      "ؤال": 1939,
      "▁الذى": 1940,
      "طرة": 1941,
      "▁خدمة": 1942,
      "ساسية": 1943,
      "▁المط": 1944,
      "▁يعد": 1945,
      "▁وسط": 1946,
      "ناصر": 1947,
      "▁قل": 1948,
      "ادات": 1949,
      "▁رائ": 1950,
      "▁مض": 1951,
      "▁وض": 1952,
      "▁نسبة": 1953,
      "▁شك": 1954,
      "▁البيان": 1955,
      "▁بف": 1956,
      "in": 1957,
      "▁17": 1958,
      "▁الداخلية": 1959,
      "حب": 1960,
      "▁اللبن": 1961,
      "وصل": 1962,
      "وين": 1963,
      "▁القب": 1964,
      "▁موس": 1965,
      "▁يك": 1966,
      "▁رد": 1967,
      "▁دائما": 1968,
      "▁المل": 1969,
      "اصمة": 1970,
      "سكري": 1971,
      "قبال": 1972,
      "هتمام": 1973,
      "▁تنفيذ": 1974,
      "▁المشت": 1975,
      "ثار": 1976,
      "▁اش": 1977,
      "وش": 1978,
      "▁زيادة": 1979,
      "▁التواصل": 1980,
      "▁وين": 1981,
      "قدر": 1982,
      "ونا": 1983,
      "تل": 1984,
      "▁البط": 1985,
      "أة": 1986,
      "▁كون": 1987,
      "عاية": 1988,
      "▁بداية": 1989,
      "▁ينا": 1990,
      "▁فلسط": 1991,
      "▁حكم": 1992,
      "▁جعل": 1993,
      "عاقد": 1994,
      "▁بان": 1995,
      "ذب": 1996,
      "شق": 1997,
      "ديات": 1998,
      "▁معه": 1999,
      "▁الاجتماعي": 2000,
      "▁مليار": 2001,
      "تع": 2002,
      "لائ": 2003,
      "▁جامعة": 2004,
      "صور": 2005,
      "ؤون": 2006,
      "▁ضر": 2007,
      "عتقد": 2008,
      "▁شع": 2009,
      "▁P": 2010,
      "▁المسؤول": 2011,
      "▁والب": 2012,
      "▁مشيرا": 2013,
      "سلسل": 2014,
      "تح": 2015,
      "▁مساء": 2016,
      "▁تعمل": 2017,
      "▁المقبل": 2018,
      "▁اسم": 2019,
      "▁أمن": 2020,
      "▁جما": 2021,
      "ريات": 2022,
      "ضان": 2023,
      "عيش": 2024,
      "داع": 2025,
      "شد": 2026,
      "▁حساب": 2027,
      "▁الحصول": 2028,
      "نتر": 2029,
      "علقة": 2030,
      "نائية": 2031,
      "▁وجد": 2032,
      "▁اذا": 2033,
      "▁يعرف": 2034,
      "▁هؤلاء": 2035,
      "▁تطبيق": 2036,
      "ابه": 2037,
      "▁الموضوع": 2038,
      "▁بالف": 2039,
      "▁القدم": 2040,
      "▁المث": 2041,
      "▁C": 2042,
      "▁إح": 2043,
      "▁والك": 2044,
      "يري": 2045,
      "▁الحي": 2046,
      "▁اد": 2047,
      "▁الكويت": 2048,
      "درسة": 2049,
      "▁التعاون": 2050,
      "▁وظائف": 2051,
      "▁الإمارات": 2052,
      "▁الجميع": 2053,
      "▁حركة": 2054,
      "هار": 2055,
      "▁المف": 2056,
      "▁وتق": 2057,
      "▁لله": 2058,
      "▁والتع": 2059,
      "جار": 2060,
      "رفع": 2061,
      "وغ": 2062,
      "زية": 2063,
      "روض": 2064,
      "▁يل": 2065,
      "أل": 2066,
      "دق": 2067,
      "▁الاقتصادية": 2068,
      "▁إي": 2069,
      "▁وتش": 2070,
      "ائزة": 2071,
      "اتهم": 2072,
      "▁ريال": 2073,
      "▁بب": 2074,
      "▁الفلسطينية": 2075,
      "▁اقت": 2076,
      "كال": 2077,
      "▁سر": 2078,
      "▁المقا": 2079,
      "صبح": 2080,
      "▁وفقا": 2081,
      "▁وبالت": 2082,
      "ادل": 2083,
      "▁الاتفاق": 2084,
      "▁بوا": 2085,
      "▁اغ": 2086,
      "▁هيئة": 2087,
      "▁المواطنين": 2088,
      "▁دم": 2089,
      "▁بدون": 2090,
      "▁السف": 2091,
      "▁الفي": 2092,
      "عرض": 2093,
      "شارة": 2094,
      "وام": 2095,
      "طلا": 2096,
      "▁مرا": 2097,
      "▁جد": 2098,
      "برز": 2099,
      "▁تعرض": 2100,
      "▁الإخ": 2101,
      "ذج": 2102,
      "ستان": 2103,
      "▁بهذا": 2104,
      "▁الجمعة": 2105,
      "▁وقالت": 2106,
      "▁الكتاب": 2107,
      "▁بشأن": 2108,
      "▁الهيئة": 2109,
      "▁خاص": 2110,
      "▁الشه": 2111,
      "▁المختلف": 2112,
      "▁نقطة": 2113,
      "▁البرنامج": 2114,
      "باء": 2115,
      "▁تعد": 2116,
      "▁مختلفة": 2117,
      "▁السنة": 2118,
      "ظاهر": 2119,
      "▁السلطة": 2120,
      "▁تغ": 2121,
      "وبر": 2122,
      "▁عز": 2123,
      "وتر": 2124,
      "▁شكل": 2125,
      "▁الشهر": 2126,
      "قام": 2127,
      "▁وغيرها": 2128,
      "▁إليها": 2129,
      "▁الشم": 2130,
      "ويلة": 2131,
      "▁يعتبر": 2132,
      "▁عالية": 2133,
      "▁الأطفال": 2134,
      "▁الحالي": 2135,
      "شرين": 2136,
      "▁إخ": 2137,
      "▁الخدمات": 2138,
      "ادية": 2139,
      "غيل": 2140,
      "▁أنت": 2141,
      "▁إيران": 2142,
      "ريبا": 2143,
      "مه": 2144,
      "▁فتح": 2145,
      "▁الجما": 2146,
      "▁بنسبة": 2147,
      "▁القرآن": 2148,
      "▁مؤك": 2149,
      "▁التجارية": 2150,
      "▁الوظائف": 2151,
      "▁وتت": 2152,
      "▁المطل": 2153,
      "ستر": 2154,
      "▁حصل": 2155,
      "▁بمن": 2156,
      "▁المسي": 2157,
      "كيد": 2158,
      "خلص": 2159,
      "انه": 2160,
      "▁وفق": 2161,
      "▁إنها": 2162,
      "▁سيكون": 2163,
      "▁الدرا": 2164,
      "حين": 2165,
      "▁الدفاع": 2166,
      "▁موضوع": 2167,
      "▁المشروع": 2168,
      "▁جزء": 2169,
      "راضي": 2170,
      "▁فن": 2171,
      "▁النق": 2172,
      "▁202": 2173,
      "▁نتائج": 2174,
      "▁فوق": 2175,
      "براهيم": 2176,
      "جلي": 2177,
      "اكل": 2178,
      "▁الدع": 2179,
      "بيا": 2180,
      "رفض": 2181,
      "علنت": 2182,
      "▁الاجتماعية": 2183,
      "▁سجل": 2184,
      "كبر": 2185,
      "روس": 2186,
      "▁الإلكتر": 2187,
      "▁القوات": 2188,
      "▁مباشرة": 2189,
      "▁المناطق": 2190,
      "▁وحد": 2191,
      "سانية": 2192,
      "▁باب": 2193,
      "يرات": 2194,
      "▁كال": 2195,
      "▁لج": 2196,
      "سد": 2197,
      "لاك": 2198,
      "▁بذلك": 2199,
      "▁البعض": 2200,
      "▁روا": 2201,
      "▁البشر": 2202,
      "▁تفا": 2203,
      "ليف": 2204,
      "جرة": 2205,
      "▁القرار": 2206,
      "▁المزيد": 2207,
      "▁الصحة": 2208,
      "▁الخام": 2209,
      "▁بأنه": 2210,
      "جية": 2211,
      "▁البحر": 2212,
      "▁الأمريكي": 2213,
      "▁الرجل": 2214,
      "عام": 2215,
      "ادرة": 2216,
      "هاد": 2217,
      "▁كلمة": 2218,
      "اهدة": 2219,
      "▁قوة": 2220,
      "▁وهنا": 2221,
      "▁معظم": 2222,
      "▁المختلفة": 2223,
      "▁شعب": 2224,
      "شفى": 2225,
      "بارك": 2226,
      "▁بالق": 2227,
      "▁ير": 2228,
      "باس": 2229,
      "▁وغ": 2230,
      "▁اكت": 2231,
      "دل": 2232,
      "ونس": 2233,
      "▁حي": 2234,
      "▁عمليات": 2235,
      "▁المرحلة": 2236,
      "▁M": 2237,
      "ادت": 2238,
      "▁مي": 2239,
      "▁المياه": 2240,
      "ذة": 2241,
      "▁أقل": 2242,
      "مود": 2243,
      "▁المز": 2244,
      "▁ني": 2245,
      "ورد": 2246,
      "ائدة": 2247,
      "▁سير": 2248,
      "▁مز": 2249,
      "▁المتعلقة": 2250,
      "▁القاهرة": 2251,
      "▁داع": 2252,
      "▁أمري": 2253,
      "قدمة": 2254,
      "▁الثالث": 2255,
      "▁رفع": 2256,
      "▁عا": 2257,
      "▁يريد": 2258,
      "▁الدست": 2259,
      "▁أشهر": 2260,
      "▁الواقع": 2261,
      "▁الحر": 2262,
      "▁قم": 2263,
      "راتيجية": 2264,
      "يح": 2265,
      "▁لكم": 2266,
      "▁صور": 2267,
      "ماع": 2268,
      "▁المباراة": 2269,
      "يرية": 2270,
      "اث": 2271,
      "▁كانوا": 2272,
      "▁الأربع": 2273,
      "▁سبيل": 2274,
      "▁يقدم": 2275,
      "زين": 2276,
      "ديق": 2277,
      "▁أر": 2278,
      "▁100": 2279,
      "▁خلف": 2280,
      "▁للف": 2281,
      "يارة": 2282,
      "▁الكبير": 2283,
      "ثمر": 2284,
      "▁24": 2285,
      "▁المعار": 2286,
      "▁سعر": 2287,
      "▁الرسم": 2288,
      "▁أسعار": 2289,
      "▁وهم": 2290,
      "▁الخميس": 2291,
      "برى": 2292,
      "▁ظهر": 2293,
      "▁إطار": 2294,
      "▁ومح": 2295,
      "▁الأسبوع": 2296,
      "وبي": 2297,
      "نترنت": 2298,
      "▁أرض": 2299,
      "▁الطريق": 2300,
      "▁التفا": 2301,
      "▁وسائل": 2302,
      "▁لهذه": 2303,
      "▁[رابط": 2304,
      "▁[رابط]": 2305,
      "حتى": 2306,
      "an": 2307,
      "▁اج": 2308,
      "▁الإير": 2309,
      "▁جهة": 2310,
      "نب": 2311,
      "▁الفر": 2312,
      "جموع": 2313,
      "▁تماما": 2314,
      "▁تطوير": 2315,
      "▁تمت": 2316,
      "▁نج": 2317,
      "حص": 2318,
      "▁الجامعة": 2319,
      "▁شه": 2320,
      "▁اليه": 2321,
      "▁شهد": 2322,
      "▁الفور": 2323,
      "▁العملية": 2324,
      "خرا": 2325,
      "▁روس": 2326,
      "وبات": 2327,
      "طلع": 2328,
      "▁المنش": 2329,
      "اعدة": 2330,
      "▁الحا": 2331,
      "▁الوزارة": 2332,
      "اك": 2333,
      "▁إعادة": 2334,
      "▁المحلية": 2335,
      "شن": 2336,
      "امين": 2337,
      "فتح": 2338,
      "▁الماضية": 2339,
      "▁أهمية": 2340,
      "يته": 2341,
      "▁تكن": 2342,
      "▁الشعر": 2343,
      "▁الانتخابات": 2344,
      "▁السب": 2345,
      "on": 2346,
      "▁فهي": 2347,
      "▁الفنان": 2348,
      "▁بلاد": 2349,
      "▁الجام": 2350,
      "حدد": 2351,
      "▁تناول": 2352,
      "لمات": 2353,
      "▁صورة": 2354,
      "▁رفض": 2355,
      "▁وير": 2356,
      "▁الذات": 2357,
      "▁محافظة": 2358,
      "▁الاحتلال": 2359,
      "▁غزة": 2360,
      "▁لاعب": 2361,
      "اعر": 2362,
      "راه": 2363,
      "▁الإدارة": 2364,
      "روط": 2365,
      "▁صحيفة": 2366,
      "▁الأوسط": 2367,
      "▁المرت": 2368,
      "وانين": 2369,
      "▁الأغ": 2370,
      "▁ينت": 2371,
      "راقي": 2372,
      "▁عبدالله": 2373,
      "▁مباراة": 2374,
      "شل": 2375,
      "ريعة": 2376,
      "▁قيمة": 2377,
      "▁السورية": 2378,
      "▁بالا": 2379,
      "▁كن": 2380,
      "▁وبال": 2381,
      "نائ": 2382,
      "▁المب": 2383,
      "▁لف": 2384,
      "▁199": 2385,
      "وخ": 2386,
      "▁العسكرية": 2387,
      "▁الثلاثاء": 2388,
      "روب": 2389,
      "▁ولد": 2390,
      "▁مناط": 2391,
      "خاذ": 2392,
      "▁الصنا": 2393,
      "▁مغ": 2394,
      "▁جنيه": 2395,
      "راكز": 2396,
      "▁مواقع": 2397,
      "اره": 2398,
      "▁المشاركة": 2399,
      "▁بهذه": 2400,
      "▁21": 2401,
      "▁المعا": 2402,
      "▁طالب": 2403,
      "▁دفع": 2404,
      "▁وأوضح": 2405,
      "خاب": 2406,
      "دائ": 2407,
      "ويا": 2408,
      "▁درجة": 2409,
      "▁بدأت": 2410,
      "ريض": 2411,
      "هيل": 2412,
      "▁محت": 2413,
      "▁وحتى": 2414,
      "▁بهدف": 2415,
      "▁إس": 2416,
      "▁الكريم": 2417,
      "▁مجرد": 2418,
      "▁الحم": 2419,
      "▁للج": 2420,
      "▁للاست": 2421,
      "▁وعدم": 2422,
      "عزيز": 2423,
      "▁العاصمة": 2424,
      "▁الشرطة": 2425,
      "▁بالك": 2426,
      "افية": 2427,
      "▁بالش": 2428,
      "▁المادة": 2429,
      "▁الطاقة": 2430,
      "عو": 2431,
      "ثلة": 2432,
      "▁قالت": 2433,
      "▁أرب": 2434,
      "▁كي": 2435,
      "▁فإ": 2436,
      "▁مناطق": 2437,
      "▁توفير": 2438,
      "عاب": 2439,
      "▁القص": 2440,
      "▁النظر": 2441,
      "▁خصوص": 2442,
      "▁العلاقات": 2443,
      "▁الال": 2444,
      "▁وات": 2445,
      "▁أصبح": 2446,
      "▁للس": 2447,
      "ريا": 2448,
      "ناه": 2449,
      "▁رجل": 2450,
      "▁الاول": 2451,
      "وروبا": 2452,
      "عين": 2453,
      "سخة": 2454,
      "▁تريد": 2455,
      "▁وعند": 2456,
      "▁يجعل": 2457,
      "▁جنوب": 2458,
      "▁تز": 2459,
      "ائة": 2460,
      "▁مصادر": 2461,
      "▁المنتخب": 2462,
      "▁النساء": 2463,
      "▁نادي": 2464,
      "▁الوصول": 2465,
      "وجيه": 2466,
      "انات": 2467,
      "▁ومت": 2468,
      "▁آل": 2469,
      "▁حياة": 2470,
      "▁يوما": 2471,
      "▁أعضاء": 2472,
      "▁ويمكن": 2473,
      "▁المرض": 2474,
      "ريمة": 2475,
      "▁المرك": 2476,
      "▁ساعة": 2477,
      "بيب": 2478,
      "يسي": 2479,
      "▁النفس": 2480,
      "▁السبت": 2481,
      "▁أصحاب": 2482,
      "▁اللقاء": 2483,
      "▁الديمقرا": 2484,
      "▁النمو": 2485,
      "يمان": 2486,
      "▁حكومة": 2487,
      "شرات": 2488,
      "▁ولو": 2489,
      "▁وإذا": 2490,
      "▁الصحية": 2491,
      "▁أعلن": 2492,
      "ستاذ": 2493,
      "▁الطفل": 2494,
      "▁الثقاف": 2495,
      "▁الطب": 2496,
      "طوير": 2497,
      "ريع": 2498,
      "▁وصف": 2499,
      "▁إل": 2500,
      "▁الأف": 2501,
      "▁التداول": 2502,
      "▁حجم": 2503,
      "▁اختيار": 2504,
      "▁رمضان": 2505,
      "▁خدمات": 2506,
      "وروبي": 2507,
      "▁اللغة": 2508,
      "▁الوضع": 2509,
      "صالات": 2510,
      "ضيف": 2511,
      "يره": 2512,
      "▁هدف": 2513,
      "▁50": 2514,
      "ادث": 2515,
      "▁المجال": 2516,
      "▁لات": 2517,
      "▁وتأ": 2518,
      "وها": 2519,
      "افي": 2520,
      "▁سوق": 2521,
      "▁تنت": 2522,
      "▁الإد": 2523,
      "▁قامت": 2524,
      "▁الحزب": 2525,
      "طراف": 2526,
      "▁وعن": 2527,
      "▁جهاز": 2528,
      "▁الأمور": 2529,
      "▁يحدث": 2530,
      "▁سين": 2531,
      "فاض": 2532,
      "ريبة": 2533,
      "▁نز": 2534,
      "▁عضو": 2535,
      "▁كامل": 2536,
      "▁فإنه": 2537,
      "▁الجانب": 2538,
      "▁باسم": 2539,
      "ياد": 2540,
      "▁خم": 2541,
      "▁يتعلق": 2542,
      "▁مدى": 2543,
      "▁تحدث": 2544,
      "▁ارتفاع": 2545,
      "▁العالمي": 2546,
      "▁لر": 2547,
      "وسف": 2548,
      "▁البريط": 2549,
      "▁شبكة": 2550,
      "▁رجال": 2551,
      "▁الكهرب": 2552,
      "▁اتفاق": 2553,
      "وزيع": 2554,
      "وقات": 2555,
      "▁شمال": 2556,
      "هرجان": 2557,
      "ريك": 2558,
      "▁ضرورة": 2559,
      "راث": 2560,
      "▁المخت": 2561,
      "▁الأه": 2562,
      "اليات": 2563,
      "▁كتب": 2564,
      "▁فمن": 2565,
      "ماس": 2566,
      "ائد": 2567,
      "▁المقب": 2568,
      "▁يأتي": 2569,
      "حه": 2570,
      "▁واق": 2571,
      "▁باستخدام": 2572,
      "▁كثيرة": 2573,
      "تهاء": 2574,
      "▁الأمم": 2575,
      "▁وست": 2576,
      "▁السابقة": 2577,
      "▁22": 2578,
      "▁إحدى": 2579,
      "▁الهند": 2580,
      "▁يغ": 2581,
      "▁الماء": 2582,
      "▁تصل": 2583,
      "ديدا": 2584,
      "احة": 2585,
      "خلي": 2586,
      "▁المواد": 2587,
      "▁النفط": 2588,
      "كب": 2589,
      "▁الغذا": 2590,
      "▁طريقة": 2591,
      "▁المستقبل": 2592,
      "▁تعرف": 2593,
      "▁فرن": 2594,
      "▁دخل": 2595,
      "جئ": 2596,
      "▁التم": 2597,
      "▁بحسب": 2598,
      "رر": 2599,
      "▁اشت": 2600,
      "▁الاخت": 2601,
      "▁ألا": 2602,
      "▁القرن": 2603,
      "ريس": 2604,
      "▁العمر": 2605,
      "▁_": 2606,
      "وجودة": 2607,
      "▁شركات": 2608,
      "شاف": 2609,
      "▁بالس": 2610,
      "ائلة": 2611,
      "▁بلد": 2612,
      "▁خالد": 2613,
      "▁الزرا": 2614,
      "▁خص": 2615,
      "▁وصول": 2616,
      "▁أه": 2617,
      "▁الجهاز": 2618,
      "ارنة": 2619,
      "▁البيت": 2620,
      "اطر": 2621,
      "▁مؤكدا": 2622,
      "▁الجمهورية": 2623,
      "▁المؤتمر": 2624,
      "▁يصل": 2625,
      "▁وبالتالي": 2626,
      "ناق": 2627,
      "▁طويلة": 2628,
      "▁تغيير": 2629,
      "▁بني": 2630,
      "▁سيتم": 2631,
      "▁فان": 2632,
      "▁أنهم": 2633,
      "▁التعامل": 2634,
      "▁بالد": 2635,
      "كين": 2636,
      "▁قائمة": 2637,
      "▁2018": 2638,
      "▁صد": 2639,
      "▁رسم": 2640,
      "سيق": 2641,
      "▁خل": 2642,
      "▁الإسرائيلي": 2643,
      "▁صالح": 2644,
      "▁واض": 2645,
      "ولوجيا": 2646,
      "ديا": 2647,
      "▁الصين": 2648,
      "▁ماي": 2649,
      "▁الحب": 2650,
      "▁نفسها": 2651,
      "كانية": 2652,
      "▁الثورة": 2653,
      "▁أعلى": 2654,
      "▁الأل": 2655,
      "▁الاس": 2656,
      "فيد": 2657,
      "زق": 2658,
      "▁الغربية": 2659,
      "▁سيد": 2660,
      "▁الدراسة": 2661,
      "خفض": 2662,
      "or": 2663,
      "فادة": 2664,
      "▁لتن": 2665,
      "ar": 2666,
      "برة": 2667,
      "▁روسيا": 2668,
      "▁فلسطين": 2669,
      "ذن": 2670,
      "▁المدني": 2671,
      "▁فهم": 2672,
      "▁الصلاة": 2673,
      "▁النص": 2674,
      "▁تحديد": 2675,
      "▁بالخ": 2676,
      "▁والمت": 2677,
      "حاول": 2678,
      "▁افت": 2679,
      "▁نمو": 2680,
      "▁ملا": 2681,
      "▁ربما": 2682,
      "صلة": 2683,
      "▁جان": 2684,
      "▁تعتبر": 2685,
      "ئلة": 2686,
      "▁حوالي": 2687,
      "▁الأص": 2688,
      "ندوق": 2689,
      "افحة": 2690,
      "▁البل": 2691,
      "▁حب": 2692,
      "ليق": 2693,
      "▁تحمل": 2694,
      "▁الباح": 2695,
      "وحة": 2696,
      "▁لكي": 2697,
      "▁يذكر": 2698,
      "كار": 2699,
      "▁دخول": 2700,
      "▁برامج": 2701,
      "▁يمن": 2702,
      "▁المحكمة": 2703,
      "▁الرغم": 2704,
      "غاية": 2705,
      "ارسة": 2706,
      "▁إست": 2707,
      "▁2015": 2708,
      "▁العلمية": 2709,
      "▁والر": 2710,
      "فيات": 2711,
      "▁تمكن": 2712,
      "فية": 2713,
      "▁السودان": 2714,
      "▁شا": 2715,
      "▁شأن": 2716,
      "▁النار": 2717,
      "ائه": 2718,
      "ئول": 2719,
      "▁حمل": 2720,
      "▁القدس": 2721,
      "▁الشخصية": 2722,
      "▁اض": 2723,
      "ونه": 2724,
      "صدار": 2725,
      "صلحة": 2726,
      "▁T": 2727,
      "▁أنواع": 2728,
      "▁السو": 2729,
      "▁وذكر": 2730,
      "لفات": 2731,
      "▁بري": 2732,
      "ارق": 2733,
      "▁الإنترنت": 2734,
      "وره": 2735,
      "قتل": 2736,
      "▁أمير": 2737,
      "▁علينا": 2738,
      "▁حرب": 2739,
      "بيه": 2740,
      "باع": 2741,
      "▁الحركة": 2742,
      "ضى": 2743,
      "▁للط": 2744,
      "▁الأحد": 2745,
      "▁ضع": 2746,
      "▁المغرب": 2747,
      "الغ": 2748,
      "▁بحث": 2749,
      "كذا": 2750,
      "▁قائلا": 2751,
      "ندق": 2752,
      "▁الأربعاء": 2753,
      "▁تركيا": 2754,
      "لامة": 2755,
      "▁المفا": 2756,
      "▁المك": 2757,
      "ديثة": 2758,
      "▁بير": 2759,
      "▁معت": 2760,
      "حم": 2761,
      "▁معلومات": 2762,
      "▁يسم": 2763,
      "قوق": 2764,
      "فيف": 2765,
      "▁الها": 2766,
      "واف": 2767,
      "▁قلب": 2768,
      "▁أعلنت": 2769,
      "▁الاستثمار": 2770,
      "▁قلي": 2771,
      "جع": 2772,
      "جنبية": 2773,
      "▁تداول": 2774,
      "▁بث": 2775,
      "▁سوى": 2776,
      "ساسي": 2777,
      "▁ته": 2778,
      "▁بمد": 2779,
      "وارد": 2780,
      "امية": 2781,
      "واعد": 2782,
      "▁الزوج": 2783,
      "▁امت": 2784,
      "▁دار": 2785,
      "▁اكثر": 2786,
      "▁العراقي": 2787,
      "▁عرف": 2788,
      "شطة": 2789,
      "ديمة": 2790,
      "▁فما": 2791,
      "▁قطر": 2792,
      "▁الدور": 2793,
      "▁المنزل": 2794,
      "▁لدينا": 2795,
      "▁خير": 2796,
      "▁ايضا": 2797,
      "فاة": 2798,
      "سلة": 2799,
      "▁واس": 2800,
      "▁لاف": 2801,
      "▁قضية": 2802,
      "▁التربية": 2803,
      "واقف": 2804,
      "▁الطائ": 2805,
      "▁قوله": 2806,
      "راز": 2807,
      "▁شيئا": 2808,
      "ساد": 2809,
      "ضيع": 2810,
      "▁بقي": 2811,
      "اله": 2812,
      "▁المحا": 2813,
      "ريحات": 2814,
      "▁بشر": 2815,
      "▁عص": 2816,
      "▁بيع": 2817,
      "▁بحيث": 2818,
      "▁كبيرا": 2819,
      "▁فك": 2820,
      "خصصة": 2821,
      "▁الاقتصادي": 2822,
      "▁موقف": 2823,
      "الا": 2824,
      "▁لط": 2825,
      "▁سليم": 2826,
      "▁نائب": 2827,
      "▁تلق": 2828,
      "▁بنفس": 2829,
      "▁تحتاج": 2830,
      "▁الباحث": 2831,
      "▁يط": 2832,
      "واجه": 2833,
      "▁وهذه": 2834,
      "▁الكب": 2835,
      "▁B": 2836,
      "▁الألم": 2837,
      "قرر": 2838,
      "▁مرض": 2839,
      "▁الأمنية": 2840,
      "▁السلطات": 2841,
      "▁محد": 2842,
      "▁انها": 2843,
      "▁نظر": 2844,
      "امن": 2845,
      "▁والتن": 2846,
      "▁فرصة": 2847,
      "▁تقرير": 2848,
      "▁ملك": 2849,
      "▁سبب": 2850,
      "▁والغ": 2851,
      "بادرة": 2852,
      "▁ذا": 2853,
      "▁الرئيسية": 2854,
      "▁الاب": 2855,
      "▁الأخير": 2856,
      "▁السر": 2857,
      "▁نصف": 2858,
      "▁ويس": 2859,
      "▁يستطيع": 2860,
      "▁حس": 2861,
      "▁رأي": 2862,
      "▁الحكومية": 2863,
      "▁البد": 2864,
      "▁مرحلة": 2865,
      "▁ألم": 2866,
      "سرائيلية": 2867,
      "▁الدوري": 2868,
      "جاب": 2869,
      "▁40": 2870,
      "▁داعش": 2871,
      "▁الإسلامي": 2872,
      "▁2014": 2873,
      "ثناء": 2874,
      "▁فضلا": 2875,
      "ضرورة": 2876,
      "▁الدائ": 2877,
      "▁الموس": 2878,
      "فى": 2879,
      "▁تأثير": 2880,
      "▁البنك": 2881,
      "▁نس": 2882,
      "▁حملة": 2883,
      "▁نب": 2884,
      "▁السيارات": 2885,
      "قرير": 2886,
      "▁الأب": 2887,
      "000": 2888,
      "▁إنتاج": 2889,
      "قوم": 2890,
      "طور": 2891,
      "طاقة": 2892,
      "▁الصفحة": 2893,
      "عاد": 2894,
      "▁مكت": 2895,
      "▁ابت": 2896,
      "جاج": 2897,
      "▁خصوصا": 2898,
      "▁والله": 2899,
      "▁المستوى": 2900,
      "علم": 2901,
      "ليه": 2902,
      "▁التخ": 2903,
      "▁لاب": 2904,
      "روح": 2905,
      "▁دبي": 2906,
      "▁الجمعية": 2907,
      "▁النادي": 2908,
      "▁23": 2909,
      "▁كوم": 2910,
      "▁توق": 2911,
      "▁يبدو": 2912,
      "▁محمود": 2913,
      "▁١": 2914,
      "وجب": 2915,
      "▁الأكثر": 2916,
      "امت": 2917,
      "▁بو": 2918,
      "▁مقا": 2919,
      "▁الهدف": 2920,
      "▁دراسة": 2921,
      "▁التجارة": 2922,
      "▁الدي": 2923,
      "هولة": 2924,
      "ظار": 2925,
      "▁منظمة": 2926,
      "▁والط": 2927,
      "▁المعت": 2928,
      "▁للخ": 2929,
      "▁رضي": 2930,
      "ألة": 2931,
      "يقة": 2932,
      "▁معها": 2933,
      "▁وإنما": 2934,
      "ناول": 2935,
      "باريات": 2936,
      "سى": 2937,
      "▁الأيام": 2938,
      "▁قيا": 2939,
      "▁الاسلام": 2940,
      "هادة": 2941,
      "▁الجهات": 2942,
      "▁أبناء": 2943,
      "حافظة": 2944,
      "منة": 2945,
      "▁الاثنين": 2946,
      "بعة": 2947,
      "مع": 2948,
      "▁الخليج": 2949,
      "▁كأس": 2950,
      "قف": 2951,
      "▁صحيح": 2952,
      "▁بعي": 2953,
      "جابة": 2954,
      "▁اف": 2955,
      "▁العليا": 2956,
      "▁الطرق": 2957,
      "قيقي": 2958,
      "▁درا": 2959,
      "▁بسي": 2960,
      "▁لماذا": 2961,
      "▁الحدود": 2962,
      "خدمة": 2963,
      "▁لاح": 2964,
      "خصوص": 2965,
      "هج": 2966,
      "اية": 2967,
      "▁لقاء": 2968,
      "▁|": 2969,
      "▁القيام": 2970,
      "en": 2971,
      "▁الدعم": 2972,
      "▁المكان": 2973,
      "▁الإس": 2974,
      "تهي": 2975,
      "▁R": 2976,
      "يدة": 2977,
      "▁محافظ": 2978,
      "▁إبراهيم": 2979,
      "▁البرامج": 2980,
      "ذين": 2981,
      "al": 2982,
      "زاب": 2983,
      "ضب": 2984,
      "▁الاح": 2985,
      "▁قط": 2986,
      "▁صلاح": 2987,
      "▁ينب": 2988,
      "▁المؤسسات": 2989,
      "▁وراء": 2990,
      "▁يحتاج": 2991,
      "▁يناير": 2992,
      "قصى": 2993,
      "بادل": 2994,
      "▁إش": 2995,
      "▁المقبلة": 2996,
      "▁جو": 2997,
      "▁2016": 2998,
      "▁مواجهة": 2999,
      "صاب": 3000,
      "▁الفني": 3001,
      "▁قتل": 3002,
      "يجاد": 3003,
      "▁يؤدي": 3004,
      "▁النواب": 3005,
      "ذل": 3006,
      "ريدة": 3007,
      "▁الخدمة": 3008,
      "▁القضية": 3009,
      "▁جمع": 3010,
      "عتبار": 3011,
      "▁يزيد": 3012,
      "ليب": 3013,
      "قديم": 3014,
      "▁رسالة": 3015,
      "▁الجل": 3016,
      "▁مهمة": 3017,
      "▁كشف": 3018,
      "قطع": 3019,
      "▁أولا": 3020,
      "عمل": 3021,
      "ظيف": 3022,
      "▁تجد": 3023,
      "▁فرض": 3024,
      "▁يوميا": 3025,
      "▁القلب": 3026,
      "▁لكنه": 3027,
      "▁الأز": 3028,
      "▁التنمية": 3029,
      "▁الفا": 3030,
      "بنى": 3031,
      "▁تعلم": 3032,
      "▁بالج": 3033,
      "وعية": 3034,
      "▁أخذ": 3035,
      "سلوب": 3036,
      "خفاض": 3037,
      "سون": 3038,
      "▁المدير": 3039,
      "▁إطلاق": 3040,
      "▁أهداف": 3041,
      "▁تجاه": 3042,
      "▁الطلاب": 3043,
      "يتها": 3044,
      "▁سف": 3045,
      "▁علاقة": 3046,
      "صاص": 3047,
      "▁الرائ": 3048,
      "▁محاولة": 3049,
      "▁الكم": 3050,
      "▁المستخدم": 3051,
      "ظل": 3052,
      "▁اول": 3053,
      "▁يوسف": 3054,
      "▁الأوروبي": 3055,
      "▁قناة": 3056,
      "الجة": 3057,
      "▁G": 3058,
      "▁يجوز": 3059,
      "راح": 3060,
      "انيين": 3061,
      "▁العزيز": 3062,
      "دت": 3063,
      "اربة": 3064,
      "يابة": 3065,
      "ائع": 3066,
      "▁الشرقية": 3067,
      "رسال": 3068,
      "يون": 3069,
      "▁مشت": 3070,
      "▁مؤسسة": 3071,
      "▁كرة": 3072,
      "▁بطريقة": 3073,
      "▁الفق": 3074,
      "▁التنظيم": 3075,
      "▁خلق": 3076,
      "▁مسلسل": 3077,
      "دير": 3078,
      "▁حسين": 3079,
      "ريل": 3080,
      "سطة": 3081,
      "▁الثان": 3082,
      "▁الطعام": 3083,
      "ينات": 3084,
      "▁البيانات": 3085,
      "خرة": 3086,
      "▁إب": 3087,
      "▁حاول": 3088,
      "▁مقر": 3089,
      "▁التابعة": 3090,
      "شاط": 3091,
      "▁المحافظة": 3092,
      "▁مشكلة": 3093,
      "▁يتح": 3094,
      "لالة": 3095,
      "▁المتعاقد": 3096,
      "▁الشريف": 3097,
      "▁دقيقة": 3098,
      "▁ساعات": 3099,
      "▁الدنيا": 3100,
      "ذية": 3101,
      "▁العسكري": 3102,
      "ارا": 3103,
      "▁بهم": 3104,
      "▁الأخبار": 3105,
      "▁صباح": 3106,
      "▁عقب": 3107,
      "▁بمع": 3108,
      "▁الور": 3109,
      "▁تقول": 3110,
      "ندس": 3111,
      "▁التر": 3112,
      "▁اللازمة": 3113,
      "▁الإمام": 3114,
      "▁متن": 3115,
      "▁أوروبا": 3116,
      "▁الروا": 3117,
      "▁القضاء": 3118,
      "▁احد": 3119,
      "رامب": 3120,
      "غر": 3121,
      "راحة": 3122,
      "▁لذا": 3123,
      "▁ترا": 3124,
      "وزارة": 3125,
      "▁مؤخرا": 3126,
      "▁يحمل": 3127,
      "▁وطن": 3128,
      "حاء": 3129,
      "▁مارس": 3130,
      "▁المحلي": 3131,
      "▁فإذا": 3132,
      "▁مفا": 3133,
      "لبة": 3134,
      "es": 3135,
      "اند": 3136,
      "▁لكرة": 3137,
      "قيقية": 3138,
      "▁خلالها": 3139,
      "ثمارات": 3140,
      "▁بالل": 3141,
      "▁تسجيل": 3142,
      "أي": 3143,
      "▁لأنها": 3144,
      "▁وهناك": 3145,
      "قين": 3146,
      "▁الفوركس": 3147,
      "▁ة": 3148,
      "▁الصحي": 3149,
      "▁العن": 3150,
      "▁الحقيقة": 3151,
      "قيمين": 3152,
      "سعى": 3153,
      "▁آلاف": 3154,
      "قييم": 3155,
      "قاد": 3156,
      "▁سعيد": 3157,
      "▁البا": 3158,
      "عامل": 3159,
      "▁مفت": 3160,
      "▁خبر": 3161,
      "▁الطبية": 3162,
      "كلفة": 3163,
      "▁الصور": 3164,
      "▁ماذا": 3165,
      "▁بأس": 3166,
      "طط": 3167,
      "رز": 3168,
      "▁القادمة": 3169,
      "▁الصورة": 3170,
      "تاح": 3171,
      "ابلة": 3172,
      "▁الإجراءات": 3173,
      "▁حماية": 3174,
      "شفت": 3175,
      "▁نسب": 3176,
      "▁ممن": 3177,
      "▁كلا": 3178,
      "▁نعم": 3179,
      "▁قاد": 3180,
      "▁{": 3181,
      "▁الوسط": 3182,
      "نيف": 3183,
      "▁ورد": 3184,
      "بهة": 3185,
      "▁تمثل": 3186,
      "▁للص": 3187,
      "▁الجاري": 3188,
      "▁وبح": 3189,
      "▁الأشخاص": 3190,
      "▁صغيرة": 3191,
      "رجع": 3192,
      "▁تعليم": 3193,
      "▁جيدا": 3194,
      "عود": 3195,
      "▁وكالة": 3196,
      "▁القيا": 3197,
      "▁المجموعة": 3198,
      "▁بسر": 3199,
      "داية": 3200,
      "at": 3201,
      "▁26": 3202,
      "▁واح": 3203,
      "▁الأساسية": 3204,
      "▁بعدما": 3205,
      "خيص": 3206,
      "▁الفنية": 3207,
      "قطاع": 3208,
      "بطة": 3209,
      "بين": 3210,
      "▁كيفية": 3211,
      "لفزي": 3212,
      "▁للمن": 3213,
      "▁فهذا": 3214,
      "▁خلي": 3215,
      "▁الكبرى": 3216,
      "▁بينهم": 3217,
      "قتصادية": 3218,
      "ناف": 3219,
      "▁أصب": 3220,
      "▁ستكون": 3221,
      "يانة": 3222,
      "▁D": 3223,
      "سارة": 3224,
      "▁فكرة": 3225,
      "▁إجراء": 3226,
      "فاف": 3227,
      "▁وخاصة": 3228,
      "▁قول": 3229,
      "▁}": 3230,
      "▁+": 3231,
      "بيض": 3232,
      "▁الإقليم": 3233,
      "▁جميعا": 3234,
      "سجيل": 3235,
      "▁قيام": 3236,
      "طباء": 3237,
      "▁أكت": 3238,
      "▁الاتصال": 3239,
      "زع": 3240,
      "زوج": 3241,
      "▁الأور": 3242,
      "منى": 3243,
      "▁الأج": 3244,
      "▁الأزمة": 3245,
      "▁ونحن": 3246,
      "▁ترامب": 3247,
      "▁مناف": 3248,
      "▁سكان": 3249,
      "▁الحالة": 3250,
      "▁ويست": 3251,
      "▁وحدة": 3252,
      "▁واف": 3253,
      "▁اخرى": 3254,
      "▁الآخرين": 3255,
      "تيب": 3256,
      "يلم": 3257,
      "▁مؤتمر": 3258,
      "▁ورب": 3259,
      "▁الدخول": 3260,
      "▁#": 3261,
      "▁غال": 3262,
      "▁صوت": 3263,
      "▁مكتب": 3264,
      "قائق": 3265,
      "▁تجربة": 3266,
      "▁النو": 3267,
      "▁بنت": 3268,
      "▁أساس": 3269,
      "نائي": 3270,
      "يير": 3271,
      "قلت": 3272,
      "▁تعزيز": 3273,
      "شط": 3274,
      "▁الأميركية": 3275,
      "يدان": 3276,
      "▁يمثل": 3277,
      "▁مخت": 3278,
      "▁طرف": 3279,
      "▁للغاية": 3280,
      "▁أصبحت": 3281,
      "▁تشكيل": 3282,
      "▁عبدالعزيز": 3283,
      "▁بدء": 3284,
      "▁الفرنسي": 3285,
      "▁2017": 3286,
      "▁الخيارات": 3287,
      "▁يعيش": 3288,
      "▁H": 3289,
      "▁شراء": 3290,
      "عاء": 3291,
      "▁لخ": 3292,
      "▁27": 3293,
      "▁حدود": 3294,
      "▁عشرة": 3295,
      "▁المؤمن": 3296,
      "غبة": 3297,
      "سبق": 3298,
      "ولد": 3299,
      "مم": 3300,
      "▁النت": 3301,
      "▁المسلحة": 3302,
      "ويض": 3303,
      "▁طائ": 3304,
      "▁الشا": 3305,
      "▁المعد": 3306,
      "ويتر": 3307,
      "قدير": 3308,
      "▁المعارضة": 3309,
      "جين": 3310,
      "شنطن": 3311,
      "▁الحوار": 3312,
      "▁السنوات": 3313,
      "▁للب": 3314,
      "▁وكيف": 3315,
      "▁الكرة": 3316,
      "▁رؤية": 3317,
      "▁الوح": 3318,
      "▁بالط": 3319,
      "▁الإست": 3320,
      "▁بدلا": 3321,
      "ونها": 3322,
      "▁أداء": 3323,
      "▁ند": 3324,
      "▁الوزير": 3325,
      "▁كاملة": 3326,
      "▁انته": 3327,
      "براء": 3328,
      "▁سبق": 3329,
      "▁زيارة": 3330,
      "▁القوى": 3331,
      "▁والتعليم": 3332,
      "▁28": 3333,
      "▁فور": 3334,
      "▁الساد": 3335,
      "ثور": 3336,
      "يبة": 3337,
      "همية": 3338,
      "▁ولن": 3339,
      "▁الأردن": 3340,
      "ياجات": 3341,
      "▁الكبيرة": 3342,
      "ديه": 3343,
      "▁نظرا": 3344,
      "▁الأقل": 3345,
      "بيت": 3346,
      "▁وانت": 3347,
      "▁در": 3348,
      "▁الأمة": 3349,
      "▁اللهم": 3350,
      "▁العلماء": 3351,
      "ونيو": 3352,
      "▁صنع": 3353,
      "▁مضي": 3354,
      "▁والان": 3355,
      "▁الرق": 3356,
      "بيوتر": 3357,
      "▁عين": 3358,
      "▁بصورة": 3359,
      "▁مطل": 3360,
      "▁الباب": 3361,
      "▁العلاج": 3362,
      "عتها": 3363,
      "جمالي": 3364,
      "فيه": 3365,
      "▁التنفيذ": 3366,
      "افر": 3367,
      "ارير": 3368,
      "▁الدستور": 3369,
      "▁شخصية": 3370,
      "▁I": 3371,
      "▁لعبة": 3372,
      "خال": 3373,
      "▁الشعبية": 3374,
      "▁مدة": 3375,
      "▁يساعد": 3376,
      "قلة": 3377,
      "الج": 3378,
      "▁إنشاء": 3379,
      "▁الحالية": 3380,
      "▁عناصر": 3381,
      "▁تسم": 3382,
      "وطن": 3383,
      "▁الثالثة": 3384,
      "جح": 3385,
      "▁زمن": 3386,
      "▁الإرهاب": 3387,
      "▁مقارنة": 3388,
      "▁التقرير": 3389,
      "▁المقد": 3390,
      "▁فيلم": 3391,
      "▁ينبغي": 3392,
      "▁عبارة": 3393,
      "عددة": 3394,
      "حقق": 3395,
      "▁الناصر": 3396,
      "▁عش": 3397,
      "ارد": 3398,
      "وضات": 3399,
      "▁الأسعار": 3400,
      "ظمات": 3401,
      "لاحظ": 3402,
      "▁لمع": 3403,
      "▁متر": 3404,
      "▁سورية": 3405,
      "▁إعلان": 3406,
      "▁بواسطة": 3407,
      "▁المحافظ": 3408,
      "▁جائزة": 3409,
      "▁مشاركة": 3410,
      "▁القول": 3411,
      "▁بينها": 3412,
      "▁نست": 3413,
      "▁تقل": 3414,
      "▁لتحقيق": 3415,
      "▁الخبر": 3416,
      "▁مهما": 3417,
      "مكان": 3418,
      "▁أرد": 3419,
      "▁لديه": 3420,
      "▁تدخل": 3421,
      "▁كيل": 3422,
      "▁المشكلة": 3423,
      "▁ويتم": 3424,
      "جلة": 3425,
      "عيم": 3426,
      "▁إنما": 3427,
      "سيم": 3428,
      "طاق": 3429,
      "▁اجتماع": 3430,
      "▁الزمن": 3431,
      "▁المؤسسة": 3432,
      "زان": 3433,
      "▁198": 3434,
      "▁جيد": 3435,
      "لابس": 3436,
      "▁حص": 3437,
      "هاء": 3438,
      "▁وأح": 3439,
      "▁النوع": 3440,
      "▁تحميل": 3441,
      "رشح": 3442,
      "وامل": 3443,
      "▁العلاقة": 3444,
      "ضائية": 3445,
      "طم": 3446,
      "▁الإعلان": 3447,
      "▁خرج": 3448,
      "▁حالات": 3449,
      "▁يعلم": 3450,
      "▁موض": 3451,
      "واز": 3452,
      "▁المواقع": 3453,
      "▁العراقية": 3454,
      "▁عهد": 3455,
      "▁النز": 3456,
      "▁السياسة": 3457,
      "▁وقف": 3458,
      "▁مات": 3459,
      "▁بلغت": 3460,
      "▁تستخدم": 3461,
      "▁والتح": 3462,
      "قتها": 3463,
      "يروس": 3464,
      "▁منع": 3465,
      "▁عامة": 3466,
      "▁وله": 3467,
      "▁خطة": 3468,
      "▁الطلب": 3469,
      "▁تا": 3470,
      "▁خمسة": 3471,
      "▁قسم": 3472,
      "▁بور": 3473,
      "رافق": 3474,
      "▁اص": 3475,
      "▁البرلمان": 3476,
      "▁أبرز": 3477,
      "▁الوج": 3478,
      "▁النائب": 3479,
      "▁وأم": 3480,
      "زالة": 3481,
      "▁سبح": 3482,
      "▁تض": 3483,
      "ابقة": 3484,
      "راقبة": 3485,
      "▁أنفس": 3486,
      "فعة": 3487,
      "▁فرص": 3488,
      "كومة": 3489,
      "حيانا": 3490,
      "فقة": 3491,
      "▁معرفة": 3492,
      "▁السبب": 3493,
      "ائن": 3494,
      "▁بتح": 3495,
      "▁الأجهزة": 3496,
      "▁الأميركي": 3497,
      "▁حر": 3498,
      "▁كلام": 3499,
      "فسير": 3500,
      "▁الدقيقة": 3501,
      "▁نشاط": 3502,
      "▁سياسية": 3503,
      "▁الهاتف": 3504,
      "▁انا": 3505,
      "▁تحتوي": 3506,
      "▁العودة": 3507,
      "▁F": 3508,
      "▁بطولة": 3509,
      "▁مهم": 3510,
      "▁مثلا": 3511,
      "أسيس": 3512,
      "▁للحصول": 3513,
      "▁شرق": 3514,
      "نيات": 3515,
      "غلال": 3516,
      "▁والل": 3517,
      "نون": 3518,
      "▁وأي": 3519,
      "▁الثقافة": 3520,
      "▁سعد": 3521,
      "عمار": 3522,
      "▁المبا": 3523,
      "▁يرت": 3524,
      "يزات": 3525,
      "▁ممكن": 3526,
      "▁ظهور": 3527,
      "▁الرجال": 3528,
      "▁E": 3529,
      "وتي": 3530,
      "ثبت": 3531,
      "▁نوف": 3532,
      "▁الإنسانية": 3533,
      "▁مال": 3534,
      "▁قطع": 3535,
      "▁يعود": 3536,
      "قلال": 3537,
      "شات": 3538,
      "▁المرا": 3539,
      "▁والمع": 3540,
      "▁وأخ": 3541,
      "▁العقل": 3542,
      "▁جيدة": 3543,
      "▁تظهر": 3544,
      "وافق": 3545,
      "ريت": 3546,
      "▁المنتدى": 3547,
      "▁اللاعبين": 3548,
      "▁لأي": 3549,
      "روة": 3550,
      "▁تقريبا": 3551,
      "▁جهود": 3552,
      "▁الحج": 3553,
      "▁قراءة": 3554,
      "▁لديك": 3555,
      "▁البشرية": 3556,
      "▁الإسرائيلية": 3557,
      "▁كام": 3558,
      "▁يرى": 3559,
      "▁للر": 3560,
      "▁الدورة": 3561,
      "دخل": 3562,
      "▁٢": 3563,
      "▁الإخوان": 3564,
      "▁المسلم": 3565,
      "خدمات": 3566,
      "▁قيم": 3567,
      "▁تساعد": 3568,
      "▁السين": 3569,
      "درجة": 3570,
      "اضي": 3571,
      "▁الحوث": 3572,
      "▁المتم": 3573,
      "▁الحقوق": 3574,
      "ابر": 3575,
      "▁العب": 3576,
      "▁لفت": 3577,
      "نه": 3578,
      "▁مصدر": 3579,
      "▁للمر": 3580,
      "بيقات": 3581,
      "▁رج": 3582,
      "▁مار": 3583,
      "▁تمر": 3584,
      "▁استمرار": 3585,
      "▁قوية": 3586,
      "▁الري": 3587,
      "لفت": 3588,
      "غال": 3589,
      "▁الجسم": 3590,
      "▁يمت": 3591,
      "▁الاجتماع": 3592,
      "▁وقع": 3593,
      "▁تجاوز": 3594,
      "▁لعد": 3595,
      "▁الذاتية": 3596,
      "▁المدرسة": 3597,
      "▁إع": 3598,
      "▁العين": 3599,
      "▁الجوية": 3600,
      "لل": 3601,
      "هرة": 3602,
      "▁المفت": 3603,
      "ذار": 3604,
      "▁معد": 3605,
      "▁حفظ": 3606,
      "▁لعب": 3607,
      "▁القوة": 3608,
      "ناس": 3609,
      "▁حض": 3610,
      "طفى": 3611,
      "▁النظ": 3612,
      "▁وتص": 3613,
      "▁ليبيا": 3614,
      "▁للعمل": 3615,
      "ادم": 3616,
      "▁المطلوب": 3617,
      "▁اللح": 3618,
      "فكار": 3619,
      "▁معينة": 3620,
      "▁أكتوبر": 3621,
      "يسة": 3622,
      "مرة": 3623,
      "▁إقليم": 3624,
      "▁صار": 3625,
      "طلاع": 3626,
      "▁الحض": 3627,
      "▁الفكر": 3628,
      "▁عمان": 3629,
      "▁الممكن": 3630,
      "فذ": 3631,
      "فعت": 3632,
      "▁الطرفين": 3633,
      "▁مان": 3634,
      "رائم": 3635,
      "▁الرياضية": 3636,
      "▁للمست": 3637,
      "▁أجهزة": 3638,
      "▁القادم": 3639,
      "▁وأنا": 3640,
      "▁بنا": 3641,
      "▁يز": 3642,
      "▁كله": 3643,
      "ونات": 3644,
      "▁35": 3645,
      "▁طرح": 3646,
      "اعد": 3647,
      "▁الحال": 3648,
      "▁فكان": 3649,
      "▁كلها": 3650,
      "▁الياب": 3651,
      "▁يونيو": 3652,
      "بلوما": 3653,
      "▁مشاكل": 3654,
      "طى": 3655,
      "هوم": 3656,
      "كتر": 3657,
      "▁القيادة": 3658,
      "▁لغ": 3659,
      "▁شباب": 3660,
      "▁العا": 3661,
      "▁لجميع": 3662,
      "▁التك": 3663,
      "شكل": 3664,
      "▁حاجة": 3665,
      "▁٠": 3666,
      "ندي": 3667,
      "▁وو": 3668,
      "▁النقد": 3669,
      "▁عنوان": 3670,
      "▁الأق": 3671,
      "▁توجد": 3672,
      "▁الخلا": 3673,
      "▁الإنتاج": 3674,
      "▁اتخاذ": 3675,
      "ردد": 3676,
      "سس": 3677,
      "ره": 3678,
      "ترنت": 3679,
      "▁وأنه": 3680,
      "جموعات": 3681,
      "▁طال": 3682,
      "ناع": 3683,
      "▁والمن": 3684,
      "▁الجزائر": 3685,
      "▁والعمل": 3686,
      "▁النقل": 3687,
      "ارف": 3688,
      "▁واشنطن": 3689,
      "▁يولي": 3690,
      "▁المسجد": 3691,
      "▁الفوز": 3692,
      "الث": 3693,
      "▁أفراد": 3694,
      "غلاق": 3695,
      "روعات": 3696,
      "▁مرات": 3697,
      "خم": 3698,
      "▁التف": 3699,
      "▁المنظمة": 3700,
      "تمبر": 3701,
      "▁العض": 3702,
      "▁امام": 3703,
      "▁القديمة": 3704,
      "ويد": 3705,
      "▁أننا": 3706,
      "▁L": 3707,
      "▁أشار": 3708,
      "تيح": 3709,
      "▁بالفعل": 3710,
      "▁والمؤ": 3711,
      "▁حقيقة": 3712,
      "▁الطريقة": 3713,
      "▁الثنائية": 3714,
      "▁احمد": 3715,
      "▁كا": 3716,
      "▁أربعة": 3717,
      "▁الشمس": 3718,
      "▁برو": 3719,
      "▁المقاومة": 3720,
      "▁البطولة": 3721,
      "أت": 3722,
      "▁يستخدم": 3723,
      "▁أسبوع": 3724,
      "▁تصريح": 3725,
      "▁جمال": 3726,
      "▁وتس": 3727,
      "▁2011": 3728,
      "▁يظهر": 3729,
      "▁واب": 3730,
      "▁تستطيع": 3731,
      "▁عليكم": 3732,
      "دافع": 3733,
      "▁تصريحات": 3734,
      "ودا": 3735,
      "▁صع": 3736,
      "▁ويح": 3737,
      "▁اما": 3738,
      "كني": 3739,
      "▁جمعية": 3740,
      "▁فرنسا": 3741,
      "وعا": 3742,
      "▁النتائج": 3743,
      "واطن": 3744,
      "▁الموظف": 3745,
      "▁أثر": 3746,
      "▁الرحمن": 3747,
      "▁التقلي": 3748,
      "▁لإن": 3749,
      "▁الفع": 3750,
      "▁سبتمبر": 3751,
      "▁طر": 3752,
      "▁غرفة": 3753,
      "▁2012": 3754,
      "▁197": 3755,
      "▁أسباب": 3756,
      "▁تصميم": 3757,
      "▁والاج": 3758,
      "▁المشاريع": 3759,
      "▁الموجودة": 3760,
      "▁الكلام": 3761,
      "▁الديمقراطية": 3762,
      "▁جاءت": 3763,
      "▁والآ": 3764,
      "▁اللواء": 3765,
      "▁عادة": 3766,
      "▁اتحاد": 3767,
      "وضاع": 3768,
      "▁يجد": 3769,
      "راجعة": 3770,
      "▁التسجيل": 3771,
      "▁أست": 3772,
      "▁تأتي": 3773,
      "▁المدارس": 3774,
      "فلة": 3775,
      "▁العرض": 3776,
      "▁ومست": 3777,
      "لمي": 3778,
      "▁الموت": 3779,
      "▁وتابع": 3780,
      "▁منتخب": 3781,
      "▁تتح": 3782,
      "▁وجاء": 3783,
      "قوط": 3784,
      "▁بأنها": 3785,
      "▁الأهلي": 3786,
      "▁الحديثة": 3787,
      "▁أدى": 3788,
      "▁29": 3789,
      "ساعدة": 3790,
      "▁شعر": 3791,
      "آت": 3792,
      "بو": 3793,
      "▁روح": 3794,
      "▁دوري": 3795,
      "▁الرك": 3796,
      "▁كلية": 3797,
      "▁الصغيرة": 3798,
      "اتي": 3799,
      "▁التطبيق": 3800,
      "▁خمس": 3801,
      "▁بالر": 3802,
      "▁سيارة": 3803,
      "▁الجزائ": 3804,
      "▁باعتبار": 3805,
      "▁وعندما": 3806,
      "▁يه": 3807,
      "جئين": 3808,
      "▁الغرب": 3809,
      "واجهة": 3810,
      "▁يقع": 3811,
      "لاج": 3812,
      "ساهم": 3813,
      "▁علاج": 3814,
      "▁عباس": 3815,
      "▁القضايا": 3816,
      "سائر": 3817,
      "▁60": 3818,
      "▁نقاط": 3819,
      "▁سؤال": 3820,
      "▁شارك": 3821,
      "▁الرابع": 3822,
      "حر": 3823,
      "▁أنك": 3824,
      "مبر": 3825,
      "▁ملايين": 3826,
      "▁توفر": 3827,
      "▁البيئة": 3828,
      "▁السيارة": 3829,
      "▁قيادة": 3830,
      "▁تمن": 3831,
      "▁المركزي": 3832,
      "▁2013": 3833,
      "▁الأراضي": 3834,
      "▁تغير": 3835,
      "▁صناعة": 3836,
      "▁تدري": 3837,
      "▁العلمي": 3838,
      "كمال": 3839,
      "▁وأع": 3840,
      "عله": 3841,
      "▁المتهم": 3842,
      "▁الاش": 3843,
      "▁أصل": 3844,
      "كنولوجيا": 3845,
      "▁كار": 3846,
      "▁الأستاذ": 3847,
      "ناية": 3848,
      "ضمان": 3849,
      "▁الموسم": 3850,
      "ورك": 3851,
      "وقيت": 3852,
      "▁يقل": 3853,
      "▁الحرم": 3854,
      "▁ترت": 3855,
      "▁الوحيد": 3856,
      "▁الرد": 3857,
      "فكير": 3858,
      "▁العص": 3859,
      "يجابية": 3860,
      "▁بأي": 3861,
      "▁نن": 3862,
      "▁القائمة": 3863,
      "▁وبعض": 3864,
      "▁والسيا": 3865,
      "▁رياض": 3866,
      "▁مادة": 3867,
      "▁لديها": 3868,
      "▁طا": 3869,
      "▁المناسبة": 3870,
      "باحث": 3871,
      "▁;": 3872,
      "▁الإلكتروني": 3873,
      "صيد": 3874,
      "▁الطبيعية": 3875,
      "▁الإنجلي": 3876,
      "يص": 3877,
      "▁يخت": 3878,
      "ورها": 3879,
      "ليس": 3880,
      "▁واله": 3881,
      "▁ومؤ": 3882,
      "وائد": 3883,
      "▁المناسب": 3884,
      "▁عاد": 3885,
      "وارع": 3886,
      "صحاب": 3887,
      "▁الظروف": 3888,
      "▁الأسد": 3889,
      "▁قلت": 3890,
      "▁الأعضاء": 3891,
      "بادئ": 3892,
      "ضاع": 3893,
      "▁الأسهم": 3894,
      "▁المستثمر": 3895,
      "▁مشاهدة": 3896,
      "طيط": 3897,
      "كيم": 3898,
      "▁ففي": 3899,
      "▁انتشار": 3900,
      "▁ومنها": 3901,
      "▁وجل": 3902,
      "▁الاد": 3903,
      "تمعات": 3904,
      "▁الفساد": 3905,
      "▁مساعد": 3906,
      "▁ويقول": 3907,
      "▁خلا": 3908,
      "▁والمس": 3909,
      "▁196": 3910,
      "▁الأجنبية": 3911,
      "عبير": 3912,
      "▁بسرعة": 3913,
      "▁عددا": 3914,
      "▁هاتف": 3915,
      "▁يزال": 3916,
      "▁فوز": 3917,
      "ثيل": 3918,
      "▁البحرين": 3919,
      "▁مواطن": 3920,
      "▁إجراءات": 3921,
      "▁بتن": 3922,
      "نوات": 3923,
      "ؤية": 3924,
      "▁وبر": 3925,
      "هلك": 3926,
      "▁هى": 3927,
      "▁أنحاء": 3928,
      "قرأ": 3929,
      "▁سابق": 3930,
      "▁الفرنسية": 3931,
      "le": 3932,
      "▁السياحة": 3933,
      "▁الواق": 3934,
      "▁نجاح": 3935,
      "ورونا": 3936,
      "▁الأحمر": 3937,
      "▁عيد": 3938,
      "▁الأعلى": 3939,
      "اليا": 3940,
      "▁وصلت": 3941,
      "▁البريطانية": 3942,
      "▁التركية": 3943,
      "▁شاء": 3944,
      "▁التحالف": 3945,
      "▁وكأن": 3946,
      "▁الدينية": 3947,
      "▁النات": 3948,
      "جتمع": 3949,
      "بلس": 3950,
      "▁معهم": 3951,
      "▁الروسي": 3952,
      "▁الفيديو": 3953,
      "جيع": 3954,
      "▁عما": 3955,
      "▁الانترنت": 3956,
      "▁جماعة": 3957,
      "▁الشرعية": 3958,
      "▁والمست": 3959,
      "جون": 3960,
      "▁الالت": 3961,
      "كره": 3962,
      "▁صحة": 3963,
      "▁نوفمبر": 3964,
      "شى": 3965,
      "▁للك": 3966,
      "شية": 3967,
      "فات": 3968,
      "ئت": 3969,
      "▁القط": 3970,
      "▁الرأي": 3971,
      "▁فح": 3972,
      "▁مباشر": 3973,
      "▁اللبنانية": 3974,
      "ثرة": 3975,
      "▁ذاته": 3976,
      "▁بيانات": 3977,
      "▁الملا": 3978,
      "ائها": 3979,
      "▁كنا": 3980,
      "▁أية": 3981,
      "▁حماس": 3982,
      "ويه": 3983,
      "▁بحق": 3984,
      "ندا": 3985,
      "▁أربع": 3986,
      "جمات": 3987,
      "▁للتح": 3988,
      "هاجم": 3989,
      "▁وتد": 3990,
      "▁أين": 3991,
      "لامات": 3992,
      "ic": 3993,
      "▁تونس": 3994,
      "▁لكنها": 3995,
      "▁تشكل": 3996,
      "▁بغداد": 3997,
      "واجد": 3998,
      "▁رك": 3999,
      "▁بعدها": 4000,
      "▁النب": 4001,
      "غاء": 4002,
      "▁تحول": 4003,
      "▁عديدة": 4004,
      "▁ويد": 4005,
      "▁التغيير": 4006,
      "ثبات": 4007,
      "▁العملات": 4008,
      "▁الاخبار": 4009,
      "نيين": 4010,
      "ويق": 4011,
      "▁يحصل": 4012,
      "▁منح": 4013,
      "ندية": 4014,
      "سه": 4015,
      "ياز": 4016,
      "▁بيد": 4017,
      "▁مسلم": 4018,
      "▁موعد": 4019,
      "▁السؤال": 4020,
      "▁الاشت": 4021,
      "▁البلدين": 4022,
      "فن": 4023,
      "▁التركي": 4024,
      "▁سيت": 4025,
      "ملت": 4026,
      "ولية": 4027,
      "▁الأو": 4028,
      "▁ثانية": 4029,
      "▁المهم": 4030,
      "ربين": 4031,
      "▁تقع": 4032,
      "▁وأس": 4033,
      "▁الليل": 4034,
      "▁ومس": 4035,
      "رجمة": 4036,
      "▁ثورة": 4037,
      "▁الأموال": 4038,
      "طح": 4039,
      "تش": 4040,
      "طانيا": 4041,
      "▁القدرة": 4042,
      "انى": 4043,
      "▁يبلغ": 4044,
      "▁والات": 4045,
      "▁التون": 4046,
      "▁الحس": 4047,
      "▁محكمة": 4048,
      "▁الفصل": 4049,
      "فال": 4050,
      "▁تحرير": 4051,
      "▁المهندس": 4052,
      "▁سلمان": 4053,
      "▁المذك": 4054,
      "▁المكت": 4055,
      "▁بعيدا": 4056,
      "كري": 4057,
      "▁المدن": 4058,
      "▁الواحد": 4059,
      "هة": 4060,
      "قترح": 4061,
      "▁سلسلة": 4062,
      "▁اعتبار": 4063,
      "لاغ": 4064,
      "زمات": 4065,
      "▁العمليات": 4066,
      "▁وبد": 4067,
      "وسع": 4068,
      "▁الهلال": 4069,
      "▁ولكنه": 4070,
      "▁المصادر": 4071,
      "▁إعلام": 4072,
      "قرة": 4073,
      "▁عربية": 4074,
      "▁غرب": 4075,
      "▁دينار": 4076,
      "▁]": 4077,
      "▁اجل": 4078,
      "▁ملف": 4079,
      "قيام": 4080,
      "▁مبارك": 4081,
      "▁دعا": 4082,
      "▁فلم": 4083,
      "▁الغاز": 4084,
      "▁لديهم": 4085,
      "قاذ": 4086,
      "غرب": 4087,
      "▁ستة": 4088,
      "▁طرق": 4089,
      "▁ضرب": 4090,
      "▁الرئيسي": 4091,
      "▁وظيفة": 4092,
      "▁نم": 4093,
      "▁الفيلم": 4094,
      "▁السفر": 4095,
      "ثمان": 4096,
      "▁يشكل": 4097,
      "▁الحالات": 4098,
      "▁امس": 4099,
      "▁العلوم": 4100,
      "▁بالص": 4101,
      "▁الذهب": 4102,
      "▁القانونية": 4103,
      "▁نجد": 4104,
      "▁حدوث": 4105,
      "▁الصهي": 4106,
      "▁ولذلك": 4107,
      "it": 4108,
      "▁الحقيقي": 4109,
      "▁المدنية": 4110,
      "وذ": 4111,
      "▁مايو": 4112,
      "جارة": 4113,
      "▁حياته": 4114,
      "▁تسبب": 4115,
      "▁ويش": 4116,
      "▁التحقيق": 4117,
      "فز": 4118,
      "درات": 4119,
      "▁الوحدة": 4120,
      "▁الحمل": 4121,
      "▁الفرد": 4122,
      "طلقت": 4123,
      "▁حفل": 4124,
      "▁دمشق": 4125,
      "▁الصحفي": 4126,
      "▁الحرية": 4127,
      "بقى": 4128,
      "▁العثور": 4129,
      "زيل": 4130,
      "▁الست": 4131,
      "▁الجزيرة": 4132,
      "▁واسعة": 4133,
      "▁تفاصيل": 4134,
      "باه": 4135,
      "▁الدراسات": 4136,
      "براير": 4137,
      "كاديم": 4138,
      "ائب": 4139,
      "▁التعليمية": 4140,
      "فعيل": 4141,
      "▁البناء": 4142,
      "كلف": 4143,
      "▁واحت": 4144,
      "▁الأسواق": 4145,
      "▁يوليو": 4146,
      "وبا": 4147,
      "▁تتعلق": 4148,
      "ثي": 4149,
      "▁اللعبة": 4150,
      "▁الإف": 4151,
      "جمة": 4152,
      "ورت": 4153,
      "▁الطبيعي": 4154,
      "▁الارت": 4155,
      "▁الأبيض": 4156,
      "▁أط": 4157,
      "▁العاملين": 4158,
      "▁الخير": 4159,
      "▁واضحة": 4160,
      "▁يحتوي": 4161,
      "▁دائرة": 4162,
      "▁المصر": 4163,
      "▁الروسية": 4164,
      "▁مسب": 4165,
      "▁مدريد": 4166,
      "▁سلم": 4167,
      "▁قرب": 4168,
      "▁سليمان": 4169,
      "ro": 4170,
      "▁فهل": 4171,
      "st": 4172,
      "▁الإيراني": 4173,
      "طالبة": 4174,
      "▁المتوقع": 4175,
      "ينه": 4176,
      "فريقيا": 4177,
      "▁ولاية": 4178,
      "▁تواجه": 4179,
      "▁موج": 4180,
      "▁النهاية": 4181,
      "فد": 4182,
      "▁ضبط": 4183,
      "صرة": 4184,
      "▁الفرق": 4185,
      "▁دليل": 4186,
      "▁أى": 4187,
      "اق": 4188,
      "▁لصالح": 4189,
      "صات": 4190,
      "وته": 4191,
      "▁31": 4192,
      "▁الحسن": 4193,
      "▁ترى": 4194,
      "▁حضور": 4195,
      "▁صلاة": 4196,
      "▁فبراير": 4197,
      "صي": 4198,
      "▁للمقيمين": 4199,
      "▁بمدينة": 4200,
      "▁السلطان": 4201,
      "▁الوجه": 4202,
      "▁فم": 4203,
      "▁الأحداث": 4204,
      "▁الانتخاب": 4205,
      "▁الجزء": 4206,
      "▁كورونا": 4207,
      "▁البداية": 4208,
      "▁فب": 4209,
      "▁مشار": 4210,
      "▁الفلسطينيين": 4211,
      "▁اق": 4212,
      "▁مجتمع": 4213,
      "فاءة": 4214,
      "حته": 4215,
      "▁هن": 4216,
      "▁وهل": 4217,
      "▁مشاريع": 4218,
      "▁بالب": 4219,
      "واة": 4220,
      "▁للات": 4221,
      "داخل": 4222,
      "▁ناحية": 4223,
      "▁الارد": 4224,
      "▁الجنوبية": 4225,
      "▁المض": 4226,
      "▁بول": 4227,
      "هلة": 4228,
      "▁توجه": 4229,
      "▁محل": 4230,
      "▁النوم": 4231,
      "▁بعمل": 4232,
      "▁الرسول": 4233,
      "▁خلاف": 4234,
      "▁أمريكا": 4235,
      "▁سأ": 4236,
      "▁غياب": 4237,
      "لقى": 4238,
      "▁سبحانه": 4239,
      "▁سياسة": 4240,
      "▁الإصابة": 4241,
      "▁طوال": 4242,
      "وسطة": 4243,
      "مرت": 4244,
      "▁الضغط": 4245,
      "ضغط": 4246,
      "▁إقامة": 4247,
      "عون": 4248,
      "▁والسلام": 4249,
      "▁مناسبة": 4250,
      "▁ليت": 4251,
      "صدق": 4252,
      "▁قصة": 4253,
      "▁مالية": 4254,
      "▁المشترك": 4255,
      "ناسبة": 4256,
      "ارض": 4257,
      "▁انخفاض": 4258,
      "▁حز": 4259,
      "خلق": 4260,
      "▁موسى": 4261,
      "باق": 4262,
      "▁مقد": 4263,
      "نيع": 4264,
      "▁مكافحة": 4265,
      "▁مياه": 4266,
      "▁وترك": 4267,
      "درية": 4268,
      "▁فرق": 4269,
      "▁أبدا": 4270,
      "▁وربما": 4271,
      "▁بينهما": 4272,
      "باك": 4273,
      "▁الكتب": 4274,
      "▁تحصل": 4275,
      "▁المالي": 4276,
      "▁الحفاظ": 4277,
      "واه": 4278,
      "▁ولل": 4279,
      "▁الجنوب": 4280,
      "▁الكاتب": 4281,
      "شروع": 4282,
      "▁المثال": 4283,
      "▁إعداد": 4284,
      "▁الأصل": 4285,
      "كاتب": 4286,
      "▁قائد": 4287,
      "▁وفاة": 4288,
      "▁للأس": 4289,
      "▁الغذائية": 4290,
      "▁ذه": 4291,
      "▁أحدث": 4292,
      "▁دقائق": 4293,
      "▁تشهد": 4294,
      "▁كلم": 4295,
      "▁تبدأ": 4296,
      "▁مجد": 4297,
      "▁جودة": 4298,
      "▁الالكتر": 4299,
      "▁وتج": 4300,
      "▁السيطرة": 4301,
      "▁مأ": 4302,
      "▁أحب": 4303,
      "▁الموقف": 4304,
      "نوان": 4305,
      "▁عائ": 4306,
      "▁فصل": 4307,
      "▁معرض": 4308,
      "▁فج": 4309,
      "▁بز": 4310,
      "▁البار": 4311,
      "▁2019": 4312,
      "▁45": 4313,
      "انع": 4314,
      "دينة": 4315,
      "▁اند": 4316,
      "▁مدار": 4317,
      "حف": 4318,
      "▁أزمة": 4319,
      "▁مطار": 4320,
      "▁الإلكترونية": 4321,
      "▁يملك": 4322,
      "▁طول": 4323,
      "▁الكمبيوتر": 4324,
      "▁جيش": 4325,
      "▁التمو": 4326,
      "نادق": 4327,
      "▁قاعدة": 4328,
      "▁إمكانية": 4329,
      "▁الحاجة": 4330,
      "▁المهمة": 4331,
      "▁بالله": 4332,
      "▁وأما": 4333,
      "▁اعتبر": 4334,
      "▁القت": 4335,
      "▁الأمين": 4336,
      "▁والاجتما": 4337,
      "▁تزال": 4338,
      "▁مساحة": 4339,
      "▁الزواج": 4340,
      "فيذي": 4341,
      "▁الصحيح": 4342,
      "▁تضم": 4343,
      "▁إضاف": 4344,
      "▁المشار": 4345,
      "▁منز": 4346,
      "▁يصبح": 4347,
      "اليب": 4348,
      "صفات": 4349,
      "▁للتن": 4350,
      "▁مصطفى": 4351,
      "▁مسؤولية": 4352,
      "▁مضيفا": 4353,
      "▁32": 4354,
      "رجات": 4355,
      "جير": 4356,
      "▁قرارات": 4357,
      "▁قت": 4358,
      "▁وأش": 4359,
      "▁الجهود": 4360,
      "▁يجري": 4361,
      "▁يدخل": 4362,
      "وانات": 4363,
      "▁وأضافت": 4364,
      "▁صحي": 4365,
      "▁سام": 4366,
      "وقة": 4367,
      "▁وعدد": 4368,
      "▁صغير": 4369,
      "▁عودة": 4370,
      "▁لابد": 4371,
      "كمل": 4372,
      "▁الكون": 4373,
      "▁القي": 4374,
      "▁اللبناني": 4375,
      "▁بكر": 4376,
      "▁صدر": 4377,
      "▁المقرر": 4378,
      "ظومة": 4379,
      "▁ليلة": 4380,
      "▁الصناعية": 4381,
      "▁الشمالية": 4382,
      "▁أفريق": 4383,
      "▁استع": 4384,
      "▁بعدم": 4385,
      "▁هام": 4386,
      "▁فس": 4387,
      "▁=": 4388,
      "بعاد": 4389,
      "اول": 4390,
      "▁الأسرة": 4391,
      "▁اعلان": 4392,
      "▁الإش": 4393,
      "▁علما": 4394,
      "وظيف": 4395,
      "▁كأ": 4396,
      "▁الشارع": 4397,
      "▁قضايا": 4398,
      "▁تحويل": 4399,
      "▁الإشارة": 4400,
      "▁القائد": 4401,
      "▁تشغيل": 4402,
      "▁أراد": 4403,
      "▁مستقبل": 4404,
      "▁الكهرباء": 4405,
      "▁مصالح": 4406,
      "▁القاعدة": 4407,
      "▁بحاجة": 4408,
      "طبيق": 4409,
      "▁الته": 4410,
      "▁أض": 4411,
      "▁الصحيفة": 4412,
      "اجر": 4413,
      "وائل": 4414,
      "▁تعبر": 4415,
      "▁الرج": 4416,
      "▁تراجع": 4417,
      "▁اهتمام": 4418,
      "ندن": 4419,
      "▁الوث": 4420,
      "نتين": 4421,
      "▁الاهتمام": 4422,
      "▁متم": 4423,
      "▁أوب": 4424,
      "▁المشاكل": 4425,
      "فيض": 4426,
      "▁نح": 4427,
      "▁شهدت": 4428,
      "▁تجعل": 4429,
      "▁بنك": 4430,
      "▁التجاري": 4431,
      "كرر": 4432,
      "▁والز": 4433,
      "داة": 4434,
      "▁الفض": 4435,
      "عرف": 4436,
      "▁نور": 4437,
      "▁زا": 4438,
      "قيات": 4439,
      "أكيد": 4440,
      "▁مباريات": 4441,
      "▁طف": 4442,
      "ذى": 4443,
      "▁الخض": 4444,
      "▁سمو": 4445,
      "▁يحب": 4446,
      "▁الكن": 4447,
      "▁الساح": 4448,
      "درس": 4449,
      "▁واضح": 4450,
      "▁كبار": 4451,
      "▁عسكرية": 4452,
      "▁2010": 4453,
      "▁نرى": 4454,
      "▁السكان": 4455,
      "▁انتهاء": 4456,
      "أتي": 4457,
      "▁التالي": 4458,
      "▁قرر": 4459,
      "▁انف": 4460,
      "▁سياسي": 4461,
      "▁W": 4462,
      "▁معنى": 4463,
      "▁سيما": 4464,
      "▁توزيع": 4465,
      "▁تعود": 4466,
      "ضعف": 4467,
      "▁التقدم": 4468,
      "▁مؤشر": 4469,
      "▁ووف": 4470,
      "▁سابقا": 4471,
      "جهات": 4472,
      "▁الجولة": 4473,
      "▁70": 4474,
      "ساطة": 4475,
      "▁الاتصالات": 4476,
      "▁نفسي": 4477,
      "حيان": 4478,
      "▁المو": 4479,
      "جزاء": 4480,
      "▁المكتب": 4481,
      "▁ورئيس": 4482,
      "▁الجمهور": 4483,
      "▁مسئول": 4484,
      "▁التاريخية": 4485,
      "ساني": 4486,
      "▁والمح": 4487,
      "▁الخلاف": 4488,
      "▁الوس": 4489,
      "▁ممارسة": 4490,
      "▁وتست": 4491,
      "▁صاد": 4492,
      "▁بعضهم": 4493,
      "▁تشمل": 4494,
      "▁ونت": 4495,
      "▁العدل": 4496,
      "▁فالم": 4497,
      "▁حرص": 4498,
      "▁مدرسة": 4499,
      "جرد": 4500,
      "▁علاقات": 4501,
      "▁مكة": 4502,
      "جهود": 4503,
      "▁الاقت": 4504,
      "رابلس": 4505,
      "▁الملكي": 4506,
      "▁بالتعاون": 4507,
      "▁إج": 4508,
      "▁مرور": 4509,
      "▁الأكبر": 4510,
      "▁افضل": 4511,
      "el": 4512,
      "▁N": 4513,
      "▁برم": 4514,
      "▁المسرح": 4515,
      "▁الشعبي": 4516,
      "▁النيابة": 4517,
      "▁اليد": 4518,
      "▁تجمع": 4519,
      "▁تحسين": 4520,
      "▁المجالات": 4521,
      "كلات": 4522,
      "▁لافتا": 4523,
      "▁التيار": 4524,
      "▁النجاح": 4525,
      "▁العدد": 4526,
      "▁تابع": 4527,
      "ذاب": 4528,
      "واريخ": 4529,
      "▁خطر": 4530,
      "صرف": 4531,
      "▁وفى": 4532,
      "▁2022": 4533,
      "ديقة": 4534,
      "▁المنتجات": 4535,
      "▁الامير": 4536,
      "غان": 4537,
      "بحاث": 4538,
      "▁حاج": 4539,
      "▁والي": 4540,
      "▁الابت": 4541,
      "▁منزل": 4542,
      "▁الرقم": 4543,
      "▁تبحث": 4544,
      "▁أكدت": 4545,
      "▁تحقق": 4546,
      "▁غيره": 4547,
      "▁العهد": 4548,
      "▁معدل": 4549,
      "سباني": 4550,
      "▁فلما": 4551,
      "▁المساعد": 4552,
      "كونات": 4553,
      "ليك": 4554,
      "▁المسيح": 4555,
      "▁النصر": 4556,
      "▁الأرب": 4557,
      "▁عصر": 4558,
      "▁مراكز": 4559,
      "▁مستويات": 4560,
      "▁مؤسسات": 4561,
      "يسى": 4562,
      "ائح": 4563,
      "▁جانبه": 4564,
      "▁لين": 4565,
      "▁النموذج": 4566,
      "▁خيار": 4567,
      "حاق": 4568,
      "▁موظف": 4569,
      "▁بإمكان": 4570,
      "▁التنفيذي": 4571,
      "▁الثقة": 4572,
      "▁الرسالة": 4573,
      "▁الثلاثة": 4574,
      "▁السينما": 4575,
      "▁السم": 4576,
      "ضرب": 4577,
      "▁حقق": 4578,
      "▁متعددة": 4579,
      "مام": 4580,
      "▁بعنوان": 4581,
      "▁الرابط": 4582,
      "▁مني": 4583,
      "تمال": 4584,
      "▁يشعر": 4585,
      "وجهة": 4586,
      "ئك": 4587,
      "ثال": 4588,
      "ارقة": 4589,
      "▁الرسمية": 4590,
      "▁الأسنان": 4591,
      "▁وارت": 4592,
      "رقام": 4593,
      "غطية": 4594,
      "▁بعضها": 4595,
      "▁معين": 4596,
      "▁الأطراف": 4597,
      "▁الحسين": 4598,
      "رفين": 4599,
      "واح": 4600,
      "▁الموسي": 4601,
      "▁سيارات": 4602,
      "زايد": 4603,
      "▁جام": 4604,
      "▁از": 4605,
      "▁ملعب": 4606,
      "▁صفحة": 4607,
      "▁كف": 4608,
      "▁تضمن": 4609,
      "▁مبلغ": 4610,
      "▁برش": 4611,
      "عدام": 4612,
      "زيارة": 4613,
      "▁التدريب": 4614,
      "▁المصدر": 4615,
      "▁النشاط": 4616,
      "▁الحمد": 4617,
      "ذيب": 4618,
      "▁وعم": 4619,
      "ارته": 4620,
      "▁إيجاد": 4621,
      "▁أفريقيا": 4622,
      "رويد": 4623,
      "▁شروط": 4624,
      "▁الإطلاق": 4625,
      "طنة": 4626,
      "▁المجا": 4627,
      "▁الخص": 4628,
      "وصول": 4629,
      "▁الرسمي": 4630,
      "▁ويعت": 4631,
      "▁يقت": 4632,
      "▁الدعوة": 4633,
      "كنية": 4634,
      "▁المنشورة": 4635,
      "▁الخامس": 4636,
      "ياس": 4637,
      "▁شهادة": 4638,
      "علوم": 4639,
      "الما": 4640,
      "▁إرسال": 4641,
      "▁نه": 4642,
      "▁الاتجاه": 4643,
      "▁المتط": 4644,
      "▁المعرفة": 4645,
      "▁يؤكد": 4646,
      "▁برئاسة": 4647,
      "▁كشفت": 4648,
      "▁مصلحة": 4649,
      "▁ووضع": 4650,
      "▁الأوروبية": 4651,
      "▁يبدأ": 4652,
      "ساط": 4653,
      "▁أحداث": 4654,
      "▁بذ": 4655,
      "▁توفي": 4656,
      "وفا": 4657,
      "▁النهائي": 4658,
      "▁المتوسط": 4659,
      "▁ميل": 4660,
      "▁التحرير": 4661,
      "▁قرية": 4662,
      "▁المعنية": 4663,
      "حايا": 4664,
      "▁العالي": 4665,
      "زنة": 4666,
      "▁ضعف": 4667,
      "سحاب": 4668,
      "▁يعتقد": 4669,
      "▁الطبيب": 4670,
      "▁يحاول": 4671,
      "جازات": 4672,
      "▁كر": 4673,
      "▁الشاب": 4674,
      "▁البش": 4675,
      "لاع": 4676,
      "سطس": 4677,
      "الفة": 4678,
      "▁الثقافية": 4679,
      "▁الأفضل": 4680,
      "▁آن": 4681,
      "ذف": 4682,
      "▁امرأة": 4683,
      "▁لأول": 4684,
      "▁خطوة": 4685,
      "▁معنا": 4686,
      "▁الحملة": 4687,
      "▁الفعل": 4688,
      "▁صندوق": 4689,
      "▁جلسة": 4690,
      "▁استخدم": 4691,
      "أكد": 4692,
      "▁الفن": 4693,
      "▁توجيه": 4694,
      "▁الامر": 4695,
      "وانب": 4696,
      "كاني": 4697,
      "▁فيديو": 4698,
      "▁النس": 4699,
      "▁مدرب": 4700,
      "▁المشتركة": 4701,
      "راكة": 4702,
      "▁بوت": 4703,
      "▁جا": 4704,
      "▁ولما": 4705,
      "▁رحمه": 4706,
      "▁حمد": 4707,
      "▁صرف": 4708,
      "▁وعرض": 4709,
      "نامج": 4710,
      "▁خيارات": 4711,
      "▁الحرارة": 4712,
      "حتاج": 4713,
      "▁مواد": 4714,
      "▁جب": 4715,
      "▁مستشفى": 4716,
      "حوال": 4717,
      "▁تويتر": 4718,
      "▁هكذا": 4719,
      "روفة": 4720,
      "▁وأيضا": 4721,
      "▁فعاليات": 4722,
      "▁الذه": 4723,
      "دمير": 4724,
      "▁المكني": 4725,
      "▁المصاب": 4726,
      "▁الصوت": 4727,
      "▁وسوف": 4728,
      "▁؛\n": 4729,
      "مار": 4730,
      "بادة": 4731,
      "▁أموال": 4732,
      "فاد": 4733,
      "▁واخت": 4734,
      "▁القومي": 4735,
      "▁الانق": 4736,
      "بيين": 4737,
      "زز": 4738,
      "▁الحاكم": 4739,
      "▁خال": 4740,
      "▁الده": 4741,
      "▁لتش": 4742,
      "هران": 4743,
      "▁جاه": 4744,
      "▁المشارك": 4745,
      "▁ترغب": 4746,
      "▁نفسك": 4747,
      "كندرية": 4748,
      "▁الطالب": 4749,
      "▁شرك": 4750,
      "▁الصراع": 4751,
      "▁شبه": 4752,
      "▁بحضور": 4753,
      "▁بلاده": 4754,
      "▁تبقى": 4755,
      "▁المصريين": 4756,
      "▁فيت": 4757,
      "▁الانسان": 4758,
      "▁المستشار": 4759,
      "▁الاعلام": 4760,
      "▁بعيد": 4761,
      "سبوك": 4762,
      "شفيات": 4763,
      "▁السا": 4764,
      "▁الجامعات": 4765,
      "▁بالمن": 4766,
      "لفزيون": 4767,
      "▁الجد": 4768,
      "▁الجماهير": 4769,
      "رفية": 4770,
      "▁استراتيجية": 4771,
      "▁عمله": 4772,
      "زيمة": 4773,
      "▁العقد": 4774,
      "▁ادارة": 4775,
      "▁يحي": 4776,
      "▁الامري": 4777,
      "▁التدري": 4778,
      "▁طرابلس": 4779,
      "▁إما": 4780,
      "وحيد": 4781,
      "▁شخصا": 4782,
      "▁رائعة": 4783,
      "▁رق": 4784,
      "تهما": 4785,
      "قاش": 4786,
      "واك": 4787,
      "▁طن": 4788,
      "صفح": 4789,
      "▁لز": 4790,
      "ولين": 4791,
      "▁صفوف": 4792,
      "▁وجهة": 4793,
      "طلبات": 4794,
      "سفة": 4795,
      "▁مسألة": 4796,
      "▁الرابعة": 4797,
      "▁المائة": 4798,
      "▁المسؤولين": 4799,
      "سته": 4800,
      "▁شاهد": 4801,
      "▁500": 4802,
      "▁000": 4803,
      "خير": 4804,
      "▁المقدمة": 4805,
      "ايف": 4806,
      "▁اليون": 4807,
      "طبق": 4808,
      "▁الدولار": 4809,
      "▁واقع": 4810,
      "▁موسي": 4811,
      "▁ويل": 4812,
      "اضر": 4813,
      "▁لآ": 4814,
      "▁الجلد": 4815,
      "▁ورغم": 4816,
      "▁شب": 4817,
      "▁عمرو": 4818,
      "▁منك": 4819,
      "▁يعاني": 4820,
      "▁كأن": 4821,
      "▁الخروج": 4822,
      "▁ظروف": 4823,
      "▁طل": 4824,
      "فريقية": 4825,
      "▁تشير": 4826,
      "▁الضوء": 4827,
      "تان": 4828,
      "واتف": 4829,
      "▁سعود": 4830,
      "▁التقنية": 4831,
      "▁يلت": 4832,
      "▁يعت": 4833,
      "▁نطاق": 4834,
      "ربط": 4835,
      "▁الصيف": 4836,
      "تاز": 4837,
      "▁المرة": 4838,
      "▁قدرة": 4839,
      "▁متابعة": 4840,
      "▁لاحقا": 4841,
      "▁مجالات": 4842,
      "▁الأشياء": 4843,
      "▁واعت": 4844,
      "▁المحد": 4845,
      "▁الموارد": 4846,
      "▁برج": 4847,
      "▁القسم": 4848,
      "▁اللون": 4849,
      "▁O": 4850,
      "▁تبلغ": 4851,
      "▁الفرصة": 4852,
      "قوله": 4853,
      "خراج": 4854,
      "بيد": 4855,
      "رويج": 4856,
      "▁الرئا": 4857,
      "▁البريد": 4858,
      "كنت": 4859,
      "▁التفكير": 4860,
      "ريقي": 4861,
      "ظهرت": 4862,
      "▁منتصف": 4863,
      "▁ميز": 4864,
      "▁عنهم": 4865,
      "ماكن": 4866,
      "▁منش": 4867,
      "ؤكد": 4868,
      "▁الاولى": 4869,
      "▁حقا": 4870,
      "▁واحدا": 4871,
      "▁كمية": 4872,
      "▁المدر": 4873,
      "▁السكر": 4874,
      "▁المعروف": 4875,
      "▁الجنة": 4876,
      "▁واضاف": 4877,
      "▁أطفال": 4878,
      "▁بريطانيا": 4879,
      "▁المدرب": 4880,
      "▁الإصلاح": 4881,
      "re": 4882,
      "▁شرطة": 4883,
      "▁السياحية": 4884,
      "▁أحكام": 4885,
      "▁السادس": 4886,
      "▁ولفت": 4887,
      "▁مالك": 4888,
      "▁انتخابات": 4889,
      "▁الهجوم": 4890,
      "غوط": 4891,
      "▁بالغ": 4892,
      "▁الأغلبية": 4893,
      "▁التض": 4894,
      "▁بقوة": 4895,
      "▁لبعض": 4896,
      "▁العظيم": 4897,
      "▁توقع": 4898,
      "▁وإلى": 4899,
      "▁قليلا": 4900,
      "▁العمال": 4901,
      "▁يطلب": 4902,
      "▁اللاجئين": 4903,
      "▁تزيد": 4904,
      "▁العملاء": 4905,
      "▁الطيران": 4906,
      "▁فعلا": 4907,
      "▁بفضل": 4908,
      "▁جرى": 4909,
      "قش": 4910,
      "قلب": 4911,
      "▁الحديد": 4912,
      "▁بقيمة": 4913,
      "امر": 4914,
      "▁آخرين": 4915,
      "▁الداخلي": 4916,
      "▁نسخة": 4917,
      "▁بقيادة": 4918,
      "▁مسل": 4919,
      "▁باريس": 4920,
      "▁اليومية": 4921,
      "كتاب": 4922,
      "▁٪": 4923,
      "▁الهواء": 4924,
      "▁مرك": 4925,
      "▁الأمراض": 4926,
      "شهد": 4927,
      "▁فكر": 4928,
      "▁أغلب": 4929,
      "▁كلما": 4930,
      "am": 4931,
      "كى": 4932,
      "▁80": 4933,
      "▁الملف": 4934,
      "▁أحيانا": 4935,
      "▁أشخاص": 4936,
      "▁النه": 4937,
      "▁العدالة": 4938,
      "▁إسلام": 4939,
      "ريحة": 4940,
      "عن": 4941,
      "▁والأس": 4942,
      "سف": 4943,
      "▁الروح": 4944,
      "الحة": 4945,
      "▁ونا": 4946,
      "▁شم": 4947,
      "كور": 4948,
      "▁ذكرت": 4949,
      "▁d": 4950,
      "▁ولكنها": 4951,
      "▁ومص": 4952,
      "عاة": 4953,
      "▁والبر": 4954,
      "▁تعتمد": 4955,
      "▁تعيين": 4956,
      "▁البلدان": 4957,
      "قيب": 4958,
      "ac": 4959,
      "ئل": 4960,
      "حتها": 4961,
      "▁صبا": 4962,
      "شيات": 4963,
      "▁لاع": 4964,
      "▁تعامل": 4965,
      "▁يبقى": 4966,
      "▁الملكية": 4967,
      "هلا": 4968,
      "خرين": 4969,
      "▁المؤمنين": 4970,
      "▁بالذكر": 4971,
      "▁جراء": 4972,
      "▁يتطلب": 4973,
      "▁الإب": 4974,
      "▁ثالث": 4975,
      "▁باقي": 4976,
      "▁s": 4977,
      "▁لندن": 4978,
      "▁اتجاه": 4979,
      "نافس": 4980,
      "▁أنفسهم": 4981,
      "▁195": 4982,
      "▁الواقعة": 4983,
      "لتقى": 4984,
      "▁تخص": 4985,
      "ضمام": 4986,
      "▁الاص": 4987,
      "▁ألمانيا": 4988,
      "▁المستشفى": 4989,
      "▁العصر": 4990,
      "▁برشل": 4991,
      "▁لتس": 4992,
      "▁موضحا": 4993,
      "ملكة": 4994,
      "▁البحرية": 4995,
      "ئيا": 4996,
      "▁أخبار": 4997,
      "▁ويجب": 4998,
      "▁سلام": 4999,
      "▁بالعمل": 5000,
      "▁36": 5001,
      "▁الثقافي": 5002,
      "▁تتضمن": 5003,
      "وأ": 5004,
      "▁قليلة": 5005,
      "▁الترب": 5006,
      "بيعات": 5007,
      "▁متى": 5008,
      "▁الزيت": 5009,
      "▁السير": 5010,
      "▁بالمئة": 5011,
      "▁الإيمان": 5012,
      "▁محطة": 5013,
      "وظبي": 5014,
      "▁الأطباء": 5015,
      "▁أرسل": 5016,
      "▁اليهود": 5017,
      "▁آثار": 5018,
      "خبار": 5019,
      "▁اث": 5020,
      "ياط": 5021,
      "▁تعيش": 5022,
      "▁ده": 5023,
      "▁سيع": 5024,
      "▁الإيط": 5025,
      "▁المحم": 5026,
      "▁وكيل": 5027,
      "ليلة": 5028,
      "▁الطلبة": 5029,
      "▁أز": 5030,
      "غت": 5031,
      "▁تعديل": 5032,
      "▁يفت": 5033,
      "▁يتحدث": 5034,
      "▁2020": 5035,
      "▁V": 5036,
      "▁التغ": 5037,
      "▁يخرج": 5038,
      "▁المريض": 5039,
      "▁قررت": 5040,
      "▁بموجب": 5041,
      "ارين": 5042,
      "حام": 5043,
      "▁بتوقيت": 5044,
      "▁ضغط": 5045,
      "▁أمين": 5046,
      "▁المهرجان": 5047,
      "▁تث": 5048,
      "▁بوك": 5049,
      "▁2008": 5050,
      "وقعة": 5051,
      "رافية": 5052,
      "▁الجلسة": 5053,
      "لول": 5054,
      "رادة": 5055,
      "▁بسهولة": 5056,
      "رخ": 5057,
      "▁دعوة": 5058,
      "سمبر": 5059,
      "▁مقدم": 5060,
      "▁التزام": 5061,
      "▁برشلونة": 5062,
      "▁أطلق": 5063,
      "▁وظايف": 5064,
      "▁وجدت": 5065,
      "▁نصر": 5066,
      "بارات": 5067,
      "▁النووي": 5068,
      "▁يقال": 5069,
      "▁زيت": 5070,
      "▁لدعم": 5071,
      "خمة": 5072,
      "▁ومد": 5073,
      "▁البنوك": 5074,
      "صري": 5075,
      "▁حتي": 5076,
      "▁القوانين": 5077,
      "▁يدفع": 5078,
      "▁وهكذا": 5079,
      "▁دورة": 5080,
      "ورى": 5081,
      "▁للمس": 5082,
      "راعة": 5083,
      "▁حظ": 5084,
      "▁قار": 5085,
      "هات": 5086,
      "▁خروج": 5087,
      "▁التا": 5088,
      "▁مجانا": 5089,
      "بدء": 5090,
      "ويتي": 5091,
      "ابيع": 5092,
      "روري": 5093,
      "▁تأسيس": 5094,
      "▁قادر": 5095,
      "▁تنظيف": 5096,
      "هلاك": 5097,
      "▁المغربية": 5098,
      "▁خطأ": 5099,
      "▁مطالب": 5100,
      "▁أمل": 5101,
      "▁الحفل": 5102,
      "▁لغة": 5103,
      "▁ذوي": 5104,
      "▁السعر": 5105,
      "▁شار": 5106,
      "كرم": 5107,
      "▁ديسمبر": 5108,
      "▁الأساسي": 5109,
      "▁العدو": 5110,
      "▁توقف": 5111,
      "▁33": 5112,
      "▁تملك": 5113,
      "▁الخصوص": 5114,
      "▁الإدارية": 5115,
      "يلية": 5116,
      "▁منتجات": 5117,
      "▁مبر": 5118,
      "▁بيروت": 5119,
      "▁شيخ": 5120,
      "▁رأى": 5121,
      "▁2009": 5122,
      "▁اتصال": 5123,
      "▁كتابة": 5124,
      "▁التب": 5125,
      "▁أور": 5126,
      "▁تسعى": 5127,
      "▁الشؤون": 5128,
      "▁فشل": 5129,
      "▁السيسي": 5130,
      "▁الصاد": 5131,
      "▁ضم": 5132,
      "▁لمواجهة": 5133,
      "▁عسكري": 5134,
      "▁التشري": 5135,
      "▁الخيار": 5136,
      "▁النسخة": 5137,
      "▁نقص": 5138,
      "▁تؤدي": 5139,
      "ترا": 5140,
      "▁وبدأ": 5141,
      "▁يوفر": 5142,
      "▁ذهب": 5143,
      "قيقات": 5144,
      "اتك": 5145,
      "▁التركيز": 5146,
      "▁استعداد": 5147,
      "فعال": 5148,
      "▁أغسطس": 5149,
      "▁بمنطقة": 5150,
      "▁الاستفادة": 5151,
      "▁عربي": 5152,
      "▁الجب": 5153,
      "▁الفندق": 5154,
      "هدد": 5155,
      "▁النبات": 5156,
      "ou": 5157,
      "▁جميل": 5158,
      "▁سقوط": 5159,
      "▁واج": 5160,
      "▁مين": 5161,
      "▁التخصص": 5162,
      "▁الحرمين": 5163,
      "▁صديق": 5164,
      "▁إصدار": 5165,
      "قاطعة": 5166,
      "▁المرش": 5167,
      "▁مسرح": 5168,
      "▁ذو": 5169,
      "فيفة": 5170,
      "▁اللعب": 5171,
      "▁قريبا": 5172,
      "▁المسؤولية": 5173,
      "▁زم": 5174,
      "▁المأ": 5175,
      "نها": 5176,
      "▁إثر": 5177,
      "نعة": 5178,
      "▁منصور": 5179,
      "▁غالبا": 5180,
      "▁الدكت": 5181,
      "وده": 5182,
      "▁الخامسة": 5183,
      "▁قواعد": 5184,
      "▁أبريل": 5185,
      "جنب": 5186,
      "▁درجات": 5187,
      "▁السياق": 5188,
      "رافي": 5189,
      "اناة": 5190,
      "▁غدا": 5191,
      "يجة": 5192,
      "▁المغربي": 5193,
      "▁سلطان": 5194,
      "وائية": 5195,
      "et": 5196,
      "▁القبض": 5197,
      "يال": 5198,
      "▁الجودة": 5199,
      "▁منطق": 5200,
      "▁أخر": 5201,
      "▁يعطي": 5202,
      "▁دورا": 5203,
      "▁جزءا": 5204,
      "▁مون": 5205,
      "▁غيرها": 5206,
      "▁الخطاب": 5207,
      "▁منهما": 5208,
      "▁عشرات": 5209,
      "▁عرب": 5210,
      "▁لسنة": 5211,
      "▁السلاح": 5212,
      "▁وتطوير": 5213,
      "▁مساعدة": 5214,
      "▁يمنع": 5215,
      "ختيار": 5216,
      "▁ضمان": 5217,
      "▁العاملة": 5218,
      "▁يعتمد": 5219,
      "▁يرج": 5220,
      "فسة": 5221,
      "▁إرها": 5222,
      "▁قلوب": 5223,
      "▁وتقديم": 5224,
      "▁t": 5225,
      "ائص": 5226,
      "عليم": 5227,
      "▁الشيء": 5228,
      "▁ورو": 5229,
      "▁طويل": 5230,
      "▁التالية": 5231,
      "▁افتتاح": 5232,
      "▁أوضح": 5233,
      "▁بتاريخ": 5234,
      "▁علماء": 5235,
      "وادث": 5236,
      "▁وقبل": 5237,
      "▁جون": 5238,
      "▁البيع": 5239,
      "▁ذي": 5240,
      "▁90": 5241,
      "عيين": 5242,
      "▁حضر": 5243,
      "▁حصلت": 5244,
      "▁194": 5245,
      "▁البخ": 5246,
      "▁المخاطر": 5247,
      "بدال": 5248,
      "▁زوجها": 5249,
      "▁الطائرة": 5250,
      "▁قدمت": 5251,
      "▁المركزية": 5252,
      "▁الأردنية": 5253,
      "رجال": 5254,
      "▁تواصل": 5255,
      "عدل": 5256,
      "رمى": 5257,
      "▁تذكر": 5258,
      "▁وتف": 5259,
      "▁وذ": 5260,
      "▁الكلية": 5261,
      "▁توص": 5262,
      "▁الفائ": 5263,
      "▁الموظفين": 5264,
      "▁صل": 5265,
      "▁تهدف": 5266,
      "▁الخل": 5267,
      "▁التابع": 5268,
      "▁الجمع": 5269,
      "▁ويف": 5270,
      "ئون": 5271,
      "جأ": 5272,
      "▁المصرى": 5273,
      "▁يدل": 5274,
      "▁فاز": 5275,
      "▁المنافسة": 5276,
      "▁أعلم": 5277,
      "رامة": 5278,
      "▁الأسباب": 5279,
      "▁فرد": 5280,
      "▁ورح": 5281,
      "▁استغلال": 5282,
      "▁فهد": 5283,
      "ot": 5284,
      "▁الجو": 5285,
      "▁لمح": 5286,
      "اده": 5287,
      "▁وأكثر": 5288,
      "▁المتن": 5289,
      "▁تصبح": 5290,
      "▁النتيجة": 5291,
      "▁مول": 5292,
      "▁طبيعة": 5293,
      "▁المعرض": 5294,
      "رائب": 5295,
      "▁تفسير": 5296,
      "قيه": 5297,
      "▁سنويا": 5298,
      "▁التشغيل": 5299,
      "راوح": 5300,
      "وقيع": 5301,
      "ضير": 5302,
      "▁الأحيان": 5303,
      "▁يضع": 5304,
      "▁ليف": 5305,
      "وقوف": 5306,
      "▁وشدد": 5307,
      "▁القيمة": 5308,
      "▁حوار": 5309,
      "▁اتفاقية": 5310,
      "▁العقوبات": 5311,
      "▁قض": 5312,
      "▁المئة": 5313,
      "▁لتم": 5314,
      "▁اليس": 5315,
      "▁زي": 5316,
      "▁وتر": 5317,
      "▁الإيرانية": 5318,
      "▁رحلة": 5319,
      "▁تخت": 5320,
      "▁شرح": 5321,
      "▁الرياضة": 5322,
      "▁انع": 5323,
      "▁الأوضاع": 5324,
      "▁لعام": 5325,
      "▁لنفس": 5326,
      "كلم": 5327,
      "وضحت": 5328,
      "▁تشرين": 5329,
      "▁ومحمد": 5330,
      "▁المفاوضات": 5331,
      "▁طفل": 5332,
      "ولوجية": 5333,
      "راغ": 5334,
      "▁السابع": 5335,
      "▁الافت": 5336,
      "▁معالجة": 5337,
      "شرق": 5338,
      "▁مهرجان": 5339,
      "▁السويس": 5340,
      "▁ابو": 5341,
      "▁سوء": 5342,
      "▁ضوء": 5343,
      "▁رواه": 5344,
      "هلية": 5345,
      "▁القرارات": 5346,
      "▁والإن": 5347,
      "▁لحظة": 5348,
      "▁التدخل": 5349,
      "▁ودعم": 5350,
      "ناطق": 5351,
      "جنبي": 5352,
      "▁الاسلامية": 5353,
      "غن": 5354,
      "▁ناصر": 5355,
      "▁m": 5356,
      "▁الإعلامي": 5357,
      "▁الثانوية": 5358,
      "ذكرة": 5359,
      "▁إير": 5360,
      "▁المي": 5361,
      "▁التفاصيل": 5362,
      "▁مقب": 5363,
      "زاء": 5364,
      "▁جذ": 5365,
      "▁حرية": 5366,
      "▁قليل": 5367,
      "▁القديم": 5368,
      "▁المتحدث": 5369,
      "انس": 5370,
      "▁سري": 5371,
      "▁ثقاف": 5372,
      "▁والتى": 5373,
      "▁متنوعة": 5374,
      "▁سو": 5375,
      "▁للمد": 5376,
      "▁ويكون": 5377,
      "▁وقعت": 5378,
      "▁اليمنية": 5379,
      "▁عزيز": 5380,
      "ابا": 5381,
      "ارها": 5382,
      "وليد": 5383,
      "ad": 5384,
      "ارى": 5385,
      "▁يأخذ": 5386,
      "▁بمحافظة": 5387,
      "▁وأشارت": 5388,
      "▁لمست": 5389,
      "▁يهدف": 5390,
      "▁الشعوب": 5391,
      "▁ويج": 5392,
      "▁·": 5393,
      "دون": 5394,
      "▁خليفة": 5395,
      "▁حصول": 5396,
      "▁حلول": 5397,
      "يما": 5398,
      "ركان": 5399,
      "▁أصدر": 5400,
      "▁بتقديم": 5401,
      "▁حقيقية": 5402,
      "ولايات": 5403,
      "▁اسرائيل": 5404,
      "▁الأهداف": 5405,
      "▁الحرير": 5406,
      "ورج": 5407,
      "وسيع": 5408,
      "▁السفير": 5409,
      "▁تحديث": 5410,
      "▁إجمالي": 5411,
      "وريت": 5412,
      "▁مميز": 5413,
      "▁34": 5414,
      "▁بقية": 5415,
      "▁سرعة": 5416,
      "ؤه": 5417,
      "▁الكشف": 5418,
      "▁لوك": 5419,
      "▁البرو": 5420,
      "▁لتقديم": 5421,
      "▁ليكون": 5422,
      "▁لعدم": 5423,
      "وعي": 5424,
      "طرا": 5425,
      "▁توقيع": 5426,
      "▁شديد": 5427,
      "رعة": 5428,
      "يريا": 5429,
      "▁انق": 5430,
      "▁أشكال": 5431,
      "▁إنت": 5432,
      "▁الخطوة": 5433,
      "اتل": 5434,
      "▁يواجه": 5435,
      "▁زين": 5436,
      "▁القيم": 5437,
      "▁فص": 5438,
      "ذاك": 5439,
      "درج": 5440,
      "▁كري": 5441,
      "حويل": 5442,
      "▁زال": 5443,
      "▁مفهوم": 5444,
      "▁وقدم": 5445,
      "▁لحقوق": 5446,
      "▁الاف": 5447,
      "▁اللغ": 5448,
      "▁ثابت": 5449,
      "كما": 5450,
      "▁أولى": 5451,
      "▁العناصر": 5452,
      "▁الملفات": 5453,
      "قاعد": 5454,
      "▁الأداء": 5455,
      "▁تطور": 5456,
      "يميا": 5457,
      "50": 5458,
      "▁الوك": 5459,
      "▁كاتب": 5460,
      "بيعة": 5461,
      "▁اخر": 5462,
      "▁يفعل": 5463,
      "▁آسيا": 5464,
      "▁اتخذ": 5465,
      "▁مناسب": 5466,
      "▁موظ": 5467,
      "▁العنف": 5468,
      "▁كلمات": 5469,
      "▁المحافظات": 5470,
      "واني": 5471,
      "▁الآية": 5472,
      "▁فق": 5473,
      "ياهو": 5474,
      "▁وسيلة": 5475,
      "▁الوار": 5476,
      "▁مشاهد": 5477,
      "▁وتخ": 5478,
      "▁الشديد": 5479,
      "▁الحص": 5480,
      "▁سلامة": 5481,
      "▁الحقائق": 5482,
      "دريب": 5483,
      "▁المبادرة": 5484,
      "▁لقب": 5485,
      "▁نيوز": 5486,
      "▁اليمني": 5487,
      "▁أجمل": 5488,
      "▁يرفض": 5489,
      "كوين": 5490,
      "▁بكثير": 5491,
      "▁الأحزاب": 5492,
      "تمي": 5493,
      "▁ودون": 5494,
      "▁الذكر": 5495,
      "▁المرج": 5496,
      "شيد": 5497,
      "▁التراث": 5498,
      "is": 5499,
      "▁تنتظر": 5500,
      "▁صاح": 5501,
      "وزير": 5502,
      "▁العاب": 5503,
      "▁المطلوبة": 5504,
      "▁إف": 5505,
      "ماعة": 5506,
      "▁عادل": 5507,
      "تام": 5508,
      "▁الذكية": 5509,
      "▁الرم": 5510,
      "▁جدة": 5511,
      "▁والأم": 5512,
      "▁شعار": 5513,
      "▁للبيع": 5514,
      "▁الانتق": 5515,
      "▁بالكامل": 5516,
      "ناسب": 5517,
      "ion": 5518,
      "▁الوزن": 5519,
      "▁ظهرت": 5520,
      "▁الملي": 5521,
      "▁تبين": 5522,
      "▁الموجود": 5523,
      "▁نظم": 5524,
      "▁بمث": 5525,
      "ياته": 5526,
      "▁وبم": 5527,
      "▁الرياضي": 5528,
      "▁يبحث": 5529,
      "هاجر": 5530,
      "▁عقود": 5531,
      "▁ومش": 5532,
      "▁رئاسة": 5533,
      "ed": 5534,
      "▁قالوا": 5535,
      "صابات": 5536,
      "ويورك": 5537,
      "▁تعاني": 5538,
      "▁سيف": 5539,
      "▁درهم": 5540,
      "▁ثاني": 5541,
      "شرت": 5542,
      "▁القائم": 5543,
      "▁الشكل": 5544,
      "سلطة": 5545,
      "▁الكل": 5546,
      "▁المشاركين": 5547,
      "▁والتق": 5548,
      "▁مقت": 5549,
      "▁الإرهابية": 5550,
      "▁واعتبر": 5551,
      "▁نجم": 5552,
      "▁نشرت": 5553,
      "▁الشمال": 5554,
      "جيب": 5555,
      "▁مراحل": 5556,
      "▁تجارة": 5557,
      "فو": 5558,
      "زاز": 5559,
      "▁فار": 5560,
      "▁أسهم": 5561,
      "▁مواقف": 5562,
      "▁ظاهرة": 5563,
      "ائم": 5564,
      "▁البرت": 5565,
      "▁بمر": 5566,
      "▁حما": 5567,
      "ربت": 5568,
      "▁منتدى": 5569,
      "▁الباحثين": 5570,
      "طاليا": 5571,
      "▁الصباح": 5572,
      "حدات": 5573,
      "▁الموافق": 5574,
      "يدي": 5575,
      "▁الحقيقية": 5576,
      "▁أيها": 5577,
      "▁التأمين": 5578,
      "▁الشت": 5579,
      "▁وبحسب": 5580,
      "▁إصابة": 5581,
      "▁تو": 5582,
      "▁بجانب": 5583,
      "قدام": 5584,
      "▁عاش": 5585,
      "وائز": 5586,
      "30": 5587,
      "يدر": 5588,
      "رقية": 5589,
      "▁الوحي": 5590,
      "▁ثقافة": 5591,
      "▁الساحة": 5592,
      "▁صنا": 5593,
      "▁فات": 5594,
      "▁صحفي": 5595,
      "▁الزراعة": 5596,
      "▁الكامل": 5597,
      "▁الجهة": 5598,
      "▁أخبر": 5599,
      "▁المرضى": 5600,
      "▁البشرة": 5601,
      "▁زوجته": 5602,
      "▁إنسان": 5603,
      "▁رعاية": 5604,
      "▁الالتزام": 5605,
      "▁ولهذا": 5606,
      "▁48": 5607,
      "▁المقدم": 5608,
      "▁كريم": 5609,
      "▁أبوظبي": 5610,
      "▁الزراعية": 5611,
      "▁العش": 5612,
      "▁إله": 5613,
      "▁البع": 5614,
      "▁وحده": 5615,
      "▁وبا": 5616,
      "▁المدى": 5617,
      "▁المختصة": 5618,
      "ظاهرات": 5619,
      "▁متأ": 5620,
      "ستها": 5621,
      "▁سالم": 5622,
      "واطنين": 5623,
      "لقاء": 5624,
      "طالب": 5625,
      "▁أسرع": 5626,
      "ليقات": 5627,
      "برنامج": 5628,
      "سيط": 5629,
      "ظى": 5630,
      "▁شن": 5631,
      "صدر": 5632,
      "▁تواجد": 5633,
      "▁أنني": 5634,
      "امات": 5635,
      "▁الاستراتيجية": 5636,
      "▁بض": 5637,
      "▁احترام": 5638,
      "▁الفل": 5639,
      "▁يحقق": 5640,
      "شم": 5641,
      "لاقة": 5642,
      "امنة": 5643,
      "▁بمثابة": 5644,
      "▁الجزائري": 5645,
      "ادثة": 5646,
      "▁السما": 5647,
      "▁التحكيم": 5648,
      "▁لعمل": 5649,
      "ريكا": 5650,
      "▁مئات": 5651,
      "▁اضافة": 5652,
      "▁النهائية": 5653,
      "▁وبن": 5654,
      "▁غرف": 5655,
      "مالك": 5656,
      "▁قبول": 5657,
      "▁الاستقرار": 5658,
      "▁والتنمية": 5659,
      "لاه": 5660,
      "▁مجلة": 5661,
      "▁التعبير": 5662,
      "▁لفترة": 5663,
      "▁الشأن": 5664,
      "▁خادم": 5665,
      "▁ممثل": 5666,
      "▁لمت": 5667,
      "▁الغرفة": 5668,
      "▁أقول": 5669,
      "قاق": 5670,
      "فير": 5671,
      "▁تنمية": 5672,
      "▁الحلقة": 5673,
      "▁بالقرب": 5674,
      "▁يضم": 5675,
      "▁المباشر": 5676,
      "فاعل": 5677,
      "▁00": 5678,
      "ئه": 5679,
      "▁تقييم": 5680,
      "▁الألعاب": 5681,
      "▁الأسلحة": 5682,
      "▁قادرة": 5683,
      "غرق": 5684,
      "▁ونقل": 5685,
      "▁تبدو": 5686,
      "▁سلوك": 5687,
      "▁وبه": 5688,
      "كاء": 5689,
      "قيدة": 5690,
      "▁٣": 5691,
      "▁خلاله": 5692,
      "▁البلدية": 5693,
      "▁وأكدت": 5694,
      "ومه": 5695,
      "▁استح": 5696,
      "طرية": 5697,
      "تة": 5698,
      "▁التجربة": 5699,
      "▁تقد": 5700,
      "▁أبطال": 5701,
      "▁الصحف": 5702,
      "▁القطاعات": 5703,
      "▁سمع": 5704,
      "اريو": 5705,
      "oo": 5706,
      "▁مستخدم": 5707,
      "▁إت": 5708,
      "▁التقليدية": 5709,
      "روي": 5710,
      "▁لضمان": 5711,
      "▁يخص": 5712,
      "▁حينما": 5713,
      "▁السيدة": 5714,
      "▁بمناسبة": 5715,
      "صير": 5716,
      "فتاء": 5717,
      "▁للمؤ": 5718,
      "غار": 5719,
      "▁الحادث": 5720,
      "▁القل": 5721,
      "▁بدر": 5722,
      "▁متوسط": 5723,
      "▁شارع": 5724,
      "▁أقرب": 5725,
      "▁الشريفين": 5726,
      "▁الصينية": 5727,
      "▁كاف": 5728,
      "▁سان": 5729,
      "▁استعمال": 5730,
      "▁جديدا": 5731,
      "▁محددة": 5732,
      "▁قادة": 5733,
      "▁المقال": 5734,
      "▁قمة": 5735,
      "▁نموذج": 5736,
      "▁الزيارة": 5737,
      "▁الطا": 5738,
      "وهات": 5739,
      "وغان": 5740,
      "ريضة": 5741,
      "▁الشوط": 5742,
      "▁مناق": 5743,
      "▁ببعض": 5744,
      "▁أماكن": 5745,
      "▁يتمتع": 5746,
      "▁بالتح": 5747,
      "اطئ": 5748,
      "▁ماء": 5749,
      "▁ورفع": 5750,
      "▁رائع": 5751,
      "▁المكر": 5752,
      "▁تدريب": 5753,
      "ويم": 5754,
      "▁الأفكار": 5755,
      "▁حام": 5756,
      "▁مناز": 5757,
      "ماغ": 5758,
      "▁الصحافة": 5759,
      "▁لشركة": 5760,
      "▁هجوم": 5761,
      "▁الألمانية": 5762,
      "زون": 5763,
      "▁الحضور": 5764,
      "▁وذكرت": 5765,
      "▁الاع": 5766,
      "▁راشد": 5767,
      "▁الديمقراطي": 5768,
      "▁حرم": 5769,
      "▁يمر": 5770,
      "▁ورش": 5771,
      "كافحة": 5772,
      "هيئة": 5773,
      "سيما": 5774,
      "طاقات": 5775,
      "▁بإن": 5776,
      "بعد": 5777,
      "▁والمش": 5778,
      "▁للمرة": 5779,
      "▁مسيرة": 5780,
      "▁يشت": 5781,
      "ندات": 5782,
      "كاة": 5783,
      "▁وبما": 5784,
      "فيق": 5785,
      "▁تتبع": 5786,
      "▁تحذ": 5787,
      "خيل": 5788,
      "قاع": 5789,
      "▁القناة": 5790,
      "لاص": 5791,
      "▁للمنت": 5792,
      "▁استقبال": 5793,
      "▁لمس": 5794,
      "تمام": 5795,
      "▁البريطاني": 5796,
      "▁p": 5797,
      "صدقاء": 5798,
      "▁غض": 5799,
      "▁التحكم": 5800,
      "▁البيضاء": 5801,
      "▁سطح": 5802,
      "عدد": 5803,
      "▁النفسية": 5804,
      "▁الانتخابية": 5805,
      "جهيز": 5806,
      "وسائل": 5807,
      "▁اليم": 5808,
      "▁تقارير": 5809,
      "▁37": 5810,
      "▁سلطة": 5811,
      "▁فئة": 5812,
      "▁فرع": 5813,
      "▁اكتشاف": 5814,
      "▁كانون": 5815,
      "▁بالتن": 5816,
      "▁موجود": 5817,
      "▁العالية": 5818,
      "▁خطوات": 5819,
      "▁صباحا": 5820,
      "▁وعمل": 5821,
      "▁2006": 5822,
      "▁هات": 5823,
      "▁الإج": 5824,
      "▁قوى": 5825,
      "عمة": 5826,
      "ويلا": 5827,
      "▁تقلي": 5828,
      "▁القراءة": 5829,
      "▁النيل": 5830,
      "as": 5831,
      "▁الأقصى": 5832,
      "اضافة": 5833,
      "بلوماسية": 5834,
      "▁ساهم": 5835,
      "▁المستثمرين": 5836,
      "▁والأن": 5837,
      "▁عائل": 5838,
      "فه": 5839,
      "▁الغربي": 5840,
      "صبحت": 5841,
      "▁الحاج": 5842,
      "▁المبارك": 5843,
      "▁المقر": 5844,
      "▁سعي": 5845,
      "ديلات": 5846,
      "▁تخرج": 5847,
      "▁الإت": 5848,
      "▁ليتم": 5849,
      "قع": 5850,
      "▁طلاب": 5851,
      "▁أمور": 5852,
      "▁تؤكد": 5853,
      "لمانية": 5854,
      "▁المنتج": 5855,
      "▁وجعل": 5856,
      "▁خلفية": 5857,
      "كرا": 5858,
      "▁الزمالك": 5859,
      "▁أمريكي": 5860,
      "▁الصهيوني": 5861,
      "▁جمهورية": 5862,
      "▁بالضرورة": 5863,
      "▁النشر": 5864,
      "▁أسا": 5865,
      "▁السجن": 5866,
      "▁الروم": 5867,
      "▁الفنانة": 5868,
      "زت": 5869,
      "▁بسيطة": 5870,
      "تون": 5871,
      "▁التل": 5872,
      "▁فندق": 5873,
      "▁الخبراء": 5874,
      "▁الصغير": 5875,
      "▁طهران": 5876,
      "▁الانتهاء": 5877,
      "▁للجميع": 5878,
      "▁والمد": 5879,
      "ناك": 5880,
      "▁عامل": 5881,
      "▁خطط": 5882,
      "▁بالاست": 5883,
      "ياج": 5884,
      "▁يورو": 5885,
      "▁وجم": 5886,
      "▁عثمان": 5887,
      "ورين": 5888,
      "طعمة": 5889,
      "▁وكما": 5890,
      "▁أغنية": 5891,
      "▁وهى": 5892,
      "▁يستحق": 5893,
      "▁وخصوص": 5894,
      "▁يسعى": 5895,
      "▁معركة": 5896,
      "▁الحماية": 5897,
      "▁سياق": 5898,
      "▁احتياجات": 5899,
      "▁يمتلك": 5900,
      "▁السلع": 5901,
      "▁عود": 5902,
      "ابق": 5903,
      "▁المساعدة": 5904,
      "▁بخصوص": 5905,
      "▁الذهاب": 5906,
      "▁العائلة": 5907,
      "▁فيصل": 5908,
      "▁قا": 5909,
      "سبانيا": 5910,
      "▁بمست": 5911,
      "▁300": 5912,
      "▁تصرف": 5913,
      "وست": 5914,
      "▁رواية": 5915,
      "نيه": 5916,
      "▁تقنية": 5917,
      "▁قصر": 5918,
      "▁يقف": 5919,
      "▁الاتفاقية": 5920,
      "▁ينتظر": 5921,
      "▁الكاملة": 5922,
      "▁لون": 5923,
      "▁التنفيذية": 5924,
      "▁شؤون": 5925,
      "▁وقام": 5926,
      "▁لمش": 5927,
      "▁صي": 5928,
      "▁الإعلامية": 5929,
      "▁تختلف": 5930,
      "▁وآله": 5931,
      "ing": 5932,
      "▁الرعاية": 5933,
      "▁قوي": 5934,
      "▁سقط": 5935,
      "▁تصوير": 5936,
      "قيت": 5937,
      "▁بتص": 5938,
      "▁التونسي": 5939,
      "▁بمعنى": 5940,
      "▁عروض": 5941,
      "▁تسليم": 5942,
      "▁الاستثمارات": 5943,
      "▁يرغب": 5944,
      "▁تجري": 5945,
      "ؤل": 5946,
      "▁يؤثر": 5947,
      "هان": 5948,
      "▁جبل": 5949,
      "شأ": 5950,
      "ؤولة": 5951,
      "▁الشبكة": 5952,
      "▁للان": 5953,
      "▁يلعب": 5954,
      "▁الشاعر": 5955,
      "▁مديرية": 5956,
      "▁وأوضحت": 5957,
      "▁الدرجة": 5958,
      "▁طيب": 5959,
      "▁وطالب": 5960,
      "فار": 5961,
      "▁الأرج": 5962,
      "داب": 5963,
      "بادرات": 5964,
      "▁يتعرض": 5965,
      "ثارة": 5966,
      "▁\"\n": 5967,
      "▁المقابل": 5968,
      "▁38": 5969,
      "he": 5970,
      "▁مرو": 5971,
      "▁وقوع": 5972,
      "▁الأماكن": 5973,
      "دائية": 5974,
      "▁ثمن": 5975,
      "▁الضفة": 5976,
      "عوة": 5977,
      "▁استثمار": 5978,
      "▁الصالح": 5979,
      "هادات": 5980,
      "▁للدولة": 5981,
      "▁الجماعة": 5982,
      "▁2007": 5983,
      "لفية": 5984,
      "▁مجددا": 5985,
      "▁الغير": 5986,
      "فرة": 5987,
      "▁الهجرة": 5988,
      "وفرة": 5989,
      "▁يشير": 5990,
      "▁باح": 5991,
      "ناها": 5992,
      "▁ينظر": 5993,
      "ظن": 5994,
      "▁المطب": 5995,
      "▁تي": 5996,
      "▁بوجود": 5997,
      "لاقات": 5998,
      "▁فإنها": 5999,
      "▁الشريعة": 6000,
      "▁الاير": 6001,
      "وازن": 6002,
      "▁كوب": 6003,
      "▁c": 6004,
      "▁الكتابة": 6005,
      "وقرا": 6006,
      "▁بشار": 6007,
      "ديان": 6008,
      "▁55": 6009,
      "▁مبادرة": 6010,
      "▁سورة": 6011,
      "حاديث": 6012,
      "▁إذن": 6013,
      "▁واسع": 6014,
      "▁أخيرا": 6015,
      "تيات": 6016,
      "▁اعلن": 6017,
      "▁إشارة": 6018,
      "▁الهد": 6019,
      "▁المتح": 6020,
      "▁الأكاديم": 6021,
      "وقت": 6022,
      "▁المسلسل": 6023,
      "▁نيويورك": 6024,
      "ذاكرة": 6025,
      "وفة": 6026,
      "▁ايران": 6027,
      "▁موجودة": 6028,
      "علة": 6029,
      "راسات": 6030,
      "▁جميلة": 6031,
      "▁تحليل": 6032,
      "▁تكر": 6033,
      "▁الرواية": 6034,
      "قدة": 6035,
      "▁الأسود": 6036,
      "▁الأساس": 6037,
      "▁لحماية": 6038,
      "▁تسا": 6039,
      "اوف": 6040,
      "▁إيجاب": 6041,
      "id": 6042,
      "▁بضرورة": 6043,
      "▁مطلع": 6044,
      "▁دولية": 6045,
      "شرطة": 6046,
      "▁فخ": 6047,
      "▁منصب": 6048,
      "▁التحديات": 6049,
      "يتهم": 6050,
      "▁قريب": 6051,
      "▁الرئاسة": 6052,
      "▁الشام": 6053,
      "جاهل": 6054,
      "▁السمو": 6055,
      "▁رصد": 6056,
      "▁اه": 6057,
      "لمه": 6058,
      "▁مشد": 6059,
      "▁بدي": 6060,
      "▁حدثنا": 6061,
      "▁والاجتماعية": 6062,
      "▁فيهم": 6063,
      "▁كتبت": 6064,
      "▁المسيحي": 6065,
      "▁الأر": 6066,
      "▁الأحوال": 6067,
      "▁الشعور": 6068,
      "▁الحدث": 6069,
      "▁الصناعة": 6070,
      "بول": 6071,
      "▁السماء": 6072,
      "▁الوفد": 6073,
      "▁التجار": 6074,
      "▁اكبر": 6075,
      "▁قيل": 6076,
      "▁التحت": 6077,
      "▁تفعيل": 6078,
      "▁والعالم": 6079,
      "▁تقت": 6080,
      "سمع": 6081,
      "▁بطاقة": 6082,
      "▁إصلاح": 6083,
      "▁عنده": 6084,
      "مح": 6085,
      "▁مبدأ": 6086,
      "▁المجتمعات": 6087,
      "▁طبيعي": 6088,
      "▁مجموع": 6089,
      "▁زالت": 6090,
      "▁لاي": 6091,
      "▁المشهد": 6092,
      "▁قوانين": 6093,
      "▁وار": 6094,
      "▁يقبل": 6095,
      "▁قصيرة": 6096,
      "ارئ": 6097,
      "▁آمن": 6098,
      "▁مدن": 6099,
      "▁ومم": 6100,
      "فيدة": 6101,
      "شيخ": 6102,
      "▁وحسب": 6103,
      "▁وكذا": 6104,
      "▁تعت": 6105,
      "▁للانت": 6106,
      "▁القاضي": 6107,
      "خبة": 6108,
      "ناد": 6109,
      "▁وزراء": 6110,
      "ذاء": 6111,
      "روات": 6112,
      "راس": 6113,
      "▁مهارات": 6114,
      "▁للث": 6115,
      "قالة": 6116,
      "▁وأد": 6117,
      "▁وطنية": 6118,
      "طاعم": 6119,
      "▁42": 6120,
      "▁سبعة": 6121,
      "لو": 6122,
      "▁البلا": 6123,
      "تيش": 6124,
      "▁تشعر": 6125,
      "أمل": 6126,
      "متع": 6127,
      "دامة": 6128,
      "فور": 6129,
      "▁ناد": 6130,
      "▁وبناء": 6131,
      "غو": 6132,
      "▁بقدر": 6133,
      "ئناف": 6134,
      "▁٥": 6135,
      "هارات": 6136,
      "▁بطل": 6137,
      "▁سبع": 6138,
      "▁الدفع": 6139,
      "▁نفذ": 6140,
      "▁الفكرة": 6141,
      "▁خطاب": 6142,
      "▁وعلي": 6143,
      "وجة": 6144,
      "ؤها": 6145,
      "قلين": 6146,
      "▁وتعالى": 6147,
      "بيان": 6148,
      "▁أقدم": 6149,
      "وارئ": 6150,
      "▁الجنسية": 6151,
      "▁الامن": 6152,
      "زه": 6153,
      "▁بلدة": 6154,
      "▁تقدير": 6155,
      "▁اقتصادية": 6156,
      "▁المستخدمين": 6157,
      "▁زاد": 6158,
      "▁ميد": 6159,
      "▁أرج": 6160,
      "▁ومحا": 6161,
      "▁فيروس": 6162,
      "▁الأدوية": 6163,
      "▁لتكون": 6164,
      "▁الكلمة": 6165,
      "▁والتم": 6166,
      "▁الأفراد": 6167,
      "▁الآثار": 6168,
      "لاعب": 6169,
      "وضى": 6170,
      "▁تأمين": 6171,
      "غيرات": 6172,
      "▁نقول": 6173,
      "▁عمره": 6174,
      "▁الإح": 6175,
      "▁وخلال": 6176,
      "▁أوباما": 6177,
      "▁يكفي": 6178,
      "▁نهائي": 6179,
      "كشاف": 6180,
      "صم": 6181,
      "▁شكرا": 6182,
      "عال": 6183,
      "▁التكنولوجيا": 6184,
      "▁المرور": 6185,
      "▁الانف": 6186,
      "▁البالغ": 6187,
      "▁الصعيد": 6188,
      "▁تقبل": 6189,
      "▁مجه": 6190,
      "▁للوصول": 6191,
      "▁مرزق": 6192,
      "▁الربع": 6193,
      "▁الما": 6194,
      "▁المواضيع": 6195,
      "▁التحتية": 6196,
      "▁خبراء": 6197,
      "▁الرأس": 6198,
      "il": 6199,
      "▁رئيسا": 6200,
      "▁دست": 6201,
      "▁الأصول": 6202,
      "ريج": 6203,
      "▁الفقر": 6204,
      "▁التأثير": 6205,
      "▁قطعة": 6206,
      "▁U": 6207,
      "▁تؤثر": 6208,
      "هيار": 6209,
      "▁السلم": 6210,
      "▁موسكو": 6211,
      "▁العيد": 6212,
      "ذان": 6213,
      "وهم": 6214,
      "▁صعوبة": 6215,
      "▁ثقة": 6216,
      "▁للمشاركة": 6217,
      "▁مشترك": 6218,
      "▁منس": 6219,
      "▁للسي": 6220,
      "▁منصة": 6221,
      "▁اعتماد": 6222,
      "▁للي": 6223,
      "▁فكل": 6224,
      "▁المسئول": 6225,
      "▁الحكومي": 6226,
      "ضل": 6227,
      "▁أمنية": 6228,
      "ثمارية": 6229,
      "▁إنجاز": 6230,
      "▁يتمكن": 6231,
      "▁بانت": 6232,
      "▁الشهيد": 6233,
      "▁جنا": 6234,
      "▁عائلة": 6235,
      "يله": 6236,
      "▁بالمائة": 6237,
      "ئر": 6238,
      "▁مشرو": 6239,
      "▁عالمية": 6240,
      "بس": 6241,
      "▁العشرين": 6242,
      "▁تعليق": 6243,
      "▁قرأ": 6244,
      "سيطر": 6245,
      "▁ملاح": 6246,
      "جلات": 6247,
      "▁وخصوصا": 6248,
      "▁مستح": 6249,
      "رابة": 6250,
      "لكم": 6251,
      "جوء": 6252,
      "▁الحريري": 6253,
      "ابي": 6254,
      "▁السوريين": 6255,
      "▁استراتيج": 6256,
      "▁إني": 6257,
      "▁الصندوق": 6258,
      "▁الرؤية": 6259,
      "راوي": 6260,
      "▁الكلمات": 6261,
      "▁الهواتف": 6262,
      "▁الدستورية": 6263,
      "▁أراضي": 6264,
      "▁عقل": 6265,
      "▁الإقليمية": 6266,
      "▁أعتقد": 6267,
      "▁أسرة": 6268,
      "▁هما": 6269,
      "▁التمويل": 6270,
      "عتين": 6271,
      "الفات": 6272,
      "جاجات": 6273,
      "▁يتضمن": 6274,
      "وائر": 6275,
      "اريا": 6276,
      "ماذج": 6277,
      "▁الخطة": 6278,
      "▁75": 6279,
      "▁وأب": 6280,
      "▁الكنيسة": 6281,
      "▁الجيل": 6282,
      "▁نقدم": 6283,
      "▁حدد": 6284,
      "▁الوعي": 6285,
      "▁2000": 6286,
      "قبة": 6287,
      "نياهو": 6288,
      "▁كتابه": 6289,
      "▁يطلق": 6290,
      "▁الكويتي": 6291,
      "▁وزيادة": 6292,
      "خصة": 6293,
      "▁بالاضافة": 6294,
      "ارسات": 6295,
      "▁لسان": 6296,
      "▁الفرص": 6297,
      "▁الفيروس": 6298,
      "▁تعريف": 6299,
      "▁رغبة": 6300,
      "▁والذين": 6301,
      "▁الصادر": 6302,
      "▁القمة": 6303,
      "▁الأنشطة": 6304,
      "▁الشب": 6305,
      "▁يشارك": 6306,
      "▁طبعا": 6307,
      "▁أسر": 6308,
      "يفه": 6309,
      "ol": 6310,
      "▁سابقة": 6311,
      "▁عكس": 6312,
      "▁الإل": 6313,
      "▁الألماني": 6314,
      "▁أعد": 6315,
      "جيال": 6316,
      "▁واي": 6317,
      "▁العمومية": 6318,
      "▁صحية": 6319,
      "▁غاية": 6320,
      "▁إضافية": 6321,
      "▁وتوفير": 6322,
      "▁التخلص": 6323,
      "▁يشهد": 6324,
      "عدا": 6325,
      "▁ورس": 6326,
      "▁انتهى": 6327,
      "وسى": 6328,
      "▁باتجاه": 6329,
      "▁وتك": 6330,
      "▁سيناء": 6331,
      "▁نعرف": 6332,
      "▁المعم": 6333,
      "▁بكم": 6334,
      "▁عيسى": 6335,
      "▁مراجعة": 6336,
      "▁يتجاوز": 6337,
      "▁الصعب": 6338,
      "▁الاعتماد": 6339,
      "▁تعني": 6340,
      "▁سيل": 6341,
      "▁مشيرة": 6342,
      "▁الاكت": 6343,
      "▁الجريمة": 6344,
      "▁الحيوانات": 6345,
      "▁أدوات": 6346,
      "▁يعرض": 6347,
      "شام": 6348,
      "صمة": 6349,
      "قاب": 6350,
      "▁صدور": 6351,
      "▁الكهربائية": 6352,
      "▁المنظمات": 6353,
      "▁صرح": 6354,
      "▁معدلات": 6355,
      "طلة": 6356,
      "▁خارجية": 6357,
      "▁ودعا": 6358,
      "▁الميز": 6359,
      "هوة": 6360,
      "▁تأكيد": 6361,
      "▁الصوم": 6362,
      "▁المهنية": 6363,
      "▁الوكالة": 6364,
      "ساتين": 6365,
      "▁وأنت": 6366,
      "▁الاج": 6367,
      "▁لمجلس": 6368,
      "▁وادي": 6369,
      "▁النور": 6370,
      "▁جع": 6371,
      "▁مسار": 6372,
      "▁أريد": 6373,
      "▁المساعدات": 6374,
      "▁تأخذ": 6375,
      "ظيمة": 6376,
      "فتاح": 6377,
      "مني": 6378,
      "وتا": 6379,
      "▁القضائية": 6380,
      "زو": 6381,
      "▁المتعاقدين": 6382,
      "▁ويعتبر": 6383,
      "▁الصد": 6384,
      "▁يكت": 6385,
      "لامي": 6386,
      "▁عاصمة": 6387,
      "▁المصالح": 6388,
      "ماعيل": 6389,
      "▁حسابات": 6390,
      "▁الملابس": 6391,
      "▁وتحقيق": 6392,
      "▁القا": 6393,
      "▁نريد": 6394,
      "▁سهم": 6395,
      "▁مستمرة": 6396,
      "▁بالرغم": 6397,
      "▁K": 6398,
      "▁ملفات": 6399,
      "راها": 6400,
      "▁الحجر": 6401,
      "شين": 6402,
      "▁تحاول": 6403,
      "▁ومل": 6404,
      "▁وتعزيز": 6405,
      "▁بغير": 6406,
      "▁43": 6407,
      "▁استطاع": 6408,
      "رط": 6409,
      "واط": 6410,
      "▁الأوقات": 6411,
      "▁برس": 6412,
      "▁والض": 6413,
      "▁بالخارج": 6414,
      "▁رصيد": 6415,
      "▁اسمه": 6416,
      "▁المستهلك": 6417,
      "شيا": 6418,
      "▁السلوك": 6419,
      "▁المستمر": 6420,
      "▁وأف": 6421,
      "▁جس": 6422,
      "▁نجح": 6423,
      "▁كفر": 6424,
      "هو": 6425,
      "▁القصة": 6426,
      "▁استمر": 6427,
      "▁كبرى": 6428,
      "▁مقتل": 6429,
      "▁أصول": 6430,
      "▁ايام": 6431,
      "▁سعودي": 6432,
      "▁ونصف": 6433,
      "▁الشاشة": 6434,
      "▁تلقى": 6435,
      "▁للبن": 6436,
      "▁مزيد": 6437,
      "▁الكام": 6438,
      "▁محاولات": 6439,
      "▁خسائر": 6440,
      "▁ذاتها": 6441,
      "فاقيات": 6442,
      "▁متك": 6443,
      "▁العقود": 6444,
      "▁شئ": 6445,
      "▁التوجه": 6446,
      "▁الأردني": 6447,
      "يها": 6448,
      "▁يدي": 6449,
      "كاب": 6450,
      "يفية": 6451,
      "▁فش": 6452,
      "▁حلب": 6453,
      "ولاية": 6454,
      "▁صفقة": 6455,
      "▁التخطيط": 6456,
      "▁والبح": 6457,
      "▁شاب": 6458,
      "▁النجم": 6459,
      "▁النم": 6460,
      "▁لتع": 6461,
      "▁طائرة": 6462,
      "▁والتص": 6463,
      "▁مهام": 6464,
      "▁انتهت": 6465,
      "▁اختبار": 6466,
      "▁المحتلة": 6467,
      "▁رام": 6468,
      "سعودية": 6469,
      "▁أطراف": 6470,
      "▁نوعية": 6471,
      "▁وتكون": 6472,
      "ثاث": 6473,
      "▁كهرب": 6474,
      "▁بإعادة": 6475,
      "▁واد": 6476,
      "▁يسمى": 6477,
      "جري": 6478,
      "صية": 6479,
      "▁القيامة": 6480,
      "▁الحصار": 6481,
      "▁الضر": 6482,
      "هامات": 6483,
      "▁تضع": 6484,
      "▁النهار": 6485,
      "▁وبلغ": 6486,
      "▁السوداء": 6487,
      "▁يرجى": 6488,
      "ادثات": 6489,
      "▁الفائدة": 6490,
      "▁تجم": 6491,
      "▁رغ": 6492,
      "▁مظ": 6493,
      "▁فكيف": 6494,
      "كوك": 6495,
      "▁التصميم": 6496,
      "▁بيئة": 6497,
      "▁مسجد": 6498,
      "صلات": 6499,
      "▁ردود": 6500,
      "فاه": 6501,
      "▁برا": 6502,
      "▁أثبت": 6503,
      "سير": 6504,
      "▁اثنين": 6505,
      "▁الطائف": 6506,
      "▁وفد": 6507,
      "▁مقات": 6508,
      "▁إفريقيا": 6509,
      "▁الخبرة": 6510,
      "▁التنسيق": 6511,
      "▁انتها": 6512,
      "▁يقدر": 6513,
      "▁سيس": 6514,
      "ذات": 6515,
      "▁الأسئلة": 6516,
      "▁خبرة": 6517,
      "سيل": 6518,
      "▁نو": 6519,
      "▁49": 6520,
      "▁الصرف": 6521,
      "▁بمشاركة": 6522,
      "▁بوضع": 6523,
      "نازل": 6524,
      "▁يجمع": 6525,
      "▁سحب": 6526,
      "▁والده": 6527,
      "▁السج": 6528,
      "طت": 6529,
      "لون": 6530,
      "▁خفض": 6531,
      "عها": 6532,
      "▁تمويل": 6533,
      "▁ثانيا": 6534,
      "▁بجميع": 6535,
      "▁بدوره": 6536,
      "▁جوجل": 6537,
      "وفيق": 6538,
      "▁التجم": 6539,
      "▁اقتصادي": 6540,
      "▁لعم": 6541,
      "▁جماهير": 6542,
      "▁الدخل": 6543,
      "▁يدرك": 6544,
      "▁الكر": 6545,
      "فيز": 6546,
      "▁المسألة": 6547,
      "▁العملة": 6548,
      "▁الصيد": 6549,
      "▁يسمح": 6550,
      "▁إزالة": 6551,
      "▁علامات": 6552,
      "▁نجا": 6553,
      "▁أساسي": 6554,
      "▁عبدالرح": 6555,
      "▁لأحد": 6556,
      "▁فريقه": 6557,
      "▁صعيد": 6558,
      "▁وطلب": 6559,
      "▁سما": 6560,
      "▁البرا": 6561,
      "▁نجوم": 6562,
      "▁سفر": 6563,
      "▁أعرف": 6564,
      "ياتها": 6565,
      "▁تعا": 6566,
      "طه": 6567,
      "▁للجم": 6568,
      "▁المراكز": 6569,
      "▁يختلف": 6570,
      "حها": 6571,
      "▁السفارة": 6572,
      "بطال": 6573,
      "▁الوسائل": 6574,
      "▁المذكورة": 6575,
      "▁الرسوم": 6576,
      "شب": 6577,
      "ديمقراطية": 6578,
      "▁بالتأكيد": 6579,
      "▁البتر": 6580,
      "▁والسل": 6581,
      "▁تبر": 6582,
      "▁شرف": 6583,
      "▁الأثر": 6584,
      "▁آلة": 6585,
      "▁سلاح": 6586,
      "هوري": 6587,
      "▁الخوف": 6588,
      "▁يو": 6589,
      "▁بدعم": 6590,
      "▁ثمانية": 6591,
      "▁الخارجي": 6592,
      "▁ليرة": 6593,
      "▁ليع": 6594,
      "▁مرح": 6595,
      "▁تكوين": 6596,
      "يء": 6597,
      "▁يعبر": 6598,
      "▁السريع": 6599,
      "▁المعارض": 6600,
      "▁بجامعة": 6601,
      "▁سنت": 6602,
      "▁الملعب": 6603,
      "▁المتاحة": 6604,
      "طرابات": 6605,
      "ظهار": 6606,
      "▁العثم": 6607,
      "▁الراحل": 6608,
      "▁القبول": 6609,
      "▁قيد": 6610,
      "▁أسماء": 6611,
      "▁الإنت": 6612,
      "▁توصل": 6613,
      "▁نشرها": 6614,
      "▁الشخصيات": 6615,
      "وادر": 6616,
      "▁وسيا": 6617,
      "▁وكشف": 6618,
      "▁الخال": 6619,
      "▁منف": 6620,
      "ؤدي": 6621,
      "▁إليك": 6622,
      "▁مستمر": 6623,
      "▁نتنياهو": 6624,
      "بعث": 6625,
      "▁مرس": 6626,
      "▁’": 6627,
      "▁ربط": 6628,
      "▁08": 6629,
      "▁عنا": 6630,
      "▁شعبية": 6631,
      "ربا": 6632,
      "ظات": 6633,
      "▁فضل": 6634,
      "ىء": 6635,
      "▁الإثنين": 6636,
      "▁مير": 6637,
      "ائحة": 6638,
      "▁\\": 6639,
      "▁بلدية": 6640,
      "▁الحلول": 6641,
      "▁لتطوير": 6642,
      "▁موسيقية": 6643,
      "▁تعاون": 6644,
      "▁الشروط": 6645,
      "لح": 6646,
      "ئمة": 6647,
      "▁يسبب": 6648,
      "▁الفضاء": 6649,
      "▁وام": 6650,
      "om": 6651,
      "▁ربع": 6652,
      "ادلة": 6653,
      "▁الدار": 6654,
      "▁التوالي": 6655,
      "▁الاعتبار": 6656,
      "▁اللحظة": 6657,
      "▁44": 6658,
      "▁بتع": 6659,
      "▁الصيني": 6660,
      "▁باللغة": 6661,
      "▁الشوارع": 6662,
      "▁والتش": 6663,
      "غانستان": 6664,
      "▁الخطأ": 6665,
      "▁اضغط": 6666,
      "▁طارق": 6667,
      "تيال": 6668,
      "ستي": 6669,
      "▁٤": 6670,
      "▁الامتح": 6671,
      "▁2005": 6672,
      "▁استد": 6673,
      "▁شديدة": 6674,
      "▁الناتج": 6675,
      "▁صعبة": 6676,
      "▁لمعرفة": 6677,
      "▁استخدامها": 6678,
      "▁عف": 6679,
      "بطولة": 6680,
      "▁متح": 6681,
      "▁يتوقع": 6682,
      "▁التصويت": 6683,
      "▁الربيع": 6684,
      "واصلة": 6685,
      "▁العيش": 6686,
      "▁الواردة": 6687,
      "▁يترك": 6688,
      "صين": 6689,
      "▁أبا": 6690,
      "▁إغلاق": 6691,
      "وحات": 6692,
      "فف": 6693,
      "ناقشة": 6694,
      "▁ترتيب": 6695,
      "▁أبنائ": 6696,
      "▁التطبيقات": 6697,
      "▁والأح": 6698,
      "▁فزان": 6699,
      "صت": 6700,
      "▁تابعة": 6701,
      "▁عباد": 6702,
      "▁البول": 6703,
      "▁علامة": 6704,
      "ضادة": 6705,
      "▁عالميا": 6706,
      "اي": 6707,
      "▁قانونية": 6708,
      "▁جرائم": 6709,
      "▁معهد": 6710,
      "▁f": 6711,
      "▁وضعت": 6712,
      "▁وسل": 6713,
      "▁لتنفيذ": 6714,
      "▁التوصل": 6715,
      "كسر": 6716,
      "▁لتأ": 6717,
      "▁بدل": 6718,
      "▁الاض": 6719,
      "كانيات": 6720,
      "ضبط": 6721,
      "▁والرياض": 6722,
      "زلة": 6723,
      "▁خطيرة": 6724,
      "▁النفسي": 6725,
      "▁طبيعية": 6726,
      "▁بإذن": 6727,
      "▁تلت": 6728,
      "▁تمام": 6729,
      "▁الجوي": 6730,
      "▁الإنجليزية": 6731,
      "طلاقا": 6732,
      "▁صب": 6733,
      "▁الطائرات": 6734,
      "▁وحول": 6735,
      "▁39": 6736,
      "▁بالمع": 6737,
      "▁يرد": 6738,
      "▁بزيارة": 6739,
      "▁أمرا": 6740,
      "▁ولقد": 6741,
      "▁المقدسة": 6742,
      "▁ديوان": 6743,
      "▁المحيط": 6744,
      "▁نقوم": 6745,
      "▁تقدر": 6746,
      "▁الخطوط": 6747,
      "ضاة": 6748,
      "▁الجنوبي": 6749,
      "▁جهته": 6750,
      "اضرة": 6751,
      "▁المستح": 6752,
      "▁والمؤسسات": 6753,
      "▁مستشار": 6754,
      "▁الأخضر": 6755,
      "تيه": 6756,
      "▁فحسب": 6757,
      "▁العبد": 6758,
      "▁أمراض": 6759,
      "▁لحل": 6760,
      "▁تخصص": 6761,
      "ينيات": 6762,
      "▁تبادل": 6763,
      "▁بتش": 6764,
      "▁رسائل": 6765,
      "▁أيدي": 6766,
      "▁والبي": 6767,
      "▁اعتقال": 6768,
      "▁القرية": 6769,
      "▁تجارية": 6770,
      "▁المتظاهر": 6771,
      "هنة": 6772,
      "قاهرة": 6773,
      "ربات": 6774,
      "شستر": 6775,
      "▁ستت": 6776,
      "▁عيني": 6777,
      "▁فلي": 6778,
      "▁علمية": 6779,
      "خين": 6780,
      "▁دائم": 6781,
      "يسان": 6782,
      "▁للغ": 6783,
      "▁نساء": 6784,
      "▁الأسر": 6785,
      "▁موظفي": 6786,
      "عارض": 6787,
      "ئذ": 6788,
      "▁كرد": 6789,
      "▁الشيطان": 6790,
      "كتابة": 6791,
      "▁يمكننا": 6792,
      "▁ونشر": 6793,
      "▁يعانون": 6794,
      "سو": 6795,
      "▁تتطلب": 6796,
      "▁الأنظمة": 6797,
      "▁حجر": 6798,
      "▁رأيت": 6799,
      "▁المشروعات": 6800,
      "▁جهد": 6801,
      "وضة": 6802,
      "خة": 6803,
      "راما": 6804,
      "تمدة": 6805,
      "افات": 6806,
      "▁لتص": 6807,
      "▁يؤمن": 6808,
      "▁الأمني": 6809,
      "▁استقرار": 6810,
      "▁للز": 6811,
      "▁ملع": 6812,
      "▁اختلاف": 6813,
      "▁المكرمة": 6814,
      "▁جزيرة": 6815,
      "▁الأزهر": 6816,
      "▁أدنى": 6817,
      "▁إلغاء": 6818,
      "▁أسلوب": 6819,
      "▁منخفض": 6820,
      "▁كوريا": 6821,
      "▁الشهداء": 6822,
      "▁ميت": 6823,
      "▁العدوان": 6824,
      "وضيح": 6825,
      "▁ولعل": 6826,
      "▁النصف": 6827,
      "▁المباريات": 6828,
      "▁منظومة": 6829,
      "▁انتخاب": 6830,
      "▁كيلوم": 6831,
      "وكب": 6832,
      "نم": 6833,
      "▁إليهم": 6834,
      "▁البقاء": 6835,
      "▁أنظمة": 6836,
      "▁لأنهم": 6837,
      "طيات": 6838,
      "▁يهم": 6839,
      "▁التطور": 6840,
      "▁تمكنت": 6841,
      "▁صنعاء": 6842,
      "▁تتميز": 6843,
      "▁فيك": 6844,
      "ئن": 6845,
      "▁ترم": 6846,
      "قتين": 6847,
      "▁العنا": 6848,
      "ضيه": 6849,
      "▁المسل": 6850,
      "ليمة": 6851,
      "▁بتسجيل": 6852,
      "▁وجميع": 6853,
      "▁بدور": 6854,
      "▁الناحية": 6855,
      "▁82": 6856,
      "▁إنهاء": 6857,
      "▁ممت": 6858,
      "▁وآخر": 6859,
      "▁حلم": 6860,
      "▁وغيرهم": 6861,
      "▁تمتلك": 6862,
      "▁تكت": 6863,
      "▁والأمن": 6864,
      "▁بالان": 6865,
      "▁للرئيس": 6866,
      "▁الأوراق": 6867,
      "▁نار": 6868,
      "قار": 6869,
      "▁الدراسي": 6870,
      "خبارات": 6871,
      "▁جورج": 6872,
      "▁مبادئ": 6873,
      "شرح": 6874,
      "▁أجر": 6875,
      "▁أوا": 6876,
      "▁الكرد": 6877,
      "▁المؤلف": 6878,
      "▁للأمم": 6879,
      "▁أسس": 6880,
      "نز": 6881,
      "▁الديني": 6882,
      "▁مبنى": 6883,
      "▁تعرضت": 6884,
      "▁التعرف": 6885,
      "▁الطبيعة": 6886,
      "ثلا": 6887,
      "▁الاستخدام": 6888,
      "▁الكث": 6889,
      "▁باك": 6890,
      "يسر": 6891,
      "▁للمت": 6892,
      "شراف": 6893,
      "▁لرئيس": 6894,
      "▁للعام": 6895,
      "▁كونه": 6896,
      "▁كس": 6897,
      "فرقة": 6898,
      "▁القومية": 6899,
      "▁المدنيين": 6900,
      "▁يفضل": 6901,
      "▁اقتصاد": 6902,
      "جها": 6903,
      "▁الإسباني": 6904,
      "▁إلكتر": 6905,
      "▁المواقف": 6906,
      "▁بتس": 6907,
      "خط": 6908,
      "▁عجز": 6909,
      "▁منص": 6910,
      "جازة": 6911,
      "ودها": 6912,
      "▁نكون": 6913,
      "▁جدول": 6914,
      "▁جملة": 6915,
      "▁وتط": 6916,
      "▁طبيب": 6917,
      "▁المحي": 6918,
      "▁جبهة": 6919,
      "▁اهم": 6920,
      "طنا": 6921,
      "▁يشار": 6922,
      "▁أفكار": 6923,
      "▁التعا": 6924,
      "▁بنحو": 6925,
      "▁لمنع": 6926,
      "▁النووية": 6927,
      "نات": 6928,
      "▁القمر": 6929,
      "▁كرم": 6930,
      "▁قضاء": 6931,
      "▁رضا": 6932,
      "صرار": 6933,
      "ئين": 6934,
      "▁ووفقا": 6935,
      "▁متط": 6936,
      "▁52": 6937,
      "▁وتقدم": 6938,
      "▁41": 6939,
      "▁ساح": 6940,
      "▁الحرة": 6941,
      "▁يومين": 6942,
      "لقي": 6943,
      "▁البخاري": 6944,
      "▁بمجرد": 6945,
      "▁المصنع": 6946,
      "وند": 6947,
      "▁والثقاف": 6948,
      "جليزية": 6949,
      "▁الخلايا": 6950,
      "▁مناقشة": 6951,
      "▁وسب": 6952,
      "ديس": 6953,
      "▁آلية": 6954,
      "▁وليست": 6955,
      "▁السوداني": 6956,
      "▁موافقة": 6957,
      "▁تعبير": 6958,
      "دب": 6959,
      "▁الليبي": 6960,
      "▁وابن": 6961,
      "ديدات": 6962,
      "▁الاخيرة": 6963,
      "▁فقدان": 6964,
      "▁مصير": 6965,
      "▁عدا": 6966,
      "▁الشخصي": 6967,
      "▁والأخ": 6968,
      "▁أعداد": 6969,
      "ظور": 6970,
      "▁الاه": 6971,
      "ag": 6972,
      "▁أوراق": 6973,
      "▁يحيى": 6974,
      "لالات": 6975,
      "امرة": 6976,
      "ابط": 6977,
      "▁المنازل": 6978,
      "▁يكتب": 6979,
      "▁المبلغ": 6980,
      "▁65": 6981,
      "▁143": 6982,
      "▁الظهر": 6983,
      "▁موت": 6984,
      "▁فورا": 6985,
      "▁بآ": 6986,
      "▁تكلفة": 6987,
      "▁يشمل": 6988,
      "▁الإله": 6989,
      "جت": 6990,
      "▁مراقبة": 6991,
      "▁مدارس": 6992,
      "▁الدائرة": 6993,
      "▁تتجاوز": 6994,
      "▁تدفع": 6995,
      "▁الارض": 6996,
      "▁هنالك": 6997,
      "▁والعشرين": 6998,
      "يمات": 6999,
      "▁الحوثي": 7000,
      "رشيح": 7001,
      "▁بمح": 7002,
      "▁الثق": 7003,
      "▁أجزاء": 7004,
      "ريطة": 7005,
      "▁صدي": 7006,
      "▁عدن": 7007,
      "يادات": 7008,
      "▁مزي": 7009,
      "▁b": 7010,
      "▁أبواب": 7011,
      "▁وإعادة": 7012,
      "▁والبحث": 7013,
      "▁بلدان": 7014,
      "▁تشت": 7015,
      "▁هند": 7016,
      "▁العلامات": 7017,
      "▁أقصى": 7018,
      "▁والتعاون": 7019,
      "▁وإلا": 7020,
      "جام": 7021,
      "▁حينها": 7022,
      "▁الوحيدة": 7023,
      "ييد": 7024,
      "▁للأن": 7025,
      "دادا": 7026,
      "▁منازل": 7027,
      "▁والاعت": 7028,
      "▁النقاط": 7029,
      "▁تميز": 7030,
      "▁الاخرى": 7031,
      "▁عاط": 7032,
      "▁أند": 7033,
      "▁ولأن": 7034,
      "▁أستاذ": 7035,
      "▁مجموعات": 7036,
      "▁العوامل": 7037,
      "نوب": 7038,
      "▁الصادرة": 7039,
      "▁التاسع": 7040,
      "▁الفتاة": 7041,
      "▁الجبهة": 7042,
      "▁القليلة": 7043,
      "ركم": 7044,
      "▁بصفة": 7045,
      "أثر": 7046,
      "افلة": 7047,
      "راعات": 7048,
      "▁الميد": 7049,
      "حوث": 7050,
      "▁محف": 7051,
      "تهى": 7052,
      "شاهد": 7053,
      "زر": 7054,
      "▁الصحراء": 7055,
      "▁سياسات": 7056,
      "▁فاط": 7057,
      "▁تجدر": 7058,
      "▁عبدالرحمن": 7059,
      "▁رون": 7060,
      "▁التحقيقات": 7061,
      "▁التأكد": 7062,
      "وائح": 7063,
      "▁الرقابة": 7064,
      "صيب": 7065,
      "▁بحر": 7066,
      "▁أولئك": 7067,
      "▁حج": 7068,
      "▁خطورة": 7069,
      "▁تحرك": 7070,
      "▁والخدمات": 7071,
      "▁أبد": 7072,
      "▁ثنائي": 7073,
      "▁المجموعات": 7074,
      "▁دخلت": 7075,
      "▁فأن": 7076,
      "ابعت": 7077,
      "▁بالطبع": 7078,
      "▁تجنب": 7079,
      "▁خليل": 7080,
      "▁محم": 7081,
      "ستخدام": 7082,
      "▁فيسبوك": 7083,
      "ائهم": 7084,
      "▁حفلة": 7085,
      "▁باستمرار": 7086,
      "▁القوم": 7087,
      "▁والنا": 7088,
      "▁اليها": 7089,
      "▁جيل": 7090,
      "▁السادسة": 7091,
      "▁ووا": 7092,
      "▁داود": 7093,
      "▁شأنها": 7094,
      "▁أحسن": 7095,
      "▁يدعو": 7096,
      "▁البنية": 7097,
      "▁اذ": 7098,
      "▁جريمة": 7099,
      "▁وفيما": 7100,
      "▁جلال": 7101,
      "▁مربع": 7102,
      "▁والمه": 7103,
      "▁مشتركة": 7104,
      "▁لتت": 7105,
      "▁الجميلة": 7106,
      "▁مكون": 7107,
      "▁بارت": 7108,
      "▁المعلم": 7109,
      "▁دونالد": 7110,
      "اصرة": 7111,
      "خن": 7112,
      "▁الواحدة": 7113,
      "▁أضاف": 7114,
      "▁بالمنطقة": 7115,
      "▁محلية": 7116,
      "وابط": 7117,
      "▁وحدات": 7118,
      "▁الثامنة": 7119,
      "▁وبذلك": 7120,
      "خلة": 7121,
      "ومين": 7122,
      "▁الرسائل": 7123,
      "▁الجنا": 7124,
      "▁سيتي": 7125,
      "▁ونظ": 7126,
      "▁اليابان": 7127,
      "▁الدعوى": 7128,
      "▁400": 7129,
      "▁واجه": 7130,
      "▁مرتين": 7131,
      "▁أسابيع": 7132,
      "▁والاحت": 7133,
      "▁بعم": 7134,
      "▁اكد": 7135,
      "▁تفيد": 7136,
      "بوط": 7137,
      "▁تور": 7138,
      "▁حادث": 7139,
      "سبانية": 7140,
      "▁كيلو": 7141,
      "▁تدعم": 7142,
      "متاع": 7143,
      "▁بشدة": 7144,
      "▁سيرتك": 7145,
      "▁لتلك": 7146,
      "▁هول": 7147,
      "▁الحجم": 7148,
      "▁تعطي": 7149,
      "▁فنية": 7150,
      "▁المشاهد": 7151,
      "▁الرئاسية": 7152,
      "▁زايد": 7153,
      "▁وسجل": 7154,
      "▁عموما": 7155,
      "▁مسابقة": 7156,
      "▁لخدمة": 7157,
      "▁مؤقت": 7158,
      "▁كميات": 7159,
      "▁الشرك": 7160,
      "▁المسيحية": 7161,
      "▁الخيرية": 7162,
      "ابية": 7163,
      "▁ابراهيم": 7164,
      "▁مبينا": 7165,
      "▁يحدد": 7166,
      "▁مرش": 7167,
      "▁ورأ": 7168,
      "▁شاشة": 7169,
      "غلب": 7170,
      "▁مطلوب": 7171,
      "هى": 7172,
      "ابرات": 7173,
      "▁معالي": 7174,
      "▁الاعلان": 7175,
      "▁النهضة": 7176,
      "▁التقارير": 7177,
      "قولة": 7178,
      "▁تصدر": 7179,
      "▁انك": 7180,
      "us": 7181,
      "▁الاردن": 7182,
      "▁جر": 7183,
      "▁الجاه": 7184,
      "▁أدت": 7185,
      "يراد": 7186,
      "▁مقدمة": 7187,
      "▁بنفسه": 7188,
      "طيل": 7189,
      "ريش": 7190,
      "▁خطوط": 7191,
      "▁فنحن": 7192,
      "▁هاد": 7193,
      "▁الجملة": 7194,
      "▁انهم": 7195,
      "▁المتخصصة": 7196,
      "▁مليارات": 7197,
      "▁كافية": 7198,
      "▁اثر": 7199,
      "▁حديثة": 7200,
      "▁يريدون": 7201,
      "▁للصح": 7202,
      "▁جمهور": 7203,
      "▁العمرة": 7204,
      "▁47": 7205,
      "اتم": 7206,
      "▁أقوى": 7207,
      "▁مميزة": 7208,
      "▁المعنى": 7209,
      "▁الفئة": 7210,
      "الغة": 7211,
      "▁المخدرات": 7212,
      "▁الأندية": 7213,
      "▁حلف": 7214,
      "يتين": 7215,
      "▁استر": 7216,
      "▁بالرياض": 7217,
      "▁01": 7218,
      "افرين": 7219,
      "▁الفنادق": 7220,
      "كنة": 7221,
      "▁القنوات": 7222,
      "عوا": 7223,
      "▁المشرو": 7224,
      "▁ثمة": 7225,
      "▁خدم": 7226,
      "▁ساحة": 7227,
      "▁للشعب": 7228,
      "جاع": 7229,
      "▁ثبت": 7230,
      "▁وقتل": 7231,
      "ائط": 7232,
      "فيين": 7233,
      "بز": 7234,
      "▁معي": 7235,
      "▁اللجوء": 7236,
      "▁سك": 7237,
      "▁وحي": 7238,
      "زيلي": 7239,
      "▁شأنه": 7240,
      "▁تصنيف": 7241,
      "▁150": 7242,
      "▁نظرة": 7243,
      "▁بعده": 7244,
      "▁الإجتما": 7245,
      "▁معروف": 7246,
      "▁يرجع": 7247,
      "▁الأدب": 7248,
      "▁خيرا": 7249,
      "حمل": 7250,
      "▁للفريق": 7251,
      "لاط": 7252,
      "▁اشهر": 7253,
      "▁وعليه": 7254,
      "▁الثل": 7255,
      "▁الليلة": 7256,
      "▁للآ": 7257,
      "زايا": 7258,
      "▁أني": 7259,
      "▁لوحة": 7260,
      "ارتها": 7261,
      "▁مصنع": 7262,
      "▁الند": 7263,
      "▁العائل": 7264,
      "▁والمسا": 7265,
      "▁لإعادة": 7266,
      "وعات": 7267,
      "▁تسلم": 7268,
      "بياء": 7269,
      "▁المرتبة": 7270,
      "▁46": 7271,
      "دان": 7272,
      "ow": 7273,
      "بلوماسي": 7274,
      "▁زيد": 7275,
      "▁قوم": 7276,
      "▁للبر": 7277,
      "▁حديثه": 7278,
      "وراق": 7279,
      "▁PM": 7280,
      "فذة": 7281,
      "▁والاقتصادية": 7282,
      "فرد": 7283,
      "▁قمت": 7284,
      "▁نسي": 7285,
      "▁ساعد": 7286,
      "▁الطويل": 7287,
      "أخذ": 7288,
      "▁المقام": 7289,
      "▁وحين": 7290,
      "زامن": 7291,
      "▁شرائ": 7292,
      "قها": 7293,
      "▁ومنذ": 7294,
      "▁يدعم": 7295,
      "▁بنظام": 7296,
      "▁السكنية": 7297,
      "▁المحتوى": 7298,
      "▁للأطفال": 7299,
      "▁المقص": 7300,
      "بنية": 7301,
      "▁أسواق": 7302,
      "▁الواجب": 7303,
      "ادن": 7304,
      "▁آب": 7305,
      "▁الاسبوع": 7306,
      "▁قيادات": 7307,
      "▁تعب": 7308,
      "▁والإعلام": 7309,
      "▁المحر": 7310,
      "▁مخالفة": 7311,
      "▁الأمل": 7312,
      "اسعة": 7313,
      "▁المصابين": 7314,
      "▁رحمة": 7315,
      "▁حري": 7316,
      "▁البدء": 7317,
      "▁لام": 7318,
      "▁المناخ": 7319,
      "▁تحالف": 7320,
      "▁ارتفع": 7321,
      "▁الوحدات": 7322,
      "▁غد": 7323,
      "قون": 7324,
      "▁ويأتي": 7325,
      "▁للنا": 7326,
      "▁الهوية": 7327,
      "▁يومي": 7328,
      "▁الأفلام": 7329,
      "▁رحم": 7330,
      "▁مصري": 7331,
      "▁مالي": 7332,
      "افل": 7333,
      "▁يتميز": 7334,
      "▁عوامل": 7335,
      "عيه": 7336,
      "▁كونها": 7337,
      "حلة": 7338,
      "▁وأول": 7339,
      "▁فهناك": 7340,
      "▁الحكومات": 7341,
      "▁أسئلة": 7342,
      "▁احتمال": 7343,
      "▁زيار": 7344,
      "▁جسم": 7345,
      "▁الأدنى": 7346,
      "▁التمر": 7347,
      "▁طالما": 7348,
      "▁كات": 7349,
      "▁موضع": 7350,
      "▁الإيطالي": 7351,
      "▁لأس": 7352,
      "ودان": 7353,
      "▁لأكثر": 7354,
      "▁ورقة": 7355,
      "▁السياسات": 7356,
      "▁يذهب": 7357,
      "▁لست": 7358,
      "▁بعين": 7359,
      "▁للإن": 7360,
      "سمى": 7361,
      "▁شرط": 7362,
      "▁الوظيفة": 7363,
      "▁الإسكندرية": 7364,
      "▁تستهدف": 7365,
      "▁ذكره": 7366,
      "انيه": 7367,
      "▁النقابة": 7368,
      "▁الترا": 7369,
      "▁المسلمون": 7370,
      "▁أخي": 7371,
      "▁اك": 7372,
      "لط": 7373,
      "▁المسابقة": 7374,
      "▁للحكومة": 7375,
      "▁عملها": 7376,
      "▁كول": 7377,
      "▁باتت": 7378,
      "▁ملحو": 7379,
      "▁سعاد": 7380,
      "▁تحب": 7381,
      "▁فجر": 7382,
      "▁الباحثون": 7383,
      "▁الحيوية": 7384,
      "▁تهم": 7385,
      "▁الاعتداء": 7386,
      "▁القتال": 7387,
      "▁موق": 7388,
      "ينيا": 7389,
      "▁وتحت": 7390,
      "▁الملائ": 7391,
      "ضال": 7392,
      "▁وكم": 7393,
      "▁مرسي": 7394,
      "▁الضرائب": 7395,
      "▁هشام": 7396,
      "قوا": 7397,
      "▁مخاطر": 7398,
      "▁الإداري": 7399,
      "▁انطلاق": 7400,
      "▁كمال": 7401,
      "▁ملابس": 7402,
      "رقم": 7403,
      "▁الإطار": 7404,
      "▁ليل": 7405,
      "▁الحمراء": 7406,
      "▁عاج": 7407,
      "▁صيانة": 7408,
      "عني": 7409,
      "▁للتص": 7410,
      "صفية": 7411,
      "▁دير": 7412,
      "ساوي": 7413,
      "▁2003": 7414,
      "▁يتيح": 7415,
      "▁وصح": 7416,
      "خيصة": 7417,
      "▁لانت": 7418,
      "▁أردوغان": 7419,
      "▁تستمر": 7420,
      "▁للمح": 7421,
      "▁الامريكية": 7422,
      "▁الشهير": 7423,
      "▁فين": 7424,
      "هاجرين": 7425,
      "▁الشكر": 7426,
      "▁ذاك": 7427,
      "▁51": 7428,
      "▁الأولية": 7429,
      "▁الكويتية": 7430,
      "▁الدائم": 7431,
      "▁بأم": 7432,
      "▁فحص": 7433,
      "ولت": 7434,
      "ربه": 7435,
      "▁تخصيص": 7436,
      "ونيا": 7437,
      "▁وأنها": 7438,
      "▁الكيان": 7439,
      "فاضة": 7440,
      "▁الأنباء": 7441,
      "▁المعركة": 7442,
      "▁استقبل": 7443,
      "▁التوتر": 7444,
      "قاومة": 7445,
      "▁اللجان": 7446,
      "▁فرح": 7447,
      "▁أحدا": 7448,
      "▁2004": 7449,
      "▁التصوير": 7450,
      "▁الاحداث": 7451,
      "▁طبية": 7452,
      "▁يقولون": 7453,
      "▁ميزة": 7454,
      "▁آدم": 7455,
      "▁تقف": 7456,
      "▁المستشفيات": 7457,
      "▁تتمتع": 7458,
      "▁المصنعة": 7459,
      "▁عظيم": 7460,
      "▁وأت": 7461,
      "▁والتج": 7462,
      "برت": 7463,
      "▁ألفا": 7464,
      "▁الظاهرة": 7465,
      "ليون": 7466,
      "▁قلق": 7467,
      "▁تصنيع": 7468,
      "▁ء": 7469,
      "▁بعث": 7470,
      "▁إنهم": 7471,
      "ائيات": 7472,
      "ch": 7473,
      "▁المستخدمة": 7474,
      "ستير": 7475,
      "▁خام": 7476,
      "▁محافظات": 7477,
      "▁مواصلة": 7478,
      "▁الإنساني": 7479,
      "▁فلن": 7480,
      "وفية": 7481,
      "▁المطار": 7482,
      "▁وأصبح": 7483,
      "▁بمس": 7484,
      "▁لمؤ": 7485,
      "يتد": 7486,
      "وزع": 7487,
      "▁الفقه": 7488,
      "▁وتعتبر": 7489,
      "ضرار": 7490,
      "يفي": 7491,
      "▁التحليل": 7492,
      "▁شكر": 7493,
      "▁مقال": 7494,
      "▁الإنجليزي": 7495,
      "▁أعظم": 7496,
      "▁يستمر": 7497,
      "▁التطوير": 7498,
      "▁آذار": 7499,
      "▁التعرض": 7500,
      "▁نهر": 7501,
      "▁الأصوات": 7502,
      "▁الاسرائيلي": 7503,
      "▁السرعة": 7504,
      "▁تقا": 7505,
      "قود": 7506,
      "▁المعي": 7507,
      "▁خي": 7508,
      "▁بالات": 7509,
      "▁معايير": 7510,
      "▁السريعة": 7511,
      "▁الخطوات": 7512,
      "▁الخليجية": 7513,
      "▁يلزم": 7514,
      "تمرات": 7515,
      "ديموقرا": 7516,
      "شاب": 7517,
      "نام": 7518,
      "▁وكيفية": 7519,
      "▁مؤكدة": 7520,
      "وقعات": 7521,
      "▁السرطان": 7522,
      "▁قي": 7523,
      "كاسب": 7524,
      "▁استثمارات": 7525,
      "▁قصص": 7526,
      "▁الراحة": 7527,
      "▁سهل": 7528,
      "▁محيط": 7529,
      "▁المرتبطة": 7530,
      "▁معك": 7531,
      "▁الليبية": 7532,
      "▁تفعل": 7533,
      "▁ومحت": 7534,
      "▁رسوم": 7535,
      "▁الزمان": 7536,
      "شيط": 7537,
      "▁الحساب": 7538,
      "▁يلي": 7539,
      "▁طويلا": 7540,
      "▁الاستقلال": 7541,
      "▁موسم": 7542,
      "▁والإسلام": 7543,
      "▁بعدد": 7544,
      "▁للقيام": 7545,
      "ربون": 7546,
      "▁انتظار": 7547,
      "▁للمواطنين": 7548,
      "▁ورفض": 7549,
      "▁المعايير": 7550,
      "▁ترجمة": 7551,
      "فساد": 7552,
      "▁القدر": 7553,
      "ارضة": 7554,
      "قيمة": 7555,
      "عراض": 7556,
      "▁مائة": 7557,
      "▁فاطمة": 7558,
      "▁الدكتورة": 7559,
      "▁طائرات": 7560,
      "▁دوما": 7561,
      "▁والتأ": 7562,
      "▁حرارة": 7563,
      "▁البراز": 7564,
      "▁يض": 7565,
      "▁بقوله": 7566,
      "▁تتمكن": 7567,
      "▁السلبية": 7568,
      "▁يضمن": 7569,
      "نتها": 7570,
      "ريه": 7571,
      "▁والجم": 7572,
      "▁مشارك": 7573,
      "▁العادية": 7574,
      "شئة": 7575,
      "▁وليد": 7576,
      "▁سرا": 7577,
      "▁المعهد": 7578,
      "▁الألوان": 7579,
      "▁مانشستر": 7580,
      "▁وتب": 7581,
      "▁تنتهي": 7582,
      "ئتلاف": 7583,
      "▁وتقول": 7584,
      "▁الاز": 7585,
      "▁الجرائم": 7586,
      "▁وغيره": 7587,
      "▁مرف": 7588,
      "▁وعل": 7589,
      "▁لوزارة": 7590,
      "▁J": 7591,
      "▁إننا": 7592,
      "فوق": 7593,
      "▁مبت": 7594,
      "▁لاسيما": 7595,
      "▁والعم": 7596,
      "▁جهات": 7597,
      "املين": 7598,
      "▁رف": 7599,
      "▁المجاورة": 7600,
      "▁تسوية": 7601,
      "ردة": 7602,
      "▁الوقود": 7603,
      "▁الالكتروني": 7604,
      "▁واجب": 7605,
      "فلسط": 7606,
      "▁هدفا": 7607,
      "▁السبع": 7608,
      "▁حبيب": 7609,
      "▁الغرف": 7610,
      "▁الدراسية": 7611,
      "▁المدة": 7612,
      "▁الحوثيين": 7613,
      "ائز": 7614,
      "▁الالكترونية": 7615,
      "▁الرؤ": 7616,
      "▁ثق": 7617,
      "▁شاملة": 7618,
      "▁الدماغ": 7619,
      "▁الأطعمة": 7620,
      "جحة": 7621,
      "زالت": 7622,
      "▁هامش": 7623,
      "▁اعمال": 7624,
      "▁غذا": 7625,
      "سيس": 7626,
      "▁وطني": 7627,
      "وائم": 7628,
      "ئها": 7629,
      "▁صفحات": 7630,
      "▁كلي": 7631,
      "▁شريك": 7632,
      "▁شف": 7633,
      "مارات": 7634,
      "▁القطري": 7635,
      "ay": 7636,
      "وضية": 7637,
      "▁أرباح": 7638,
      "▁الصحفيين": 7639,
      "يليشيات": 7640,
      "يرون": 7641,
      "▁الجميل": 7642,
      "▁والثاني": 7643,
      "▁المعلمين": 7644,
      "▁العبا": 7645,
      "▁فسي": 7646,
      "▁طمو": 7647,
      "▁الأربعة": 7648,
      "▁الانتقال": 7649,
      "كشف": 7650,
      "▁لتق": 7651,
      "▁حقيقي": 7652,
      "▁الجغ": 7653,
      "▁فالأ": 7654,
      "▁يمارس": 7655,
      "▁ضي": 7656,
      "▁مقاومة": 7657,
      "▁عامين": 7658,
      "▁التجارب": 7659,
      "▁الهم": 7660,
      "▁إيجابية": 7661,
      "راط": 7662,
      "ربول": 7663,
      "▁ترد": 7664,
      "▁اعتمد": 7665,
      "برات": 7666,
      "▁الدهون": 7667,
      "▁الوسطى": 7668,
      "والى": 7669,
      "▁الملتقى": 7670,
      "▁الكيميا": 7671,
      "▁مشاعر": 7672,
      "ظلم": 7673,
      "وتها": 7674,
      "يض": 7675,
      "هاية": 7676,
      "حون": 7677,
      "▁بوابة": 7678,
      "▁الفار": 7679,
      "▁الصع": 7680,
      "▁جرت": 7681,
      "▁الأشهر": 7682,
      "قس": 7683,
      "▁حكومية": 7684,
      "▁أون": 7685,
      "وقاف": 7686,
      "▁بوش": 7687,
      "كيك": 7688,
      "رضى": 7689,
      "▁فهذه": 7690,
      "▁العروض": 7691,
      "▁البور": 7692,
      "▁الطيب": 7693,
      "▁الطاهر": 7694,
      "▁تشجيع": 7695,
      "▁سيدة": 7696,
      "▁قبيل": 7697,
      "▁لتعزيز": 7698,
      "▁رش": 7699,
      "▁الأصلي": 7700,
      "▁ملم": 7701,
      "▁باله": 7702,
      "▁للشباب": 7703,
      "▁مطال": 7704,
      "▁الصلاح": 7705,
      "▁نائ": 7706,
      "▁للحفاظ": 7707,
      "فاز": 7708,
      "▁أيا": 7709,
      "▁سيطرة": 7710,
      "▁الصحيحة": 7711,
      "▁اللازم": 7712,
      "▁مستقب": 7713,
      "▁وقتها": 7714,
      "▁سريعة": 7715,
      "▁مفاج": 7716,
      "▁مجمع": 7717,
      "▁لاحظ": 7718,
      "▁الاربع": 7719,
      "▁الآسي": 7720,
      "▁الواضح": 7721,
      "تمكن": 7722,
      "▁التصرف": 7723,
      "▁بسيط": 7724,
      "▁مثلما": 7725,
      "▁ترح": 7726,
      "▁ميدان": 7727,
      "▁حيال": 7728,
      "▁ويعد": 7729,
      "▁الخلق": 7730,
      "▁مسافة": 7731,
      "▁المسجل": 7732,
      "▁جوز": 7733,
      "▁وعا": 7734,
      "▁يوف": 7735,
      "عيا": 7736,
      "▁صدق": 7737,
      "صلت": 7738,
      "▁الادارة": 7739,
      "ابهة": 7740,
      "ويف": 7741,
      "▁العامل": 7742,
      "▁الشمالي": 7743,
      "▁أعوام": 7744,
      "▁انتقال": 7745,
      "▁خاض": 7746,
      "▁أشد": 7747,
      "لفة": 7748,
      "رائط": 7749,
      "▁الحبيب": 7750,
      "▁تحدد": 7751,
      "باحة": 7752,
      "▁وحماية": 7753,
      "▁بينه": 7754,
      "▁بمقد": 7755,
      "▁03": 7756,
      "▁تطبيقات": 7757,
      "▁يكونوا": 7758,
      "▁أظهرت": 7759,
      "تماء": 7760,
      "▁تدور": 7761,
      "▁سهلة": 7762,
      "▁عندي": 7763,
      "قان": 7764,
      "▁الألب": 7765,
      "▁اجتماعية": 7766,
      "▁الفكرية": 7767,
      "▁نيسان": 7768,
      "ri": 7769,
      "ديال": 7770,
      "▁العميل": 7771,
      "حك": 7772,
      "▁العظم": 7773,
      "▁أعراض": 7774,
      "وفت": 7775,
      "طلح": 7776,
      "فين": 7777,
      "▁فليس": 7778,
      "▁دراسات": 7779,
      "▁الزوار": 7780,
      "▁أطلقت": 7781,
      "▁هر": 7782,
      "حكام": 7783,
      "▁تخل": 7784,
      "▁اثناء": 7785,
      "▁طبقا": 7786,
      "▁فري": 7787,
      "▁مدر": 7788,
      "▁قاب": 7789,
      "▁العقارية": 7790,
      "▁المشكلات": 7791,
      "▁لعدد": 7792,
      "▁المعروفة": 7793,
      "▁المخرج": 7794,
      "▁الفم": 7795,
      "▁سجلت": 7796,
      "▁فلسطيني": 7797,
      "▁حياتهم": 7798,
      "املات": 7799,
      "فرت": 7800,
      "بارية": 7801,
      "▁قديم": 7802,
      "▁الجامعية": 7803,
      "▁ونقلت": 7804,
      "▁فعلى": 7805,
      "▁والعراق": 7806,
      "وطة": 7807,
      "غالي": 7808,
      "▁لث": 7809,
      "▁الكبار": 7810,
      "▁تلقي": 7811,
      "▁السابعة": 7812,
      "▁لكون": 7813,
      "▁تلعب": 7814,
      "▁المبت": 7815,
      "▁لبناء": 7816,
      "▁ثان": 7817,
      "ter": 7818,
      "▁المعدة": 7819,
      "▁العلامة": 7820,
      "▁الأخلاق": 7821,
      "▁البكت": 7822,
      "▁حزيران": 7823,
      "▁الخليجي": 7824,
      "يرو": 7825,
      "▁رجلا": 7826,
      "▁رؤساء": 7827,
      "▁يتبع": 7828,
      "▁تنزيل": 7829,
      "▁مشاركات": 7830,
      "▁ومنت": 7831,
      "▁يثبت": 7832,
      "▁يتوقف": 7833,
      "▁تتراوح": 7834,
      "▁بدقة": 7835,
      "▁رسميا": 7836,
      "▁ماد": 7837,
      "فيا": 7838,
      "ينو": 7839,
      "▁للمرأة": 7840,
      "رتب": 7841,
      "▁للعم": 7842,
      "▁وهما": 7843,
      "كلي": 7844,
      "▁ربيع": 7845,
      "▁الوجود": 7846,
      "▁وحل": 7847,
      "▁الأك": 7848,
      "▁أداة": 7849,
      "ذاعة": 7850,
      "▁واضحا": 7851,
      "▁فوائد": 7852,
      "▁المستع": 7853,
      "▁حافظ": 7854,
      "▁دولارا": 7855,
      "▁وأخرى": 7856,
      "▁العقاري": 7857,
      "يتي": 7858,
      "▁الأجانب": 7859,
      "▁المتهمين": 7860,
      "▁يمد": 7861,
      "▁وأج": 7862,
      "▁تأخر": 7863,
      "▁رو": 7864,
      "بوت": 7865,
      "▁الشرقي": 7866,
      "▁تتحدث": 7867,
      "▁المادية": 7868,
      "▁وبي": 7869,
      "يفون": 7870,
      "▁باد": 7871,
      "▁النيا": 7872,
      "SS": 7873,
      "▁واقت": 7874,
      "يدا": 7875,
      "▁وزيرة": 7876,
      "يوب": 7877,
      "▁بحلول": 7878,
      "▁أصيب": 7879,
      "▁المتقدم": 7880,
      "▁للتنمية": 7881,
      "▁كسب": 7882,
      "▁الغذاء": 7883,
      "فسر": 7884,
      "ائيا": 7885,
      "▁تجديد": 7886,
      "نك": 7887,
      "▁سجن": 7888,
      "▁القلق": 7889,
      "طاعت": 7890,
      "قلق": 7891,
      "▁الاستمرار": 7892,
      "▁أصدق": 7893,
      "▁ولت": 7894,
      "▁الشهيرة": 7895,
      "▁قصد": 7896,
      "▁جعفر": 7897,
      "▁احتف": 7898,
      "▁منافسات": 7899,
      "▁التعلم": 7900,
      "▁وأخيرا": 7901,
      "ثا": 7902,
      "▁بالبحث": 7903,
      "▁وقيل": 7904,
      "▁المري": 7905,
      "▁بذل": 7906,
      "▁فساتين": 7907,
      "▁بنات": 7908,
      "▁سريع": 7909,
      "رال": 7910,
      "▁عوض": 7911,
      "▁المشاركات": 7912,
      "▁التلفزيون": 7913,
      "▁٦": 7914,
      "▁يعملون": 7915,
      "▁الاستراتيج": 7916,
      "▁العكس": 7917,
      "▁الأحكام": 7918,
      "▁طعام": 7919,
      "▁اننا": 7920,
      "▁ومتابعة": 7921,
      "▁الجائزة": 7922,
      "▁قيمتها": 7923,
      "▁الفرع": 7924,
      "▁بإمكانه": 7925,
      "طأ": 7926,
      "▁لاين": 7927,
      "▁فائدة": 7928,
      "ستاني": 7929,
      "▁المذكور": 7930,
      "▁ابتداء": 7931,
      "وبين": 7932,
      "شخاص": 7933,
      "▁09": 7934,
      "▁كسارة": 7935,
      "▁i": 7936,
      "▁رفي": 7937,
      "▁أشرف": 7938,
      "▁الموافقة": 7939,
      "▁ترب": 7940,
      "جلب": 7941,
      "▁مقابلة": 7942,
      "▁حرف": 7943,
      "شاق": 7944,
      "▁النزاع": 7945,
      "▁والعد": 7946,
      "▁هج": 7947,
      "▁كاب": 7948,
      "▁المتقدمة": 7949,
      "▁حذ": 7950,
      "▁تدل": 7951,
      "▁عاص": 7952,
      "▁تدمير": 7953,
      "▁القريب": 7954,
      "▁أسفل": 7955,
      "▁المنورة": 7956,
      "اليف": 7957,
      "▁القوية": 7958,
      "▁الشيعة": 7959,
      "ئاب": 7960,
      "▁قنا": 7961,
      "▁الفتاح": 7962,
      "▁المباشرة": 7963,
      "▁أقر": 7964,
      "امه": 7965,
      "لاقي": 7966,
      "وايا": 7967,
      "▁جنب": 7968,
      "▁الفص": 7969,
      "▁للقوات": 7970,
      "حداث": 7971,
      "▁تنظم": 7972,
      "▁وسيتم": 7973,
      "▁الإقامة": 7974,
      "▁سيدي": 7975,
      "▁ترون": 7976,
      "▁كريست": 7977,
      "بيات": 7978,
      "▁وقا": 7979,
      "▁للسيا": 7980,
      "ياغة": 7981,
      "▁53": 7982,
      "▁لأجل": 7983,
      "حوا": 7984,
      "▁بالقول": 7985,
      "▁حلقة": 7986,
      "▁الصناعي": 7987,
      "▁شو": 7988,
      "▁لمكافحة": 7989,
      "▁وصولا": 7990,
      "▁تلقائي": 7991,
      "▁وسن": 7992,
      "يور": 7993,
      "ويين": 7994,
      "▁المحيطة": 7995,
      "شاكل": 7996,
      "▁المخصصة": 7997,
      "▁بوتين": 7998,
      "▁فعله": 7999,
      "باكات": 8000,
      "▁اعادة": 8001,
      "▁لنقل": 8002,
      "لاميذ": 8003,
      "بعا": 8004,
      "▁للشركة": 8005,
      "قيد": 8006,
      "▁جلسات": 8007,
      "طول": 8008,
      "▁اختار": 8009,
      "على": 8010,
      "▁منكم": 8011,
      "▁54": 8012,
      "▁تركيب": 8013,
      "▁الضمان": 8014,
      "▁تسير": 8015,
      "رطوم": 8016,
      "▁القذا": 8017,
      "▁السودانية": 8018,
      "▁يسوع": 8019,
      "▁الشائ": 8020,
      "▁جواز": 8021,
      "▁الولادة": 8022,
      "▁مند": 8023,
      "▁زعيم": 8024,
      "20": 8025,
      "▁فاست": 8026,
      "▁معاناة": 8027,
      "▁عمال": 8028,
      "▁ربه": 8029,
      "ترط": 8030,
      "▁البرلمانية": 8031,
      "باعة": 8032,
      "▁كسر": 8033,
      "دران": 8034,
      "قض": 8035,
      "▁الخز": 8036,
      "▁تتمثل": 8037,
      "جو": 8038,
      "▁الطوارئ": 8039,
      "▁أوضاع": 8040,
      "▁للناس": 8041,
      "▁الموصل": 8042,
      "سيوم": 8043,
      "▁بالي": 8044,
      "▁عضوا": 8045,
      "▁الممثل": 8046,
      "▁للاتحاد": 8047,
      "▁فتاة": 8048,
      "▁المستويات": 8049,
      "▁والمص": 8050,
      "▁بعيدة": 8051,
      "▁التحول": 8052,
      "▁الآلاف": 8053,
      "▁AM": 8054,
      "اجه": 8055,
      "▁الهامة": 8056,
      "▁وشهد": 8057,
      "▁تسعة": 8058,
      "▁الثامن": 8059,
      "▁مفاوضات": 8060,
      "دوز": 8061,
      "روحة": 8062,
      "تمالات": 8063,
      "▁الجبل": 8064,
      "▁مور": 8065,
      "▁إيقاف": 8066,
      "ابير": 8067,
      "▁برن": 8068,
      "▁بمختلف": 8069,
      "▁الهر": 8070,
      "▁المساجد": 8071,
      "حول": 8072,
      "▁وحياة": 8073,
      "▁الصحابة": 8074,
      "ئيات": 8075,
      "▁إخراج": 8076,
      "▁حوله": 8077,
      "▁الامارات": 8078,
      "▁بصف": 8079,
      "طرت": 8080,
      "يلات": 8081,
      "▁وتحدث": 8082,
      "▁التطورات": 8083,
      "شك": 8084,
      "▁الموسيقى": 8085,
      "▁يحق": 8086,
      "وثيق": 8087,
      "▁غضب": 8088,
      "ضعاف": 8089,
      "▁الجنود": 8090,
      "▁المرافق": 8091,
      "▁الجزائرية": 8092,
      "▁جريدة": 8093,
      "▁تراج": 8094,
      "▁ألعاب": 8095,
      "موية": 8096,
      "▁الثابت": 8097,
      "▁واشار": 8098,
      "▁الاغ": 8099,
      "▁الشراء": 8100,
      "▁نسخ": 8101,
      "يلول": 8102,
      "▁أثار": 8103,
      "عكس": 8104,
      "▁الحرام": 8105,
      "▁مستقلة": 8106,
      "▁آية": 8107,
      "قيمت": 8108,
      "ذاكر": 8109,
      "▁المكونات": 8110,
      "▁مضم": 8111,
      "▁السيرة": 8112,
      "▁والتخ": 8113,
      "▁المرء": 8114,
      "▁الرحيم": 8115,
      "عاصمة": 8116,
      "▁واكد": 8117,
      "▁والانت": 8118,
      "▁وتعد": 8119,
      "▁القواعد": 8120,
      "▁سبل": 8121,
      "بره": 8122,
      "▁مبيعات": 8123,
      "▁يشبه": 8124,
      "▁مكاف": 8125,
      "▁مخط": 8126,
      "▁يده": 8127,
      "▁الصعبة": 8128,
      "شير": 8129,
      "▁قنوات": 8130,
      "▁سياسيا": 8131,
      "ركاته": 8132,
      "▁الهاد": 8133,
      "▁باخت": 8134,
      "▁أهالي": 8135,
      "▁الرقمية": 8136,
      "ريان": 8137,
      "▁كور": 8138,
      "▁رسمية": 8139,
      "▁الإجابة": 8140,
      "▁وتتم": 8141,
      "▁حكوم": 8142,
      "▁تتعرض": 8143,
      "▁أود": 8144,
      "▁معسكر": 8145,
      "▁الخطر": 8146,
      "منت": 8147,
      "▁وانا": 8148,
      "▁جولة": 8149,
      "▁معدات": 8150,
      "▁ورحمة": 8151,
      "▁خض": 8152,
      "▁الجهد": 8153,
      "▁الأرباح": 8154,
      "عانة": 8155,
      "▁لاحت": 8156,
      "▁الجهاد": 8157,
      "▁استعادة": 8158,
      "ئوية": 8159,
      "▁المواجهة": 8160,
      "▁القراء": 8161,
      "▁مضى": 8162,
      "▁56": 8163,
      "اطب": 8164,
      "▁وثيقة": 8165,
      "▁تجارب": 8166,
      "▁الشيع": 8167,
      "▁محطات": 8168,
      "▁السلامة": 8169,
      "▁البوا": 8170,
      "▁تسمح": 8171,
      "▁الميلاد": 8172,
      "▁سموه": 8173,
      "▁الأمانة": 8174,
      "▁المجتم": 8175,
      "▁النصوص": 8176,
      "▁رأسها": 8177,
      "ثرت": 8178,
      "▁الساعات": 8179,
      "▁واستخدام": 8180,
      "▁لتنظيم": 8181,
      "▁يرفع": 8182,
      "▁يفهم": 8183,
      "▁استمرت": 8184,
      "▁لعل": 8185,
      "▁وبشكل": 8186,
      "▁العمالة": 8187,
      "▁التعليق": 8188,
      "▁شقيق": 8189,
      "▁عائشة": 8190,
      "▁الشتاء": 8191,
      "▁آنذاك": 8192,
      "▁الاحتفال": 8193,
      "▁بوزارة": 8194,
      "ليها": 8195,
      "▁المخابرات": 8196,
      "▁الاحتياجات": 8197,
      "▁عبيد": 8198,
      "▁مسير": 8199,
      "شتراك": 8200,
      "▁واع": 8201,
      "▁رجب": 8202,
      "▁الطف": 8203,
      "▁الاسم": 8204,
      "حصل": 8205,
      "▁طيران": 8206,
      "▁اليمين": 8207,
      "بوب": 8208,
      "▁تموز": 8209,
      "▁مدا": 8210,
      "▁حصة": 8211,
      "واليد": 8212,
      "▁ومنهم": 8213,
      "▁أصلا": 8214,
      "▁خسارة": 8215,
      "ومان": 8216,
      "▁اهتم": 8217,
      "▁انتقل": 8218,
      "▁وبعدها": 8219,
      "▁الهجمات": 8220,
      "▁حدة": 8221,
      "فاعا": 8222,
      "▁الميت": 8223,
      "ديب": 8224,
      "عاقة": 8225,
      "▁قاموا": 8226,
      "▁خرجت": 8227,
      "كرون": 8228,
      "▁أرى": 8229,
      "يئة": 8230,
      "▁وإد": 8231,
      "وضوح": 8232,
      "▁رأسه": 8233,
      "يادين": 8234,
      "▁تطلب": 8235,
      "▁لوضع": 8236,
      "الثة": 8237,
      "▁الإقليمي": 8238,
      "▁القرى": 8239,
      "▁الاعتراف": 8240,
      "▁متطلبات": 8241,
      "▁قلة": 8242,
      "▁نظيره": 8243,
      "▁الكتر": 8244,
      "فايات": 8245,
      "▁منتديات": 8246,
      "▁بالضغط": 8247,
      "▁التعاقد": 8248,
      "▁الضروري": 8249,
      "جوز": 8250,
      "▁ملعقة": 8251,
      "▁البشري": 8252,
      "▁حققت": 8253,
      "▁السعادة": 8254,
      "▁زمان": 8255,
      "▁زر": 8256,
      "ونايتد": 8257,
      "▁مجانية": 8258,
      "ولوجي": 8259,
      "▁الجمهوري": 8260,
      "وكي": 8261,
      "▁الذاكرة": 8262,
      "▁يمكنه": 8263,
      "▁الأهلية": 8264,
      "▁لوكالة": 8265,
      "▁بسعر": 8266,
      "▁الدوحة": 8267,
      "▁57": 8268,
      "▁بفعل": 8269,
      "▁الحلم": 8270,
      "▁وسلام": 8271,
      "▁كفاءة": 8272,
      "▁إعطاء": 8273,
      "▁النجوم": 8274,
      "ؤمن": 8275,
      "هيدا": 8276,
      "▁أجمع": 8277,
      "يده": 8278,
      "قدرة": 8279,
      "غام": 8280,
      "▁تحية": 8281,
      "▁لاعبي": 8282,
      "▁لإست": 8283,
      "▁وأخذ": 8284,
      "ساءل": 8285,
      "▁85": 8286,
      "▁المعل": 8287,
      "▁تتخذ": 8288,
      "▁حياتك": 8289,
      "▁ومنع": 8290,
      "▁الدواء": 8291,
      "▁الزيادة": 8292,
      "▁‘": 8293,
      "فراد": 8294,
      "▁لمشاهدة": 8295,
      "▁تحكم": 8296,
      "▁64": 8297,
      "▁خز": 8298,
      "▁الشامل": 8299,
      "▁أنصار": 8300,
      "▁المقت": 8301,
      "▁الربح": 8302,
      "▁الترتيب": 8303,
      "▁الجمعيات": 8304,
      "▁سعادة": 8305,
      "▁السنوي": 8306,
      "واحي": 8307,
      "▁ومصر": 8308,
      "▁تيم": 8309,
      "▁جسد": 8310,
      "▁تفك": 8311,
      "▁الرائعة": 8312,
      "▁صن": 8313,
      "▁العاط": 8314,
      "▁جير": 8315,
      "▁المقدس": 8316,
      "▁إسماعيل": 8317,
      "▁التونسية": 8318,
      "▁الممت": 8319,
      "انك": 8320,
      "▁آي": 8321,
      "▁المسار": 8322,
      "▁سيم": 8323,
      "▁وتشمل": 8324,
      "▁خار": 8325,
      "▁صحيحة": 8326,
      "▁مكتبة": 8327,
      "▁فيتامين": 8328,
      "▁الشهادة": 8329,
      "ظروف": 8330,
      "▁البرم": 8331,
      "ختار": 8332,
      "▁الوجبات": 8333,
      "▁لتوفير": 8334,
      "▁دام": 8335,
      "▁للال": 8336,
      "▁المميزة": 8337,
      "▁رخيصة": 8338,
      "▁وسم": 8339,
      "▁وعلم": 8340,
      "▁الخرطوم": 8341,
      "▁06": 8342,
      "ut": 8343,
      "▁إدخال": 8344,
      "▁نزل": 8345,
      "▁الرغبة": 8346,
      "▁عال": 8347,
      "▁القانوني": 8348,
      "▁مؤشرات": 8349,
      "▁ويرى": 8350,
      "▁وبل": 8351,
      "▁التعريف": 8352,
      "▁قابلة": 8353,
      "▁العاشرة": 8354,
      "▁يعلن": 8355,
      "▁الفات": 8356,
      "▁لتخ": 8357,
      "▁ذكرى": 8358,
      "▁المائية": 8359,
      "▁متخصصة": 8360,
      "ديها": 8361,
      "▁الزوجة": 8362,
      "وافقة": 8363,
      "▁٨": 8364,
      "..": 8365,
      "▁...": 8366,
      "▁لهما": 8367,
      "▁بزيادة": 8368,
      "▁بخط": 8369,
      "▁اتباع": 8370,
      "شه": 8371,
      "▁المحاكم": 8372,
      "▁غا": 8373,
      "▁والسي": 8374,
      "▁البرازيلي": 8375,
      "▁عامر": 8376,
      "▁لأسباب": 8377,
      "▁بحكم": 8378,
      "▁05": 8379,
      "▁رحلات": 8380,
      "رامية": 8381,
      "▁ودول": 8382,
      "▁عرفت": 8383,
      "▁بتلك": 8384,
      "▁سد": 8385,
      "▁الحروب": 8386,
      "▁اغنية": 8387,
      "▁متخصص": 8388,
      "▁بالقاهرة": 8389,
      "▁الإعداد": 8390,
      "▁مشددا": 8391,
      "▁تري": 8392,
      "▁لمصر": 8393,
      "▁أحدهما": 8394,
      "▁بتم": 8395,
      "▁لتحديد": 8396,
      "وتيوب": 8397,
      "ثى": 8398,
      "▁02": 8399,
      "صا": 8400,
      "un": 8401,
      "▁جهيم": 8402,
      "▁قدرات": 8403,
      "▁٩": 8404,
      "▁افلام": 8405,
      "▁المتظاهرين": 8406,
      "▁تتيح": 8407,
      "▁الزب": 8408,
      "▁لغير": 8409,
      "رشاد": 8410,
      "▁193": 8411,
      "▁والقر": 8412,
      "▁تنفي": 8413,
      "▁شخصيا": 8414,
      "رأي": 8415,
      "▁لإدارة": 8416,
      "▁إيم": 8417,
      "بك": 8418,
      "▁سكر": 8419,
      "▁قديمة": 8420,
      "▁وجهه": 8421,
      "▁أحدهم": 8422,
      "▁الاختلاف": 8423,
      "▁تفقد": 8424,
      "لاوة": 8425,
      "▁أساسية": 8426,
      "▁نستطيع": 8427,
      "▁الدعاء": 8428,
      "▁الخمس": 8429,
      "▁الزيتون": 8430,
      "▁الاعمال": 8431,
      "▁فرانس": 8432,
      "▁يتناول": 8433,
      "▁>": 8434,
      "عومة": 8435,
      "▁كاتبها": 8436,
      "قطاب": 8437,
      "▁الإي": 8438,
      "▁المحتمل": 8439,
      "▁تخفيض": 8440,
      "▁بارك": 8441,
      "▁لموقع": 8442,
      "▁نظرية": 8443,
      "▁الشراكة": 8444,
      "▁محدث": 8445,
      "▁ثل": 8446,
      "▁الكريمة": 8447,
      "▁قلبي": 8448,
      "▁مصرية": 8449,
      "▁النحو": 8450,
      "▁غضون": 8451,
      "▁ووجه": 8452,
      "▁بيوت": 8453,
      "▁المخل": 8454,
      "▁نوعا": 8455,
      "▁لانه": 8456,
      "▁الاستعداد": 8457,
      "واها": 8458,
      "▁وأل": 8459,
      "▁ميناء": 8460,
      "▁رؤوس": 8461,
      "▁امر": 8462,
      "▁الوقوف": 8463,
      "▁صراع": 8464,
      "▁للأخبار": 8465,
      "▁جابر": 8466,
      "▁الميدان": 8467,
      "ذور": 8468,
      "▁تفوق": 8469,
      "▁بقا": 8470,
      "▁عشق": 8471,
      "▁سمعت": 8472,
      "شعر": 8473,
      "مييز": 8474,
      "▁جوانب": 8475,
      "▁صفر": 8476,
      "شارات": 8477,
      "▁الفعاليات": 8478,
      "▁يقيم": 8479,
      "كرانيا": 8480,
      "▁تأجيل": 8481,
      "▁التعليقات": 8482,
      "ماج": 8483,
      "▁تكنولوجيا": 8484,
      "▁للقانون": 8485,
      "▁الأخطاء": 8486,
      "▁ملام": 8487,
      "▁مايك": 8488,
      "▁عملت": 8489,
      "▁المرح": 8490,
      "▁المستقبلية": 8491,
      "▁إبلاغ": 8492,
      "▁شبكات": 8493,
      "▁يمكنهم": 8494,
      "▁بحد": 8495,
      "▁مفتوحة": 8496,
      "▁الكف": 8497,
      "روضة": 8498,
      "▁الجمال": 8499,
      "▁جرا": 8500,
      "▁كذا": 8501,
      "▁مشروعات": 8502,
      "▁العالمين": 8503,
      "▁الجيد": 8504,
      "ضار": 8505,
      "يجابي": 8506,
      "▁عون": 8507,
      "▁يقارب": 8508,
      "▁وعي": 8509,
      "▁تشارك": 8510,
      "▁السوفي": 8511,
      "▁للصف": 8512,
      "▁طلبات": 8513,
      "▁باعتبارها": 8514,
      "▁ملت": 8515,
      "▁أفلام": 8516,
      "▁وعبر": 8517,
      "ريبية": 8518,
      "▁توسيع": 8519,
      "▁ووصف": 8520,
      "▁أجد": 8521,
      "ئتم": 8522,
      "▁خفيفة": 8523,
      "ونغ": 8524,
      "▁يفيد": 8525,
      "يرها": 8526,
      "▁لحزب": 8527,
      "▁صفة": 8528,
      "▁الشرعي": 8529,
      "▁العميد": 8530,
      "▁ميش": 8531,
      "▁العناية": 8532,
      "▁الصار": 8533,
      "▁كثرة": 8534,
      "▁البطالة": 8535,
      "▁يقضي": 8536,
      "▁البيض": 8537,
      "▁ارتفعت": 8538,
      "▁عالي": 8539,
      "▁وأعلن": 8540,
      "▁اليورو": 8541,
      "▁٧": 8542,
      "▁واكت": 8543,
      "▁العشر": 8544,
      "▁هادي": 8545,
      "ركية": 8546,
      "▁أقسام": 8547,
      "▁المرشحين": 8548,
      "▁دورها": 8549,
      "▁القوي": 8550,
      "▁جاز": 8551,
      "صلين": 8552,
      "▁الحاضر": 8553,
      "▁بدءا": 8554,
      "▁الاختيار": 8555,
      "▁صلة": 8556,
      "▁ملاحظة": 8557,
      "رياء": 8558,
      "▁استهداف": 8559,
      "▁الأدوات": 8560,
      "▁آليات": 8561,
      "▁برميل": 8562,
      "▁بالمست": 8563,
      "▁محفوظ": 8564,
      "▁جنيها": 8565,
      "خبات": 8566,
      "▁ضحايا": 8567,
      "▁القطرية": 8568,
      "▁ومهارات": 8569,
      "▁تكاليف": 8570,
      "لكية": 8571,
      "▁سريعا": 8572,
      "▁سببا": 8573,
      "▁سأل": 8574,
      "▁وبت": 8575,
      "ؤاد": 8576,
      "▁بجد": 8577,
      "وكس": 8578,
      "▁أكمل": 8579,
      "▁الصدد": 8580,
      "فهم": 8581,
      "▁المدونة": 8582,
      "▁الأكاديمية": 8583,
      "▁البترول": 8584,
      "▁الاتحادية": 8585,
      "▁04": 8586,
      "▁[1": 8587,
      "▁اسعار": 8588,
      "▁وخارج": 8589,
      "▁منطقية": 8590,
      "لاحظات": 8591,
      "سها": 8592,
      "▁مريم": 8593,
      "غى": 8594,
      "▁الجنائية": 8595,
      "▁المسب": 8596,
      "حمد": 8597,
      "رضا": 8598,
      "▁إقام": 8599,
      "▁الموازنة": 8600,
      "▁الماضى": 8601,
      "▁شاه": 8602,
      "▁الطال": 8603,
      "مير": 8604,
      "▁سامسون": 8605,
      "▁مترا": 8606,
      "▁مواضيع": 8607,
      "▁تفت": 8608,
      "▁الناز": 8609,
      "▁السك": 8610,
      "▁الطبقة": 8611,
      "▁فني": 8612,
      "▁رونالد": 8613,
      "▁الأسبق": 8614,
      "ثمرين": 8615,
      "▁ضخمة": 8616,
      "▁إيمان": 8617,
      "▁وسا": 8618,
      "▁الامت": 8619,
      "▁بعرض": 8620,
      "▁كه": 8621,
      "▁والمنت": 8622,
      "▁الجوانب": 8623,
      "▁الوض": 8624,
      "▁إيطاليا": 8625,
      "▁للاحت": 8626,
      "▁وتحسين": 8627,
      "▁للمع": 8628,
      "▁شباط": 8629,
      "▁طرد": 8630,
      "▁مسي": 8631,
      "▁بواقع": 8632,
      "▁بالماء": 8633,
      "▁حامد": 8634,
      "▁غريب": 8635,
      "صام": 8636,
      "▁شوارع": 8637,
      "▁برصيد": 8638,
      "▁محدودة": 8639,
      "▁قرابة": 8640,
      "كاية": 8641,
      "▁التفاعل": 8642,
      "▁اتصالات": 8643,
      "صورة": 8644,
      "مون": 8645,
      "▁ويبدو": 8646,
      "▁المصلحة": 8647,
      "▁يقرب": 8648,
      "▁امانة": 8649,
      "يرين": 8650,
      "▁المبد": 8651,
      "▁نقابة": 8652,
      "كنا": 8653,
      "▁المتع": 8654,
      "▁يقومون": 8655,
      "▁ختام": 8656,
      "ياع": 8657,
      "ap": 8658,
      "▁الأبحاث": 8659,
      "▁ربنا": 8660,
      "طنبول": 8661,
      "▁العادي": 8662,
      "▁جعلت": 8663,
      "▁المنشآت": 8664,
      "▁الجدد": 8665,
      "▁التسويق": 8666,
      "▁شهرين": 8667,
      "▁قلبه": 8668,
      "▁التدريس": 8669,
      "▁لولا": 8670,
      "طراب": 8671,
      "▁حديثا": 8672,
      "خا": 8673,
      "▁انتق": 8674,
      "▁وأحمد": 8675,
      "▁الأنا": 8676,
      "ديين": 8677,
      "▁أمة": 8678,
      "▁التاريخي": 8679,
      "▁للجنة": 8680,
      "▁اللقب": 8681,
      "▁امتح": 8682,
      "▁مبالغ": 8683,
      "▁الولاية": 8684,
      "▁رئيسة": 8685,
      "▁القصر": 8686,
      "▁الجانبين": 8687,
      "▁58": 8688,
      "▁نك": 8689,
      "▁تأس": 8690,
      "▁والذى": 8691,
      "▁أصوات": 8692,
      "▁السجون": 8693,
      "▁شعبنا": 8694,
      "▁بغض": 8695,
      "▁لعلاج": 8696,
      "▁استهلاك": 8697,
      "▁محدد": 8698,
      "▁تقدمها": 8699,
      "▁الأعراض": 8700,
      "▁شرعية": 8701,
      "▁الاشترا": 8702,
      "▁مماثلة": 8703,
      "عدين": 8704,
      "كررة": 8705,
      "▁الإع": 8706,
      "▁الشك": 8707,
      "▁هامة": 8708,
      "▁عنصر": 8709,
      "جاعة": 8710,
      "▁للحد": 8711,
      "▁لزيادة": 8712,
      "▁أولاد": 8713,
      "▁شهور": 8714,
      "▁التكن": 8715,
      "▁جيم": 8716,
      "▁فالح": 8717,
      "▁ورق": 8718,
      "▁الدبلوماسية": 8719,
      "▁يونايتد": 8720,
      "▁الكرام": 8721,
      "رارا": 8722,
      "ظاهرة": 8723,
      "رسل": 8724,
      "وانية": 8725,
      "▁حاولت": 8726,
      "▁يحكم": 8727,
      "▁النقاش": 8728,
      "ائك": 8729,
      "▁وها": 8730,
      "▁اتهم": 8731,
      "▁شرب": 8732,
      "▁مهاجم": 8733,
      "▁تنفيذها": 8734,
      "▁اليومي": 8735,
      "سيطة": 8736,
      "ثق": 8737,
      "▁معتبرا": 8738,
      "▁جنيف": 8739,
      "▁زوار": 8740,
      "▁المفترض": 8741,
      "▁حيا": 8742,
      "▁انخفض": 8743,
      "ياطي": 8744,
      "راقية": 8745,
      "▁ويعمل": 8746,
      "▁نعلم": 8747,
      "▁مراعاة": 8748,
      "مكن": 8749,
      "▁علوم": 8750,
      "عتماد": 8751,
      "▁الأت": 8752,
      "▁عملا": 8753,
      "▁07": 8754,
      "▁أشياء": 8755,
      "▁للأسف": 8756,
      "▁متجر": 8757,
      "▁الهول": 8758,
      "يلا": 8759,
      "▁ممثلة": 8760,
      "▁للغة": 8761,
      "▁بمت": 8762,
      "▁مرج": 8763,
      "▁المستقلة": 8764,
      "▁عنك": 8765,
      "▁والمجتمع": 8766,
      "▁يهتم": 8767,
      "▁المؤشر": 8768,
      "▁المالكي": 8769,
      "▁وتحديد": 8770,
      "يزيا": 8771,
      "قليمية": 8772,
      "▁يطالب": 8773,
      "▁غسل": 8774,
      "▁بتق": 8775,
      "▁مكاتب": 8776,
      "▁شخصيات": 8777,
      "▁أدرك": 8778,
      "بى": 8779,
      "▁التوقيع": 8780,
      "▁حذف": 8781,
      "▁الفجر": 8782,
      "▁اللائ": 8783,
      "▁الغذائي": 8784,
      "▁يحل": 8785,
      "▁ماك": 8786,
      "حنة": 8787,
      "▁والقانون": 8788,
      "غرة": 8789,
      "▁أشارت": 8790,
      "▁والأد": 8791,
      "▁انش": 8792,
      "▁لاستخدام": 8793,
      "جيا": 8794,
      "▁يتحمل": 8795,
      "▁بأسعار": 8796,
      "▁مخصص": 8797,
      "▁علمت": 8798,
      "▁للنظام": 8799,
      "الته": 8800,
      "شرع": 8801,
      "قناع": 8802,
      "▁الحظ": 8803,
      "▁الأحياء": 8804,
      "▁الخضراء": 8805,
      "ركي": 8806,
      "▁انواع": 8807,
      "خوان": 8808,
      "▁أوقات": 8809,
      "▁للاستثمار": 8810,
      "▁يخدم": 8811,
      "▁يقرأ": 8812,
      "▁بمقر": 8813,
      "▁الناخب": 8814,
      "▁المبر": 8815,
      "▁المراحل": 8816,
      "▁ياسر": 8817,
      "▁بتنفيذ": 8818,
      "▁فائ": 8819,
      "▁الظلم": 8820,
      "الله": 8821,
      "▁مذهب": 8822,
      "▁ولب": 8823,
      "▁المؤقت": 8824,
      "▁قراء": 8825,
      "▁المستجد": 8826,
      "▁وخط": 8827,
      "▁الوثائق": 8828,
      "▁القهوة": 8829,
      "▁القادر": 8830,
      "▁أكا": 8831,
      "▁التمييز": 8832,
      "▁حقه": 8833,
      "كوم": 8834,
      "تو": 8835,
      "حى": 8836,
      "▁X": 8837,
      "غاثة": 8838,
      "▁وكتب": 8839,
      "يزا": 8840,
      "▁المراد": 8841,
      "▁مقاطعة": 8842,
      "▁التأكيد": 8843,
      "▁عندها": 8844,
      "im": 8845,
      "تكار": 8846,
      "▁الأمطار": 8847,
      "▁المثل": 8848,
      "▁يختص": 8849,
      "▁للمجلس": 8850,
      "▁اعتقد": 8851,
      "▁أواخر": 8852,
      "▁ويحت": 8853,
      "▁أكل": 8854,
      "▁القليل": 8855,
      "▁إمام": 8856,
      "▁استث": 8857,
      "▁هوا": 8858,
      "▁احدى": 8859,
      "▁أبلغ": 8860,
      "▁الصلة": 8861,
      "▁الخسائر": 8862,
      "▁والاب": 8863,
      "ent": 8864,
      "▁أجواء": 8865,
      "برية": 8866,
      "▁تجرب": 8867,
      "▁مكث": 8868,
      "▁المهني": 8869,
      "▁الطويلة": 8870,
      "▁طاقة": 8871,
      "▁ميلاد": 8872,
      "▁بالتنسيق": 8873,
      "▁أميركا": 8874,
      "▁نهائيا": 8875,
      "▁متت": 8876,
      "▁التاسعة": 8877,
      "▁آله": 8878,
      "▁بيل": 8879,
      "▁الغضب": 8880,
      "▁استقلال": 8881,
      "▁النفطية": 8882,
      "▁الشورى": 8883,
      "▁احدث": 8884,
      "▁رويتر": 8885,
      "▁عادي": 8886,
      "▁تأكد": 8887,
      "خرية": 8888,
      "▁RSS": 8889,
      "▁الدقيق": 8890,
      "▁منتج": 8891,
      "▁بأنهم": 8892,
      "▁نقد": 8893,
      "▁السنين": 8894,
      "▁وبالن": 8895,
      "▁والجن": 8896,
      "▁2021": 8897,
      "▁ليفربول": 8898,
      "▁الهندسة": 8899,
      "رهاب": 8900,
      "ab": 8901,
      "▁لجم": 8902,
      "▁اختصاص": 8903,
      "▁مرب": 8904,
      "قوب": 8905,
      "▁الاحد": 8906,
      "▁إط": 8907,
      "▁تاريخية": 8908,
      "▁كالم": 8909,
      "▁يكشف": 8910,
      "ضحك": 8911,
      "▁المحمول": 8912,
      "▁لدرجة": 8913,
      "كاليف": 8914,
      "يدية": 8915,
      "▁المهام": 8916,
      "▁تعلن": 8917,
      "▁الصبر": 8918,
      "▁البحوث": 8919,
      "افيين": 8920,
      "▁والسياسية": 8921,
      "▁أنشطة": 8922,
      "▁شاركت": 8923,
      "▁يعادل": 8924,
      "▁لبنانية": 8925,
      "▁مكونات": 8926,
      "▁اجتماعات": 8927,
      "▁بتأ": 8928,
      "▁بيننا": 8929,
      "▁مارك": 8930,
      "ur": 8931,
      "▁بدورها": 8932,
      "▁الشاف": 8933,
      "▁بطلب": 8934,
      "سعاف": 8935,
      "▁وأق": 8936,
      "سعة": 8937,
      "جزء": 8938,
      "▁معاملة": 8939,
      "▁التعديل": 8940,
      "▁والمعا": 8941,
      "يميل": 8942,
      "▁رويترز": 8943,
      "▁المتأ": 8944,
      "▁لجان": 8945,
      "▁ارض": 8946,
      "▁مثال": 8947,
      "تهن": 8948,
      "▁الصديق": 8949,
      "بعوث": 8950,
      "▁النقدية": 8951,
      "طين": 8952,
      "▁يقود": 8953,
      "▁67": 8954,
      "▁المحددة": 8955,
      "حصاء": 8956,
      "▁دفاع": 8957,
      "▁خصائص": 8958,
      "▁للدفاع": 8959,
      "▁الذاتي": 8960,
      "▁للعالم": 8961,
      "تكم": 8962,
      "▁الاربعاء": 8963,
      "▁المنع": 8964,
      "▁المرس": 8965,
      "▁التربوية": 8966,
      "▁والاستقرار": 8967,
      "▁وافق": 8968,
      "▁درس": 8969,
      "▁المرشح": 8970,
      "▁مذه": 8971,
      "▁سهولة": 8972,
      "▁وحسن": 8973,
      "▁تكرار": 8974,
      "▁صعب": 8975,
      "▁وحقوق": 8976,
      "▁القارئ": 8977,
      "▁وتقوم": 8978,
      "واهر": 8979,
      "▁وعض": 8980,
      "▁وإدارة": 8981,
      "▁دعت": 8982,
      "▁دها": 8983,
      "▁زواج": 8984,
      "▁واليوم": 8985,
      "▁اكتشف": 8986,
      "▁مراد": 8987,
      "▁فيس": 8988,
      "ir": 8989,
      "▁الجنسي": 8990,
      "▁للبحث": 8991,
      "▁الأسط": 8992,
      "▁لتر": 8993,
      "▁اطار": 8994,
      "▁كاملا": 8995,
      "▁لأب": 8996,
      "تهاب": 8997,
      "▁انح": 8998,
      "▁عشرين": 8999,
      "ضيق": 9000,
      "▁سلطات": 9001,
      "▁التحويل": 9002,
      "▁نسبيا": 9003,
      "▁بالث": 9004,
      "▁فالت": 9005,
      "▁قدما": 9006,
      "▁اقل": 9007,
      "▁الفئات": 9008,
      "▁هوية": 9009,
      "فيت": 9010,
      "▁ويقوم": 9011,
      "▁سنتين": 9012,
      "▁جزاء": 9013,
      "▁ردا": 9014,
      "▁ومدير": 9015,
      "▁بمصر": 9016,
      "▁التشريعية": 9017,
      "▁الرحلة": 9018,
      "▁راف": 9019,
      "▁شعور": 9020,
      "▁فيقول": 9021,
      "▁اعتبارا": 9022,
      "كيلة": 9023,
      "قالات": 9024,
      "▁نبي": 9025,
      "▁بكافة": 9026,
      "فاقم": 9027,
      "▁الأرقام": 9028,
      "▁ومخ": 9029,
      "▁حظر": 9030,
      "ظا": 9031,
      "▁النقطة": 9032,
      "▁لفريق": 9033,
      "▁داعيا": 9034,
      "▁لير": 9035,
      "▁غالبية": 9036,
      "▁سيطر": 9037,
      "▁95": 9038,
      "▁النسبة": 9039,
      "▁التهاب": 9040,
      "▁احتجا": 9041,
      "يعاب": 9042,
      "▁يطرح": 9043,
      "▁التمثيل": 9044,
      "▁لمساعدة": 9045,
      "▁هرم": 9046,
      "▁قرارا": 9047,
      "ندسين": 9048,
      "▁وضعها": 9049,
      "▁أكاديم": 9050,
      "ec": 9051,
      "▁السياسيين": 9052,
      "▁المتخصص": 9053,
      "▁واذا": 9054,
      "دادات": 9055,
      "▁ضربة": 9056,
      "▁ولأ": 9057,
      "▁السكن": 9058,
      "▁شامل": 9059,
      "▁هجمات": 9060,
      "▁فكانت": 9061,
      "▁الفوضى": 9062,
      "مارسة": 9063,
      "ig": 9064,
      "▁انظر": 9065,
      "▁المجردة": 9066,
      "▁تقسيم": 9067,
      "▁بداخل": 9068,
      "▁المطر": 9069,
      "▁البري": 9070,
      "وبيا": 9071,
      "▁ويخ": 9072,
      "قابل": 9073,
      "▁وجوه": 9074,
      "▁المقات": 9075,
      "▁بسم": 9076,
      "▁نجحت": 9077,
      "تازة": 9078,
      "▁يثير": 9079,
      "▁حذر": 9080,
      "▁المهدي": 9081,
      "▁اصبح": 9082,
      "▁قطاعات": 9083,
      "▁معرف": 9084,
      "▁سيدنا": 9085,
      "▁انتاج": 9086,
      "▁تردد": 9087,
      "عدات": 9088,
      "▁زع": 9089,
      "▁الاستثمارية": 9090,
      "طاف": 9091,
      "فسي": 9092,
      "▁المتعددة": 9093,
      "▁يدور": 9094,
      "▁يعيشون": 9095,
      "▁استكمال": 9096,
      "همال": 9097,
      "▁الأجنبي": 9098,
      "▁بموقع": 9099,
      "▁نواب": 9100,
      "▁In": 9101,
      "▁59": 9102,
      "تهر": 9103,
      "▁الامام": 9104,
      "بته": 9105,
      "▁فريد": 9106,
      "▁الامور": 9107,
      "▁حرة": 9108,
      "▁الراهن": 9109,
      "▁والدولية": 9110,
      "▁الحرس": 9111,
      "▁السائق": 9112,
      "▁الإرهابي": 9113,
      "طالبات": 9114,
      "▁192": 9115,
      "وحا": 9116,
      "▁ادخال": 9117,
      "▁داخلية": 9118,
      "▁تتوفر": 9119,
      "▁آخرون": 9120,
      "ماك": 9121,
      "▁مؤسس": 9122,
      "▁الغرض": 9123,
      "▁مذكرة": 9124,
      "▁السعي": 9125,
      "▁الأزمات": 9126,
      "يرن": 9127,
      "▁مسبقا": 9128,
      "▁فروع": 9129,
      "▁المهارات": 9130,
      "▁نصيب": 9131,
      "صفة": 9132,
      "▁عت": 9133,
      "▁لشراء": 9134,
      "▁أسلحة": 9135,
      "▁o": 9136,
      "صدير": 9137,
      "وتين": 9138,
      "▁لشؤون": 9139,
      "قن": 9140,
      "▁وزوج": 9141,
      "▁كو": 9142,
      "▁والدي": 9143,
      "▁الحارس": 9144,
      "▁نعيش": 9145,
      "▁الصناعات": 9146,
      "▁الأجواء": 9147,
      "▁غرار": 9148,
      "▁بالمدينة": 9149,
      "▁السعوديين": 9150,
      "▁جنود": 9151,
      "▁السوي": 9152,
      "ارسال": 9153,
      "▁ستن": 9154,
      "داعيات": 9155,
      "▁العضو": 9156,
      "▁ومؤسسات": 9157,
      "▁تزويد": 9158,
      "▁يصعب": 9159,
      "▁القادة": 9160,
      "▁أنس": 9161,
      "▁وعبد": 9162,
      "▁بالز": 9163,
      "▁القريبة": 9164,
      "اضرات": 9165,
      "▁لاتعني": 9166,
      "▁الممتاز": 9167,
      "▁ريف": 9168,
      "▁التوفيق": 9169,
      "▁أفغانستان": 9170,
      "▁بأعمال": 9171,
      "▁جول": 9172,
      "▁الأهمية": 9173,
      "and": 9174,
      "▁ليلا": 9175,
      "▁نسمة": 9176,
      "▁المجانية": 9177,
      "▁ابناء": 9178,
      "▁مستقبلا": 9179,
      "▁شمس": 9180,
      "▁ثالثا": 9181,
      "▁مكانة": 9182,
      "▁محرك": 9183,
      "▁الفقرة": 9184,
      "▁التوازن": 9185,
      "▁كتلة": 9186,
      "▁والإد": 9187,
      "صاف": 9188,
      "▁وبدأت": 9189,
      "▁120": 9190,
      "ردن": 9191,
      "▁وجبة": 9192,
      "▁بقاء": 9193,
      "▁غاز": 9194,
      "▁نرفض": 9195,
      "▁الفتيات": 9196,
      "▁محور": 9197,
      "▁خان": 9198,
      "▁ابنه": 9199,
      "▁يسأل": 9200,
      "▁الأصلية": 9201,
      "▁اى": 9202,
      "▁مضاع": 9203,
      "ضائع": 9204,
      "▁تركي": 9205,
      "وفى": 9206,
      "▁والام": 9207,
      "▁ليصبح": 9208,
      "بدل": 9209,
      "▁خاط": 9210,
      "▁قن": 9211,
      "▁نوعها": 9212,
      "▁يساهم": 9213,
      "▁حدثت": 9214,
      "رحى": 9215,
      "سق": 9216,
      "جعل": 9217,
      "▁جلالة": 9218,
      "▁مره": 9219,
      "▁فاعل": 9220,
      "▁مجا": 9221,
      "▁أصاب": 9222,
      "▁اخبار": 9223,
      "كز": 9224,
      "ضراب": 9225,
      "ناقض": 9226,
      "▁لعدة": 9227,
      "▁تقليل": 9228,
      "▁250": 9229,
      "ولون": 9230,
      "▁حارس": 9231,
      "ثات": 9232,
      "▁زوجة": 9233,
      "▁تقام": 9234,
      "▁الاطفال": 9235,
      "▁موجة": 9236,
      "▁نيك": 9237,
      "▁ببساطة": 9238,
      "فسهم": 9239,
      "▁تمنع": 9240,
      "▁موز": 9241,
      "ريبي": 9242,
      "▁هار": 9243,
      "▁الفريقين": 9244,
      "وارث": 9245,
      "▁مسح": 9246,
      "شع": 9247,
      "▁انطلقت": 9248,
      "▁هواتف": 9249,
      "▁التقنيات": 9250,
      "▁الشاملة": 9251,
      "10": 9252,
      "▁وكنت": 9253,
      "▁والمف": 9254,
      "▁حبي": 9255,
      "▁وتأتي": 9256,
      "خنة": 9257,
      "▁عوا": 9258,
      "▁تقرر": 9259,
      "▁فأنت": 9260,
      "▁والثقافة": 9261,
      "رنسا": 9262,
      "ia": 9263,
      "▁اصحاب": 9264,
      "▁للجيش": 9265,
      "▁الأجر": 9266,
      "▁العناو": 9267,
      "▁حاز": 9268,
      "▁متف": 9269,
      "▁الملح": 9270,
      "▁الفنانين": 9271,
      "▁التقييم": 9272,
      "▁القطع": 9273,
      "▁ومحتو": 9274,
      "▁مسئولتا": 9275,
      "▁المهاجرين": 9276,
      "▁حجز": 9277,
      "سلم": 9278,
      "نوعة": 9279,
      "▁أمان": 9280,
      "▁مطب": 9281,
      "▁الممارسات": 9282,
      "ويع": 9283,
      "ساءة": 9284,
      "▁يسبق": 9285,
      "▁وفر": 9286,
      "▁لحم": 9287,
      "▁القلوب": 9288,
      "▁جال": 9289,
      "▁بجوار": 9290,
      "▁باعتباره": 9291,
      "جلا": 9292,
      "▁تذهب": 9293,
      "▁جمعة": 9294,
      "▁دقيق": 9295,
      "▁تمارس": 9296,
      "▁مفر": 9297,
      "▁فرقة": 9298,
      "▁الإيجابية": 9299,
      "▁يعكس": 9300,
      "▁شعوب": 9301,
      "▁الوالد": 9302,
      "▁سيست": 9303,
      "▁تكريم": 9304,
      "▁قاعة": 9305,
      "ذاهب": 9306,
      "▁تولي": 9307,
      "▁اداء": 9308,
      "ياكل": 9309,
      "دو": 9310,
      "▁باستقبال": 9311,
      "▁صدام": 9312,
      "قبول": 9313,
      "▁الأولم": 9314,
      "صارات": 9315,
      "▁القتل": 9316,
      "▁الامريكي": 9317,
      "اهة": 9318,
      "▁تأهيل": 9319,
      "▁خالية": 9320,
      "▁التعويض": 9321,
      "▁بيته": 9322,
      "▁66": 9323,
      "▁لنظام": 9324,
      "▁طيلة": 9325,
      "▁دورات": 9326,
      "▁الخبرات": 9327,
      "قذ": 9328,
      "▁التقى": 9329,
      "جزائر": 9330,
      "اميم": 9331,
      "▁اني": 9332,
      "▁تثبيت": 9333,
      "▁المعدات": 9334,
      "▁للتع": 9335,
      "▁راح": 9336,
      "حاكم": 9337,
      "▁الضغوط": 9338,
      "▁أعض": 9339,
      "▁التدريبية": 9340,
      "▁قاله": 9341,
      "▁الانقلاب": 9342,
      "▁جلب": 9343,
      "▁اون": 9344,
      "قدس": 9345,
      "▁تعويض": 9346,
      "▁ينتهي": 9347,
      "▁الخلافات": 9348,
      "قاليد": 9349,
      "▁أعلاه": 9350,
      "▁استعراض": 9351,
      "▁كلمته": 9352,
      "▁المراه": 9353,
      "▁إعلامية": 9354,
      "▁قريبة": 9355,
      "▁أحلام": 9356,
      "▁ربح": 9357,
      "طلبة": 9358,
      "▁خلايا": 9359,
      "▁متوسطة": 9360,
      "▁أذ": 9361,
      "▁الضع": 9362,
      "▁استخدامه": 9363,
      "▁الناتجة": 9364,
      "▁تهديد": 9365,
      "دائق": 9366,
      "واكه": 9367,
      "قيبة": 9368,
      "▁نمط": 9369,
      "▁وحدها": 9370,
      "▁السكري": 9371,
      "▁المكلف": 9372,
      "▁والدكتور": 9373,
      "ينغ": 9374,
      "▁الفضائية": 9375,
      "▁والموا": 9376,
      "▁مرمى": 9377,
      "▁فإننا": 9378,
      "▁كيان": 9379,
      "▁خسر": 9380,
      "▁الثوري": 9381,
      "▁خش": 9382,
      "▁منخفضة": 9383,
      "▁وإي": 9384,
      "▁الحكمة": 9385,
      "▁أعم": 9386,
      "▁بمعدل": 9387,
      "▁السنوية": 9388,
      "▁99": 9389,
      "▁تترك": 9390,
      "▁التوص": 9391,
      "▁الاستخبارات": 9392,
      "ضاءة": 9393,
      "وكا": 9394,
      "▁المقصود": 9395,
      "▁بحجم": 9396,
      "▁يصدر": 9397,
      "▁المزارع": 9398,
      "▁الرياح": 9399,
      "▁لمتابعة": 9400,
      "▁الهضم": 9401,
      "وائي": 9402,
      "▁الحار": 9403,
      "سيك": 9404,
      "▁أخرج": 9405,
      "▁شريف": 9406,
      "▁أدناه": 9407,
      "▁الحين": 9408,
      "▁نقلت": 9409,
      "▁المسجلين": 9410,
      "▁الجواب": 9411,
      "لفزيونية": 9412,
      "▁وتنفيذ": 9413,
      "▁إرهابية": 9414,
      "▁تحديدا": 9415,
      "▁القارة": 9416,
      "المة": 9417,
      "▁المستمرة": 9418,
      "▁وأهم": 9419,
      "▁الثم": 9420,
      "▁تسب": 9421,
      "▁حولها": 9422,
      "طاني": 9423,
      "▁وتمت": 9424,
      "▁أسامة": 9425,
      "▁أهمها": 9426,
      "▁الحسابات": 9427,
      "▁السهل": 9428,
      "▁الخبز": 9429,
      "▁بإستخدام": 9430,
      "▁الأسرى": 9431,
      "▁مرشح": 9432,
      "▁والخارج": 9433,
      "▁يمكنها": 9434,
      "▁الرجاء": 9435,
      "▁نيابة": 9436,
      "▁حياتنا": 9437,
      "▁ومثل": 9438,
      "▁فارس": 9439,
      "▁الحوا": 9440,
      "▁تفرض": 9441,
      "▁وتحديدا": 9442,
      "قتهم": 9443,
      "وقي": 9444,
      "▁<": 9445,
      "▁الأصدقاء": 9446,
      "فعول": 9447,
      "▁موارد": 9448,
      "▁مسعود": 9449,
      "رعان": 9450,
      "▁المهاجم": 9451,
      "▁التعادل": 9452,
      "▁مباحث": 9453,
      "▁رفضت": 9454,
      "▁تساهم": 9455,
      "مائة": 9456,
      "▁الحاس": 9457,
      "▁القدرات": 9458,
      "▁اعضاء": 9459,
      "رفي": 9460,
      "▁عرضة": 9461,
      "▁شملت": 9462,
      "▁ووصل": 9463,
      "▁الترم": 9464,
      "▁أظهر": 9465,
      "▁اعترف": 9466,
      "سيد": 9467,
      "تهد": 9468,
      "▁توظيف": 9469,
      "صلي": 9470,
      "غفر": 9471,
      "▁لأنك": 9472,
      "داقة": 9473,
      "اغ": 9474,
      "▁ينتج": 9475,
      "دايا": 9476,
      "▁الضحايا": 9477,
      "▁بالمس": 9478,
      "▁وسيكون": 9479,
      "براط": 9480,
      "عاش": 9481,
      "▁عقده": 9482,
      "▁ينصح": 9483,
      "▁المقررة": 9484,
      "▁ويق": 9485,
      "▁أعرب": 9486,
      "▁رحل": 9487,
      "▁البرازيل": 9488,
      "▁تسل": 9489,
      "▁الطلاق": 9490,
      "▁والشع": 9491,
      "▁المستوطن": 9492,
      "▁أرقام": 9493,
      "▁كش": 9494,
      "▁تربية": 9495,
      "ضحى": 9496,
      "▁وفتح": 9497,
      "▁أكون": 9498,
      "▁روما": 9499,
      "▁زيارته": 9500,
      "▁تربط": 9501,
      "▁المساهمة": 9502,
      "▁يفكر": 9503,
      "▁62": 9504,
      "▁أطول": 9505,
      "▁القذافي": 9506,
      "▁ربي": 9507,
      "▁تقر": 9508,
      "▁الآخرة": 9509,
      "▁المنتظر": 9510,
      "▁معروفة": 9511,
      "▁السد": 9512,
      "▁لوجود": 9513,
      "▁سيئة": 9514,
      "▁علاوة": 9515,
      "ابقات": 9516,
      "▁مستوي": 9517,
      "▁يتأ": 9518,
      "▁تنقل": 9519,
      "▁تغطية": 9520,
      "▁باشا": 9521,
      "▁قاط": 9522,
      "▁اغت": 9523,
      "خلاص": 9524,
      "قرية": 9525,
      "▁عندنا": 9526,
      "▁الغد": 9527,
      "▁أبيه": 9528,
      "▁يفتح": 9529,
      "▁تام": 9530,
      "▁بالتع": 9531,
      "فط": 9532,
      "▁ألوان": 9533,
      "▁فترات": 9534,
      "▁الحليب": 9535,
      "▁مسؤولة": 9536,
      "▁الفنون": 9537,
      "لس": 9538,
      "▁أساسا": 9539,
      "▁التعب": 9540,
      "يجار": 9541,
      "ئهم": 9542,
      "وسة": 9543,
      "▁تبني": 9544,
      "▁النج": 9545,
      "طلعات": 9546,
      "▁بالإن": 9547,
      "▁قدره": 9548,
      "▁تركز": 9549,
      "▁جوهر": 9550,
      "▁دينية": 9551,
      "▁الحشرات": 9552,
      "بهات": 9553,
      "▁الصفقة": 9554,
      "▁ألب": 9555,
      "▁السياحي": 9556,
      "▁طلبت": 9557,
      "▁زار": 9558,
      "▁الصهيونية": 9559,
      "بها": 9560,
      "▁نماذج": 9561,
      "▁المفر": 9562,
      "▁اقسام": 9563,
      "▁الجامعي": 9564,
      "▁الابتدائية": 9565,
      "▁للقضاء": 9566,
      "▁الشحن": 9567,
      "▁ميك": 9568,
      "▁يدعى": 9569,
      "▁سكانها": 9570,
      "▁تخفيف": 9571,
      "▁لنفسه": 9572,
      "امعات": 9573,
      "▁الشرف": 9574,
      "▁المدف": 9575,
      "▁بقرار": 9576,
      "▁وتنظيم": 9577,
      "يتك": 9578,
      "▁محاربة": 9579,
      "▁مبد": 9580,
      "▁آمنة": 9581,
      "▁قابل": 9582,
      "▁البابا": 9583,
      "▁لرفع": 9584,
      "▁ميسي": 9585,
      "▁رمز": 9586,
      "هود": 9587,
      "▁البرية": 9588,
      "▁الفطر": 9589,
      "▁القس": 9590,
      "▁الاطلاع": 9591,
      "▁العراقيين": 9592,
      "▁والعب": 9593,
      "▁أمريكية": 9594,
      "▁الساحل": 9595,
      "▁فأنا": 9596,
[...]
